/* Copyright 2019 The TensorFlow Authors. All Rights Reserved.

Licensed under the Apache License, Version 2.0 (the "License");
you may not use this file except in compliance with the License.
You may obtain a copy of the License at

    http://www.apache.org/licenses/LICENSE-2.0

Unless required by applicable law or agreed to in writing, software
distributed under the License is distributed on an "AS IS" BASIS,
WITHOUT WARRANTIES OR CONDITIONS OF ANY KIND, either express or implied.
See the License for the specific language governing permissions and
limitations under the License.
==============================================================================*/

// Automatically created from a TensorFlow Lite flatbuffer using the command:
// xxd -i magic_wand_model.tflite > magic_wand_model_data.cc
// See the README for a full description of the creation process.

#include "magic_wand_model_data.h"

// We need to keep the data array aligned on some architectures.
#ifdef __has_attribute
#define HAVE_ATTRIBUTE(x) __has_attribute(x)
#else
#define HAVE_ATTRIBUTE(x) 0
#endif
#if HAVE_ATTRIBUTE(aligned) || (defined(__GNUC__) && !defined(__clang__))
#define DATA_ALIGN_ATTRIBUTE __attribute__((aligned(4)))
#else
#define DATA_ALIGN_ATTRIBUTE
#endif

// CNN
const unsigned char g_magic_wand_model_data[] DATA_ALIGN_ATTRIBUTE = {
  0x1c, 0x00, 0x00, 0x00, 0x54, 0x46, 0x4c, 0x33, 0x14, 0x00, 0x20, 0x00,
  0x1c, 0x00, 0x18, 0x00, 0x14, 0x00, 0x10, 0x00, 0x0c, 0x00, 0x00, 0x00,
  0x08, 0x00, 0x04, 0x00, 0x14, 0x00, 0x00, 0x00, 0x1c, 0x00, 0x00, 0x00,
  0x88, 0x00, 0x00, 0x00, 0xe0, 0x00, 0x00, 0x00, 0x7c, 0x45, 0x00, 0x00,
  0x8c, 0x45, 0x00, 0x00, 0xe8, 0x4f, 0x00, 0x00, 0x03, 0x00, 0x00, 0x00,
  0x01, 0x00, 0x00, 0x00, 0x04, 0x00, 0x00, 0x00, 0x7a, 0xb9, 0xff, 0xff,
  0x0c, 0x00, 0x00, 0x00, 0x1c, 0x00, 0x00, 0x00, 0x38, 0x00, 0x00, 0x00,
  0x0f, 0x00, 0x00, 0x00, 0x73, 0x65, 0x72, 0x76, 0x69, 0x6e, 0x67, 0x5f,
  0x64, 0x65, 0x66, 0x61, 0x75, 0x6c, 0x74, 0x00, 0x01, 0x00, 0x00, 0x00,
  0x04, 0x00, 0x00, 0x00, 0x94, 0xff, 0xff, 0xff, 0x11, 0x00, 0x00, 0x00,
  0x04, 0x00, 0x00, 0x00, 0x07, 0x00, 0x00, 0x00, 0x64, 0x65, 0x6e, 0x73,
  0x65, 0x5f, 0x31, 0x00, 0x01, 0x00, 0x00, 0x00, 0x04, 0x00, 0x00, 0x00,
  0x5a, 0xba, 0xff, 0xff, 0x04, 0x00, 0x00, 0x00, 0x0c, 0x00, 0x00, 0x00,
  0x63, 0x6f, 0x6e, 0x76, 0x32, 0x64, 0x5f, 0x69, 0x6e, 0x70, 0x75, 0x74,
  0x00, 0x00, 0x00, 0x00, 0x02, 0x00, 0x00, 0x00, 0x34, 0x00, 0x00, 0x00,
  0x04, 0x00, 0x00, 0x00, 0xdc, 0xff, 0xff, 0xff, 0x14, 0x00, 0x00, 0x00,
  0x04, 0x00, 0x00, 0x00, 0x13, 0x00, 0x00, 0x00, 0x43, 0x4f, 0x4e, 0x56,
  0x45, 0x52, 0x53, 0x49, 0x4f, 0x4e, 0x5f, 0x4d, 0x45, 0x54, 0x41, 0x44,
  0x41, 0x54, 0x41, 0x00, 0x08, 0x00, 0x0c, 0x00, 0x08, 0x00, 0x04, 0x00,
  0x08, 0x00, 0x00, 0x00, 0x13, 0x00, 0x00, 0x00, 0x04, 0x00, 0x00, 0x00,
  0x13, 0x00, 0x00, 0x00, 0x6d, 0x69, 0x6e, 0x5f, 0x72, 0x75, 0x6e, 0x74,
  0x69, 0x6d, 0x65, 0x5f, 0x76, 0x65, 0x72, 0x73, 0x69, 0x6f, 0x6e, 0x00,
  0x15, 0x00, 0x00, 0x00, 0x98, 0x44, 0x00, 0x00, 0x90, 0x44, 0x00, 0x00,
  0x60, 0x44, 0x00, 0x00, 0x10, 0x44, 0x00, 0x00, 0x80, 0x42, 0x00, 0x00,
  0x70, 0x3a, 0x00, 0x00, 0x20, 0x3a, 0x00, 0x00, 0x00, 0x3a, 0x00, 0x00,
  0xe8, 0x39, 0x00, 0x00, 0xd8, 0x01, 0x00, 0x00, 0xc8, 0x00, 0x00, 0x00,
  0xc0, 0x00, 0x00, 0x00, 0xb8, 0x00, 0x00, 0x00, 0xb0, 0x00, 0x00, 0x00,
  0xa8, 0x00, 0x00, 0x00, 0xa0, 0x00, 0x00, 0x00, 0x98, 0x00, 0x00, 0x00,
  0x90, 0x00, 0x00, 0x00, 0x88, 0x00, 0x00, 0x00, 0x68, 0x00, 0x00, 0x00,
  0x04, 0x00, 0x00, 0x00, 0x2a, 0xbb, 0xff, 0xff, 0x04, 0x00, 0x00, 0x00,
  0x54, 0x00, 0x00, 0x00, 0x0c, 0x00, 0x00, 0x00, 0x08, 0x00, 0x0e, 0x00,
  0x08, 0x00, 0x04, 0x00, 0x08, 0x00, 0x00, 0x00, 0x10, 0x00, 0x00, 0x00,
  0x24, 0x00, 0x00, 0x00, 0x00, 0x00, 0x06, 0x00, 0x08, 0x00, 0x04, 0x00,
  0x06, 0x00, 0x00, 0x00, 0x04, 0x00, 0x00, 0x00, 0x00, 0x00, 0x00, 0x00,
  0x00, 0x00, 0x0a, 0x00, 0x10, 0x00, 0x0c, 0x00, 0x08, 0x00, 0x04, 0x00,
  0x0a, 0x00, 0x00, 0x00, 0x02, 0x00, 0x00, 0x00, 0x02, 0x00, 0x00, 0x00,
  0x04, 0x00, 0x00, 0x00, 0x06, 0x00, 0x00, 0x00, 0x32, 0x2e, 0x31, 0x33,
  0x2e, 0x30, 0x00, 0x00, 0x8a, 0xbb, 0xff, 0xff, 0x04, 0x00, 0x00, 0x00,
  0x10, 0x00, 0x00, 0x00, 0x31, 0x2e, 0x35, 0x2e, 0x30, 0x00, 0x00, 0x00,
  0x00, 0x00, 0x00, 0x00, 0x00, 0x00, 0x00, 0x00, 0x00, 0xb2, 0xff, 0xff,
  0x04, 0xb2, 0xff, 0xff, 0x08, 0xb2, 0xff, 0xff, 0x0c, 0xb2, 0xff, 0xff,
  0x10, 0xb2, 0xff, 0xff, 0x14, 0xb2, 0xff, 0xff, 0x18, 0xb2, 0xff, 0xff,
  0x1c, 0xb2, 0xff, 0xff, 0xc6, 0xbb, 0xff, 0xff, 0x04, 0x00, 0x00, 0x00,
  0x00, 0x01, 0x00, 0x00, 0x1f, 0xb4, 0x5e, 0xbf, 0x1e, 0x45, 0xa2, 0xbe,
  0xa2, 0xca, 0xcd, 0x3e, 0xe0, 0xae, 0x18, 0xbf, 0x66, 0x2e, 0xe3, 0xbe,
  0x9d, 0xea, 0x2b, 0x3f, 0x1c, 0xf8, 0x45, 0xbe, 0xa6, 0x92, 0xa5, 0xbe,
  0xd3, 0xfe, 0x51, 0xbf, 0xe1, 0xd6, 0x4d, 0xbf, 0x4d, 0x77, 0x5f, 0xbe,
  0x87, 0x8d, 0x00, 0xbe, 0xde, 0xde, 0x4a, 0xbf, 0x00, 0xfe, 0x6e, 0xbf,
  0x88, 0x71, 0x24, 0x3d, 0xd1, 0x32, 0x08, 0xbf, 0x0e, 0xbb, 0x18, 0x3f,
  0xa3, 0x95, 0x16, 0x3f, 0x0f, 0x29, 0x4f, 0x3e, 0xc0, 0x1e, 0x54, 0xbe,
  0xf4, 0x6d, 0x25, 0x3f, 0xec, 0x09, 0xd4, 0xbe, 0xe6, 0x09, 0x57, 0x3e,
  0xf4, 0x43, 0x20, 0x3f, 0x49, 0xc8, 0xc6, 0x3e, 0x3f, 0x40, 0x17, 0xbe,
  0xed, 0x2d, 0x38, 0xbe, 0x5b, 0x57, 0x94, 0xbe, 0x7b, 0xd5, 0x33, 0xbd,
  0x12, 0xf2, 0x3e, 0xbe, 0xff, 0x43, 0x08, 0xbf, 0x63, 0x7a, 0xe8, 0xbe,
  0x0a, 0xb4, 0x77, 0xbe, 0x0a, 0xa0, 0x33, 0xbf, 0xea, 0x94, 0x9b, 0xbe,
  0xd2, 0xee, 0x30, 0x3f, 0xa6, 0xa2, 0xf3, 0xbe, 0x54, 0x19, 0xfa, 0x3e,
  0x0a, 0x84, 0xbd, 0xbe, 0xc3, 0xeb, 0x20, 0xbf, 0x3a, 0x95, 0xb0, 0xbd,
  0x71, 0x12, 0x6c, 0xbe, 0x5a, 0x84, 0xac, 0xbe, 0x1b, 0x58, 0x8c, 0xbf,
  0x6e, 0xf7, 0x8c, 0x3e, 0xaf, 0x6d, 0x97, 0x3e, 0x02, 0x86, 0x34, 0xbf,
  0x8e, 0x79, 0xf9, 0xbe, 0xe1, 0x3b, 0x24, 0xbe, 0x60, 0x63, 0x17, 0xbf,
  0xc2, 0x3a, 0xa4, 0xbe, 0x83, 0xc2, 0x84, 0xbe, 0xd8, 0x95, 0x3c, 0xbe,
  0x02, 0x25, 0x52, 0x3d, 0xb1, 0xd9, 0xaa, 0x3e, 0xdf, 0x9a, 0x29, 0xbf,
  0x7c, 0xb8, 0xa1, 0x3e, 0x18, 0xc1, 0x95, 0x3f, 0xf7, 0x5b, 0xbd, 0x3e,
  0x1a, 0x15, 0x51, 0xbe, 0x71, 0x69, 0x7d, 0x3e, 0x37, 0xc6, 0x8f, 0xbe,
  0xfa, 0x6e, 0x0a, 0x3d, 0x5d, 0x4b, 0x07, 0x3f, 0xd2, 0xbc, 0xff, 0xff,
  0x04, 0x00, 0x00, 0x00, 0x00, 0x38, 0x00, 0x00, 0x5b, 0x2b, 0xe2, 0xbd,
  0xf6, 0xc4, 0x4a, 0x3e, 0x4a, 0x5f, 0x90, 0x3e, 0xa4, 0xcd, 0x6e, 0xbe,
  0x52, 0x61, 0xa5, 0xbe, 0x26, 0x81, 0xc9, 0xbc, 0x39, 0xcd, 0x9a, 0xbe,
  0xcf, 0x5b, 0x13, 0xbd, 0x23, 0x86, 0xb6, 0x3d, 0xec, 0xe7, 0x3e, 0xbe,
  0xbd, 0x8b, 0xbf, 0xbd, 0xb6, 0x10, 0x9e, 0x3d, 0x36, 0x56, 0x1c, 0xbd,
  0x34, 0x4b, 0x9d, 0xbd, 0xdd, 0x79, 0x5e, 0x3e, 0xa0, 0x92, 0xbf, 0xbf,
  0x37, 0xe0, 0x70, 0x3e, 0x51, 0x6e, 0x9b, 0x3e, 0xfa, 0x49, 0x18, 0xbd,
  0x6b, 0x2f, 0x45, 0xbd, 0xb0, 0x84, 0x59, 0x3e, 0x55, 0x10, 0x3e, 0xbe,
  0x91, 0xcf, 0x59, 0xbe, 0x4f, 0x68, 0x85, 0xbe, 0x7c, 0xd2, 0x0e, 0x3e,
  0x98, 0x83, 0xf2, 0x3e, 0x81, 0x05, 0x63, 0x3d, 0xa8, 0x85, 0x64, 0xbd,
  0x69, 0xac, 0x2e, 0xbe, 0xd4, 0xc0, 0x70, 0xbe, 0x4d, 0xab, 0xf4, 0x3e,
  0xb3, 0xa6, 0xc1, 0xbf, 0x7c, 0x4b, 0x95, 0xbd, 0xd6, 0x83, 0xc4, 0x3e,
  0x9d, 0x6d, 0xbf, 0x3e, 0xe2, 0xdb, 0xd4, 0xbd, 0x11, 0x5d, 0xd0, 0x3c,
  0x70, 0xac, 0xb4, 0xbe, 0x3e, 0xe0, 0x6d, 0x38, 0x48, 0xb9, 0x41, 0x3e,
  0x86, 0x21, 0xca, 0xbe, 0x8d, 0x3b, 0x8c, 0x3e, 0x32, 0x03, 0x4b, 0xbd,
  0x4d, 0x6e, 0xac, 0xbd, 0x5a, 0x91, 0xb0, 0xbe, 0xad, 0xe1, 0x90, 0xbf,
  0xd4, 0xca, 0x82, 0x3d, 0xe7, 0x8e, 0x8d, 0xbe, 0x25, 0x42, 0x66, 0xbd,
  0x20, 0xa8, 0xa6, 0x3e, 0x6d, 0x95, 0xa0, 0x3e, 0xc6, 0xc9, 0x8a, 0xbe,
  0x1f, 0x9b, 0x1e, 0xbf, 0xc1, 0x2d, 0x76, 0x3e, 0xfb, 0x29, 0xc0, 0x3d,
  0x11, 0x0a, 0xbf, 0x3e, 0xad, 0x1b, 0x4b, 0xbd, 0xce, 0xe9, 0x05, 0x3e,
  0x13, 0x79, 0xcf, 0x3d, 0x32, 0x96, 0x31, 0x3e, 0x7a, 0x52, 0xc2, 0xbe,
  0x99, 0x0f, 0xf3, 0xbe, 0x34, 0x89, 0x14, 0xbf, 0x24, 0xf2, 0x91, 0xbe,
  0x7e, 0xd0, 0x1f, 0x3e, 0x13, 0xe5, 0xd0, 0xbe, 0x02, 0x47, 0x92, 0x3e,
  0x3e, 0xfa, 0xa4, 0xbe, 0x76, 0x2d, 0x0c, 0xbf, 0xb4, 0xce, 0x21, 0xbe,
  0x1e, 0x12, 0x26, 0xbe, 0xdf, 0x3a, 0x9a, 0xbc, 0xc7, 0x22, 0x55, 0x3e,
  0x7a, 0xe0, 0xb8, 0xbe, 0xf4, 0x1c, 0x23, 0x3e, 0x56, 0xbe, 0x7a, 0xbd,
  0xaf, 0x41, 0x73, 0xbe, 0x76, 0x64, 0xa8, 0xbe, 0xb0, 0xf8, 0x86, 0xbd,
  0xfa, 0x4c, 0xd8, 0xbe, 0xd1, 0x0a, 0x85, 0xbd, 0xec, 0x49, 0xd9, 0xbe,
  0x02, 0x3e, 0xe6, 0xbe, 0xb2, 0x2c, 0x05, 0x3e, 0x67, 0x86, 0x02, 0xbd,
  0x3d, 0xef, 0x8f, 0xbc, 0x2d, 0x1d, 0x52, 0xbe, 0x31, 0x77, 0x3d, 0xbe,
  0x9e, 0x42, 0xf1, 0x3d, 0x13, 0x64, 0xbb, 0xbe, 0x4f, 0xfb, 0x26, 0xbd,
  0x92, 0x51, 0x1a, 0x3e, 0x03, 0xb0, 0x9e, 0x3d, 0xce, 0xf6, 0x27, 0x3e,
  0xca, 0xfb, 0x12, 0x3e, 0xd5, 0xe1, 0x8d, 0xbe, 0xf2, 0x72, 0x83, 0xbe,
  0x71, 0x29, 0x52, 0xbf, 0x58, 0xc8, 0x99, 0xbe, 0xff, 0xbc, 0x90, 0x3d,
  0x15, 0x82, 0x13, 0xbe, 0xcf, 0x23, 0x67, 0xbd, 0x41, 0x79, 0x7d, 0xbd,
  0xe4, 0x46, 0x84, 0xbc, 0x3a, 0x9c, 0x00, 0xbe, 0x79, 0xec, 0x8e, 0xbe,
  0x74, 0xf2, 0x85, 0xbd, 0x77, 0xd6, 0xf2, 0x3d, 0x54, 0x16, 0x8e, 0x3e,
  0xa6, 0x6c, 0xaf, 0xbe, 0xdf, 0x61, 0x91, 0xbe, 0x69, 0x19, 0x9f, 0xbe,
  0x4a, 0x6b, 0x3b, 0x3c, 0xb7, 0x0b, 0x06, 0xbe, 0xac, 0xb4, 0x1b, 0xbe,
  0xca, 0x91, 0xa2, 0x3d, 0x01, 0xa6, 0x0c, 0xbf, 0xe0, 0x00, 0x6a, 0xbe,
  0xb2, 0x52, 0x56, 0xbe, 0x5d, 0x45, 0x39, 0x3e, 0xcc, 0xc9, 0xbf, 0xbe,
  0xb8, 0x95, 0x18, 0x3e, 0x35, 0x0d, 0x4e, 0xbe, 0x63, 0x99, 0x4a, 0x3d,
  0x88, 0xf4, 0x27, 0x3e, 0xe6, 0x7d, 0xe2, 0xbe, 0x90, 0xaa, 0xc1, 0xbe,
  0x3f, 0xf5, 0x60, 0xbe, 0xac, 0x4a, 0x83, 0xbe, 0x1a, 0xff, 0xbf, 0x3e,
  0x83, 0x44, 0xcf, 0x3e, 0xcb, 0x22, 0x01, 0x3d, 0xda, 0x1d, 0x4a, 0xbe,
  0x94, 0x2e, 0x73, 0x3c, 0xce, 0x6b, 0xc5, 0xbd, 0xfe, 0x87, 0xce, 0x3d,
  0x56, 0xaa, 0x2b, 0xbe, 0xe7, 0xf1, 0xa5, 0x3d, 0xa3, 0x23, 0x95, 0x3e,
  0xb3, 0x84, 0x7d, 0x3d, 0x7f, 0x36, 0x24, 0x3e, 0xf6, 0xbd, 0x56, 0xbf,
  0x3e, 0x1a, 0x4e, 0xbf, 0xb5, 0x9c, 0x1a, 0x3c, 0x70, 0x4e, 0x77, 0x3c,
  0xd0, 0x6e, 0xc3, 0x3d, 0xdd, 0x54, 0x88, 0x3e, 0x88, 0x1b, 0xc9, 0xbd,
  0x3b, 0x0e, 0xab, 0xbd, 0x7d, 0xd2, 0x01, 0x3e, 0x91, 0x42, 0xa6, 0xbe,
  0x59, 0x1a, 0x10, 0xbd, 0x75, 0xd2, 0x16, 0xbe, 0xa8, 0x72, 0x8f, 0xbe,
  0xdb, 0x66, 0x69, 0x3d, 0xcf, 0xa5, 0x0a, 0xbd, 0xef, 0x2d, 0xc1, 0xbd,
  0x63, 0x8e, 0x90, 0xbe, 0xc1, 0x40, 0xb5, 0xbe, 0x03, 0x09, 0xc2, 0xbe,
  0x50, 0xa8, 0xb5, 0x3d, 0x8e, 0x91, 0x77, 0x3e, 0x4d, 0x4b, 0x01, 0xbe,
  0x62, 0x0b, 0xfb, 0xbd, 0x05, 0x95, 0x11, 0xbe, 0x6a, 0x51, 0xde, 0xbe,
  0x7d, 0x4e, 0x91, 0xbe, 0x49, 0x9a, 0x07, 0x3d, 0xf3, 0xd5, 0xbb, 0x3d,
  0x40, 0xd7, 0x69, 0x3d, 0x31, 0x4d, 0x1a, 0x3e, 0x67, 0xf5, 0x20, 0xbb,
  0x80, 0x9e, 0x7a, 0xbe, 0xcd, 0x35, 0xa3, 0xbe, 0x84, 0x89, 0xb0, 0x3e,
  0x63, 0xeb, 0x4f, 0xbf, 0x76, 0xfb, 0x5a, 0x3e, 0xab, 0x10, 0xcd, 0x3e,
  0xd4, 0x9f, 0x9d, 0x3e, 0x6d, 0xd1, 0x9e, 0xbd, 0xf6, 0x67, 0xaf, 0x3e,
  0x96, 0xe2, 0xcc, 0xbe, 0x81, 0x32, 0xf4, 0x3d, 0xe5, 0x20, 0xd3, 0xbd,
  0xa8, 0xa3, 0x80, 0x3e, 0x59, 0x1d, 0x8f, 0x3e, 0x17, 0x08, 0x81, 0x3b,
  0x06, 0x0b, 0x9c, 0xbd, 0xf8, 0x14, 0xbc, 0xbe, 0x93, 0x2f, 0xd1, 0xbd,
  0x14, 0x3c, 0x46, 0x3e, 0xfe, 0x7f, 0x83, 0xbf, 0xc2, 0x6b, 0x0c, 0xbd,
  0x12, 0xc2, 0xc5, 0x3e, 0xbd, 0x74, 0xff, 0x3e, 0xc7, 0x37, 0x43, 0xbd,
  0x62, 0x66, 0xf5, 0xbd, 0x08, 0x2f, 0xbd, 0xbe, 0x48, 0x43, 0xc5, 0x3c,
  0x06, 0xea, 0xde, 0x3e, 0x88, 0x8d, 0xd2, 0x3e, 0x69, 0x53, 0xc6, 0x3e,
  0x4d, 0x38, 0xac, 0xbd, 0xd3, 0xda, 0x0d, 0xbd, 0x8e, 0x13, 0xe9, 0xbe,
  0x52, 0x4f, 0x59, 0xbf, 0xbf, 0xf9, 0xcf, 0x3e, 0x7b, 0xc4, 0x0e, 0xbf,
  0x3b, 0x38, 0x47, 0xbe, 0xf8, 0x13, 0x7e, 0x3e, 0x95, 0xa2, 0xc6, 0x3e,
  0x4d, 0xc2, 0x03, 0xbf, 0xbd, 0x2c, 0x02, 0xbf, 0x7a, 0xb8, 0xd3, 0xbe,
  0x11, 0x57, 0x19, 0xbe, 0x9f, 0x80, 0x7a, 0x3e, 0x11, 0x41, 0xd5, 0xbe,
  0x0f, 0x93, 0x15, 0xbe, 0x8b, 0x85, 0x35, 0xbc, 0xff, 0x0b, 0xc7, 0x3c,
  0xe5, 0x34, 0xcd, 0xbe, 0x42, 0x8d, 0x16, 0xbf, 0xcb, 0x10, 0x1a, 0xbe,
  0x87, 0xbe, 0x9d, 0xbe, 0x23, 0x1c, 0x88, 0xbd, 0x93, 0x15, 0x86, 0xbc,
  0x4d, 0xd9, 0x1a, 0xbf, 0xbd, 0x78, 0x82, 0xbd, 0x16, 0xa3, 0x16, 0x3e,
  0x57, 0x03, 0xc0, 0xbd, 0x75, 0x50, 0x03, 0x3f, 0x73, 0x73, 0x19, 0x3e,
  0x34, 0x6a, 0x8d, 0x3e, 0xf0, 0x3f, 0x1b, 0xbe, 0xed, 0x6b, 0x01, 0xbd,
  0x1b, 0x6e, 0xe0, 0x3d, 0x4d, 0xe0, 0x07, 0x3c, 0x94, 0x0c, 0x1d, 0xbe,
  0x26, 0xa6, 0x17, 0xbf, 0xb3, 0x6a, 0xaf, 0xbe, 0x09, 0xec, 0x76, 0xbe,
  0x2b, 0x94, 0x46, 0xbe, 0x1b, 0x29, 0x98, 0x3e, 0x0e, 0x25, 0x9a, 0xbd,
  0x82, 0xb0, 0x85, 0x3d, 0xc8, 0x03, 0xb2, 0xbc, 0xf3, 0xad, 0xef, 0x3d,
  0x48, 0x6b, 0xa8, 0x3e, 0xec, 0xf2, 0x71, 0x3d, 0x8a, 0x53, 0x05, 0x3d,
  0x4f, 0xa7, 0x19, 0xbd, 0xab, 0x73, 0x0e, 0x3e, 0x22, 0x18, 0xec, 0xbb,
  0xd5, 0x03, 0xb5, 0xbe, 0xfd, 0xf4, 0x39, 0xbf, 0xfc, 0xb8, 0x5a, 0xbe,
  0x1a, 0xd5, 0xe5, 0xbe, 0xdf, 0x6f, 0x29, 0xbf, 0x7c, 0xe2, 0x53, 0x3e,
  0x20, 0xfd, 0x3b, 0xbe, 0xc7, 0x29, 0x89, 0xbe, 0xd1, 0x45, 0x30, 0xbf,
  0xb8, 0x72, 0x1e, 0xbf, 0xb0, 0xc6, 0x00, 0x3f, 0xd7, 0xb2, 0x20, 0x3e,
  0xaf, 0x5d, 0x33, 0xbe, 0x36, 0x6f, 0x4c, 0xbe, 0x9e, 0x80, 0x3c, 0x3d,
  0xad, 0x4f, 0x8b, 0xbd, 0xee, 0x99, 0x12, 0xbf, 0x7d, 0x0e, 0x99, 0x3e,
  0xab, 0x54, 0x6a, 0xbe, 0x04, 0xa0, 0x49, 0x3d, 0x00, 0xb4, 0xc0, 0x3c,
  0xc6, 0x99, 0x00, 0xbf, 0xe9, 0xce, 0x87, 0xbd, 0x62, 0x24, 0x05, 0xbe,
  0x95, 0xcf, 0xd6, 0xbe, 0x68, 0x17, 0x80, 0x3e, 0x8b, 0x94, 0x97, 0xbe,
  0x8f, 0x07, 0x60, 0x3e, 0xf9, 0x62, 0xad, 0x3d, 0xc9, 0x55, 0x65, 0xbe,
  0xd8, 0x84, 0x24, 0xbe, 0xe4, 0x0c, 0x4b, 0xbd, 0xb0, 0xf0, 0x75, 0xbe,
  0xc4, 0xa7, 0x9f, 0x3d, 0x0b, 0xc1, 0x0b, 0xbf, 0xfe, 0x7c, 0x30, 0x3e,
  0x11, 0xaf, 0x53, 0x3e, 0x05, 0xdf, 0x7f, 0x3c, 0xe6, 0x2d, 0x38, 0xbd,
  0x90, 0xf1, 0x08, 0xbe, 0xc4, 0x0e, 0xa7, 0xbc, 0x52, 0x73, 0xa0, 0x3e,
  0xbe, 0x2d, 0x22, 0x3d, 0x22, 0xa7, 0xc7, 0xbd, 0x6f, 0xcc, 0x0b, 0x3e,
  0x61, 0x8d, 0x06, 0xbe, 0x98, 0x6b, 0x3f, 0x3c, 0x25, 0x1c, 0xfe, 0xbd,
  0x47, 0xbd, 0x9c, 0xbe, 0x78, 0x5f, 0x59, 0x3d, 0x74, 0x21, 0x31, 0xbe,
  0x63, 0x30, 0x23, 0xbe, 0x75, 0xdb, 0x11, 0x3e, 0x24, 0x40, 0xa2, 0x3e,
  0x85, 0x13, 0x0a, 0x3e, 0xad, 0xdb, 0x50, 0xbe, 0xc9, 0x6c, 0xcd, 0xbc,
  0x02, 0x2f, 0xe0, 0x3c, 0x84, 0xe8, 0xed, 0x3d, 0x9e, 0x5e, 0xe7, 0xbd,
  0xf9, 0x35, 0x00, 0xbe, 0xa0, 0x24, 0x91, 0x3d, 0x86, 0xba, 0x50, 0xbc,
  0x47, 0x5b, 0x46, 0x3e, 0xde, 0xe7, 0xa1, 0xbe, 0x9e, 0x98, 0x0a, 0xbe,
  0x03, 0x42, 0xe9, 0xbc, 0x2a, 0x2f, 0x05, 0x3e, 0xcf, 0x02, 0xa7, 0xbd,
  0xec, 0xd7, 0x55, 0x3e, 0x4e, 0xb6, 0xc1, 0xbd, 0x3e, 0xde, 0xf4, 0x3d,
  0x3f, 0x74, 0x84, 0xbe, 0xae, 0x46, 0xdd, 0x3d, 0xbb, 0x94, 0x2a, 0x3e,
  0x77, 0xef, 0x67, 0x3e, 0x3d, 0x80, 0xcd, 0xbc, 0xad, 0x82, 0x00, 0x3e,
  0xb6, 0xd8, 0x10, 0xbe, 0x6b, 0x60, 0xe6, 0x3d, 0xd4, 0x34, 0x9d, 0xbe,
  0x88, 0x65, 0x17, 0xbd, 0x50, 0x43, 0x23, 0xbe, 0xa9, 0x61, 0x57, 0xbc,
  0x30, 0xe2, 0x82, 0x3e, 0xb6, 0x83, 0xe7, 0x3e, 0x40, 0xd0, 0x9a, 0xbd,
  0x15, 0x70, 0xa5, 0xbe, 0xd7, 0x1b, 0x91, 0xbe, 0xe4, 0xc5, 0xe3, 0x3c,
  0x6f, 0x56, 0x35, 0xbc, 0x4b, 0x49, 0x34, 0x3e, 0xff, 0xe2, 0x3e, 0x3d,
  0x58, 0x22, 0xad, 0x3d, 0x06, 0x6a, 0x0e, 0xbc, 0x13, 0x7b, 0x0c, 0xbe,
  0x27, 0x35, 0x3b, 0xbf, 0x1a, 0xb9, 0x7e, 0x3d, 0x11, 0x6b, 0xf5, 0x3c,
  0xb7, 0x00, 0x98, 0xbd, 0x61, 0xaa, 0x05, 0x3e, 0xc2, 0x1d, 0x23, 0x3f,
  0x7b, 0x16, 0x99, 0xbe, 0x28, 0x44, 0x89, 0xbd, 0x00, 0x6d, 0xf6, 0xbe,
  0xce, 0x55, 0xce, 0xbd, 0xff, 0x05, 0xda, 0x3b, 0x49, 0x4e, 0x81, 0x3d,
  0xbf, 0x72, 0x64, 0x3e, 0xfb, 0xae, 0x8a, 0x3e, 0x1e, 0x4c, 0xd7, 0xbc,
  0x63, 0x5d, 0xd5, 0xbe, 0x6e, 0xcc, 0xe5, 0xbe, 0x90, 0xc7, 0x71, 0x3e,
  0xb7, 0x44, 0xa0, 0xbe, 0x29, 0x55, 0x9c, 0x3d, 0x0e, 0x22, 0x13, 0x3e,
  0x9a, 0x0d, 0xe2, 0x3e, 0x04, 0x43, 0x10, 0xbe, 0xf8, 0x7a, 0x51, 0x3e,
  0x98, 0x7f, 0x43, 0xbe, 0xf8, 0x19, 0x02, 0xbd, 0x1a, 0xf5, 0x78, 0x3e,
  0xd6, 0xbe, 0xd9, 0x3c, 0xd3, 0xe9, 0xee, 0x3d, 0x24, 0xa5, 0x72, 0xbd,
  0xe0, 0x30, 0xd5, 0x3a, 0xef, 0xb2, 0x79, 0xbe, 0x36, 0x57, 0x92, 0xbe,
  0xfe, 0xda, 0x6a, 0x3e, 0xef, 0x05, 0xaa, 0xbe, 0x8c, 0xa6, 0x12, 0x3e,
  0xf7, 0x36, 0xaf, 0x3e, 0x54, 0x48, 0x00, 0x3f, 0x32, 0x84, 0x68, 0xbd,
  0xb5, 0x4c, 0xd6, 0x3e, 0xef, 0xb8, 0xe3, 0xbd, 0xa6, 0x41, 0x19, 0x3d,
  0x9f, 0x22, 0x92, 0x3e, 0xbd, 0x31, 0xd4, 0x3d, 0x2f, 0x57, 0xe8, 0x3e,
  0x6d, 0x95, 0x0b, 0xbd, 0x2e, 0x53, 0x23, 0x3d, 0x1d, 0x57, 0xa9, 0xbd,
  0xd4, 0x16, 0x1a, 0xbe, 0x29, 0x21, 0xe2, 0x3e, 0x77, 0xf7, 0x22, 0xbf,
  0x1d, 0x1c, 0xab, 0xbd, 0xf3, 0x82, 0xb3, 0x3e, 0xd1, 0xfa, 0x2b, 0x3f,
  0xe4, 0x86, 0x8d, 0xbe, 0x42, 0x0c, 0xc2, 0x3c, 0x2b, 0xd2, 0x0f, 0xbe,
  0xbf, 0xc5, 0x6c, 0xbd, 0x9c, 0x6d, 0x88, 0x3e, 0x67, 0x86, 0x6d, 0xbe,
  0x05, 0xd2, 0x8d, 0x3e, 0x94, 0x22, 0xa6, 0xbd, 0x75, 0xda, 0x89, 0xbe,
  0x46, 0x88, 0xf4, 0xbe, 0xb6, 0x56, 0x8e, 0xbe, 0xac, 0x6f, 0x45, 0x3e,
  0x58, 0x93, 0x12, 0xbf, 0x02, 0xa2, 0x93, 0xbe, 0xea, 0x51, 0x98, 0xbd,
  0x2e, 0x95, 0x13, 0x3f, 0x74, 0xa6, 0x20, 0xbf, 0xe5, 0xe4, 0x26, 0xbf,
  0x53, 0x43, 0x48, 0xbe, 0x2e, 0x7b, 0x06, 0xbe, 0x16, 0xc3, 0x90, 0x3e,
  0xba, 0xa1, 0xba, 0x3d, 0x62, 0xd6, 0x57, 0xbe, 0x86, 0x4d, 0x79, 0xbd,
  0x02, 0xca, 0xe5, 0xbb, 0x07, 0xba, 0xba, 0xbe, 0x3f, 0x09, 0xaa, 0xbf,
  0x21, 0x16, 0xff, 0xbe, 0xba, 0xc5, 0x2e, 0xbf, 0x69, 0x0c, 0x2f, 0xbd,
  0x76, 0x76, 0x67, 0x3d, 0xae, 0x5e, 0x4d, 0xbf, 0x0e, 0x5b, 0x5a, 0xbb,
  0xa6, 0xce, 0x08, 0x3e, 0x2c, 0xbc, 0xc6, 0xbf, 0xdb, 0xba, 0xae, 0xbd,
  0xff, 0x50, 0x1d, 0x3d, 0x46, 0x9b, 0xc9, 0xbb, 0x08, 0x35, 0xa4, 0xbe,
  0xa5, 0x38, 0xad, 0x3d, 0x7e, 0x5c, 0x15, 0x3d, 0x3a, 0xd5, 0x9e, 0xbd,
  0xaf, 0x7b, 0x0e, 0xbf, 0x9c, 0x26, 0xbf, 0xbe, 0x2c, 0x15, 0x14, 0xbf,
  0x4f, 0x76, 0x4a, 0xbd, 0xf0, 0x96, 0x95, 0x3e, 0x99, 0x8f, 0xeb, 0x3e,
  0x2a, 0xd8, 0x86, 0xbd, 0xfe, 0x79, 0xaf, 0xbd, 0x94, 0xbd, 0x86, 0xbe,
  0xf9, 0x11, 0x82, 0x3e, 0x10, 0x52, 0x09, 0x3e, 0xbc, 0xb8, 0x49, 0x3d,
  0x0a, 0x8c, 0xc0, 0x3d, 0xc0, 0xe5, 0x01, 0xbe, 0xa3, 0x09, 0x11, 0x3d,
  0xc8, 0x2b, 0x5d, 0xbd, 0xb7, 0xde, 0x7d, 0xbe, 0xca, 0x5b, 0x7f, 0x3d,
  0xb8, 0x84, 0x05, 0xbf, 0x2e, 0x5d, 0xc2, 0xbe, 0x64, 0x52, 0x4e, 0x3e,
  0xb4, 0xac, 0xb3, 0x3e, 0x69, 0x84, 0xc6, 0xbd, 0x83, 0x0b, 0x39, 0x3b,
  0x4c, 0x63, 0x18, 0xbf, 0xfc, 0x84, 0x9f, 0x3e, 0x6d, 0x9a, 0x05, 0xbf,
  0x3f, 0x0f, 0x31, 0x3c, 0x66, 0xd8, 0xce, 0x3e, 0xf7, 0xbf, 0x0b, 0xbf,
  0xa1, 0x37, 0x09, 0xbe, 0x3e, 0x5d, 0x6a, 0x3e, 0x6b, 0xea, 0xef, 0xbe,
  0x23, 0x32, 0xf4, 0x3d, 0xc6, 0xe0, 0xb1, 0x3c, 0x82, 0xad, 0x34, 0xbd,
  0x4d, 0xfa, 0xd7, 0x3e, 0xe8, 0x4c, 0x5a, 0x3e, 0x84, 0x71, 0xd1, 0x3c,
  0xe3, 0x8c, 0xc4, 0xbd, 0xa0, 0xec, 0xba, 0xbe, 0x4a, 0xa3, 0x50, 0x3e,
  0x59, 0x45, 0xb2, 0xbe, 0xbc, 0x43, 0x23, 0xbe, 0x6a, 0x77, 0xa5, 0x3e,
  0xdb, 0x7b, 0x9c, 0xbe, 0xab, 0x42, 0xa0, 0x3c, 0x7e, 0x3a, 0x83, 0x3e,
  0x3a, 0x25, 0xda, 0x3e, 0xfb, 0x77, 0xc9, 0x3d, 0xcb, 0x1e, 0x8e, 0xbd,
  0x5a, 0xfd, 0xd7, 0x3b, 0xf5, 0x18, 0x89, 0x3d, 0xf7, 0x2a, 0x84, 0x3e,
  0xb0, 0x39, 0x67, 0x3e, 0x85, 0x32, 0xde, 0xbc, 0x17, 0xa6, 0x5a, 0xbe,
  0x91, 0xdc, 0x74, 0x3e, 0x72, 0xf8, 0x21, 0x3e, 0xe0, 0xae, 0xf6, 0x3d,
  0xb7, 0x28, 0x45, 0x3e, 0xa9, 0x9f, 0xf5, 0xbe, 0x76, 0x57, 0x79, 0xbd,
  0xd9, 0xbe, 0x10, 0x3e, 0x5b, 0xc0, 0x6c, 0x3e, 0x23, 0xc6, 0x76, 0x3e,
  0x68, 0x45, 0xac, 0xbd, 0xa3, 0x82, 0x54, 0xbe, 0x78, 0x31, 0xff, 0x3d,
  0x60, 0x07, 0xed, 0x3e, 0xab, 0xd4, 0x59, 0x3e, 0x90, 0x3d, 0xa4, 0x3b,
  0x4f, 0xc5, 0x91, 0xbe, 0x29, 0x37, 0x8b, 0x3d, 0x91, 0x2c, 0x8c, 0xbc,
  0xd6, 0x4a, 0x98, 0xbe, 0xd8, 0x6c, 0x98, 0x3e, 0xa6, 0x3a, 0x45, 0xbe,
  0x03, 0x67, 0x23, 0xbd, 0x79, 0xd9, 0xc7, 0x3d, 0x3f, 0x33, 0x1e, 0xbe,
  0x74, 0xa7, 0x98, 0x3c, 0x58, 0xea, 0xc2, 0x3c, 0xf7, 0x42, 0x5a, 0x3e,
  0xb0, 0x00, 0x91, 0x3d, 0xb4, 0x73, 0x3b, 0x3d, 0xca, 0xe1, 0x29, 0xbe,
  0x3c, 0x8f, 0x52, 0xbf, 0x16, 0x01, 0x8a, 0xbe, 0x33, 0x72, 0x8a, 0x3e,
  0x4d, 0x6a, 0x4f, 0xbd, 0x29, 0x8a, 0x6c, 0xbe, 0x22, 0xe6, 0xaa, 0x3e,
  0x3b, 0x0e, 0xd3, 0xbe, 0x45, 0xd2, 0xb2, 0x3d, 0xce, 0xd6, 0xe4, 0xbe,
  0x4f, 0x31, 0x24, 0xbe, 0x10, 0x26, 0x1f, 0xbf, 0x37, 0x8c, 0x30, 0x3e,
  0x7e, 0x1a, 0x48, 0x3e, 0x6d, 0xc1, 0x05, 0xbd, 0x13, 0xfc, 0x21, 0x3e,
  0xbb, 0xe3, 0xff, 0xbd, 0xc3, 0x35, 0x68, 0xbf, 0x71, 0xb3, 0xc3, 0xbe,
  0x8c, 0xca, 0x16, 0x3e, 0x8b, 0x03, 0x70, 0x3e, 0xce, 0x43, 0x5e, 0x3e,
  0x02, 0x6d, 0x0f, 0xbf, 0x35, 0x7a, 0x98, 0xbd, 0xcd, 0xfd, 0x72, 0xbd,
  0x76, 0x1d, 0xb6, 0xbe, 0xa9, 0xb3, 0x5e, 0xbe, 0x59, 0x94, 0x5c, 0xbf,
  0xf3, 0xf9, 0x12, 0x3e, 0xde, 0xee, 0x66, 0x3d, 0x52, 0x5a, 0xd2, 0xbe,
  0x0a, 0x1b, 0xea, 0xbd, 0x47, 0xda, 0x1a, 0x3d, 0x64, 0x0e, 0x2e, 0xbf,
  0xb0, 0x7e, 0x11, 0xbe, 0x2e, 0x09, 0x9f, 0xbe, 0x78, 0x8f, 0x8d, 0x3e,
  0xc0, 0x4d, 0xc8, 0x3e, 0xea, 0xda, 0xe9, 0xbd, 0xab, 0x8e, 0x34, 0xbe,
  0x09, 0x9a, 0xb3, 0x39, 0xcd, 0xd6, 0xeb, 0x3d, 0xd5, 0x76, 0x21, 0x3e,
  0x7a, 0x9c, 0xe8, 0xbe, 0x47, 0x0d, 0xe5, 0xbe, 0x38, 0x0c, 0x07, 0xbe,
  0x2b, 0x52, 0x1c, 0xbe, 0x29, 0xa4, 0xbc, 0x3e, 0x1b, 0xc5, 0x07, 0x3e,
  0x3b, 0xe6, 0x20, 0xbc, 0x19, 0x3d, 0x95, 0x3d, 0xbc, 0x0e, 0xd9, 0x3d,
  0x23, 0x64, 0xb7, 0xbd, 0x2a, 0xaf, 0x1f, 0x3e, 0xb1, 0x74, 0xcc, 0x3e,
  0x5a, 0xd7, 0xe3, 0x3d, 0xa0, 0x5b, 0xaf, 0x38, 0x1f, 0xd1, 0xa3, 0xbe,
  0x25, 0x7a, 0x28, 0x3e, 0x67, 0x21, 0x85, 0x3d, 0x49, 0x3b, 0x79, 0xbe,
  0x89, 0x2c, 0x2b, 0x3e, 0x2f, 0x87, 0x6a, 0x3e, 0xb0, 0x5f, 0x81, 0x3d,
  0x33, 0x55, 0xb8, 0x3c, 0x63, 0x86, 0x45, 0xbd, 0xb8, 0x17, 0x10, 0xbf,
  0xf6, 0xd9, 0x88, 0x3e, 0x12, 0x9f, 0xb6, 0xbd, 0x4a, 0x19, 0xf5, 0xbd,
  0x3b, 0x56, 0x60, 0x3e, 0x62, 0x99, 0x16, 0xbf, 0xa5, 0x16, 0xaa, 0xbd,
  0x0a, 0x5c, 0x50, 0x3e, 0x66, 0xc4, 0x24, 0xbf, 0x9c, 0x0d, 0xb5, 0xbd,
  0xb4, 0xff, 0x24, 0xbe, 0xdd, 0x97, 0xfb, 0x3c, 0xd8, 0x5d, 0x6a, 0x3e,
  0x97, 0xb3, 0x05, 0x3f, 0xff, 0xc6, 0x1c, 0xbc, 0x2b, 0x4f, 0x20, 0xbe,
  0x69, 0x33, 0xff, 0xbe, 0x88, 0x61, 0x85, 0x3e, 0xfe, 0x7c, 0xaa, 0xbe,
  0x0f, 0xff, 0x82, 0x3e, 0x66, 0xa0, 0xab, 0xbb, 0x9c, 0x3a, 0x9c, 0xbe,
  0x89, 0x20, 0x74, 0xbe, 0x21, 0x3b, 0x44, 0x3e, 0x6d, 0x7b, 0x98, 0xbe,
  0x7e, 0x51, 0xff, 0x3d, 0x19, 0xcc, 0xb1, 0xbd, 0xa7, 0x0a, 0x91, 0x3c,
  0xbd, 0xcb, 0x3c, 0x3e, 0xa6, 0xd4, 0xaa, 0x3e, 0x56, 0xe7, 0xa4, 0x3d,
  0x2e, 0x6e, 0x8a, 0xbd, 0x9d, 0x85, 0xe3, 0xbe, 0xa2, 0x91, 0x83, 0x3e,
  0x3d, 0x83, 0xa2, 0xbc, 0x39, 0x36, 0x3f, 0x3d, 0x89, 0x96, 0x8c, 0x3e,
  0xd4, 0x0f, 0xc9, 0xbd, 0x7f, 0xef, 0x16, 0xbd, 0xce, 0x35, 0x1d, 0x3c,
  0x80, 0x67, 0x94, 0x3e, 0x50, 0x74, 0x88, 0x3e, 0x75, 0x24, 0x3f, 0x3e,
  0x41, 0xc8, 0x2b, 0xbe, 0x02, 0x69, 0x30, 0x3f, 0x87, 0xc1, 0x86, 0x3d,
  0x33, 0x6b, 0x95, 0x3d, 0x24, 0x0c, 0x53, 0xbe, 0x31, 0x76, 0xc2, 0xbd,
  0xfd, 0x5c, 0x7c, 0x3e, 0x38, 0xaf, 0x02, 0xbd, 0xca, 0xe5, 0x4b, 0xbe,
  0x00, 0x91, 0x87, 0x3e, 0xd1, 0x67, 0xa3, 0xbe, 0xcc, 0x08, 0x50, 0x3e,
  0x76, 0x53, 0x98, 0xbc, 0x82, 0xbf, 0x09, 0x3e, 0x97, 0x89, 0xe2, 0xbd,
  0x5a, 0x5c, 0x0d, 0x3d, 0xae, 0x79, 0x19, 0xbe, 0x86, 0x8f, 0x1f, 0xbe,
  0x1f, 0x29, 0xe0, 0x3e, 0x1f, 0x70, 0xe7, 0xbe, 0xe5, 0xbc, 0x50, 0xbf,
  0xb3, 0x74, 0x2a, 0x3d, 0xff, 0xa9, 0xd4, 0x3d, 0x4c, 0x63, 0x7a, 0x3d,
  0x28, 0x80, 0x65, 0xbd, 0x62, 0xce, 0xa3, 0xbe, 0x5f, 0xc3, 0xf8, 0xbd,
  0x4c, 0x93, 0x92, 0x3d, 0xba, 0xc6, 0x83, 0x3e, 0x47, 0xde, 0x79, 0x3e,
  0x3e, 0x89, 0xa3, 0xbe, 0x95, 0x3c, 0xcd, 0x3e, 0xda, 0xdb, 0x57, 0xbe,
  0x4c, 0xd4, 0x84, 0x3d, 0xa9, 0x3f, 0xfa, 0x3b, 0xfc, 0xaa, 0x29, 0x3e,
  0xfc, 0xc2, 0x09, 0xbf, 0x27, 0x50, 0x23, 0xbf, 0x08, 0xae, 0x4c, 0xbd,
  0x41, 0xe6, 0x54, 0x3d, 0xb0, 0x13, 0x23, 0xbe, 0xb3, 0x55, 0xe2, 0x3e,
  0xaa, 0xa1, 0xc5, 0xbc, 0xc5, 0x08, 0x02, 0x3e, 0x2d, 0x91, 0x9e, 0x3d,
  0x0b, 0xb6, 0x7f, 0xbe, 0x72, 0xdb, 0x82, 0xbd, 0x77, 0xfb, 0xb3, 0xbe,
  0xfa, 0x37, 0x1b, 0xbf, 0xc3, 0x49, 0xb9, 0x3e, 0xe4, 0xb2, 0x02, 0x3f,
  0xb9, 0x06, 0x45, 0xbe, 0x99, 0xab, 0x32, 0xbf, 0xe1, 0xd1, 0x39, 0xbf,
  0x3d, 0x2a, 0x28, 0xbe, 0x62, 0x37, 0xbf, 0x3d, 0xee, 0x2c, 0x75, 0xbd,
  0x9f, 0xd0, 0xf3, 0xbd, 0x6d, 0x2e, 0xac, 0x3d, 0x59, 0x98, 0x04, 0x3e,
  0x34, 0x77, 0x40, 0xbe, 0x35, 0x24, 0x77, 0xbd, 0x87, 0x0b, 0x05, 0xbf,
  0xf3, 0x11, 0xf2, 0xbe, 0x61, 0x5a, 0x00, 0xbf, 0x50, 0xb1, 0x0c, 0xbe,
  0xd5, 0xa4, 0x07, 0x3f, 0x6f, 0x46, 0x6d, 0xbe, 0x0a, 0x06, 0xc2, 0xbe,
  0x2d, 0xbc, 0xa4, 0xbc, 0x06, 0xf8, 0x3f, 0x3d, 0x42, 0xda, 0x69, 0x3e,
  0xdd, 0x49, 0xbf, 0x3d, 0x6b, 0x4d, 0x85, 0xbe, 0xc8, 0xc7, 0x26, 0x3e,
  0x15, 0x47, 0x3c, 0x3e, 0x68, 0xb1, 0x8f, 0xbd, 0xcd, 0x61, 0x90, 0xbe,
  0xbe, 0x08, 0xfb, 0xbe, 0xc2, 0x6e, 0x7b, 0xbe, 0x10, 0x88, 0xb3, 0x3e,
  0x3f, 0xec, 0x90, 0xbe, 0xbd, 0xd2, 0x54, 0x3e, 0xb6, 0x8c, 0x3f, 0xbe,
  0x65, 0xf3, 0x0a, 0xbe, 0x63, 0xe3, 0x3c, 0xbe, 0xfc, 0x05, 0x5c, 0xbd,
  0x4a, 0xa9, 0xeb, 0x3e, 0x73, 0x9d, 0x14, 0x3e, 0x55, 0xb0, 0x00, 0xbf,
  0x28, 0xe6, 0x3b, 0x3e, 0x3c, 0xc3, 0x3e, 0x3e, 0x10, 0xec, 0x65, 0xbd,
  0x2f, 0xf2, 0xa1, 0xbd, 0x28, 0x74, 0xdc, 0x3c, 0xfd, 0x78, 0xe4, 0x3e,
  0x4d, 0x2e, 0x65, 0x3e, 0x7f, 0x7a, 0xe3, 0xbc, 0x8d, 0xfc, 0x68, 0x3e,
  0x33, 0x89, 0x24, 0xbe, 0xcd, 0xa4, 0xfa, 0xbe, 0xb3, 0xe9, 0xa0, 0x3d,
  0x84, 0xc0, 0x53, 0xbe, 0xb7, 0xbe, 0x80, 0x3e, 0x16, 0x6f, 0xe8, 0x3d,
  0x54, 0x47, 0xc9, 0xbe, 0x35, 0xd8, 0x15, 0xbc, 0x9b, 0xc9, 0x76, 0x3e,
  0x24, 0xa1, 0x6e, 0x3e, 0x92, 0xe3, 0x53, 0x3e, 0x08, 0x94, 0x78, 0x3e,
  0x76, 0x7f, 0xb6, 0x3e, 0x75, 0xec, 0x72, 0xbe, 0xe8, 0x5a, 0x84, 0xbd,
  0x52, 0x14, 0xd7, 0xbd, 0x54, 0x37, 0x62, 0xbe, 0x51, 0xa2, 0xfe, 0xbe,
  0xd4, 0x4f, 0xcb, 0x3c, 0x7f, 0xf0, 0xd4, 0x3d, 0xef, 0xf1, 0x21, 0xbe,
  0x17, 0xa8, 0x18, 0x3e, 0xff, 0xf0, 0x88, 0xbe, 0x2c, 0xfe, 0x89, 0xbe,
  0x3f, 0x4b, 0x0a, 0x3d, 0x01, 0x27, 0x1a, 0xbe, 0xfc, 0xe6, 0x61, 0x3d,
  0xf6, 0x5f, 0xa4, 0x3e, 0x9b, 0x10, 0x20, 0x3e, 0x6b, 0xcb, 0xb0, 0xbe,
  0xbf, 0x7a, 0xa7, 0xbe, 0xd0, 0x72, 0x28, 0x3e, 0x71, 0xf3, 0x89, 0xbd,
  0xda, 0xb4, 0x25, 0xbf, 0xf6, 0x24, 0x3e, 0xbe, 0x9f, 0x94, 0xfb, 0xbd,
  0x6a, 0x55, 0xde, 0x3b, 0x02, 0x6e, 0x1f, 0x3d, 0xe1, 0xbf, 0x5d, 0xbe,
  0xda, 0xa3, 0x56, 0xbe, 0xed, 0x11, 0x1f, 0x3d, 0xf2, 0x9f, 0x65, 0x3e,
  0x68, 0xed, 0x88, 0x3e, 0xa4, 0xc2, 0x1a, 0xbe, 0x04, 0xea, 0x82, 0x3c,
  0x86, 0x10, 0xdd, 0xbd, 0xc7, 0xc6, 0xd8, 0xbc, 0x1e, 0x92, 0x9f, 0xbe,
  0x13, 0x51, 0x70, 0xbe, 0x21, 0xf2, 0x00, 0xbf, 0xc5, 0x40, 0x8f, 0xbe,
  0xe9, 0xc5, 0xb2, 0xbe, 0xae, 0x5e, 0x80, 0x3e, 0xb6, 0x26, 0x71, 0xbe,
  0xc8, 0x8c, 0x45, 0x3d, 0x6e, 0x1d, 0x87, 0xbd, 0x89, 0xbb, 0xf5, 0x3c,
  0x34, 0xac, 0x9b, 0x3d, 0xce, 0xa0, 0xc5, 0xbd, 0xaf, 0xd8, 0xaf, 0xbe,
  0x57, 0xfd, 0x8e, 0xbe, 0xdd, 0xe7, 0x10, 0xbe, 0x9d, 0xa9, 0xb4, 0x3d,
  0x2a, 0xb7, 0x35, 0xbe, 0xb7, 0x23, 0xcd, 0x3c, 0x26, 0x4c, 0xd3, 0xbe,
  0x4b, 0x72, 0x67, 0xbe, 0xdb, 0x7f, 0x8d, 0xbb, 0xf0, 0xf7, 0x3e, 0x3e,
  0x72, 0xdb, 0x14, 0xbf, 0x06, 0x3a, 0x5d, 0xbe, 0x39, 0x7a, 0xe5, 0x3d,
  0x04, 0x42, 0x59, 0x3e, 0xc8, 0xc8, 0x8f, 0xbe, 0xdc, 0x1d, 0xbd, 0x3d,
  0x1a, 0xae, 0x7e, 0xbd, 0x1d, 0x63, 0xa1, 0xbe, 0x6f, 0x33, 0x53, 0x3c,
  0xd4, 0x64, 0x70, 0xbe, 0xf4, 0x9c, 0xc2, 0x3d, 0xa3, 0xab, 0x62, 0xbd,
  0x53, 0x85, 0x38, 0xbf, 0x7b, 0xd3, 0x9d, 0xbb, 0x27, 0x77, 0x10, 0x3f,
  0x67, 0x00, 0xa7, 0x3e, 0x4a, 0x7b, 0x46, 0x3e, 0xcf, 0xa7, 0x9c, 0xbe,
  0xb8, 0x57, 0xa0, 0xbc, 0x01, 0xf8, 0x67, 0x3e, 0x38, 0xb1, 0xde, 0xbd,
  0x48, 0x09, 0xec, 0xbc, 0x0b, 0x37, 0x1f, 0xbe, 0x50, 0xbd, 0x8d, 0xbe,
  0xd7, 0x9f, 0x19, 0xbf, 0x7d, 0x0c, 0x19, 0xbf, 0x0e, 0x48, 0x2f, 0xbd,
  0x7e, 0x0d, 0x4a, 0xbf, 0xc2, 0xc1, 0xc1, 0xbd, 0x2b, 0xa8, 0x54, 0xbd,
  0x8d, 0x02, 0x06, 0x3f, 0xbf, 0x56, 0x87, 0x3e, 0xbc, 0x13, 0xf5, 0x3d,
  0x3f, 0x8b, 0x59, 0x3e, 0x25, 0x75, 0x89, 0x3e, 0x59, 0xc6, 0x34, 0xbd,
  0x74, 0xba, 0xd0, 0xbe, 0x48, 0x5a, 0xb9, 0x3e, 0x7c, 0x3a, 0x71, 0xbe,
  0x22, 0x7c, 0xf3, 0xbe, 0x16, 0xe0, 0x0a, 0x3e, 0x43, 0x11, 0x2c, 0xbe,
  0x50, 0x8b, 0x93, 0x3e, 0x36, 0x80, 0x68, 0xbd, 0xb7, 0x83, 0x76, 0x3e,
  0xb5, 0xe3, 0x3c, 0x3e, 0x33, 0x11, 0x57, 0xbd, 0x31, 0xa4, 0xf1, 0xbd,
  0xab, 0xf5, 0x82, 0x3e, 0x20, 0xcb, 0x2e, 0x3e, 0xd5, 0xb2, 0xb9, 0x3c,
  0x16, 0xeb, 0xa7, 0xbe, 0x71, 0x67, 0xee, 0xbd, 0x39, 0xc6, 0x7b, 0x3e,
  0xb0, 0x06, 0x23, 0xbe, 0x86, 0x99, 0x23, 0xbd, 0xc9, 0x00, 0xcd, 0x3e,
  0xe1, 0x7b, 0x56, 0xbd, 0xca, 0xc9, 0x4b, 0xbf, 0x41, 0x9b, 0x79, 0xbd,
  0x83, 0xb3, 0x6e, 0x3e, 0xd1, 0x1d, 0xeb, 0x3e, 0x41, 0xaf, 0x04, 0xbe,
  0x29, 0x4b, 0x27, 0xbd, 0x9e, 0x6e, 0x96, 0xbe, 0xae, 0x2d, 0x94, 0x3d,
  0x01, 0x15, 0x3a, 0x3e, 0x17, 0x5d, 0x33, 0xbf, 0x5f, 0x56, 0x18, 0x3d,
  0x41, 0x53, 0x14, 0xbf, 0xd8, 0x11, 0xc0, 0x3d, 0x7d, 0x80, 0x7b, 0x3e,
  0x9d, 0x62, 0x00, 0xbe, 0xa5, 0x90, 0x49, 0x3e, 0xb6, 0xf0, 0xb3, 0xbe,
  0x2b, 0x29, 0x37, 0xbf, 0xf2, 0x0e, 0x59, 0xbe, 0x06, 0xd5, 0x41, 0xbe,
  0xb8, 0xe2, 0x04, 0xbd, 0x45, 0x9a, 0xf0, 0xbe, 0xa1, 0xd4, 0x38, 0xbf,
  0xf4, 0xfd, 0x2c, 0x3e, 0x3c, 0xde, 0x35, 0xbf, 0x5c, 0x35, 0x8c, 0xbf,
  0x7a, 0x92, 0x11, 0xbf, 0x17, 0x86, 0x21, 0xbf, 0x73, 0xef, 0x26, 0x3e,
  0xa0, 0x5f, 0x98, 0xbc, 0xce, 0x95, 0x3d, 0xbe, 0xb7, 0x95, 0x2a, 0x3e,
  0xef, 0x81, 0x85, 0xbe, 0x7d, 0x82, 0xce, 0xbc, 0xb5, 0xab, 0x29, 0x3d,
  0x74, 0xba, 0x32, 0xbe, 0x06, 0xc7, 0xd2, 0x3e, 0x86, 0xd8, 0xa2, 0x3d,
  0xe6, 0x96, 0x36, 0xbd, 0xac, 0x5b, 0x81, 0x3e, 0xd1, 0x0c, 0xa6, 0x3a,
  0xa1, 0xf5, 0x52, 0xbf, 0x2d, 0x4e, 0xac, 0xbe, 0x4d, 0x19, 0x63, 0xbe,
  0xb9, 0x85, 0xc1, 0x3e, 0x4f, 0xb1, 0xa2, 0x3e, 0xb6, 0xdc, 0xf5, 0x3d,
  0x19, 0xe7, 0x3d, 0x3e, 0x72, 0xd1, 0x2e, 0x3e, 0x68, 0xe9, 0xab, 0xbd,
  0x88, 0xb5, 0x18, 0x3e, 0x96, 0xe6, 0xbc, 0xbe, 0xc9, 0x0d, 0x88, 0x3d,
  0x00, 0x80, 0xd3, 0x3d, 0x62, 0x1d, 0x8e, 0xbe, 0x97, 0xd5, 0x82, 0xbc,
  0x1c, 0x95, 0x5b, 0x3d, 0xe4, 0x6b, 0x16, 0xbd, 0xb2, 0xc7, 0x21, 0xbe,
  0x44, 0x97, 0x72, 0xbe, 0x2d, 0x8e, 0xca, 0xbd, 0xe7, 0xf8, 0x4a, 0x3e,
  0x85, 0xf0, 0x92, 0xbd, 0x63, 0x36, 0xeb, 0x3e, 0x8b, 0x2d, 0xb7, 0x3e,
  0x5c, 0xa4, 0xa6, 0xbd, 0x1f, 0x1d, 0x7f, 0xbe, 0x2c, 0x1b, 0xba, 0x3e,
  0xbe, 0xbf, 0x45, 0xbc, 0x06, 0xc8, 0xb8, 0x3e, 0xc0, 0x04, 0x38, 0xbf,
  0xa8, 0x66, 0xca, 0xbd, 0x72, 0x63, 0xeb, 0x3d, 0x11, 0x54, 0xbc, 0x3d,
  0x6b, 0xd6, 0xb7, 0x3c, 0x48, 0x01, 0xc5, 0xbe, 0x56, 0xfa, 0x99, 0xbe,
  0x1d, 0xcd, 0x5f, 0x3e, 0x74, 0xdd, 0x0f, 0x3e, 0xf2, 0xaf, 0x7c, 0x3d,
  0xf6, 0x2c, 0x46, 0x3e, 0xc1, 0x4e, 0x84, 0xbe, 0x00, 0xed, 0xb6, 0xbe,
  0xf4, 0x22, 0x1a, 0x3f, 0xc0, 0xb7, 0x9c, 0xbe, 0x2a, 0x0c, 0xfc, 0x3e,
  0x2f, 0x1c, 0x8c, 0xbe, 0xf9, 0x36, 0x90, 0xbe, 0xf4, 0xdb, 0x79, 0x3e,
  0xfb, 0xf9, 0x2f, 0xbe, 0x6d, 0x18, 0x92, 0xbe, 0x27, 0xf8, 0x06, 0xbf,
  0x24, 0xc6, 0x79, 0xbe, 0xea, 0x4b, 0x96, 0x3d, 0x13, 0x8e, 0x0c, 0x3d,
  0x6b, 0xe9, 0x4c, 0xbe, 0xaf, 0x78, 0x06, 0xbf, 0x6e, 0x81, 0x0f, 0x3d,
  0x6c, 0x1f, 0xbf, 0xbe, 0x69, 0xea, 0xc2, 0x3e, 0x48, 0xa9, 0x7e, 0x3e,
  0xd4, 0x53, 0xeb, 0xbe, 0x26, 0xd8, 0x8a, 0xbe, 0x73, 0xc1, 0xb2, 0xbd,
  0xa1, 0xe1, 0x29, 0xbd, 0xda, 0x8b, 0xd5, 0xbe, 0x3b, 0xf9, 0x43, 0xbe,
  0xc4, 0x7a, 0x66, 0x3e, 0x18, 0x0b, 0x37, 0xbd, 0x56, 0xf3, 0x5b, 0xbb,
  0x3e, 0xf1, 0x4f, 0xbd, 0xbe, 0x7c, 0xa3, 0xbe, 0x48, 0x2a, 0xf8, 0xbe,
  0xb0, 0x71, 0xd7, 0x3d, 0x3f, 0x2b, 0xa2, 0xbd, 0x6c, 0x7e, 0x51, 0xbe,
  0xa5, 0x54, 0xb1, 0x3d, 0x41, 0xa2, 0xb2, 0xbf, 0x8b, 0x77, 0x74, 0xbe,
  0x77, 0xac, 0xe4, 0xbe, 0xbd, 0x05, 0x0a, 0xbe, 0x05, 0x59, 0x4a, 0xbe,
  0xc1, 0x01, 0xa0, 0xbe, 0x92, 0x74, 0x18, 0x3e, 0xe2, 0xe5, 0xb5, 0xbe,
  0x6c, 0xc9, 0xc5, 0xbc, 0xfb, 0xb8, 0x5f, 0xbe, 0x01, 0xd0, 0x06, 0xbe,
  0xac, 0x78, 0x38, 0xbe, 0x6b, 0x59, 0x92, 0x3d, 0xf4, 0xe3, 0xeb, 0xbc,
  0x02, 0xeb, 0x86, 0xbd, 0xab, 0xec, 0xb6, 0x3d, 0xb1, 0xcd, 0x93, 0xbf,
  0xa9, 0x7e, 0x1d, 0xbf, 0x77, 0xc0, 0x16, 0xbe, 0x69, 0xb7, 0x87, 0x3d,
  0xeb, 0x39, 0x47, 0xbe, 0xd8, 0x6a, 0x4b, 0xbf, 0x45, 0xfa, 0x35, 0xbe,
  0x64, 0xd6, 0x15, 0xbf, 0xd0, 0xd7, 0xd2, 0xbe, 0x7f, 0x17, 0xc6, 0x3d,
  0x00, 0x7d, 0x46, 0xbe, 0xf1, 0xb8, 0x10, 0xbe, 0xf2, 0x49, 0xe7, 0x3d,
  0x56, 0x5b, 0xc6, 0xbd, 0x05, 0x01, 0xa0, 0x3e, 0xe0, 0x8f, 0x9a, 0xbe,
  0xee, 0x5b, 0xa9, 0xbe, 0x56, 0x54, 0x22, 0xbf, 0x5b, 0xf7, 0xa3, 0xbc,
  0xa1, 0x2b, 0xe6, 0x3d, 0x00, 0x14, 0x92, 0xbd, 0x1a, 0x51, 0x75, 0xbd,
  0xbe, 0xc4, 0x0a, 0xbf, 0x05, 0xa2, 0x91, 0xbe, 0xa1, 0x16, 0x58, 0xbe,
  0x48, 0xd5, 0x1d, 0x3e, 0xcd, 0x5d, 0x77, 0x3e, 0x34, 0x81, 0x9e, 0xbe,
  0x68, 0xd8, 0x51, 0x3d, 0xf4, 0xaa, 0x51, 0xbe, 0x76, 0xcb, 0x12, 0x3d,
  0x46, 0x08, 0xc8, 0x3d, 0x30, 0xc7, 0xef, 0x3c, 0x0c, 0x3c, 0xa2, 0xbe,
  0xf9, 0x4b, 0x1f, 0x3f, 0xa5, 0x3d, 0x65, 0x3d, 0xa5, 0x88, 0x50, 0xbe,
  0xf6, 0x9f, 0x18, 0xbe, 0x66, 0x21, 0xff, 0x3c, 0x43, 0xec, 0x7e, 0x3e,
  0x3c, 0x21, 0x1b, 0xbe, 0xc5, 0x94, 0x74, 0xbc, 0xe7, 0x96, 0x95, 0x3e,
  0xf2, 0xaf, 0x88, 0x3e, 0x44, 0x93, 0x3e, 0x3e, 0x82, 0x10, 0x13, 0x3e,
  0x84, 0x92, 0x8b, 0xbc, 0x6c, 0x89, 0xab, 0x3c, 0x7c, 0x70, 0xad, 0xbc,
  0xae, 0x5a, 0x3b, 0x3c, 0xeb, 0x06, 0x2b, 0x3e, 0x50, 0x91, 0xe8, 0x3d,
  0x91, 0xd6, 0x2f, 0xbe, 0x32, 0x9f, 0xa1, 0xbe, 0xa9, 0x69, 0xf2, 0xbc,
  0x63, 0x3b, 0x66, 0x3e, 0x08, 0xce, 0x97, 0xbe, 0xad, 0x46, 0x8a, 0x3e,
  0xad, 0x1e, 0x35, 0xbd, 0xa1, 0x2a, 0xbb, 0x3e, 0x46, 0x11, 0x99, 0x3d,
  0x98, 0x81, 0x7e, 0x3e, 0x81, 0xe1, 0x7c, 0xbe, 0x3e, 0x74, 0x9f, 0x3d,
  0x4c, 0xb3, 0x4b, 0x3e, 0x5a, 0xf6, 0x47, 0xbe, 0x79, 0xbc, 0x0b, 0x3f,
  0xfb, 0xbc, 0xf2, 0x3b, 0xd8, 0xb7, 0x45, 0xbd, 0x5e, 0x6b, 0x36, 0xbe,
  0xef, 0x9e, 0x22, 0xbf, 0x0d, 0x85, 0x72, 0x3e, 0x45, 0x6e, 0x29, 0xbd,
  0x5a, 0x4d, 0x2a, 0x3e, 0x15, 0xbd, 0x9a, 0x3d, 0x8e, 0x4d, 0xb7, 0x3e,
  0x19, 0xc1, 0xd5, 0xbd, 0x38, 0x94, 0x0d, 0xbf, 0xce, 0x16, 0x01, 0xbe,
  0x5e, 0xdd, 0xa6, 0x3e, 0xce, 0x80, 0xb2, 0x3e, 0xd4, 0x4d, 0x2b, 0xbf,
  0x64, 0xe5, 0x03, 0x3e, 0x4e, 0x75, 0x1e, 0x3d, 0x24, 0xaf, 0x04, 0xbe,
  0x0d, 0x79, 0xdf, 0xbe, 0x02, 0x3e, 0xa0, 0xbe, 0xef, 0x82, 0x61, 0xbd,
  0xae, 0x28, 0x68, 0x3e, 0xe2, 0x0f, 0x15, 0x3e, 0x74, 0x32, 0xe9, 0xbd,
  0xad, 0x8c, 0xc2, 0xbe, 0x82, 0xff, 0xc0, 0xbe, 0x96, 0xa3, 0x3f, 0xbf,
  0x8a, 0x53, 0xc7, 0x3d, 0x91, 0xdd, 0xba, 0x3d, 0xbe, 0x69, 0x73, 0xbe,
  0x80, 0xf0, 0x1c, 0xbf, 0xbd, 0xb9, 0xd4, 0xbe, 0xb9, 0x45, 0x2d, 0x3e,
  0x2e, 0x78, 0x43, 0x3e, 0xe0, 0xa7, 0x27, 0x3c, 0xf3, 0x25, 0x2e, 0xbb,
  0xcc, 0x5e, 0xb6, 0xbe, 0xf6, 0xaa, 0xa1, 0x3e, 0xd4, 0x5b, 0xcf, 0x3d,
  0x47, 0x21, 0x70, 0xbe, 0x02, 0x6b, 0x28, 0xbf, 0x8f, 0x80, 0x24, 0xbe,
  0x59, 0xc1, 0x0c, 0xbf, 0x42, 0x5a, 0x6b, 0x3e, 0x80, 0x6b, 0xa2, 0xbd,
  0xbb, 0x63, 0xd3, 0xbd, 0xb1, 0xf6, 0xa3, 0xbe, 0x50, 0xc9, 0xf1, 0xbd,
  0x21, 0x0d, 0x25, 0x3e, 0x2d, 0xae, 0x9f, 0x3d, 0xc7, 0x8a, 0xa7, 0x3e,
  0xe3, 0x3a, 0x18, 0xbe, 0xcf, 0x2e, 0x52, 0xbe, 0x70, 0xc7, 0xf6, 0x3d,
  0xfe, 0x25, 0xa1, 0x3e, 0xf1, 0xed, 0x1f, 0xbf, 0x12, 0x68, 0x43, 0xbb,
  0x64, 0xb8, 0xd4, 0xbd, 0xbc, 0x89, 0x39, 0xbf, 0x67, 0xcf, 0xf4, 0x3e,
  0xf3, 0x77, 0x93, 0x3e, 0xae, 0x03, 0x05, 0x3d, 0x7b, 0xfc, 0xb7, 0x3d,
  0x1b, 0xee, 0xfd, 0xbd, 0x0f, 0x17, 0xa8, 0xbe, 0xe2, 0x4c, 0x5d, 0x3d,
  0xd1, 0xf0, 0x74, 0x3d, 0xa5, 0xa8, 0xf7, 0x3e, 0x40, 0x69, 0x38, 0xbe,
  0x1a, 0xdc, 0xa3, 0x3d, 0xb5, 0x59, 0x06, 0xbf, 0x77, 0x89, 0x5c, 0xbe,
  0xf7, 0x35, 0x90, 0xbe, 0x08, 0xef, 0x55, 0xbe, 0xa1, 0x6c, 0xbb, 0xbe,
  0xf0, 0x02, 0xfa, 0x3e, 0x51, 0xb3, 0x4a, 0x3e, 0x65, 0x1a, 0xe8, 0xbd,
  0x32, 0x26, 0xeb, 0xbc, 0x9f, 0x3b, 0xc8, 0x3e, 0xa9, 0x77, 0x36, 0xbf,
  0xa6, 0xec, 0x28, 0x3e, 0xfc, 0x0e, 0xb4, 0x3e, 0x0a, 0x9a, 0x7b, 0x3e,
  0x66, 0x38, 0x86, 0xbc, 0xa1, 0xf2, 0x46, 0xbe, 0x68, 0x59, 0x84, 0x3d,
  0x71, 0xba, 0x7f, 0xbd, 0xf8, 0xe7, 0x26, 0xbf, 0x3d, 0xee, 0xfc, 0x3c,
  0xe4, 0x27, 0x0d, 0xbf, 0xc0, 0xbc, 0x29, 0x3f, 0x71, 0xaf, 0x8e, 0x3e,
  0xc8, 0xaf, 0xd8, 0xbe, 0xd5, 0x03, 0x7d, 0x3d, 0xa4, 0xfa, 0xb6, 0x3e,
  0x63, 0xcd, 0x15, 0xbe, 0xee, 0x1f, 0x03, 0xbe, 0x1e, 0x9a, 0x5c, 0x3e,
  0xf3, 0x48, 0x15, 0x3e, 0x90, 0xe5, 0x35, 0xbe, 0xb8, 0xfd, 0x47, 0x3e,
  0x18, 0x77, 0x96, 0x3e, 0xc7, 0x3b, 0x16, 0x3e, 0x8a, 0x0d, 0x2d, 0xbf,
  0x57, 0xaa, 0x25, 0x3d, 0x7b, 0x99, 0x30, 0xbf, 0x54, 0x4f, 0x69, 0x3d,
  0xd2, 0x4d, 0x47, 0x3e, 0xbc, 0x2a, 0x73, 0xbe, 0x67, 0xe4, 0xb0, 0x3e,
  0x24, 0x7b, 0x28, 0x3e, 0xc2, 0xbd, 0x21, 0xbf, 0x46, 0x06, 0x78, 0x3d,
  0x6f, 0xad, 0x01, 0xbc, 0x07, 0x87, 0x65, 0x3e, 0x07, 0x1e, 0x13, 0xbe,
  0xcd, 0x3f, 0x9c, 0x3d, 0xf7, 0x30, 0x49, 0x3e, 0x2e, 0x71, 0x7a, 0x3d,
  0x9e, 0xde, 0xd2, 0xbe, 0xd6, 0xa1, 0x22, 0x3e, 0x35, 0xc8, 0x12, 0xbe,
  0x21, 0x42, 0x6e, 0x3e, 0x75, 0x38, 0x7b, 0x3e, 0x29, 0xf6, 0x12, 0x3e,
  0xac, 0xef, 0x10, 0x3e, 0xf9, 0xf2, 0xe0, 0x3d, 0xd6, 0x3f, 0xb1, 0xbe,
  0x0a, 0x6b, 0xbd, 0x3b, 0x5a, 0x30, 0x3f, 0xba, 0xfb, 0x93, 0xb6, 0x3d,
  0xba, 0x57, 0xcc, 0x3c, 0xa3, 0x1d, 0x29, 0xbd, 0x81, 0xb8, 0xc3, 0x3e,
  0xb1, 0x51, 0xff, 0x3c, 0x20, 0xfc, 0x68, 0x3e, 0xbb, 0x6f, 0x9f, 0x3e,
  0xfc, 0x7e, 0x2c, 0xbe, 0x12, 0xc0, 0x7f, 0x3e, 0xac, 0x6f, 0x2b, 0x3e,
  0x82, 0x20, 0x40, 0x3e, 0x79, 0xba, 0x35, 0x3e, 0xfa, 0xc7, 0xc5, 0x3d,
  0xcf, 0xbd, 0xae, 0xbe, 0xe3, 0xa9, 0x6d, 0xbd, 0x7b, 0xcf, 0x1b, 0x3d,
  0x3b, 0xd3, 0xfa, 0x3d, 0x09, 0x0d, 0x81, 0x3c, 0xee, 0xd8, 0x9c, 0x3e,
  0xa3, 0x4e, 0xb9, 0x3e, 0xf5, 0xd8, 0x6f, 0x3e, 0x2c, 0x69, 0x65, 0xbe,
  0x86, 0x7c, 0x43, 0xbd, 0x61, 0x32, 0xcd, 0xbe, 0x13, 0x17, 0x69, 0x3e,
  0x0a, 0xd2, 0xaa, 0x3d, 0xd6, 0xa0, 0xf9, 0x3e, 0x4d, 0x4f, 0x36, 0x3e,
  0x60, 0x00, 0xaa, 0x3c, 0x58, 0x37, 0x9f, 0xbe, 0xab, 0x20, 0xbc, 0xbd,
  0x2c, 0x02, 0xf4, 0xbe, 0x83, 0x6c, 0xa7, 0x3d, 0x6b, 0x5f, 0x2b, 0xbd,
  0xa6, 0x75, 0xd8, 0x3d, 0x50, 0x28, 0x3a, 0x3e, 0xf5, 0x3b, 0x96, 0xbd,
  0xb3, 0x23, 0x3b, 0x3e, 0x4b, 0xe6, 0x8b, 0x3e, 0xcf, 0x0c, 0xd7, 0xbc,
  0x7a, 0x5f, 0x89, 0x3e, 0x37, 0x55, 0x17, 0x3e, 0xcb, 0x97, 0xd6, 0x3e,
  0x6d, 0x4f, 0x8a, 0x3e, 0x46, 0xd7, 0x4d, 0x3e, 0xc5, 0x3f, 0x01, 0xbf,
  0xcd, 0x71, 0x27, 0xbd, 0x88, 0x44, 0x6f, 0xbe, 0x8b, 0x04, 0x98, 0x3e,
  0xfe, 0x33, 0xc6, 0xbd, 0x24, 0xc5, 0x84, 0x3e, 0x0c, 0x59, 0xef, 0x3c,
  0xc0, 0x77, 0x01, 0xbe, 0x12, 0x1f, 0x24, 0x3e, 0x43, 0x0d, 0xa4, 0xbc,
  0x71, 0xba, 0x21, 0xbe, 0x10, 0x74, 0xbe, 0x3e, 0x97, 0xb5, 0xa6, 0x3e,
  0x90, 0x41, 0x84, 0x3e, 0x48, 0xcb, 0x51, 0x3e, 0xe3, 0x61, 0x97, 0x3e,
  0xf9, 0x8a, 0x0c, 0xbf, 0x03, 0x82, 0x49, 0xbe, 0xaf, 0xea, 0x2f, 0xbe,
  0x98, 0x27, 0x14, 0x3e, 0x77, 0x29, 0x58, 0x3b, 0x6a, 0xa6, 0x73, 0x3e,
  0x12, 0xe1, 0x59, 0xbe, 0xd2, 0x1d, 0x03, 0xbe, 0xe5, 0xcf, 0x25, 0xbf,
  0xae, 0x52, 0xa3, 0x3d, 0x05, 0x2c, 0xca, 0xbd, 0x51, 0x4e, 0x0b, 0x3e,
  0x8a, 0x3d, 0x69, 0x3e, 0xe3, 0x9d, 0xbd, 0xbe, 0x56, 0xd4, 0x81, 0x3e,
  0xec, 0xf3, 0x77, 0x3e, 0xe6, 0x0d, 0xe5, 0xbc, 0xb6, 0xb2, 0x5a, 0xbe,
  0x13, 0xa6, 0xc9, 0x3d, 0x34, 0x0e, 0x6e, 0x3d, 0xb3, 0x2d, 0x03, 0xbd,
  0xf0, 0x9d, 0x77, 0x3e, 0xe4, 0xc9, 0xbe, 0xbe, 0x47, 0xd8, 0x79, 0xbe,
  0x88, 0x26, 0x96, 0xbd, 0xa0, 0x7a, 0x80, 0x3c, 0x46, 0x59, 0x45, 0xbe,
  0xb3, 0xf7, 0x02, 0x3f, 0x37, 0x1a, 0x9c, 0x3e, 0x7b, 0xbd, 0x31, 0xbe,
  0xb9, 0x5e, 0x46, 0x3d, 0x17, 0xc3, 0x3d, 0x3e, 0xc3, 0x7c, 0x8d, 0xbe,
  0x76, 0x06, 0x22, 0xbe, 0xa2, 0xc2, 0x50, 0x3d, 0x7c, 0xaf, 0xc7, 0x3d,
  0x60, 0xad, 0x06, 0xbd, 0x57, 0x3e, 0xbd, 0x3e, 0xa4, 0xcc, 0x39, 0x3e,
  0x80, 0xf2, 0x09, 0xbd, 0xb1, 0x2f, 0xd2, 0xbe, 0x99, 0x66, 0xd2, 0xbc,
  0xb1, 0x78, 0xba, 0xbd, 0x12, 0x0a, 0x77, 0x3e, 0xbf, 0x7e, 0x0b, 0x3e,
  0xc4, 0x98, 0x04, 0xbf, 0xd3, 0x46, 0x04, 0xbe, 0x76, 0x8d, 0x97, 0x3d,
  0x60, 0x09, 0x07, 0xbf, 0xb5, 0x4c, 0x51, 0xbe, 0xfd, 0x7d, 0x5b, 0x3e,
  0xf3, 0x94, 0xbd, 0x3d, 0xe2, 0xb1, 0x63, 0xbd, 0xf6, 0xe9, 0x36, 0x3e,
  0x01, 0x6c, 0x6a, 0x3d, 0x19, 0xc8, 0xe3, 0x3c, 0x72, 0x1c, 0xf8, 0xbe,
  0xcc, 0x58, 0xa0, 0x3d, 0xf2, 0xf9, 0x09, 0xbe, 0x87, 0xc1, 0xb2, 0x3e,
  0x42, 0x08, 0x2f, 0x3e, 0xff, 0x44, 0x95, 0xbe, 0xdc, 0xea, 0x49, 0xbd,
  0xac, 0xa9, 0xf0, 0x3d, 0x17, 0x4d, 0x5b, 0xbf, 0x6f, 0xc6, 0x84, 0xbe,
  0xb5, 0xeb, 0xbc, 0x3e, 0xa1, 0xa4, 0x4a, 0x3e, 0x32, 0x24, 0xdd, 0x3d,
  0xb3, 0xa6, 0x89, 0x3d, 0xa0, 0xfc, 0x87, 0xbe, 0x43, 0x26, 0x1a, 0x3e,
  0xe2, 0x13, 0x1a, 0xbe, 0x4b, 0x71, 0xed, 0x3c, 0x5c, 0x7c, 0xcd, 0xbd,
  0xae, 0x74, 0xce, 0x3e, 0xdb, 0x63, 0xe6, 0x3d, 0x9f, 0x05, 0xb6, 0xbd,
  0x22, 0x50, 0xbd, 0xbe, 0xa7, 0x95, 0x91, 0xbd, 0xdd, 0xff, 0x7f, 0xbf,
  0xce, 0x90, 0xfd, 0xbd, 0x0c, 0xac, 0x82, 0x3e, 0x39, 0x3d, 0x54, 0x3e,
  0x72, 0x3e, 0xbf, 0xbc, 0xa8, 0x7e, 0x86, 0xbd, 0x8b, 0xdb, 0x41, 0x3f,
  0xa6, 0x18, 0xfc, 0x3e, 0x9a, 0x3f, 0x10, 0xbd, 0xa2, 0xc6, 0xef, 0x3e,
  0xcf, 0xcb, 0x3f, 0xbd, 0xf8, 0x64, 0x03, 0xbe, 0xb1, 0x7d, 0x61, 0xbf,
  0xde, 0xfd, 0x30, 0x3e, 0x6a, 0x34, 0xc6, 0xbe, 0x24, 0x76, 0xac, 0x3d,
  0x2e, 0xdd, 0x99, 0x3b, 0x30, 0x75, 0x9d, 0x3d, 0xfd, 0xd2, 0x8f, 0xbe,
  0x65, 0x1c, 0x2a, 0x3e, 0xea, 0xf4, 0x10, 0x3f, 0x35, 0x09, 0xc6, 0x3e,
  0x8a, 0x56, 0x53, 0x3d, 0xd4, 0xe8, 0xe4, 0x3e, 0x97, 0x5b, 0x21, 0x3e,
  0xcb, 0x92, 0x3c, 0x3e, 0x15, 0xd6, 0x00, 0xbe, 0x6b, 0x29, 0x40, 0x3e,
  0xcb, 0xa0, 0xec, 0xbd, 0x62, 0xb3, 0x98, 0x3e, 0xb5, 0xb5, 0x11, 0xbf,
  0xbf, 0xcd, 0xa3, 0xbe, 0x8f, 0x67, 0xb4, 0x3d, 0x3d, 0x57, 0x07, 0x3e,
  0xc0, 0x93, 0xeb, 0xbe, 0x22, 0xa0, 0x41, 0xbe, 0xc0, 0xa1, 0xac, 0xbc,
  0xb5, 0x88, 0x31, 0x3e, 0xee, 0x7b, 0x09, 0xbd, 0x59, 0x2a, 0x09, 0x3e,
  0x52, 0x52, 0x9a, 0xbb, 0xba, 0xaf, 0x8d, 0x3e, 0x61, 0x58, 0x44, 0xbe,
  0x78, 0xbc, 0xb3, 0x3e, 0xf8, 0xd3, 0xb8, 0xbe, 0x03, 0x49, 0x90, 0x3e,
  0x34, 0xe3, 0x08, 0x3d, 0xdc, 0xfd, 0xe3, 0xbe, 0x87, 0xe1, 0x22, 0x3e,
  0x87, 0x62, 0x96, 0x3e, 0x90, 0x1a, 0x65, 0x3d, 0x5f, 0x0a, 0xf8, 0xbd,
  0x12, 0x89, 0x32, 0xbe, 0xa6, 0xc8, 0xc1, 0x3d, 0x70, 0xd7, 0x50, 0xbe,
  0x4a, 0xc8, 0x91, 0x3d, 0x75, 0x67, 0x13, 0x3e, 0x7b, 0x00, 0x82, 0x3e,
  0x6e, 0x67, 0xaf, 0x3c, 0xcb, 0x5e, 0x89, 0x3e, 0xa2, 0x03, 0x0d, 0xbe,
  0xce, 0x36, 0xb7, 0xbe, 0x85, 0x95, 0x27, 0x3e, 0x43, 0xa6, 0xb9, 0xbe,
  0x9d, 0xc4, 0xe0, 0x3e, 0x87, 0xb1, 0xf5, 0x3d, 0x8b, 0x28, 0x41, 0x3e,
  0x6a, 0x57, 0x44, 0x3c, 0x1f, 0x96, 0x98, 0x3c, 0x4b, 0x3e, 0x30, 0x3e,
  0x08, 0xda, 0xa2, 0xbe, 0x8c, 0x73, 0xda, 0x3d, 0x73, 0xf1, 0xd0, 0xbd,
  0xf1, 0xe4, 0x95, 0x3e, 0x0b, 0xba, 0x0b, 0x3d, 0x8e, 0x3c, 0x1f, 0x3d,
  0x3b, 0xdf, 0xf9, 0xbd, 0x02, 0xee, 0xb3, 0xbe, 0x2c, 0xf5, 0x85, 0x3e,
  0x55, 0xa6, 0x92, 0xbe, 0x9d, 0x2d, 0x88, 0x3e, 0x78, 0xb2, 0x0a, 0x3d,
  0x49, 0xe9, 0xa4, 0x3e, 0x95, 0xc5, 0xb4, 0x3d, 0x2b, 0x7d, 0xb0, 0x3c,
  0xa6, 0x51, 0x85, 0x3e, 0xd5, 0xfd, 0x1d, 0x3e, 0xb1, 0xf5, 0xbb, 0x3d,
  0xb1, 0x6a, 0x96, 0x3d, 0x07, 0x79, 0x41, 0x3e, 0xee, 0xc2, 0x57, 0x3c,
  0x72, 0x31, 0x85, 0x3e, 0xd5, 0xd0, 0x1c, 0xbe, 0x17, 0x1e, 0x94, 0xbe,
  0x52, 0x94, 0x17, 0x3d, 0x4d, 0x95, 0x10, 0xbe, 0xb9, 0x80, 0x9f, 0x3e,
  0x6a, 0xfe, 0x57, 0xbd, 0xb3, 0xb4, 0x50, 0xbd, 0xd8, 0xdc, 0x1e, 0x3e,
  0x4c, 0xa5, 0x28, 0xbe, 0x1b, 0xa0, 0x45, 0x3e, 0x54, 0xdc, 0xef, 0x3d,
  0x3d, 0xde, 0x3b, 0xbe, 0xe7, 0xe9, 0x29, 0x3e, 0x22, 0x36, 0x23, 0xbe,
  0x07, 0xda, 0x54, 0xbd, 0xbb, 0xb6, 0xab, 0xbc, 0x6e, 0xaf, 0x8b, 0x3d,
  0xb2, 0x63, 0x28, 0xbe, 0x4b, 0xeb, 0xfb, 0x3c, 0xfa, 0xbc, 0x6b, 0x3c,
  0x83, 0x37, 0xec, 0x3d, 0x8c, 0x77, 0x04, 0xbe, 0x00, 0x74, 0x9e, 0x3e,
  0x11, 0x3a, 0x8e, 0x3e, 0x9c, 0x97, 0x81, 0x3d, 0xa8, 0xe5, 0xab, 0x3e,
  0xa6, 0x9d, 0xcd, 0x3a, 0x41, 0x52, 0xa0, 0xbc, 0x55, 0xd8, 0xa2, 0x3e,
  0x20, 0x93, 0x31, 0x3e, 0x71, 0x28, 0x26, 0xbe, 0x5f, 0x9f, 0xa6, 0xbe,
  0xd1, 0x48, 0x90, 0xbe, 0xf6, 0x25, 0xa4, 0xbd, 0x9d, 0x85, 0x54, 0xbe,
  0xa8, 0x75, 0x02, 0xbe, 0xf5, 0x39, 0x3e, 0x3e, 0x80, 0x5e, 0xdd, 0xbd,
  0x00, 0xdb, 0x2e, 0x3e, 0x7c, 0xaa, 0xda, 0x3e, 0x24, 0xff, 0xcf, 0x3d,
  0x3a, 0x44, 0x7a, 0x3e, 0xbe, 0x2c, 0x5d, 0x3e, 0x62, 0x0d, 0x73, 0x3e,
  0xd2, 0x50, 0x0f, 0x3e, 0xdf, 0x28, 0xa1, 0x3d, 0x64, 0x94, 0x02, 0xbe,
  0xfb, 0x89, 0xac, 0xbd, 0x54, 0x2f, 0x73, 0xbd, 0x8a, 0xd9, 0x51, 0x3e,
  0x06, 0x25, 0x8a, 0xbe, 0x76, 0x08, 0x6f, 0xbe, 0x14, 0x19, 0x52, 0x3e,
  0x43, 0x93, 0x4d, 0xbd, 0xa8, 0xd5, 0x5d, 0x3d, 0xd0, 0x3f, 0xcf, 0x3e,
  0x09, 0x2e, 0x1b, 0x3e, 0x29, 0xa1, 0x89, 0x3e, 0x72, 0xc5, 0xac, 0xbe,
  0xa8, 0x1c, 0x0e, 0xbf, 0x75, 0x18, 0x83, 0x3d, 0x34, 0x21, 0x8f, 0xbd,
  0xc7, 0x73, 0x78, 0x3d, 0xde, 0xfd, 0xc0, 0xbe, 0x11, 0xac, 0xc2, 0xbd,
  0xde, 0xe3, 0x56, 0xbe, 0x3e, 0xe8, 0x68, 0xbe, 0x5d, 0xe7, 0x54, 0xbe,
  0xb8, 0xc3, 0x92, 0x3e, 0xe4, 0xaf, 0xbd, 0xbe, 0x9b, 0x46, 0x56, 0x3e,
  0x9e, 0x2e, 0xc1, 0x3d, 0xd8, 0xdb, 0x18, 0x3e, 0x9b, 0xe6, 0xd1, 0x3e,
  0x32, 0x82, 0x1b, 0xbe, 0x41, 0x3b, 0x5a, 0xbe, 0x44, 0x2e, 0xa9, 0x3d,
  0xd6, 0x16, 0xc6, 0xbe, 0xda, 0x28, 0xde, 0xbd, 0x5b, 0x34, 0xe0, 0xbe,
  0xed, 0x30, 0x07, 0x3c, 0x33, 0x86, 0x4d, 0x3e, 0x6d, 0x1d, 0xfb, 0xbe,
  0xa2, 0x40, 0xc4, 0xbe, 0xca, 0x5d, 0x43, 0x3e, 0xd6, 0x25, 0x43, 0xbd,
  0xa5, 0xa3, 0xad, 0x3e, 0xe6, 0x26, 0xc8, 0x3d, 0x93, 0x1e, 0x83, 0x3d,
  0x6e, 0xc6, 0xc4, 0x3d, 0x8a, 0xf1, 0x49, 0xbf, 0x10, 0xe8, 0x62, 0x3e,
  0x30, 0x52, 0xa3, 0x3e, 0x16, 0x83, 0x1e, 0x3d, 0x88, 0x0e, 0x05, 0xbe,
  0xb5, 0xbb, 0x08, 0xbf, 0xcf, 0x68, 0x78, 0xbe, 0xcd, 0xaa, 0x37, 0x3e,
  0x36, 0x28, 0x4f, 0xbc, 0x02, 0x97, 0x21, 0xbf, 0x55, 0x47, 0x2c, 0x3e,
  0x35, 0xcb, 0x42, 0xbd, 0x28, 0xc2, 0xc6, 0x3d, 0xce, 0x2f, 0xaa, 0x3e,
  0x69, 0x04, 0x19, 0xbc, 0x61, 0x94, 0x34, 0xbe, 0x2e, 0x54, 0xaa, 0xbe,
  0x33, 0xd9, 0xe2, 0x3d, 0x4b, 0x20, 0xc5, 0xbd, 0xb8, 0x0c, 0x05, 0xbe,
  0xd0, 0x04, 0x9d, 0x3d, 0xbf, 0x11, 0xe9, 0xbe, 0x76, 0xea, 0x94, 0xbe,
  0x73, 0x4a, 0xf9, 0xbc, 0x7c, 0x40, 0x4e, 0x3d, 0x1d, 0xce, 0xbb, 0xbd,
  0xca, 0x19, 0xb2, 0x3c, 0xbb, 0x75, 0x52, 0xbe, 0xd9, 0xb6, 0xf9, 0xbd,
  0x24, 0x4c, 0xa1, 0x3e, 0x6b, 0xd7, 0x06, 0x3f, 0xdc, 0xca, 0x85, 0xbe,
  0x41, 0x74, 0xed, 0xbc, 0x3c, 0x1b, 0x43, 0x3e, 0xcf, 0x68, 0xa8, 0x3e,
  0xa5, 0xea, 0x87, 0xbd, 0xdc, 0xa0, 0x8a, 0x3d, 0x04, 0xc9, 0xb5, 0xbe,
  0x00, 0x34, 0x27, 0xbd, 0xbc, 0x81, 0x5f, 0xbc, 0xcb, 0x43, 0x44, 0x3e,
  0x59, 0xe6, 0xfd, 0x3d, 0x72, 0x61, 0x9d, 0xbc, 0x77, 0x43, 0x39, 0x3d,
  0x72, 0xb3, 0x9d, 0xbe, 0xc2, 0x3a, 0xbd, 0xbc, 0x82, 0x14, 0x84, 0x3e,
  0x63, 0x62, 0x00, 0xbc, 0x0d, 0x19, 0x38, 0xbc, 0x63, 0x77, 0x8a, 0x3e,
  0x61, 0xc0, 0xe3, 0xbd, 0xa3, 0xc4, 0x5b, 0x3d, 0x09, 0xad, 0x32, 0x3e,
  0x3d, 0x4c, 0xad, 0xbd, 0x8a, 0xde, 0x3a, 0xbf, 0x76, 0x8b, 0x0b, 0x3e,
  0x3e, 0xa2, 0x21, 0xbe, 0x9f, 0xe9, 0x9a, 0x3e, 0x60, 0x62, 0xf9, 0x3d,
  0x8d, 0x6a, 0xfb, 0x3d, 0xd4, 0x88, 0x75, 0xbe, 0xe3, 0xf0, 0xa9, 0xbe,
  0xf0, 0x82, 0xd8, 0xbe, 0x3a, 0xf2, 0x95, 0xbf, 0x13, 0x0c, 0x6c, 0x3d,
  0x82, 0xda, 0x00, 0x3f, 0xe4, 0xd4, 0x1a, 0x3f, 0x54, 0x06, 0x75, 0xbe,
  0x67, 0x1b, 0x8b, 0xbe, 0x2f, 0xdf, 0x44, 0xbe, 0x69, 0x50, 0xa7, 0xbd,
  0x4f, 0xfc, 0xb2, 0x3d, 0x10, 0x3d, 0x30, 0x3e, 0xbc, 0x0c, 0xe4, 0x3d,
  0x29, 0x2a, 0xf1, 0xbb, 0x39, 0xf8, 0x40, 0xbf, 0x03, 0x1e, 0xea, 0xbe,
  0xed, 0x21, 0x91, 0xbe, 0x60, 0x8e, 0x07, 0x3e, 0xf0, 0x5c, 0x4e, 0xbf,
  0x46, 0xff, 0x35, 0x3e, 0xde, 0x5b, 0x67, 0x3e, 0xd5, 0xa8, 0x67, 0x3f,
  0xb0, 0x1d, 0x25, 0xbe, 0xff, 0x9e, 0x86, 0x3e, 0x48, 0xc1, 0xea, 0xbe,
  0x4a, 0x55, 0xf5, 0x3d, 0x3d, 0x6b, 0xec, 0xbd, 0x16, 0x4b, 0x3c, 0x3c,
  0x80, 0x24, 0xa8, 0x3e, 0xc0, 0x99, 0x69, 0xbd, 0x56, 0xe9, 0x2c, 0xbf,
  0xe8, 0x48, 0x55, 0xbe, 0x2c, 0xac, 0xa8, 0xbe, 0xf4, 0x3a, 0xa1, 0x3e,
  0x3d, 0x0c, 0x4d, 0xbf, 0x8c, 0x6a, 0x20, 0x3e, 0xf3, 0xef, 0xe2, 0x3e,
  0xea, 0x6c, 0x0e, 0x3f, 0x04, 0x3e, 0x77, 0xbe, 0x5d, 0x51, 0x3b, 0x3e,
  0xdd, 0x08, 0x92, 0xbe, 0x30, 0x16, 0x52, 0x3e, 0xc8, 0xd8, 0x60, 0x3e,
  0xe8, 0xce, 0x09, 0xbf, 0x08, 0x27, 0x8d, 0x3e, 0x0c, 0x1f, 0x21, 0xbe,
  0x65, 0xdc, 0xc7, 0xbe, 0x74, 0xf8, 0xd1, 0xbe, 0x3e, 0xb5, 0xa5, 0xbe,
  0x87, 0x2d, 0x40, 0x3e, 0x35, 0x34, 0xea, 0xbe, 0x73, 0x09, 0x06, 0xbd,
  0xd9, 0x66, 0x32, 0x3e, 0xc4, 0x2c, 0xec, 0x3e, 0x78, 0xab, 0x45, 0xbf,
  0xba, 0x34, 0xbe, 0x3d, 0x6f, 0x25, 0xff, 0xbd, 0xb7, 0x92, 0x00, 0xbe,
  0xaf, 0x5f, 0xef, 0x3e, 0xc6, 0xac, 0x5b, 0xbe, 0xaf, 0x28, 0xdf, 0x3d,
  0x1f, 0x4b, 0x27, 0xbe, 0xcb, 0x1e, 0x27, 0x3e, 0xd1, 0xef, 0x52, 0xbf,
  0x4f, 0xab, 0x30, 0xbf, 0xb3, 0x9e, 0xb8, 0x3a, 0x54, 0x94, 0x9c, 0xbe,
  0x94, 0x14, 0xb3, 0xbd, 0xd8, 0xcd, 0x3a, 0xbe, 0xf8, 0xb1, 0xb7, 0x3e,
  0x4d, 0x56, 0xa7, 0xbe, 0x79, 0x8b, 0xb3, 0xbe, 0x3b, 0xe6, 0x0c, 0xbf,
  0xa4, 0x73, 0x65, 0xbe, 0xb9, 0x6c, 0x87, 0x3e, 0x95, 0x8a, 0x53, 0x3e,
  0x35, 0x43, 0xf0, 0x3c, 0xa8, 0x7a, 0x1c, 0x3e, 0x8b, 0xcb, 0x17, 0xbc,
  0x1e, 0xaa, 0x2b, 0xbf, 0x1c, 0x9c, 0xe1, 0xbe, 0x51, 0xf8, 0xe4, 0xbb,
  0xca, 0x54, 0xd4, 0xbe, 0x41, 0x26, 0x4c, 0x3c, 0x31, 0x1a, 0x04, 0xbd,
  0x97, 0xcd, 0x77, 0x3e, 0xa3, 0xf5, 0x83, 0xbd, 0x3c, 0xec, 0x07, 0xbe,
  0x9b, 0x70, 0x81, 0xbe, 0x9e, 0xe5, 0x8f, 0xbd, 0x15, 0x6a, 0x44, 0x3d,
  0xfe, 0xb5, 0x82, 0x3e, 0xdf, 0x88, 0x1f, 0xbe, 0xfa, 0xa0, 0x82, 0x3b,
  0xf0, 0xa1, 0xda, 0x3d, 0xe3, 0x7d, 0x07, 0xbd, 0xa1, 0xf8, 0x98, 0x3d,
  0xa9, 0xe4, 0x82, 0xbc, 0x11, 0x84, 0x97, 0x3c, 0xfb, 0x80, 0x20, 0xbd,
  0x60, 0xed, 0x70, 0x3e, 0xc7, 0x03, 0xa4, 0x3d, 0xff, 0x81, 0x44, 0xbe,
  0xf0, 0xdd, 0x17, 0xbe, 0x91, 0x86, 0x6c, 0xbe, 0xee, 0xa6, 0xae, 0xbd,
  0xb4, 0x8a, 0xbf, 0xbc, 0xcd, 0xc8, 0x5b, 0x3e, 0xee, 0xbc, 0xf5, 0xbe,
  0xca, 0x75, 0xf3, 0x3d, 0x37, 0x9c, 0x48, 0x3e, 0x34, 0x06, 0x2f, 0x3e,
  0xc5, 0x5b, 0xe3, 0xbe, 0xef, 0x99, 0x69, 0xbe, 0x9b, 0xec, 0x10, 0x3c,
  0xa4, 0x90, 0xcf, 0xbd, 0x12, 0x0f, 0x9c, 0xbc, 0xbb, 0xba, 0x51, 0xbd,
  0x6b, 0x7d, 0xb3, 0xbd, 0x73, 0x7f, 0x0c, 0x3e, 0xfe, 0xe6, 0xff, 0xbc,
  0xf1, 0x4d, 0x3a, 0xbe, 0xcd, 0xd7, 0x06, 0x3f, 0x00, 0x90, 0x9a, 0x3e,
  0xe6, 0x73, 0x07, 0xbe, 0x72, 0xb7, 0xe8, 0xbc, 0xdf, 0x63, 0x13, 0x3e,
  0x5d, 0x36, 0x4e, 0x3e, 0x67, 0xc6, 0x56, 0xbd, 0x7c, 0x37, 0xb3, 0xbd,
  0xff, 0xdf, 0x82, 0x3e, 0xc7, 0x53, 0x96, 0xbc, 0x8c, 0x1d, 0x18, 0xbe,
  0x9f, 0xa6, 0xa3, 0xbe, 0x8f, 0x46, 0xac, 0xbe, 0x3c, 0x5c, 0x85, 0xbe,
  0xc1, 0xe2, 0x33, 0xbe, 0xb1, 0x65, 0xf9, 0x3d, 0xdd, 0x9f, 0x32, 0x3e,
  0xf1, 0x30, 0xc3, 0x3c, 0x14, 0x09, 0x01, 0x3e, 0x01, 0x25, 0xa2, 0x3b,
  0xe5, 0xdc, 0x53, 0x3e, 0xa3, 0x74, 0x10, 0x3e, 0x44, 0x17, 0x38, 0x3c,
  0x39, 0x83, 0x14, 0xbe, 0x50, 0xef, 0x94, 0x3c, 0x80, 0xe9, 0xef, 0xbd,
  0xa5, 0xa0, 0x90, 0xbe, 0xf0, 0xe7, 0x8d, 0xbd, 0xcb, 0xf4, 0x0c, 0xbe,
  0xe6, 0xd5, 0x9b, 0xbe, 0x80, 0xf7, 0x48, 0xbd, 0xd8, 0x9b, 0x82, 0x3d,
  0xdb, 0xa2, 0xb6, 0xbd, 0x6d, 0xae, 0xb0, 0xbd, 0xea, 0x58, 0x6c, 0x3e,
  0xb6, 0x65, 0xb1, 0xbd, 0x4f, 0xea, 0x35, 0x3e, 0xb9, 0x76, 0x1c, 0x3e,
  0xc8, 0x61, 0x6a, 0xbe, 0x38, 0x9b, 0xe3, 0xbe, 0x85, 0x29, 0xb2, 0x3e,
  0xe5, 0xf1, 0x51, 0x3c, 0x81, 0x2b, 0x93, 0xbe, 0x30, 0x14, 0x1e, 0xbf,
  0x1a, 0x08, 0x84, 0xbd, 0x31, 0x62, 0xb0, 0xbe, 0xcf, 0x1c, 0x2a, 0x3e,
  0x4f, 0xe5, 0x80, 0xbc, 0xeb, 0x57, 0xff, 0x3d, 0x47, 0x05, 0x16, 0xbe,
  0x65, 0x6d, 0xfb, 0xbd, 0xa8, 0x91, 0xf6, 0xbd, 0xd2, 0xda, 0x87, 0x3e,
  0xdd, 0xae, 0xb9, 0x3d, 0x50, 0x60, 0x14, 0xbe, 0xaf, 0x8b, 0x3f, 0xbe,
  0xe8, 0x06, 0xf6, 0xbd, 0x56, 0x7e, 0xce, 0xbd, 0x34, 0x23, 0xc4, 0xbe,
  0xd9, 0x98, 0xc0, 0xbe, 0x62, 0x69, 0x54, 0xbe, 0xab, 0x57, 0xe2, 0xbc,
  0x44, 0xff, 0xea, 0xbd, 0x20, 0xaa, 0x0a, 0x3e, 0x17, 0xcd, 0x41, 0xbf,
  0x31, 0x3f, 0x4c, 0xbe, 0xf8, 0x09, 0xe9, 0xbe, 0x0a, 0x02, 0x2b, 0xbc,
  0xb8, 0x7d, 0x57, 0x3d, 0x02, 0x5d, 0x88, 0x3e, 0xcc, 0x95, 0x35, 0x3e,
  0x8e, 0xbe, 0xdf, 0xbe, 0x9f, 0x7c, 0x03, 0xbe, 0xfd, 0x71, 0xe2, 0xbb,
  0x4a, 0xb2, 0xca, 0xbd, 0x05, 0xea, 0xed, 0xbe, 0x19, 0x37, 0x73, 0x3c,
  0x7e, 0xda, 0x49, 0xbe, 0x31, 0x34, 0x89, 0xbe, 0xda, 0x1c, 0xb7, 0xbd,
  0x8f, 0x74, 0xb7, 0xbd, 0x32, 0xe1, 0xa5, 0xbe, 0x67, 0x13, 0x4e, 0xbd,
  0x3b, 0x3d, 0xd4, 0xbc, 0xf7, 0x3b, 0x63, 0x3d, 0xf6, 0xf9, 0xa5, 0x3d,
  0x57, 0xc8, 0x88, 0x3d, 0x71, 0x7a, 0x31, 0xbd, 0x54, 0x13, 0x62, 0xbd,
  0xd0, 0x68, 0x2d, 0x3f, 0x82, 0x6c, 0x24, 0x3f, 0x02, 0x93, 0xf9, 0xbe,
  0xe4, 0xd9, 0xa9, 0x3e, 0x02, 0x77, 0xaa, 0x3b, 0x44, 0xec, 0x6d, 0xbe,
  0xe6, 0x1e, 0x98, 0xbf, 0xcf, 0xa6, 0x54, 0xbd, 0x7e, 0xd0, 0x80, 0xbd,
  0x2a, 0xfc, 0x73, 0x3e, 0x8e, 0xa0, 0xc6, 0x3d, 0x45, 0x5f, 0x70, 0xbe,
  0x12, 0x3f, 0x16, 0xbe, 0xb3, 0xee, 0x55, 0xbd, 0x61, 0xf9, 0xa3, 0xbd,
  0x0a, 0xe2, 0xe9, 0x3e, 0xa9, 0x85, 0xb5, 0x3c, 0x78, 0x1b, 0xb1, 0x3e,
  0xae, 0x49, 0x7c, 0x3e, 0x65, 0x74, 0x84, 0xbd, 0x87, 0xb1, 0xf8, 0xbd,
  0xc6, 0x57, 0x5d, 0x3e, 0x96, 0xc8, 0x35, 0xbe, 0x21, 0x6a, 0x46, 0x3e,
  0xf6, 0x2b, 0x64, 0xbe, 0xa7, 0xbb, 0xbb, 0xbe, 0x6e, 0x05, 0x45, 0xbd,
  0xd4, 0x5a, 0x80, 0x3b, 0x7e, 0x98, 0x9a, 0xbe, 0x2e, 0x3f, 0xe5, 0xbe,
  0x5e, 0x3e, 0xd7, 0xbe, 0xa4, 0x89, 0x5b, 0x3e, 0xb9, 0xd3, 0x82, 0xbd,
  0x99, 0xed, 0xcd, 0xbe, 0x3f, 0xf3, 0x09, 0x3e, 0x4f, 0xee, 0xdf, 0x3d,
  0x80, 0xfb, 0xd6, 0xbd, 0x53, 0xd6, 0x0a, 0x3f, 0xdc, 0xb1, 0x1d, 0xbf,
  0x8a, 0x77, 0x00, 0x3f, 0xf0, 0x45, 0xc5, 0xbd, 0x15, 0x4b, 0xdf, 0xbd,
  0xfb, 0xb3, 0x5b, 0x3e, 0xc5, 0x45, 0x83, 0x3d, 0xbb, 0x96, 0x02, 0xbe,
  0x06, 0x0a, 0x09, 0xbf, 0x08, 0x0c, 0x82, 0x3e, 0xcb, 0x47, 0xca, 0xbe,
  0x78, 0xea, 0xf9, 0x3d, 0xee, 0x9d, 0xba, 0x3d, 0xb4, 0x3e, 0x55, 0xbf,
  0x0f, 0x4a, 0x88, 0x3e, 0x1a, 0x60, 0x91, 0x3e, 0xed, 0x48, 0x24, 0x3e,
  0x76, 0xba, 0x90, 0xbe, 0xb8, 0xeb, 0x54, 0xbe, 0x6f, 0xc7, 0x83, 0x3e,
  0x74, 0x04, 0x90, 0x3e, 0xb2, 0x20, 0x77, 0x3d, 0xfb, 0xf5, 0x81, 0xbd,
  0x57, 0xdc, 0x17, 0x3e, 0x66, 0xc4, 0x62, 0xbe, 0x0f, 0x02, 0x1a, 0x3e,
  0x54, 0x4b, 0x0d, 0xbe, 0x25, 0xe2, 0xc5, 0x3d, 0xb8, 0xb8, 0x53, 0x3e,
  0x69, 0xc8, 0x79, 0x3d, 0x7d, 0x1b, 0xbe, 0xbd, 0x47, 0x7c, 0x36, 0x3d,
  0x3f, 0x74, 0xd5, 0x3e, 0xe3, 0xdc, 0x7e, 0xbe, 0x07, 0x53, 0x92, 0x3d,
  0x4a, 0x3d, 0x6d, 0xbe, 0x6a, 0xee, 0x32, 0x3e, 0x05, 0xf6, 0xf5, 0x3d,
  0xa0, 0x5a, 0x00, 0xbe, 0xa9, 0x12, 0x9c, 0x3d, 0x31, 0x35, 0x4d, 0xbe,
  0x6e, 0xf5, 0xbc, 0xbd, 0x13, 0x6d, 0x0d, 0xbe, 0x4e, 0x6c, 0x02, 0xbe,
  0xc4, 0xc6, 0x89, 0x3e, 0x14, 0x4a, 0x0e, 0x3e, 0x31, 0xca, 0x24, 0xbe,
  0x2f, 0xd0, 0x1e, 0xbe, 0xf6, 0xff, 0xe8, 0x3e, 0xfa, 0x9b, 0xb1, 0xbe,
  0x9d, 0x45, 0xb2, 0x3e, 0x0e, 0xb3, 0xb2, 0x3e, 0xb1, 0x56, 0xc0, 0xbd,
  0xf0, 0x78, 0xb1, 0x3e, 0xcc, 0x8f, 0x73, 0xbe, 0x57, 0xf3, 0x8e, 0xbd,
  0x7b, 0x30, 0xaf, 0xbe, 0xc9, 0xe3, 0xa0, 0x3e, 0xc7, 0x3f, 0x92, 0x3d,
  0x0d, 0x22, 0xd3, 0xbc, 0xce, 0xef, 0x5a, 0x3e, 0x72, 0x64, 0x3a, 0xbe,
  0x24, 0x0f, 0xef, 0x3c, 0x10, 0x4d, 0xcd, 0xbe, 0xe3, 0x4a, 0xd6, 0xbb,
  0xa4, 0x2c, 0xcd, 0xbe, 0xa9, 0x73, 0xc1, 0x3e, 0x3c, 0xd7, 0x0b, 0x3e,
  0xcf, 0xf5, 0x49, 0x3d, 0x7e, 0x1b, 0x8c, 0xbc, 0xe9, 0xde, 0x4a, 0xbe,
  0xb3, 0xa2, 0x92, 0xbe, 0x21, 0x63, 0xbf, 0xbe, 0xc4, 0x26, 0x8c, 0x3e,
  0x8d, 0x88, 0xaa, 0xbd, 0x29, 0x3b, 0x90, 0xbe, 0xa6, 0x11, 0x40, 0xbe,
  0xae, 0x19, 0x64, 0xbd, 0xc3, 0x36, 0xad, 0x3c, 0x47, 0x50, 0x13, 0xbe,
  0xaf, 0xaa, 0x0c, 0xbe, 0x54, 0xac, 0x14, 0xbf, 0x85, 0x3d, 0x8a, 0xbd,
  0x20, 0xed, 0x5b, 0x3e, 0x2e, 0xad, 0x98, 0xbe, 0x00, 0xa7, 0x82, 0x3d,
  0xac, 0x48, 0x8d, 0xbe, 0x3e, 0xc0, 0x01, 0xbf, 0xf7, 0x93, 0x96, 0xbd,
  0xb1, 0x3f, 0x2f, 0x3d, 0x13, 0xbc, 0x85, 0xbe, 0x32, 0x21, 0x12, 0x3e,
  0x43, 0x5b, 0x22, 0xbe, 0x95, 0x96, 0xb8, 0xbd, 0x73, 0x54, 0x0e, 0x3e,
  0x29, 0x99, 0x7b, 0xbe, 0x3c, 0xdd, 0x2c, 0x3e, 0x34, 0xc3, 0x3b, 0xbf,
  0xe6, 0x22, 0x7e, 0x3e, 0x8f, 0x48, 0x32, 0x3e, 0xa8, 0x4b, 0x9d, 0xbe,
  0x3e, 0xe2, 0x3a, 0x3e, 0xa4, 0x11, 0xcc, 0xbd, 0x7a, 0x0f, 0x9b, 0x3e,
  0x67, 0x3d, 0xe9, 0xbe, 0x25, 0x57, 0x28, 0x3d, 0x71, 0x58, 0xb8, 0xbe,
  0xd9, 0x6e, 0xd8, 0x3d, 0xd8, 0x42, 0xc7, 0xbd, 0x7a, 0x99, 0x9e, 0xbe,
  0x1f, 0xfa, 0x90, 0xbb, 0x09, 0x70, 0xbc, 0xbe, 0x4a, 0x22, 0xb4, 0x3d,
  0x64, 0x2b, 0xf7, 0xbe, 0x23, 0x7a, 0x88, 0x3e, 0x2a, 0x77, 0xca, 0x3c,
  0xda, 0x5e, 0xea, 0xbe, 0x0d, 0x30, 0x9f, 0x3d, 0xd3, 0x26, 0x17, 0xbe,
  0x8c, 0x74, 0xac, 0xbe, 0x91, 0xfb, 0xd9, 0xbe, 0xd3, 0x9b, 0x22, 0x3f,
  0x44, 0x12, 0x91, 0xbe, 0x6a, 0xa1, 0x2a, 0x3e, 0xee, 0x8f, 0xa8, 0x3e,
  0x50, 0x5d, 0xf3, 0xbe, 0x16, 0xcf, 0x39, 0xbd, 0x70, 0x50, 0x4f, 0xbe,
  0x30, 0x92, 0x1e, 0x3e, 0x5a, 0x89, 0x69, 0xbe, 0xba, 0x3c, 0x27, 0xbe,
  0x1a, 0xc9, 0xf7, 0x3d, 0x37, 0xa5, 0xf5, 0xbe, 0xc6, 0xd7, 0x33, 0x3e,
  0xe8, 0x4f, 0x77, 0xbd, 0x3e, 0xf1, 0x87, 0xbe, 0x3f, 0x9b, 0x5a, 0x3e,
  0x1c, 0xa4, 0x12, 0x3b, 0x11, 0xba, 0xad, 0x3d, 0x48, 0xe0, 0x5e, 0x3e,
  0x26, 0x63, 0x10, 0x3f, 0xc6, 0x4c, 0x56, 0xbe, 0xcf, 0xda, 0x81, 0xbc,
  0x6c, 0x28, 0xc1, 0x3c, 0x0e, 0x20, 0x77, 0xbd, 0x25, 0xa8, 0x85, 0xbe,
  0xd5, 0x05, 0xab, 0x3e, 0x09, 0x1d, 0x15, 0xbd, 0xdc, 0xe0, 0xcd, 0xbd,
  0x5b, 0xdd, 0x7b, 0x3e, 0x40, 0x08, 0xbd, 0x3d, 0xb1, 0xc9, 0x02, 0xbe,
  0x84, 0x7e, 0x9c, 0xbe, 0xf0, 0x63, 0xa5, 0x3d, 0xf9, 0x6e, 0x11, 0x3e,
  0x5d, 0xc7, 0x22, 0xbe, 0x99, 0x3b, 0x45, 0x3f, 0xd8, 0xb4, 0xa4, 0x3e,
  0x59, 0xe4, 0xcb, 0x3d, 0x14, 0xc2, 0xc7, 0xbd, 0xf5, 0x75, 0xb5, 0xbd,
  0x36, 0xeb, 0x7d, 0xbe, 0x6c, 0x87, 0xe0, 0x3e, 0x8f, 0x29, 0x20, 0xbe,
  0x93, 0x38, 0x2c, 0xbe, 0x99, 0xe5, 0x00, 0x3e, 0xd3, 0xca, 0x86, 0x3e,
  0x2c, 0x67, 0xa5, 0xbe, 0x76, 0x06, 0xf8, 0xbe, 0x18, 0x5d, 0xb7, 0xbe,
  0xf4, 0x99, 0x97, 0x3d, 0x6d, 0xa0, 0xe7, 0x3d, 0x28, 0x99, 0x75, 0x3d,
  0xbc, 0xa3, 0x0d, 0x3e, 0x51, 0x3e, 0x6e, 0xbd, 0x68, 0x91, 0x31, 0xbe,
  0xbd, 0x0d, 0x2f, 0xbe, 0xf7, 0x74, 0x52, 0xbe, 0xe8, 0x14, 0x12, 0x3e,
  0x77, 0x0c, 0x05, 0x3e, 0xb0, 0x10, 0x1d, 0xbe, 0xfb, 0x2c, 0x88, 0x3d,
  0x67, 0x7f, 0x17, 0xbc, 0x08, 0x71, 0x04, 0xbe, 0x0f, 0x07, 0x2f, 0xbf,
  0xc5, 0xbd, 0x90, 0x3e, 0x30, 0x4b, 0xc4, 0x3b, 0xb0, 0x0b, 0x9c, 0x3e,
  0x05, 0x1a, 0x31, 0x3e, 0xc6, 0xb0, 0xfe, 0xbc, 0xfa, 0xe4, 0x42, 0xbe,
  0x9a, 0xfd, 0x99, 0xbe, 0xfc, 0x63, 0x4b, 0xbd, 0x9a, 0xa0, 0x60, 0xbf,
  0xd9, 0xc3, 0x5f, 0x3e, 0x71, 0xe5, 0xb4, 0xbe, 0x0e, 0xbf, 0xf9, 0xbd,
  0x4b, 0xe3, 0xe3, 0x3c, 0x30, 0x5f, 0x3d, 0xbd, 0xf5, 0xef, 0xce, 0xbd,
  0x0c, 0x61, 0x75, 0xb9, 0x54, 0x77, 0x4f, 0x3e, 0xd4, 0xec, 0x6b, 0xbd,
  0x40, 0x57, 0x1e, 0xbd, 0xc6, 0x96, 0xca, 0xbe, 0x30, 0x54, 0x34, 0xbe,
  0xbe, 0xdc, 0x4e, 0x3e, 0x04, 0x40, 0x2f, 0xbe, 0xbd, 0x06, 0x99, 0x3e,
  0xa4, 0x68, 0xf6, 0xbd, 0xc9, 0x8c, 0x66, 0x3e, 0x78, 0x62, 0x06, 0xbf,
  0xbb, 0x11, 0x0f, 0x3d, 0x37, 0xef, 0x33, 0xbe, 0x13, 0x0d, 0x4f, 0x3d,
  0x0a, 0xc1, 0xd4, 0xbe, 0x24, 0xd5, 0x1b, 0xbf, 0xcd, 0x22, 0xc0, 0x3d,
  0xdb, 0x61, 0x28, 0xbe, 0x79, 0x65, 0xd6, 0x3d, 0xff, 0xd4, 0x4d, 0xbf,
  0x19, 0xb1, 0xe1, 0x3c, 0xea, 0x1e, 0x4c, 0xbe, 0x83, 0xfa, 0x97, 0xbe,
  0x73, 0x69, 0x7b, 0x3e, 0x44, 0x0b, 0x5b, 0xbe, 0x55, 0x93, 0x9a, 0x3d,
  0x4a, 0x55, 0x71, 0x3e, 0xe6, 0xa3, 0x8f, 0xbd, 0x9d, 0x86, 0x94, 0xbe,
  0x37, 0xa7, 0x55, 0xbd, 0xd8, 0x41, 0x20, 0x3e, 0x96, 0x69, 0x13, 0x3e,
  0x43, 0x85, 0x0f, 0xbe, 0x20, 0xb5, 0xc2, 0xbe, 0xca, 0x8e, 0xd6, 0x3d,
  0x65, 0x8a, 0xfb, 0xbe, 0x6d, 0x43, 0x90, 0x3d, 0xc6, 0xfe, 0x2e, 0xbb,
  0x84, 0xcf, 0x99, 0xbe, 0xa1, 0x1f, 0x37, 0x3e, 0x44, 0xbb, 0xfe, 0xbd,
  0x40, 0x0c, 0x85, 0x3e, 0xb7, 0x8e, 0x1d, 0xbf, 0xec, 0x26, 0x01, 0xbe,
  0xd7, 0x1a, 0xa0, 0x3e, 0xcb, 0xca, 0xd7, 0xbb, 0x0a, 0x28, 0x10, 0xbe,
  0x4b, 0xbc, 0x9a, 0xbd, 0xda, 0x45, 0x80, 0x3e, 0x93, 0x77, 0x8d, 0x3d,
  0xee, 0x56, 0x8f, 0xbd, 0x65, 0x30, 0x84, 0xbc, 0xd5, 0x66, 0xed, 0xbd,
  0x6f, 0xfe, 0x01, 0xbe, 0x9f, 0x37, 0x83, 0x3e, 0x7e, 0x6d, 0xf0, 0x3d,
  0x84, 0x1f, 0x40, 0x3e, 0x69, 0x13, 0xab, 0x3e, 0x90, 0xe8, 0x67, 0xbe,
  0xc7, 0xa6, 0x89, 0xbe, 0x7f, 0x4b, 0xf2, 0xbe, 0xc0, 0x8c, 0xd4, 0x3b,
  0x0b, 0x63, 0x06, 0xbe, 0x70, 0x50, 0xa2, 0xbd, 0xe7, 0xe6, 0x66, 0xbd,
  0xdd, 0x39, 0xa8, 0x3e, 0x06, 0x0b, 0xf6, 0x3d, 0x5a, 0xbd, 0x2d, 0xbe,
  0xa4, 0x0c, 0xeb, 0xbe, 0x71, 0xfb, 0x00, 0x3d, 0xc7, 0x5b, 0xb0, 0xbc,
  0xed, 0xa3, 0x23, 0x3e, 0x8a, 0x2d, 0x8d, 0xbe, 0x6b, 0x7c, 0xa2, 0xbb,
  0x9d, 0x00, 0xd7, 0xbe, 0x27, 0x27, 0x76, 0x3d, 0x32, 0x12, 0x60, 0xbf,
  0xba, 0x6e, 0x5f, 0xbd, 0xae, 0x98, 0xfd, 0xbd, 0xef, 0x36, 0x3f, 0xbe,
  0x0d, 0x0a, 0xdc, 0xbe, 0x27, 0x16, 0x99, 0xbc, 0xad, 0xf6, 0x27, 0xbf,
  0x57, 0x3e, 0xfd, 0xbe, 0x02, 0x41, 0x7c, 0xbe, 0x5a, 0xc9, 0x76, 0xbd,
  0x31, 0x4d, 0xe0, 0x3d, 0x42, 0x8c, 0x83, 0x3e, 0x6f, 0xf6, 0xda, 0xbd,
  0xac, 0xde, 0xf8, 0x3d, 0xde, 0x21, 0x08, 0xbe, 0xb5, 0x79, 0x18, 0x3d,
  0x99, 0x31, 0x43, 0xbf, 0x1b, 0x9f, 0x1c, 0xbd, 0xef, 0xca, 0x18, 0xbe,
  0x13, 0xf2, 0x9d, 0x3c, 0x2d, 0x95, 0x06, 0xbe, 0x54, 0x36, 0xd5, 0xbd,
  0xfe, 0x91, 0x2d, 0xbf, 0x4e, 0x5b, 0x10, 0x3e, 0x1c, 0x5a, 0x16, 0x3e,
  0x18, 0x86, 0x60, 0x3e, 0x7d, 0x53, 0xa4, 0xbd, 0xe8, 0x91, 0xc0, 0x3d,
  0x35, 0xff, 0xd5, 0xbe, 0x19, 0xc4, 0x1d, 0x3e, 0xa4, 0xa3, 0xe8, 0xbe,
  0x29, 0x35, 0x09, 0x3e, 0xac, 0x8b, 0x9d, 0xbc, 0x76, 0xc7, 0xf0, 0xbd,
  0x30, 0xad, 0xae, 0xbc, 0x45, 0x69, 0xdf, 0xbd, 0x2e, 0x50, 0x03, 0xbf,
  0x71, 0x77, 0x56, 0x3d, 0x91, 0x2b, 0xa2, 0xbd, 0xac, 0xc4, 0x16, 0xbf,
  0xf1, 0xbb, 0xd4, 0xbe, 0x41, 0x30, 0x96, 0x3d, 0xe5, 0xa4, 0x00, 0xbd,
  0xf6, 0x97, 0x72, 0x3c, 0x21, 0x44, 0xb3, 0xbe, 0x4f, 0x95, 0x86, 0x3d,
  0x61, 0x93, 0x7f, 0xbc, 0x35, 0x1b, 0xb4, 0x3e, 0xe3, 0xff, 0xc5, 0xbe,
  0x19, 0xe0, 0x18, 0x3d, 0xc2, 0xcc, 0x50, 0xbe, 0x94, 0x49, 0x48, 0xbf,
  0xca, 0x62, 0x5b, 0xbf, 0x73, 0x79, 0xcc, 0x3d, 0xd3, 0xc2, 0x73, 0x3e,
  0xab, 0x0c, 0x66, 0x3d, 0x85, 0xca, 0xbd, 0x3e, 0xf3, 0xa3, 0x2b, 0xbe,
  0x25, 0x94, 0x8a, 0xbf, 0x3d, 0xb6, 0x4a, 0xbe, 0x47, 0x25, 0x8d, 0xbe,
  0xcb, 0xb0, 0x5a, 0x3e, 0x19, 0x50, 0xc4, 0x3a, 0x01, 0xcd, 0xfa, 0x3e,
  0xed, 0x26, 0x00, 0x3d, 0xd0, 0x23, 0x27, 0x3c, 0xcc, 0x74, 0xff, 0x3d,
  0x36, 0xa9, 0x53, 0xbe, 0x57, 0x41, 0x8b, 0x3d, 0x7a, 0x7a, 0xca, 0xbd,
  0x8b, 0xac, 0x92, 0x3e, 0xb3, 0x51, 0x7d, 0x3d, 0x63, 0x11, 0x2f, 0x3e,
  0xd8, 0x2f, 0x33, 0x3e, 0x68, 0x77, 0x09, 0x3d, 0x37, 0xb2, 0x0b, 0x3e,
  0xa8, 0x62, 0xc2, 0xbe, 0x06, 0xe7, 0x80, 0x3d, 0xd8, 0x5a, 0x02, 0xbd,
  0x7f, 0x56, 0x33, 0xbd, 0xd5, 0x7d, 0x51, 0xbd, 0xed, 0x9b, 0x0f, 0xbe,
  0x5e, 0xab, 0xd8, 0x3d, 0xf4, 0xb1, 0xd6, 0x3e, 0x37, 0xe4, 0xcf, 0x3e,
  0x6b, 0xed, 0x0e, 0xbd, 0xe2, 0x91, 0xa2, 0xbf, 0x8f, 0x41, 0x6e, 0xbf,
  0x4b, 0x20, 0x22, 0x3e, 0xb9, 0x7b, 0x41, 0x3d, 0x33, 0xa4, 0xcd, 0xbd,
  0xb7, 0xd7, 0xe0, 0x3d, 0x7d, 0x24, 0xc4, 0xbe, 0xce, 0xb8, 0x18, 0xbb,
  0xc9, 0x70, 0xa2, 0xbf, 0x87, 0x2c, 0x7a, 0xbe, 0xc7, 0xa9, 0x9a, 0xbf,
  0xab, 0x6a, 0xc0, 0x3d, 0x54, 0xac, 0x11, 0xbe, 0x05, 0x87, 0x83, 0xbf,
  0x33, 0x9f, 0x45, 0xbf, 0x0b, 0xb6, 0xda, 0xbe, 0x89, 0x59, 0xc2, 0x3d,
  0xa7, 0xfc, 0x8e, 0xbe, 0x5e, 0x91, 0x89, 0x3d, 0xa9, 0xa1, 0x64, 0xbe,
  0xa1, 0xf5, 0x5f, 0xbe, 0x34, 0xa6, 0x97, 0xbd, 0xe5, 0x9c, 0xed, 0x3c,
  0xbe, 0x40, 0x79, 0x3e, 0xfc, 0xdd, 0xc7, 0xbf, 0xa8, 0xcb, 0xa2, 0x3e,
  0x45, 0x73, 0x38, 0x3d, 0xd7, 0xbc, 0x84, 0x3d, 0x4d, 0x25, 0xc3, 0xbd,
  0xc4, 0x3c, 0x63, 0xbe, 0xb7, 0xd1, 0x0f, 0xbf, 0xa2, 0x70, 0x00, 0x3d,
  0x26, 0xab, 0x84, 0xbe, 0x9f, 0x5f, 0x90, 0x3c, 0xdf, 0x92, 0xbb, 0xbe,
  0x0b, 0xfb, 0x87, 0xbe, 0x5c, 0x3b, 0x06, 0xbf, 0xf9, 0xa2, 0xb3, 0x3e,
  0x2a, 0x58, 0x27, 0x3e, 0x0b, 0x27, 0x8c, 0x3d, 0x54, 0x19, 0xc1, 0xbe,
  0xc1, 0x89, 0x80, 0x3d, 0x75, 0x5c, 0x34, 0xbf, 0x07, 0xaf, 0xae, 0xbc,
  0x7a, 0x64, 0x90, 0x3c, 0x0f, 0xb1, 0xab, 0x3d, 0x2d, 0xee, 0xa9, 0x3e,
  0xca, 0x01, 0xae, 0xbc, 0x34, 0x6d, 0x97, 0xbf, 0xdb, 0xe8, 0x95, 0xbe,
  0x63, 0x19, 0x34, 0xbe, 0x4a, 0x5b, 0x94, 0xbe, 0x76, 0x83, 0xfc, 0xbc,
  0xc5, 0x53, 0x63, 0xbd, 0xa1, 0x9d, 0xa5, 0x3e, 0x01, 0xce, 0x19, 0x3e,
  0x7b, 0x80, 0x6c, 0xbf, 0xe4, 0x3c, 0x0f, 0x3f, 0x96, 0xfb, 0x07, 0xbe,
  0x56, 0xad, 0x28, 0xbe, 0xcc, 0x44, 0x40, 0xbe, 0x80, 0xe8, 0xb7, 0xbe,
  0xf2, 0x67, 0x49, 0x3e, 0x3e, 0xde, 0xb6, 0x3e, 0xda, 0x12, 0x5a, 0xbd,
  0x6c, 0xcd, 0x1d, 0xbe, 0x10, 0x8e, 0x71, 0xbd, 0xc5, 0x10, 0x7f, 0xbe,
  0x99, 0x24, 0x6c, 0xbe, 0xd5, 0x86, 0xe2, 0xbe, 0xa9, 0xe7, 0x40, 0x3e,
  0x50, 0x26, 0x47, 0x3f, 0x37, 0x75, 0x33, 0xbd, 0x65, 0x7b, 0xa4, 0xbe,
  0x96, 0x5e, 0x27, 0x3e, 0xc5, 0xbb, 0x91, 0x3d, 0xd9, 0x35, 0xab, 0xbd,
  0x65, 0x78, 0xb1, 0x3e, 0x54, 0x62, 0x77, 0x3b, 0x11, 0x9e, 0xc4, 0xbc,
  0x1b, 0x4f, 0x1a, 0xbf, 0xb7, 0x99, 0x31, 0x3d, 0x81, 0xf4, 0x50, 0xbc,
  0x95, 0xe2, 0x01, 0x3e, 0x02, 0x70, 0x2a, 0x3e, 0x52, 0x2d, 0xc5, 0xbe,
  0xf3, 0xa5, 0x6b, 0xbe, 0x53, 0x29, 0x07, 0x3f, 0xf3, 0xb7, 0x0c, 0x3f,
  0x79, 0x12, 0x65, 0xbf, 0x50, 0xc3, 0x5e, 0x3e, 0xca, 0xd8, 0x51, 0x3e,
  0x1e, 0x6a, 0xa3, 0x3d, 0x3e, 0xa7, 0xa4, 0x3e, 0x22, 0xe9, 0xcc, 0x3e,
  0xda, 0xac, 0xec, 0xbd, 0xf4, 0x85, 0x8d, 0xbf, 0xd6, 0xc6, 0x43, 0x3e,
  0x5d, 0x1e, 0x1b, 0xbe, 0xe1, 0x8b, 0x8b, 0x3e, 0xe2, 0x5d, 0x0a, 0x3e,
  0xe3, 0x20, 0x99, 0x3d, 0x88, 0xfa, 0x4a, 0xbe, 0xe2, 0xb3, 0xec, 0xbd,
  0xaf, 0x9e, 0xf1, 0x3e, 0xdc, 0x32, 0x80, 0xbf, 0x74, 0xe1, 0x86, 0x3e,
  0xab, 0xe5, 0x4b, 0x3d, 0x55, 0xd0, 0x26, 0x3e, 0xf3, 0xd7, 0xfb, 0x3e,
  0x82, 0x81, 0x2b, 0xbd, 0xb8, 0x63, 0xb8, 0xbe, 0x16, 0x87, 0xee, 0x3d,
  0x85, 0x6a, 0x08, 0x3e, 0x7e, 0xc4, 0xfa, 0xbd, 0xb1, 0x84, 0x5a, 0x3e,
  0xce, 0x33, 0x27, 0x3e, 0xeb, 0x08, 0xf9, 0x3c, 0xd8, 0x6a, 0xde, 0xbe,
  0x9b, 0xf7, 0x8c, 0x3e, 0xbd, 0x2a, 0xa9, 0xbe, 0x28, 0x38, 0xdb, 0xbe,
  0xe2, 0xe6, 0x87, 0x3e, 0x8f, 0x6d, 0xc1, 0xbd, 0x6f, 0xb1, 0xf2, 0x3d,
  0xe5, 0x1c, 0xb2, 0x3c, 0xcf, 0xca, 0x65, 0x3d, 0x7e, 0x43, 0xac, 0x3e,
  0xa3, 0xaf, 0xa7, 0x3e, 0xa5, 0xf1, 0xd0, 0x3c, 0x11, 0xa2, 0xc8, 0xbe,
  0x5d, 0x9c, 0x46, 0x3e, 0x07, 0xc6, 0x82, 0x3e, 0xc2, 0x4a, 0xb5, 0x3d,
  0x82, 0x93, 0xe6, 0x3d, 0x2a, 0xc3, 0x06, 0xbe, 0xba, 0x6a, 0xfc, 0xbd,
  0xfb, 0x4e, 0xf6, 0xbd, 0x4b, 0x2c, 0x07, 0x3e, 0xbf, 0x6b, 0x9b, 0xbe,
  0x10, 0xa9, 0x3c, 0x3e, 0xf1, 0x1a, 0xe6, 0xbd, 0x8c, 0x0a, 0x61, 0xbe,
  0x60, 0xd2, 0xba, 0x3e, 0xfd, 0x6f, 0x7e, 0x3c, 0x0c, 0x1e, 0x2d, 0xbe,
  0x1e, 0xb3, 0xbf, 0x3d, 0xe6, 0x48, 0x46, 0x3e, 0x03, 0xac, 0xac, 0x3d,
  0x0f, 0x0e, 0x95, 0x3e, 0xfb, 0x53, 0x4a, 0x3d, 0xee, 0xa9, 0x5e, 0x3d,
  0xaf, 0x8d, 0x07, 0xbe, 0xe7, 0x97, 0x05, 0x3e, 0x5f, 0x5b, 0x24, 0x3e,
  0x2e, 0x7a, 0xb1, 0x3c, 0x31, 0x49, 0x06, 0x3e, 0x21, 0x95, 0x9b, 0xbd,
  0xb4, 0x05, 0x2f, 0xbe, 0xb9, 0xb2, 0xda, 0x3e, 0x8b, 0x02, 0x9b, 0xbd,
  0xa3, 0xf3, 0x60, 0x3e, 0x3b, 0xe2, 0xd5, 0xbe, 0x79, 0x33, 0x38, 0x3d,
  0x9c, 0x4f, 0x06, 0xbe, 0xa8, 0x65, 0x24, 0xbe, 0xa1, 0xec, 0xb5, 0xbe,
  0xab, 0x59, 0x01, 0x3f, 0xeb, 0x48, 0x73, 0xbe, 0xba, 0x0d, 0xb0, 0x3c,
  0x7d, 0x35, 0x7d, 0x3d, 0x3e, 0x29, 0xd6, 0xbc, 0xc3, 0x6f, 0x3a, 0x3e,
  0x64, 0xa8, 0xff, 0xbd, 0x54, 0x41, 0x0a, 0x3c, 0xc8, 0x8d, 0xc6, 0x3d,
  0xae, 0xe7, 0xdd, 0x3e, 0xe0, 0xa9, 0x19, 0x3f, 0x95, 0x8a, 0xd9, 0xbd,
  0xd2, 0x20, 0x3e, 0x3e, 0xc4, 0x64, 0xb6, 0xbc, 0xf4, 0xaf, 0xa6, 0x3e,
  0xaa, 0xc5, 0xe9, 0xbd, 0xd5, 0x23, 0xdb, 0x3e, 0x0b, 0x26, 0xca, 0xbe,
  0xbd, 0xdc, 0x15, 0xbc, 0x3c, 0xfe, 0xa4, 0x3e, 0xcf, 0x43, 0x2a, 0xbe,
  0x05, 0x65, 0x68, 0x3e, 0xb1, 0x50, 0x0c, 0x3e, 0x94, 0x07, 0x40, 0x3e,
  0x86, 0x13, 0x84, 0x3e, 0x45, 0xd4, 0x0c, 0xbe, 0x45, 0x0c, 0x35, 0x3e,
  0x32, 0x8b, 0xcc, 0x3e, 0xd8, 0x3d, 0xa5, 0x3d, 0xa6, 0x15, 0x12, 0xbc,
  0x2e, 0xe8, 0xd9, 0x3e, 0x46, 0xe9, 0x0b, 0xbe, 0x29, 0xac, 0xdf, 0x3e,
  0x5c, 0x89, 0x81, 0xbe, 0x35, 0xbe, 0x97, 0xbe, 0x36, 0xe9, 0xf5, 0x3d,
  0xd9, 0x70, 0x47, 0xbc, 0x88, 0xb6, 0x39, 0x3e, 0x6a, 0x09, 0x33, 0xbe,
  0xee, 0xad, 0x46, 0x3e, 0x30, 0xec, 0xc1, 0x3d, 0x52, 0xe3, 0x5d, 0x3c,
  0xc0, 0x27, 0x50, 0xbe, 0xc6, 0x50, 0xb0, 0x3c, 0xbe, 0xb5, 0x31, 0x3e,
  0x4a, 0xa8, 0x96, 0xbd, 0x28, 0x48, 0x44, 0x3e, 0x57, 0xd9, 0xc6, 0xbd,
  0x6e, 0x96, 0x51, 0x3e, 0xd8, 0x2d, 0xa0, 0xbe, 0xf7, 0x4f, 0x92, 0xbe,
  0x18, 0x33, 0xc0, 0x3c, 0x53, 0xa6, 0x0d, 0x3d, 0x43, 0xd7, 0xce, 0xbc,
  0xde, 0xd8, 0xa3, 0xbd, 0x40, 0x45, 0x3d, 0x3e, 0x92, 0xdb, 0x96, 0x3d,
  0x5f, 0x22, 0x30, 0xbf, 0xfe, 0x2c, 0xf1, 0x3d, 0xd2, 0x38, 0xba, 0xbd,
  0x7d, 0xf5, 0xa1, 0x3e, 0x32, 0x2e, 0x11, 0xbd, 0x73, 0x3d, 0xa9, 0xbd,
  0x9a, 0x9a, 0x0a, 0xbe, 0x23, 0xf5, 0x9b, 0x3e, 0xc6, 0x01, 0xa7, 0xbe,
  0xc5, 0x03, 0x83, 0xbe, 0xbc, 0x04, 0xb9, 0x3d, 0xf6, 0x00, 0x2a, 0x3e,
  0x73, 0x4d, 0xc2, 0xbb, 0x33, 0x64, 0xe1, 0x3e, 0x9a, 0xe0, 0x8f, 0xbd,
  0x13, 0x97, 0x8b, 0x3c, 0x00, 0x0b, 0x28, 0xbe, 0xc0, 0xcf, 0x00, 0x3e,
  0xb7, 0x2c, 0x9e, 0xbe, 0x0e, 0x30, 0x03, 0x3e, 0xbf, 0x16, 0xea, 0xbd,
  0xa2, 0xf5, 0xda, 0x3c, 0xab, 0x3c, 0x8b, 0xbe, 0x2c, 0xad, 0x1d, 0xbf,
  0x84, 0xbb, 0x4f, 0xbf, 0x71, 0x3c, 0x53, 0xbd, 0xc4, 0x2a, 0x34, 0x3d,
  0x75, 0x48, 0x07, 0x3e, 0x44, 0xa9, 0x9d, 0x3c, 0xdb, 0x9d, 0xb7, 0x3d,
  0x32, 0x79, 0x87, 0x3c, 0xf8, 0x56, 0x7e, 0x3d, 0x04, 0x03, 0x26, 0x3e,
  0x06, 0xe0, 0xf3, 0xbc, 0x4b, 0x67, 0x88, 0xbe, 0x4d, 0x7f, 0x2f, 0x3e,
  0x3c, 0x57, 0x12, 0x3d, 0xd4, 0x03, 0xfb, 0xbc, 0xc3, 0x3d, 0xb5, 0xbd,
  0xa3, 0x34, 0xec, 0xbc, 0x76, 0xc3, 0xe2, 0xbf, 0x3a, 0x79, 0x0b, 0x3e,
  0xe1, 0x7c, 0xad, 0x3b, 0xcb, 0x06, 0x80, 0x3d, 0x40, 0xe3, 0x05, 0x3d,
  0xca, 0x0d, 0x03, 0xbf, 0xb4, 0x17, 0x38, 0x3e, 0x1d, 0x2c, 0x7a, 0x3d,
  0x76, 0xe5, 0x5c, 0xbe, 0x1c, 0x52, 0x4a, 0x3e, 0x0f, 0x54, 0xf8, 0xbd,
  0xc8, 0xd0, 0xa5, 0x3e, 0x94, 0xe0, 0xed, 0xbb, 0x99, 0x4b, 0x56, 0xbe,
  0xf0, 0xee, 0xc0, 0xbe, 0x3d, 0xde, 0x8a, 0xbe, 0x4a, 0xdb, 0x20, 0x3e,
  0xd0, 0x73, 0xc6, 0x3d, 0xd9, 0x75, 0x29, 0xbd, 0xc1, 0xfb, 0x96, 0xbe,
  0x00, 0xe1, 0x5a, 0x3d, 0xb3, 0xa0, 0x29, 0x3e, 0x10, 0x8a, 0x36, 0x3e,
  0x55, 0x13, 0x61, 0xbb, 0x56, 0x1f, 0x2b, 0xbe, 0x39, 0x1d, 0xb8, 0x3e,
  0x84, 0x6a, 0x01, 0xbd, 0x21, 0x03, 0x8e, 0x3e, 0x0e, 0x6a, 0xbd, 0x3d,
  0xa3, 0xfd, 0xb4, 0xbe, 0xee, 0x02, 0x68, 0xbe, 0x09, 0xed, 0xe1, 0xbc,
  0x44, 0x1d, 0xa1, 0x3d, 0xad, 0x2b, 0x27, 0xbd, 0x7a, 0x37, 0x07, 0xbb,
  0x05, 0x5b, 0x00, 0x3e, 0x5f, 0x48, 0xa5, 0x3b, 0xc9, 0xe4, 0xe8, 0x3e,
  0x6d, 0x7e, 0xfa, 0x3e, 0x74, 0xb5, 0x4a, 0xbe, 0xc7, 0xc6, 0x48, 0xbe,
  0x9e, 0x93, 0x5d, 0x3e, 0x03, 0x3d, 0x29, 0x3f, 0x9d, 0x3b, 0x16, 0x3e,
  0x11, 0xa8, 0x94, 0x3d, 0x5a, 0x09, 0xa1, 0xbe, 0x49, 0xb8, 0x2f, 0x3e,
  0x47, 0xb1, 0x3f, 0x3e, 0x8b, 0x31, 0x2e, 0xbe, 0x8e, 0xec, 0xa1, 0x3d,
  0x3b, 0xa0, 0x88, 0xbd, 0xce, 0x7e, 0x53, 0x3e, 0x55, 0x4d, 0xc2, 0x3d,
  0x98, 0x8c, 0x0c, 0xbe, 0xcb, 0x38, 0x2a, 0xbe, 0xfc, 0xc3, 0xaf, 0xbd,
  0x9d, 0xd5, 0xd2, 0x3c, 0x41, 0x75, 0x9b, 0x3e, 0xe2, 0x34, 0x02, 0x3f,
  0x35, 0x25, 0x2f, 0x3d, 0xfa, 0x57, 0x6d, 0xbe, 0xba, 0xc0, 0x8d, 0xbe,
  0x7e, 0x46, 0x16, 0x3f, 0x44, 0x85, 0x8b, 0x3e, 0xea, 0xae, 0x87, 0xbe,
  0x53, 0xf0, 0x63, 0xbe, 0x63, 0x0b, 0x6b, 0x3e, 0xbf, 0x4f, 0x3b, 0xbc,
  0xb6, 0x8b, 0x0a, 0x3e, 0x15, 0x57, 0xa7, 0x3d, 0x30, 0x94, 0x23, 0xbf,
  0xf4, 0xe0, 0x9f, 0x3e, 0x64, 0x04, 0x1d, 0x3e, 0xd9, 0xbc, 0x64, 0x3d,
  0x28, 0x72, 0xac, 0xbb, 0x8a, 0x16, 0x38, 0xbe, 0x7f, 0x21, 0x30, 0xbe,
  0x62, 0xf3, 0xe1, 0x3d, 0x74, 0x9c, 0x45, 0x3e, 0xd4, 0xf6, 0xc3, 0x3e,
  0x5c, 0x44, 0x94, 0x3e, 0x28, 0xc2, 0x0c, 0x3d, 0xfc, 0xac, 0xd9, 0x3c,
  0x52, 0x54, 0xb2, 0x3d, 0x1c, 0x38, 0xf5, 0x3d, 0x6d, 0x31, 0x9c, 0x3e,
  0xdf, 0x53, 0xc0, 0xbe, 0x06, 0x7b, 0xb4, 0xbd, 0x2c, 0xf1, 0xc3, 0x3e,
  0x76, 0xe1, 0x9b, 0x3d, 0xd4, 0x8b, 0xa5, 0x3e, 0x45, 0x0a, 0x38, 0xbe,
  0xf0, 0x7d, 0x90, 0xbd, 0xba, 0x47, 0x33, 0x3e, 0x23, 0x35, 0x8c, 0x3e,
  0x3d, 0x71, 0x2c, 0x3c, 0xce, 0x08, 0xdc, 0x3e, 0x95, 0xbd, 0x0b, 0x3e,
  0x31, 0x4b, 0x1d, 0xbf, 0xe8, 0xf8, 0x50, 0xbd, 0x21, 0x2d, 0x78, 0x3e,
  0xd5, 0x53, 0x48, 0x3e, 0x19, 0x73, 0x28, 0xbe, 0xff, 0x0d, 0x0d, 0x3f,
  0x67, 0x12, 0xf7, 0x3e, 0x44, 0xe0, 0x8b, 0x3e, 0xfa, 0xcb, 0x6d, 0x3e,
  0xab, 0xb0, 0x86, 0xbd, 0x84, 0x65, 0xf4, 0xbe, 0xbc, 0xfe, 0x4e, 0xbe,
  0x93, 0xbc, 0xcb, 0x3e, 0x22, 0xd6, 0x7f, 0x3e, 0x6e, 0xb8, 0xa5, 0x3c,
  0x61, 0x47, 0x7f, 0x3e, 0x6f, 0xb5, 0xeb, 0xbe, 0xd9, 0xa0, 0x51, 0x3c,
  0x7c, 0xd3, 0xb5, 0x3d, 0xa7, 0xd4, 0xa4, 0xbd, 0x74, 0xc0, 0x53, 0xbe,
  0x25, 0xa1, 0x96, 0x3e, 0xbe, 0xeb, 0x41, 0x3e, 0x4d, 0x75, 0x19, 0x3f,
  0x29, 0x16, 0x44, 0x3d, 0xc0, 0x3d, 0x16, 0xbe, 0x5f, 0x2f, 0xd5, 0xbc,
  0x8a, 0xe9, 0x0d, 0xbe, 0x56, 0xfc, 0x32, 0x3e, 0x44, 0x99, 0x03, 0x3e,
  0x24, 0xbb, 0x9a, 0xbd, 0xec, 0xa8, 0x54, 0x3d, 0x18, 0xee, 0x7b, 0xbe,
  0x5d, 0x27, 0xca, 0x3d, 0x84, 0xd6, 0xfc, 0x3e, 0xc1, 0x76, 0x71, 0x3d,
  0x68, 0x87, 0x3e, 0xbe, 0xcc, 0x9b, 0x99, 0x3e, 0x6c, 0xa2, 0x4d, 0x3e,
  0x3e, 0x60, 0x92, 0x3e, 0x7e, 0xb4, 0xcc, 0xbd, 0x77, 0x3c, 0x79, 0xbe,
  0x81, 0x4a, 0x47, 0xbe, 0x3f, 0x58, 0xaf, 0xbe, 0x3b, 0x69, 0xcd, 0x3e,
  0x58, 0x7c, 0x8d, 0x3d, 0x4f, 0xb9, 0x1a, 0xbd, 0x66, 0x0e, 0x14, 0x3d,
  0x9e, 0x50, 0x20, 0xbe, 0x3d, 0x94, 0x1e, 0x3d, 0x87, 0x00, 0xb3, 0x3d,
  0x11, 0xe3, 0x4b, 0xbc, 0x98, 0xc0, 0x2e, 0xbd, 0x7c, 0x6e, 0xcd, 0x3e,
  0x19, 0x40, 0x08, 0x3e, 0x98, 0xc8, 0x8a, 0x3e, 0x80, 0xfd, 0x8f, 0x3e,
  0x2e, 0xa7, 0xf6, 0xbd, 0x7f, 0x0e, 0x10, 0xbe, 0x92, 0x75, 0x87, 0xbe,
  0x74, 0x80, 0xc8, 0x3e, 0x5c, 0xec, 0xd2, 0x3d, 0x56, 0x7e, 0xb2, 0x3d,
  0xf6, 0x1f, 0x4e, 0x3c, 0x45, 0x38, 0x8d, 0xbe, 0xb6, 0x3d, 0x30, 0x3d,
  0xd1, 0x70, 0xfb, 0x3d, 0x9e, 0xca, 0x31, 0xbe, 0xec, 0x69, 0x8e, 0xbd,
  0xce, 0x47, 0xd1, 0x3e, 0x2c, 0xd3, 0x86, 0x3e, 0x78, 0x9a, 0xaf, 0x3d,
  0xc9, 0xbe, 0xab, 0x3e, 0x2a, 0xbb, 0x44, 0xbe, 0x79, 0x1e, 0x0d, 0x3e,
  0xee, 0x6c, 0x99, 0xbe, 0x48, 0x29, 0xc4, 0x3e, 0x3d, 0x19, 0xba, 0xbc,
  0xfa, 0xff, 0x50, 0x3e, 0x7c, 0x66, 0x8a, 0x3d, 0x49, 0x95, 0x5a, 0x3d,
  0x4a, 0x1c, 0x0f, 0xbd, 0xf6, 0x9d, 0xb4, 0x3e, 0xb7, 0x85, 0x0b, 0x3e,
  0x0a, 0x7f, 0x2f, 0x3e, 0x23, 0xf9, 0xe3, 0x3e, 0xe3, 0x22, 0x4b, 0xbe,
  0xa0, 0xd9, 0x8e, 0x3e, 0x66, 0xf6, 0xc8, 0x3e, 0x40, 0x00, 0x1b, 0xbc,
  0xf7, 0xd7, 0x47, 0xbe, 0xb7, 0x83, 0xcc, 0xbe, 0xa5, 0xd3, 0x28, 0x3d,
  0x2a, 0x47, 0x58, 0x3f, 0x50, 0x61, 0xd8, 0xbd, 0x63, 0xd8, 0x2a, 0x3e,
  0xed, 0x8b, 0x7e, 0xbf, 0x98, 0x53, 0x97, 0x3d, 0x3c, 0xa0, 0x1f, 0x3e,
  0x0d, 0xa4, 0x4a, 0x3e, 0x73, 0xfd, 0x70, 0x3e, 0xa9, 0x6f, 0xab, 0xbe,
  0xe2, 0x4c, 0x64, 0xbe, 0x54, 0x4c, 0x73, 0x3e, 0x14, 0x20, 0x45, 0x3f,
  0x3d, 0xde, 0x6b, 0x3e, 0xfa, 0xf1, 0x18, 0x3e, 0xc4, 0xed, 0x65, 0xbe,
  0xd1, 0x83, 0x48, 0x3d, 0xd0, 0x97, 0xfd, 0x3d, 0xaa, 0xa9, 0x24, 0xbe,
  0xe2, 0xe0, 0x9f, 0x3e, 0x5d, 0x5a, 0xb4, 0xbe, 0x57, 0x45, 0x25, 0x3d,
  0x70, 0xd2, 0x6b, 0x3e, 0x5a, 0x9f, 0x8c, 0x3d, 0x18, 0x19, 0x21, 0xbf,
  0xb7, 0x0a, 0x07, 0x3e, 0x28, 0x9f, 0x01, 0xbe, 0xef, 0xe9, 0xd0, 0xbe,
  0x76, 0x06, 0x75, 0x3e, 0x7d, 0xbe, 0xc8, 0x3e, 0x14, 0xa7, 0x30, 0x3e,
  0xe8, 0x09, 0xc7, 0xbd, 0xff, 0xcd, 0x0a, 0xbe, 0x95, 0x0d, 0xa2, 0x3d,
  0x20, 0x47, 0xfd, 0xbe, 0x12, 0xbd, 0x93, 0xbe, 0x02, 0x47, 0xa3, 0xbe,
  0xe6, 0xb2, 0xe5, 0x3e, 0x4c, 0x1a, 0xac, 0x3e, 0x5c, 0x7b, 0x59, 0x3e,
  0x8e, 0x5e, 0x48, 0xbf, 0xbd, 0x19, 0x0b, 0xbe, 0xd0, 0xf2, 0xf0, 0x3d,
  0x8e, 0x85, 0x15, 0xbf, 0xda, 0xd6, 0x1b, 0x3f, 0xd6, 0xed, 0x39, 0xbe,
  0x91, 0x52, 0x7b, 0xbe, 0x53, 0xf9, 0xe9, 0x3e, 0x86, 0xdc, 0x32, 0x3e,
  0x4a, 0x81, 0xc0, 0x3e, 0x1a, 0x19, 0x17, 0xbe, 0x0e, 0xd8, 0x94, 0x3b,
  0x71, 0xcb, 0x6e, 0x3d, 0x78, 0x2d, 0x99, 0x3e, 0xbe, 0x3b, 0x8f, 0xbe,
  0xf8, 0xb8, 0x88, 0x3d, 0xd3, 0xa0, 0xfe, 0x3c, 0x20, 0x19, 0x7e, 0xbe,
  0xa2, 0x4d, 0xc2, 0x3e, 0x39, 0xeb, 0xb2, 0xbe, 0xef, 0x1b, 0x2d, 0xbf,
  0xcf, 0xd3, 0xe5, 0xbc, 0xbc, 0xea, 0xb5, 0xbd, 0x73, 0x34, 0x35, 0x3f,
  0x7d, 0x3b, 0x06, 0xbf, 0x55, 0x98, 0xc1, 0x3e, 0x4e, 0xb0, 0xc5, 0x3e,
  0xfd, 0x43, 0x3e, 0xbc, 0x13, 0xbe, 0x90, 0x3e, 0xc1, 0x72, 0x74, 0xbc,
  0x51, 0x17, 0x63, 0xbe, 0xf1, 0xaa, 0x33, 0x3c, 0xc9, 0xcb, 0x54, 0x3d,
  0x9f, 0x1f, 0xae, 0xbe, 0xe1, 0x29, 0xbf, 0x3e, 0xa1, 0x15, 0xc2, 0xbe,
  0x77, 0x8a, 0x01, 0xbf, 0x68, 0x1a, 0x90, 0x3e, 0xa8, 0x3e, 0x03, 0x3e,
  0xa4, 0x80, 0xe4, 0xbd, 0x3e, 0xd6, 0x05, 0xbf, 0xd5, 0xf4, 0x05, 0x3e,
  0x10, 0x80, 0x67, 0x3d, 0x72, 0x47, 0x8b, 0x3e, 0xa5, 0xdf, 0x98, 0x3c,
  0xa6, 0x85, 0x8a, 0x3d, 0x35, 0x63, 0xce, 0xbe, 0xad, 0x71, 0x00, 0xbf,
  0xcd, 0x62, 0x2b, 0xbd, 0xb3, 0xa4, 0xbc, 0xbd, 0xda, 0x4c, 0x51, 0x3d,
  0x14, 0xb4, 0xa0, 0xbe, 0x54, 0x8d, 0x1f, 0xbf, 0x61, 0x78, 0xa7, 0x3c,
  0xea, 0xda, 0xcb, 0xbd, 0x5c, 0x05, 0xc1, 0x3c, 0xfd, 0x13, 0x17, 0xbf,
  0x10, 0x3a, 0xce, 0xbd, 0x47, 0xa8, 0x86, 0xbb, 0xeb, 0xc5, 0xa7, 0x3e,
  0xf8, 0x0e, 0x0f, 0x3e, 0xc2, 0x7e, 0x57, 0x3e, 0xae, 0xc6, 0xbb, 0xbc,
  0x7e, 0x6f, 0x99, 0xbe, 0xe9, 0x69, 0x50, 0x3e, 0xfa, 0x80, 0xa0, 0xbe,
  0x69, 0x9c, 0x69, 0x3c, 0xaf, 0x1f, 0xe6, 0xbe, 0x38, 0xba, 0x18, 0xbf,
  0x8f, 0x5a, 0x28, 0x3e, 0xdf, 0xa7, 0xdc, 0x3b, 0x7a, 0x36, 0x13, 0xbd,
  0x26, 0xee, 0xbd, 0xbe, 0xb1, 0x61, 0xcf, 0xbe, 0x0f, 0x83, 0x0a, 0x3f,
  0x15, 0x77, 0xac, 0x3c, 0x82, 0xb8, 0x7e, 0x3e, 0x26, 0x6e, 0xe6, 0x3d,
  0xb7, 0xc6, 0xf8, 0xbe, 0x9b, 0x09, 0xf7, 0xbe, 0xd8, 0x7f, 0x4d, 0x3d,
  0x27, 0x09, 0xcf, 0xbe, 0x4c, 0x55, 0x6d, 0xbe, 0x6e, 0x6b, 0xf1, 0xbd,
  0xd1, 0xa2, 0x41, 0xbf, 0x7a, 0xa4, 0x21, 0x3d, 0x55, 0xea, 0x11, 0x3d,
  0x56, 0xd1, 0x35, 0xbd, 0xe8, 0x19, 0xbe, 0xbe, 0xbb, 0x1a, 0x9f, 0xbd,
  0x83, 0xea, 0xa2, 0x3e, 0xf0, 0x24, 0x41, 0xbd, 0x49, 0xe5, 0x3b, 0x3e,
  0x2d, 0xb1, 0x68, 0x3d, 0xc7, 0xa8, 0x0e, 0xbe, 0x8e, 0x44, 0xc2, 0xbe,
  0x1a, 0x0f, 0x4c, 0xbe, 0x1f, 0x20, 0x06, 0xbf, 0xff, 0x98, 0xdf, 0x3d,
  0xd0, 0xed, 0x23, 0x3e, 0x01, 0xe5, 0xfe, 0xbe, 0xcd, 0x56, 0x96, 0x3d,
  0x49, 0x3c, 0x39, 0xbe, 0xd3, 0x8f, 0x99, 0x3e, 0xac, 0x26, 0x4e, 0xbf,
  0x7a, 0xae, 0x74, 0x3d, 0xfe, 0xde, 0x6f, 0xbe, 0x0b, 0x90, 0xa6, 0x3d,
  0xd6, 0xfe, 0x0c, 0x3e, 0xce, 0x27, 0x20, 0x3e, 0x30, 0xac, 0xba, 0xbd,
  0x6a, 0xd8, 0x30, 0xbe, 0x0c, 0x89, 0x25, 0xbd, 0xb4, 0xba, 0x00, 0xbf,
  0x1c, 0x83, 0x50, 0x3d, 0x02, 0x74, 0x9e, 0xbb, 0x25, 0x89, 0x36, 0xbe,
  0x58, 0xd7, 0x15, 0x3e, 0x4a, 0x82, 0xa7, 0xbd, 0x72, 0xa5, 0xd7, 0x3e,
  0x56, 0xc6, 0x81, 0x3d, 0x2b, 0x11, 0x85, 0xbe, 0xeb, 0xf8, 0x4d, 0x3e,
  0x99, 0x54, 0x2c, 0xbe, 0x75, 0x12, 0x0b, 0x3e, 0x5e, 0xb6, 0xa4, 0x3c,
  0x95, 0x41, 0x18, 0xbe, 0xbc, 0x47, 0xbd, 0x3d, 0x92, 0xa5, 0xb3, 0xbb,
  0x9b, 0x9b, 0xb3, 0xbe, 0xca, 0x99, 0x5c, 0x3e, 0x38, 0x76, 0x95, 0xbe,
  0x1f, 0x07, 0x33, 0xbf, 0x4a, 0x25, 0x58, 0x3d, 0x9d, 0xf2, 0xec, 0xbb,
  0x25, 0x66, 0xa6, 0x3e, 0xa5, 0xac, 0x84, 0xbd, 0xca, 0x82, 0xb9, 0x3e,
  0xf4, 0xd2, 0x00, 0x3e, 0xdb, 0x54, 0x87, 0x3e, 0x45, 0x9f, 0x39, 0x3e,
  0x12, 0x86, 0x4a, 0xbd, 0x3a, 0x80, 0x3d, 0xbd, 0x85, 0xd8, 0xfc, 0xbc,
  0xeb, 0x33, 0xfa, 0x3d, 0xe9, 0x62, 0x93, 0xbd, 0x80, 0x35, 0x58, 0xbe,
  0xd2, 0xb1, 0x85, 0xbe, 0x92, 0x37, 0xc5, 0xbe, 0xce, 0x1f, 0x8b, 0x3d,
  0x7e, 0x62, 0xa8, 0xbc, 0xb8, 0x9e, 0x48, 0x3e, 0x44, 0xfe, 0xe6, 0xbe,
  0x9c, 0x67, 0x11, 0x3e, 0x2f, 0x7f, 0xad, 0x3e, 0x5e, 0x14, 0x0d, 0xbd,
  0xb2, 0xa3, 0x8c, 0x3e, 0x05, 0xf9, 0x94, 0x3d, 0xbf, 0x50, 0xba, 0xbd,
  0x24, 0x72, 0xde, 0x3d, 0x0b, 0xab, 0x68, 0x3e, 0x38, 0xab, 0x8c, 0xbe,
  0xf4, 0x13, 0x7e, 0x3d, 0x51, 0x32, 0x19, 0xbe, 0x06, 0x61, 0x9e, 0xbe,
  0x13, 0x94, 0x7f, 0x3d, 0xc9, 0x71, 0xaa, 0xbb, 0x8e, 0x0c, 0xa3, 0x3e,
  0xf9, 0x0e, 0x5a, 0xbf, 0x62, 0x40, 0xbe, 0x3d, 0xf5, 0xcb, 0x01, 0x3d,
  0xd1, 0xb4, 0x58, 0x3e, 0x71, 0x03, 0xcb, 0x3e, 0x63, 0x93, 0x8f, 0xbd,
  0xf4, 0x69, 0x1f, 0xbe, 0x48, 0x30, 0x5b, 0xbe, 0x35, 0x07, 0xba, 0x3d,
  0xdd, 0x5d, 0x46, 0xbe, 0x3b, 0x83, 0x0f, 0x3e, 0x79, 0xe8, 0x0c, 0xbf,
  0xbe, 0x5c, 0x0e, 0xbf, 0x11, 0x6e, 0xc6, 0x3d, 0xef, 0x62, 0xab, 0xbd,
  0x2c, 0x39, 0x09, 0x3f, 0xc0, 0x4d, 0xd8, 0xbe, 0x88, 0x59, 0xfb, 0x3d,
  0x4e, 0xcb, 0x8c, 0x3d, 0xa4, 0x25, 0x2e, 0x3e, 0x3a, 0xd9, 0x31, 0x3e,
  0x2b, 0x96, 0x17, 0x3e, 0xf6, 0xe2, 0x2a, 0xbd, 0x43, 0xcc, 0x40, 0xbf,
  0x44, 0xab, 0x3f, 0x3e, 0xc4, 0x01, 0xb2, 0xbe, 0xdd, 0x8e, 0x6d, 0x3e,
  0x6b, 0x78, 0x28, 0xbf, 0xe9, 0x3a, 0x23, 0xbf, 0x6c, 0xe2, 0xd1, 0x3d,
  0x3d, 0x2c, 0x98, 0xbd, 0xf9, 0x57, 0x45, 0x3f, 0xaf, 0x3f, 0x44, 0xbf,
  0xa8, 0x55, 0x9b, 0xbe, 0xe7, 0x64, 0xd6, 0xbc, 0xf5, 0x9f, 0x78, 0xbe,
  0xcb, 0x3a, 0x76, 0x3e, 0x5e, 0xfc, 0x40, 0xbd, 0x26, 0x1d, 0x9e, 0xbe,
  0xec, 0x82, 0xcb, 0xbe, 0x5b, 0x3d, 0xb6, 0x3d, 0xd3, 0x62, 0x85, 0xbe,
  0x5b, 0xfb, 0x23, 0x3e, 0xcb, 0x05, 0x3d, 0x3d, 0xb7, 0x2b, 0x30, 0xbf,
  0xbe, 0x08, 0x83, 0xbd, 0xd4, 0xb2, 0x44, 0xbe, 0x4e, 0x4d, 0x0b, 0x3f,
  0xe3, 0x3b, 0x24, 0x3d, 0xd5, 0xf1, 0x6e, 0xbe, 0x88, 0x36, 0x1f, 0xbd,
  0xcf, 0x78, 0xc9, 0x3b, 0xa0, 0xe7, 0xa4, 0x3e, 0x15, 0x4e, 0xba, 0x3d,
  0xba, 0x7a, 0x12, 0xbe, 0x69, 0xee, 0xe7, 0xbe, 0x6a, 0xc7, 0x8e, 0x3e,
  0x3c, 0xe8, 0x29, 0xbe, 0xf9, 0xb5, 0x59, 0xbf, 0xf7, 0xc3, 0x00, 0xbf,
  0x3a, 0x05, 0x0f, 0x3e, 0x5f, 0x8d, 0x32, 0xbf, 0xb6, 0xce, 0xe4, 0xbd,
  0xaa, 0xef, 0x09, 0x3f, 0x37, 0x4e, 0x31, 0x3f, 0x70, 0xaf, 0x03, 0x3f,
  0x80, 0xbd, 0x52, 0x3e, 0x5b, 0x95, 0xbc, 0xbe, 0x12, 0xe8, 0x09, 0x3e,
  0x17, 0x1b, 0x0e, 0x3f, 0x60, 0x41, 0xae, 0xbd, 0x72, 0x8b, 0x57, 0xbd,
  0xb5, 0xb3, 0xf5, 0xbe, 0x71, 0xbc, 0x35, 0xbf, 0xcf, 0x7c, 0xf6, 0x3e,
  0x27, 0x62, 0x7f, 0xbe, 0x0a, 0x54, 0xb1, 0x3d, 0xbe, 0x21, 0xac, 0xbe,
  0x00, 0x2f, 0xbf, 0x3d, 0x65, 0xbe, 0xad, 0x3d, 0x5f, 0xa8, 0x99, 0x3c,
  0xdc, 0x6a, 0x9a, 0xbd, 0x8b, 0x28, 0x60, 0x3e, 0xa6, 0x53, 0xb1, 0x3c,
  0x9d, 0x97, 0x34, 0x3d, 0x04, 0xc7, 0x32, 0xbf, 0xa4, 0x8c, 0x94, 0xbd,
  0x4e, 0xd0, 0xfe, 0xbd, 0x8a, 0x6f, 0x8c, 0xbe, 0x4d, 0x2a, 0x44, 0xbe,
  0x1e, 0xe5, 0xd0, 0x3e, 0x97, 0x1a, 0x1e, 0x3e, 0x7c, 0x71, 0x2e, 0xbe,
  0x35, 0x92, 0x9c, 0x3d, 0xb0, 0x0b, 0xf8, 0xbc, 0x86, 0x77, 0xbd, 0x3c,
  0x56, 0xd8, 0x5a, 0xbd, 0x8d, 0x23, 0x17, 0x3f, 0xea, 0x81, 0x12, 0xbe,
  0x39, 0xd6, 0x40, 0x3e, 0x6a, 0xe7, 0x23, 0x3e, 0x40, 0x1c, 0x5b, 0xbf,
  0xab, 0x22, 0x25, 0xbe, 0xba, 0x03, 0xa1, 0xbe, 0x83, 0x3d, 0x8c, 0x3e,
  0xeb, 0x80, 0x05, 0x3d, 0x5e, 0xbb, 0x84, 0x3e, 0x47, 0x0d, 0x3a, 0x3e,
  0x32, 0xf0, 0xb4, 0xbe, 0x4f, 0x5b, 0xdf, 0x3d, 0xcb, 0x4f, 0xae, 0xbd,
  0x87, 0xe3, 0x13, 0x3e, 0x1b, 0x85, 0x82, 0xbe, 0x33, 0xe6, 0x6f, 0x3e,
  0x5d, 0x4a, 0x8a, 0xbe, 0x7c, 0xf6, 0x0e, 0x3e, 0xef, 0xf7, 0x78, 0x3e,
  0x0a, 0x40, 0x32, 0xbf, 0x66, 0xf1, 0xf7, 0xbe, 0x42, 0xe7, 0x54, 0xbe,
  0x56, 0x02, 0x2b, 0x3e, 0x93, 0x59, 0xc1, 0x3c, 0x4b, 0x23, 0x1b, 0x3e,
  0xd2, 0x74, 0x66, 0xbd, 0x7a, 0xe5, 0x59, 0xbe, 0x35, 0x0b, 0x25, 0x3e,
  0x3b, 0xc4, 0xce, 0xbd, 0x88, 0xf2, 0xc5, 0xbd, 0x97, 0xc3, 0xb9, 0xbe,
  0xf7, 0x8b, 0x03, 0xbe, 0x72, 0xc3, 0x9d, 0xbe, 0xb3, 0x92, 0xd4, 0x3d,
  0x27, 0x2c, 0x01, 0x3e, 0x4d, 0xa7, 0xd9, 0xbe, 0xc9, 0xe4, 0xe3, 0xbe,
  0x84, 0xd3, 0x50, 0x3c, 0x0d, 0xa3, 0xd6, 0x3d, 0xff, 0x2a, 0x8d, 0xbe,
  0x98, 0x78, 0xf3, 0xbe, 0x2d, 0xe3, 0x66, 0xbe, 0x2e, 0xb1, 0x7b, 0xbf,
  0x7f, 0xa8, 0xa2, 0x3e, 0xcc, 0xfb, 0x61, 0x3d, 0xdf, 0x5c, 0xbf, 0xbe,
  0x26, 0x82, 0x8b, 0xbd, 0x9f, 0xec, 0x05, 0xbf, 0x5c, 0x28, 0xf2, 0xbd,
  0x08, 0x6d, 0x44, 0x3c, 0x88, 0xe8, 0x5a, 0x3c, 0xbd, 0xe6, 0x84, 0xbe,
  0x23, 0x2d, 0x47, 0xbe, 0xd7, 0x6c, 0x78, 0x3e, 0xf6, 0xb0, 0xaf, 0x3d,
  0x33, 0x96, 0x49, 0xbf, 0x98, 0x48, 0xbc, 0xbd, 0x33, 0x4e, 0x2d, 0xbe,
  0x18, 0xf0, 0xc0, 0xbe, 0x8a, 0x0b, 0x56, 0x3e, 0xe6, 0x70, 0x97, 0x3d,
  0x77, 0x96, 0xf5, 0xbe, 0xfb, 0x70, 0xe7, 0xbe, 0x97, 0x66, 0xfa, 0xbe,
  0xc3, 0x4b, 0x3a, 0xbe, 0xa9, 0x84, 0x80, 0xbd, 0x99, 0xbb, 0x66, 0x3e,
  0xac, 0x92, 0x94, 0xbe, 0xba, 0xc3, 0xaf, 0xbe, 0xf2, 0x8e, 0x65, 0xbe,
  0xe6, 0xff, 0xd5, 0xbc, 0x3a, 0x47, 0x3a, 0xbf, 0xad, 0x10, 0xc5, 0xbd,
  0x2a, 0xce, 0x4c, 0xbe, 0x6d, 0xae, 0x04, 0x3e, 0xd7, 0x0d, 0x67, 0x3e,
  0xe9, 0x9b, 0x7a, 0xbd, 0x97, 0xa9, 0x2e, 0xbd, 0x30, 0x99, 0x90, 0xbe,
  0x11, 0xe4, 0x06, 0x3d, 0x82, 0x13, 0x0f, 0x3e, 0x32, 0xce, 0x48, 0xbd,
  0x1c, 0x84, 0x82, 0x3e, 0x95, 0xd9, 0xbb, 0xbe, 0x7a, 0x15, 0x93, 0x3d,
  0x88, 0xa9, 0x10, 0x3d, 0x6c, 0xdd, 0xbb, 0xbc, 0xcb, 0x29, 0x91, 0xbf,
  0x8e, 0xd5, 0x94, 0x3d, 0xf5, 0xeb, 0x89, 0x3e, 0x50, 0x74, 0xa9, 0x3e,
  0x0b, 0xd1, 0x91, 0x3d, 0x14, 0x3a, 0x61, 0x3d, 0x33, 0xa6, 0x73, 0x3e,
  0x35, 0x47, 0x43, 0xbe, 0xa6, 0x4b, 0x2d, 0x3e, 0x67, 0x5d, 0xb2, 0x3e,
  0xba, 0xc9, 0x80, 0xbe, 0x50, 0xf0, 0xb5, 0x3e, 0xe0, 0x3e, 0xa8, 0xbe,
  0x1d, 0x43, 0x84, 0xbe, 0x58, 0xa7, 0xc5, 0xbe, 0x80, 0x2f, 0x15, 0xbe,
  0xc2, 0x80, 0x87, 0xbd, 0x62, 0x51, 0xe0, 0x3e, 0xe8, 0xa8, 0x9b, 0x3c,
  0xa2, 0x4a, 0x85, 0x3e, 0xaa, 0x22, 0x6e, 0x3d, 0x94, 0x89, 0xf0, 0xbc,
  0xb1, 0xd4, 0xae, 0x3e, 0xc8, 0xeb, 0x3e, 0xbe, 0x3c, 0x12, 0x30, 0x3d,
  0x19, 0xec, 0x5a, 0x3c, 0x1e, 0xc0, 0xa7, 0x3d, 0x23, 0x1d, 0xa9, 0x3e,
  0x9c, 0xa8, 0xfc, 0xbe, 0x56, 0x1e, 0xef, 0xbe, 0xa9, 0x55, 0x8f, 0xbd,
  0x5a, 0xc7, 0x8f, 0x3d, 0xda, 0xa4, 0xdd, 0x3e, 0xae, 0xd0, 0x2c, 0x3e,
  0xbb, 0xac, 0x2e, 0x3e, 0x3b, 0xa7, 0xa7, 0xbc, 0x49, 0x93, 0x82, 0xbd,
  0xaf, 0x73, 0x68, 0x3b, 0xcf, 0xe2, 0x15, 0xbe, 0x30, 0xb0, 0x3f, 0xbe,
  0xd8, 0x37, 0x9f, 0xbe, 0x17, 0x0a, 0x81, 0x3c, 0x8e, 0x69, 0x16, 0x3c,
  0x5a, 0x34, 0x68, 0xbe, 0x26, 0xfb, 0x89, 0xbe, 0xae, 0x6d, 0x45, 0xbc,
  0xaa, 0x60, 0xa5, 0x3e, 0x64, 0x86, 0x84, 0xbd, 0x00, 0xcc, 0xab, 0x3e,
  0x2e, 0xb2, 0x20, 0xbf, 0x51, 0xbe, 0x34, 0x3e, 0xc0, 0xab, 0x7c, 0x3e,
  0xbb, 0x71, 0x4b, 0x3d, 0x93, 0x50, 0xf3, 0xbb, 0xcb, 0x24, 0xa2, 0xbe,
  0xaa, 0x6f, 0x87, 0xbe, 0x87, 0x36, 0xab, 0xbe, 0xdf, 0x0f, 0x86, 0xbf,
  0x78, 0x84, 0x06, 0xbd, 0x87, 0x26, 0x15, 0x3b, 0xdf, 0xf6, 0x55, 0x3d,
  0x8d, 0x96, 0xcc, 0x3d, 0xe6, 0xa3, 0xcc, 0x3d, 0x78, 0x20, 0xc2, 0xbe,
  0x78, 0x61, 0xe0, 0xbe, 0x7d, 0xea, 0x19, 0xbf, 0xa0, 0x41, 0x8f, 0x3e,
  0xf7, 0x50, 0x14, 0xbe, 0xe8, 0x2c, 0xbe, 0x3d, 0x4f, 0xd8, 0x35, 0x3c,
  0x6c, 0x98, 0xac, 0xbe, 0x86, 0x89, 0x1c, 0xbf, 0x5f, 0x66, 0x51, 0xbe,
  0xf8, 0x7e, 0xca, 0xbe, 0x95, 0x56, 0x37, 0xbd, 0xb5, 0x35, 0xac, 0xbd,
  0x1d, 0x50, 0x58, 0xbe, 0x8b, 0xfc, 0x1a, 0xbe, 0xaa, 0x4c, 0x32, 0xbd,
  0xb9, 0xc6, 0x24, 0xbe, 0x4b, 0xad, 0x00, 0xbf, 0x1a, 0x77, 0x84, 0xbd,
  0x9d, 0xc3, 0xe2, 0xbd, 0x76, 0x6c, 0xc5, 0x3d, 0x7f, 0x38, 0x92, 0xbc,
  0x13, 0x00, 0xce, 0xbd, 0x7e, 0xef, 0x22, 0xbf, 0xd2, 0x13, 0x43, 0xbe,
  0x91, 0xbb, 0x20, 0x3e, 0xa2, 0xb0, 0x8c, 0xbe, 0xdb, 0x69, 0xf5, 0xbd,
  0x0a, 0x31, 0x1f, 0x3d, 0x1b, 0x1b, 0x49, 0xbd, 0x7c, 0x87, 0x84, 0x3d,
  0x41, 0xae, 0x34, 0x3d, 0x69, 0x32, 0xd7, 0xbe, 0x00, 0x2f, 0x3c, 0xbd,
  0xcc, 0x26, 0x72, 0xbf, 0xf6, 0x07, 0xfe, 0xbe, 0xff, 0x0b, 0x55, 0x3b,
  0x6b, 0x49, 0x6a, 0x3d, 0x24, 0x88, 0x56, 0xbd, 0xbf, 0x7c, 0xb4, 0xbe,
  0x55, 0x34, 0x80, 0x3e, 0x8d, 0x06, 0xac, 0xbe, 0x10, 0x45, 0x09, 0xbd,
  0xc4, 0x12, 0x03, 0x3f, 0x57, 0xfc, 0xac, 0xbe, 0x24, 0x92, 0xac, 0xbd,
  0xf7, 0x75, 0xb1, 0x3e, 0xd3, 0xa4, 0x9e, 0x3e, 0xce, 0x9d, 0x15, 0xbd,
  0x15, 0xea, 0xb4, 0xbb, 0x51, 0xae, 0x97, 0xbe, 0xc4, 0xf2, 0x62, 0x3e,
  0x21, 0xd8, 0x33, 0x3e, 0xc1, 0xae, 0x24, 0x3e, 0xff, 0xca, 0x96, 0x3d,
  0x99, 0x2c, 0xbf, 0xbe, 0xd3, 0x7f, 0x10, 0x3e, 0x93, 0xa3, 0xaf, 0xbe,
  0x54, 0x30, 0x89, 0xbc, 0x3f, 0x91, 0x76, 0x3d, 0x45, 0xd8, 0x1a, 0xbf,
  0xec, 0x6d, 0x8c, 0x3d, 0xe3, 0xd0, 0x8b, 0x3e, 0x1a, 0x36, 0x0f, 0x3f,
  0x2e, 0xfa, 0xae, 0xbe, 0x95, 0x4f, 0x76, 0x3e, 0x70, 0x2f, 0xc2, 0xbe,
  0x7f, 0x25, 0xa1, 0x3d, 0x6d, 0xa4, 0xe5, 0x3c, 0x03, 0xe3, 0x4e, 0x3c,
  0x29, 0xe3, 0x66, 0x3e, 0x8a, 0xf3, 0x12, 0xbe, 0xcd, 0xd8, 0x86, 0x3d,
  0x40, 0x13, 0x48, 0xbd, 0xbe, 0x1a, 0xbf, 0x3d, 0x90, 0xa7, 0x89, 0xbe,
  0x83, 0x01, 0x57, 0xbe, 0x62, 0xf8, 0x2b, 0xbd, 0xad, 0xcf, 0xf8, 0x3d,
  0x9c, 0x76, 0xd1, 0x3e, 0x6b, 0x52, 0x68, 0xbe, 0x17, 0x7b, 0x73, 0x3d,
  0x02, 0xcb, 0x81, 0xbc, 0x55, 0x43, 0x51, 0x3e, 0x79, 0x08, 0x07, 0x3e,
  0x2b, 0xbc, 0x2b, 0x3e, 0x1f, 0x07, 0x3f, 0x3e, 0x2d, 0x58, 0x1f, 0xbe,
  0x2c, 0xf7, 0x09, 0x3f, 0xf7, 0x53, 0xad, 0x3e, 0x71, 0xde, 0x93, 0x3e,
  0x41, 0x6b, 0xe6, 0x3d, 0xea, 0x41, 0x76, 0x3e, 0xca, 0x19, 0x40, 0x3d,
  0x06, 0xdc, 0x80, 0x3e, 0x9d, 0x89, 0x5b, 0x3e, 0xea, 0xb4, 0x96, 0xbe,
  0x53, 0x63, 0x8a, 0x3e, 0xa3, 0x9d, 0x8b, 0x3d, 0x26, 0xb5, 0x79, 0x3e,
  0x6d, 0x09, 0x99, 0x3e, 0xb9, 0x1c, 0xb4, 0x3d, 0xf3, 0xae, 0x29, 0x3e,
  0xf0, 0xed, 0x79, 0xbe, 0xd1, 0x9b, 0x17, 0x3f, 0xbe, 0xee, 0x81, 0x3d,
  0x4e, 0x56, 0x05, 0x3e, 0xa5, 0xdb, 0x24, 0xbc, 0xa3, 0x47, 0xb8, 0x3d,
  0x13, 0x12, 0xf7, 0xbb, 0x95, 0xd2, 0x4e, 0x3e, 0x23, 0x22, 0x0e, 0xbc,
  0xa5, 0x61, 0xcc, 0xbe, 0xfa, 0x7c, 0xc3, 0x3e, 0x74, 0x74, 0xe9, 0x3d,
  0x89, 0x1e, 0x55, 0x3e, 0xed, 0x72, 0x09, 0x3e, 0xf9, 0x1c, 0xd4, 0x3c,
  0xb7, 0x2d, 0x06, 0x3e, 0x92, 0xf1, 0x82, 0xbd, 0x4b, 0xa4, 0xb9, 0x3e,
  0x1e, 0x69, 0xf9, 0x3d, 0xdc, 0xad, 0x11, 0x3e, 0xd9, 0xa8, 0xb9, 0xbe,
  0x5a, 0x88, 0x53, 0x3e, 0xe0, 0xad, 0xdb, 0x3d, 0x4e, 0x5c, 0xdb, 0x3e,
  0x34, 0x6e, 0xf2, 0x3d, 0x3f, 0x28, 0x5b, 0xbe, 0x9e, 0xa3, 0xe8, 0x3e,
  0x56, 0x4a, 0xcc, 0xbd, 0x6d, 0x85, 0x04, 0x3e, 0x37, 0x58, 0xd9, 0xbe,
  0x17, 0xcd, 0xdf, 0x3d, 0xe6, 0xf8, 0x04, 0x3e, 0x3d, 0x24, 0x70, 0x3e,
  0x32, 0x32, 0x36, 0xbe, 0xa0, 0x23, 0x20, 0xbe, 0xef, 0x47, 0xae, 0x3e,
  0xd0, 0x35, 0x2b, 0xbd, 0x8e, 0xbf, 0x74, 0x3d, 0x3b, 0x85, 0xcb, 0xbc,
  0xcc, 0xcd, 0xea, 0x3d, 0x88, 0xe0, 0xa6, 0xbb, 0x5a, 0xfd, 0x9a, 0xbd,
  0x38, 0x5b, 0xbf, 0x3e, 0x39, 0x50, 0xf8, 0x3d, 0x70, 0x8e, 0x22, 0x3e,
  0x9f, 0xcf, 0x27, 0x3e, 0x3a, 0x55, 0xb8, 0xbc, 0xbf, 0xa6, 0x18, 0x3e,
  0x5d, 0x80, 0xed, 0xbe, 0xd9, 0x1a, 0x47, 0x3c, 0xc0, 0x08, 0xed, 0x3c,
  0x88, 0xc0, 0x62, 0x3e, 0x9c, 0xf4, 0x10, 0x3e, 0x96, 0xf2, 0x53, 0x3d,
  0xea, 0x6d, 0xd4, 0xbd, 0xdc, 0xb4, 0x34, 0x3e, 0xba, 0x23, 0xa1, 0x3d,
  0xc5, 0x06, 0x70, 0xbd, 0x03, 0x52, 0xec, 0x3e, 0x8a, 0x5c, 0xa6, 0x3e,
  0xe0, 0x28, 0x57, 0x3e, 0xfa, 0x93, 0x49, 0xbe, 0x13, 0x2c, 0x91, 0xbe,
  0x20, 0x27, 0x1a, 0x3e, 0xe5, 0xaa, 0xda, 0xbe, 0xb9, 0x0f, 0xaf, 0x3e,
  0x55, 0x51, 0x62, 0x3e, 0xed, 0xf9, 0xa4, 0x3e, 0x4c, 0x90, 0x60, 0x3e,
  0x56, 0x62, 0x72, 0x3d, 0xb7, 0xce, 0xb8, 0xbc, 0xd3, 0xa9, 0x69, 0x3d,
  0x17, 0x87, 0x05, 0x3e, 0xe2, 0x87, 0x07, 0x3d, 0xa2, 0x47, 0xfd, 0x3e,
  0x74, 0x39, 0x01, 0x3e, 0xa4, 0x49, 0x29, 0xbe, 0x23, 0x8c, 0xf9, 0x3d,
  0x1f, 0xca, 0xb1, 0xbd, 0xcb, 0xd5, 0x5c, 0x3d, 0xda, 0xb3, 0x62, 0xbe,
  0x20, 0x97, 0x3b, 0x3e, 0xa3, 0xc3, 0xae, 0xbd, 0x8a, 0x47, 0xa0, 0x3e,
  0x82, 0x18, 0x8f, 0xbc, 0x66, 0xa7, 0xae, 0x3b, 0x5f, 0xc8, 0x96, 0x3d,
  0xcd, 0xbb, 0x41, 0x3e, 0x00, 0x37, 0x22, 0x3e, 0xec, 0x9d, 0x3a, 0x3e,
  0x8d, 0xb8, 0x25, 0x3f, 0xbc, 0xaa, 0xec, 0xbd, 0xc9, 0xa9, 0xa1, 0xbd,
  0x46, 0x16, 0x86, 0xbd, 0x8f, 0x4f, 0x3f, 0x3e, 0xa9, 0x52, 0x88, 0x3d,
  0xb6, 0x86, 0xf9, 0xbb, 0xd1, 0x68, 0xd1, 0x3d, 0x1c, 0x8c, 0xc0, 0xbe,
  0x82, 0x08, 0x0a, 0x3e, 0xb0, 0xab, 0x60, 0xbe, 0x15, 0x1f, 0xd5, 0x3d,
  0xee, 0x08, 0x20, 0x3e, 0xf8, 0xd3, 0xb2, 0x3d, 0xbc, 0x30, 0x2e, 0x3f,
  0xfe, 0x20, 0x42, 0xbe, 0x70, 0x84, 0xba, 0x3e, 0x45, 0xf1, 0xab, 0xbe,
  0x09, 0xd8, 0xca, 0xbd, 0x3a, 0x02, 0xa7, 0x3d, 0x48, 0x62, 0xb7, 0x3d,
  0xfc, 0x50, 0x8c, 0xbd, 0x29, 0xbd, 0x3b, 0xbe, 0xf1, 0x9f, 0x07, 0x3e,
  0xea, 0x8c, 0x0a, 0x3c, 0x50, 0x66, 0xee, 0x3c, 0x2c, 0xd2, 0xc1, 0x3d,
  0x96, 0x7a, 0xff, 0xbd, 0x82, 0x10, 0x60, 0x3e, 0x35, 0xa0, 0x71, 0x3e,
  0x04, 0xfe, 0xce, 0x3e, 0xaa, 0x03, 0x97, 0xbd, 0x7f, 0x5c, 0xc1, 0xbb,
  0xf2, 0x0b, 0x6d, 0xbe, 0xa9, 0xb3, 0x89, 0xbd, 0x0a, 0xe3, 0xe0, 0x3d,
  0x9f, 0x48, 0xa1, 0x3d, 0x38, 0xe5, 0x09, 0xbe, 0x54, 0x38, 0x53, 0xbe,
  0x2e, 0x40, 0x9c, 0xbd, 0xf9, 0x33, 0x98, 0xbe, 0xc9, 0xb0, 0x10, 0xbe,
  0xaf, 0x92, 0xe6, 0xbd, 0xa3, 0xfe, 0x8f, 0xbd, 0x12, 0xcb, 0xc9, 0xbd,
  0x2a, 0xb5, 0xd8, 0x3d, 0x1b, 0xda, 0x2f, 0x3f, 0x48, 0x86, 0x39, 0xbe,
  0x79, 0xdf, 0x31, 0x3e, 0xa0, 0xcf, 0xda, 0x3d, 0x4d, 0x63, 0x86, 0xbe,
  0x46, 0x28, 0x44, 0x3d, 0xd1, 0x58, 0x41, 0x3e, 0x58, 0x2b, 0x56, 0x3d,
  0x58, 0x3c, 0xa1, 0xbe, 0xb8, 0xd2, 0x9a, 0x3d, 0xb2, 0xd6, 0x09, 0x3e,
  0xaa, 0xea, 0x8d, 0x3d, 0x83, 0x58, 0x2d, 0xbe, 0xbc, 0xa3, 0xcb, 0xbd,
  0x34, 0x27, 0x0c, 0x3e, 0xbf, 0xb7, 0x40, 0x3e, 0xb8, 0xa9, 0x1e, 0x3e,
  0xa3, 0xef, 0x57, 0x3d, 0x80, 0x10, 0x8b, 0x3d, 0x52, 0xeb, 0x82, 0xbc,
  0xe4, 0x29, 0x72, 0xbd, 0xe3, 0xb1, 0x98, 0xbe, 0xba, 0x86, 0xe7, 0xbd,
  0xff, 0x71, 0xa5, 0xbd, 0x30, 0xa0, 0xd7, 0xbd, 0xce, 0x61, 0x4a, 0xbf,
  0x9b, 0xf7, 0x7b, 0xbd, 0x58, 0x86, 0x70, 0xbe, 0xd6, 0xc0, 0x9b, 0xbf,
  0x86, 0x07, 0x81, 0xbe, 0x63, 0x78, 0x77, 0x3d, 0xdb, 0x91, 0x94, 0xbe,
  0x06, 0xa8, 0x2d, 0x3f, 0x26, 0x63, 0x1b, 0x3f, 0x6a, 0xef, 0x0e, 0xbe,
  0x52, 0x86, 0xd6, 0xbe, 0x4d, 0xa8, 0x01, 0xbf, 0xf3, 0x3a, 0x85, 0x3e,
  0xc6, 0x1a, 0x34, 0x3e, 0xbc, 0x9a, 0xcb, 0xbd, 0xfd, 0xe3, 0x8e, 0x3d,
  0xb1, 0x07, 0x11, 0xbf, 0x18, 0x3e, 0x45, 0xbd, 0x2b, 0x29, 0x41, 0xbf,
  0x8f, 0x83, 0xea, 0xbe, 0x8e, 0x8f, 0xbf, 0x3d, 0x4f, 0x9f, 0x4e, 0xbc,
  0x66, 0xaf, 0xfb, 0xbd, 0xa8, 0xc1, 0x2b, 0xbe, 0xb9, 0x21, 0x51, 0xbc,
  0xcf, 0x5d, 0x74, 0xbe, 0x38, 0x99, 0xdd, 0xbe, 0x34, 0x51, 0xb2, 0x3c,
  0xbb, 0x63, 0xbd, 0xbd, 0xde, 0xe8, 0xa6, 0x3c, 0x6c, 0x55, 0x1b, 0xbd,
  0x54, 0x46, 0xd3, 0x3d, 0x9c, 0x16, 0x88, 0xbe, 0x82, 0x43, 0x3f, 0x3d,
  0x04, 0xa4, 0xcc, 0xbe, 0xe9, 0x20, 0xa9, 0xbe, 0x16, 0xd0, 0x28, 0x3e,
  0x75, 0x88, 0x7b, 0x3e, 0xb3, 0x81, 0x5f, 0xbe, 0x1d, 0x22, 0x97, 0xbf,
  0x9c, 0x6b, 0x04, 0xbf, 0xa2, 0x54, 0xbc, 0xbd, 0x65, 0x62, 0xdc, 0x3d,
  0x4f, 0x58, 0x0c, 0x3c, 0x79, 0x6c, 0x9c, 0x3b, 0x0c, 0x16, 0x29, 0xbe,
  0x98, 0x7f, 0x0d, 0x3d, 0x2a, 0x28, 0x30, 0x3d, 0xf6, 0x9f, 0x7d, 0x3e,
  0xb0, 0xc0, 0x91, 0x3e, 0xec, 0x5f, 0x1a, 0xbd, 0x08, 0x03, 0x92, 0x3e,
  0xca, 0xb8, 0xe9, 0x3e, 0x39, 0xb5, 0x52, 0xbd, 0xc4, 0xd4, 0xa3, 0xbd,
  0x09, 0xa9, 0xf7, 0x3b, 0xa2, 0x42, 0x23, 0x3e, 0x2c, 0x59, 0x98, 0x3d,
  0xcc, 0xef, 0xb7, 0x3e, 0x88, 0x25, 0x23, 0xbd, 0xc2, 0xbd, 0xac, 0x3c,
  0xa1, 0x34, 0xa2, 0xbe, 0xac, 0x91, 0x8e, 0xbd, 0xd2, 0x55, 0x18, 0x3e,
  0xfb, 0xa1, 0x65, 0x3e, 0xa8, 0xbb, 0x69, 0x3e, 0x44, 0xc2, 0xd5, 0xbe,
  0x44, 0x4c, 0x88, 0xbe, 0xdc, 0xe5, 0x6c, 0x3c, 0xff, 0x1b, 0x63, 0x3d,
  0xfe, 0x74, 0x33, 0xbe, 0xda, 0x0e, 0x42, 0xbd, 0x8b, 0x8f, 0xa6, 0x3e,
  0x12, 0xfd, 0x5e, 0x3d, 0xb4, 0x86, 0x17, 0x3e, 0xf6, 0xff, 0xfe, 0xbe,
  0xea, 0x48, 0x15, 0x3d, 0x84, 0x9e, 0x46, 0x3d, 0x2c, 0x05, 0xbb, 0x3d,
  0x8a, 0xa3, 0x50, 0xbc, 0xb3, 0x70, 0x8b, 0xbe, 0x04, 0xe8, 0x1d, 0x3e,
  0x02, 0x34, 0x8f, 0xbf, 0xab, 0xdd, 0x76, 0xbf, 0x78, 0xb6, 0xe3, 0xbd,
  0x7e, 0x88, 0x2a, 0x3e, 0xb7, 0xc1, 0x20, 0xbe, 0xe8, 0x25, 0x15, 0xbd,
  0xc4, 0x8e, 0x2b, 0xbe, 0x1a, 0x77, 0xa2, 0x3e, 0xda, 0xc5, 0x95, 0xbd,
  0xb0, 0x64, 0xac, 0x3e, 0x3a, 0x3a, 0x51, 0x3e, 0x99, 0x95, 0xb8, 0x3d,
  0x38, 0x83, 0x02, 0xbd, 0x78, 0x27, 0x56, 0x3e, 0x32, 0x0b, 0x7a, 0xbe,
  0x02, 0x29, 0x73, 0x3e, 0x96, 0x84, 0xc5, 0xbd, 0xbc, 0x5e, 0x62, 0xbe,
  0x5b, 0x95, 0x8b, 0x3e, 0x96, 0x39, 0x63, 0x3d, 0xc9, 0x65, 0x1b, 0xbe,
  0x8c, 0x2e, 0x99, 0xbe, 0xad, 0xd3, 0xe9, 0x3e, 0xfe, 0x52, 0x95, 0x3e,
  0x8e, 0x75, 0xd6, 0x3d, 0x4a, 0x32, 0x18, 0x3e, 0xce, 0x1c, 0xaf, 0x3e,
  0x9b, 0x3f, 0xad, 0x3c, 0xa7, 0x9e, 0x59, 0xbe, 0x85, 0x4a, 0x90, 0x3e,
  0x48, 0xe5, 0xb3, 0xbe, 0x71, 0x85, 0x98, 0x3d, 0xdb, 0x40, 0xba, 0xbe,
  0xfa, 0x7d, 0x6f, 0xbe, 0xd0, 0x47, 0x8a, 0x3d, 0xdc, 0xc3, 0x83, 0x3c,
  0x5f, 0x58, 0x0c, 0x3e, 0xa5, 0x4a, 0xad, 0x3e, 0x49, 0x25, 0x3b, 0x3e,
  0xce, 0x53, 0xb8, 0x3e, 0x9f, 0xd7, 0xc5, 0xbe, 0xb7, 0x99, 0x89, 0x3d,
  0xd3, 0xce, 0x59, 0x3e, 0xb7, 0x59, 0x45, 0x3e, 0x04, 0xf6, 0xdc, 0x3d,
  0xd3, 0x33, 0x86, 0x3e, 0x8f, 0xf0, 0x2d, 0xbe, 0xf0, 0xb2, 0x78, 0x3e,
  0x5b, 0x04, 0xf7, 0xbe, 0x30, 0xf3, 0x20, 0xbf, 0x10, 0x69, 0xa8, 0xbd,
  0xea, 0xcd, 0x9a, 0x3d, 0xfe, 0x2e, 0x32, 0xbd, 0x1b, 0xfd, 0x32, 0x3e,
  0x65, 0x5a, 0xb2, 0xbe, 0x2b, 0x73, 0x9e, 0x3e, 0xe8, 0xcf, 0x7d, 0xbd,
  0x20, 0x3d, 0x11, 0x3e, 0x76, 0xaf, 0x71, 0x3e, 0x82, 0x0d, 0x93, 0x3e,
  0xea, 0xcf, 0xbb, 0x3d, 0x7e, 0x6e, 0x8e, 0x3b, 0xfe, 0x5b, 0x5a, 0xbe,
  0x58, 0x57, 0x01, 0x3e, 0xbb, 0xde, 0x1e, 0xbf, 0x19, 0x46, 0x85, 0xbf,
  0xfa, 0xf4, 0x9b, 0x3d, 0xc4, 0x79, 0xcb, 0x3d, 0x16, 0x04, 0x18, 0x3e,
  0x59, 0xc8, 0x01, 0xbf, 0x89, 0x5a, 0x36, 0xbf, 0x5d, 0x96, 0x5d, 0x3e,
  0xf6, 0xfe, 0xf6, 0x3e, 0xc7, 0xff, 0x86, 0x3c, 0xc0, 0x7a, 0x3a, 0xbe,
  0x80, 0x3c, 0x14, 0x3d, 0x88, 0x9b, 0xd9, 0xbc, 0x44, 0xb1, 0xb2, 0x3e,
  0x33, 0x57, 0xaf, 0xbe, 0x06, 0x87, 0x94, 0x3e, 0x02, 0x2d, 0x01, 0xbf,
  0xe5, 0x99, 0x92, 0xbe, 0xab, 0xdc, 0x4a, 0xbe, 0x09, 0x03, 0xe5, 0x3d,
  0xe3, 0xe0, 0x5d, 0xbe, 0xc7, 0x12, 0x77, 0xbf, 0x04, 0x4e, 0x6d, 0x3e,
  0x93, 0xfd, 0xc7, 0x3d, 0xb9, 0x51, 0x3e, 0xbc, 0xfe, 0x8e, 0x90, 0xbd,
  0x70, 0x7a, 0xc0, 0xbc, 0x62, 0x84, 0x28, 0x3e, 0x4e, 0x1a, 0x44, 0xbd,
  0x90, 0xc6, 0x91, 0x3e, 0x03, 0x5c, 0x82, 0xbe, 0x0d, 0x5c, 0xc3, 0x3e,
  0x18, 0xef, 0x6d, 0xbe, 0xdf, 0x57, 0x70, 0xbf, 0xdd, 0x8f, 0xc0, 0x3d,
  0x52, 0x3e, 0x12, 0xbe, 0x11, 0xfb, 0x94, 0xbe, 0xa4, 0x3e, 0xf3, 0x3e,
  0x32, 0xa3, 0xea, 0x3e, 0xd6, 0xe6, 0x8d, 0x3e, 0x87, 0xd5, 0x8b, 0xbe,
  0xee, 0x80, 0xf8, 0xbe, 0xd8, 0x93, 0x22, 0xbf, 0x42, 0x57, 0xf8, 0x3d,
  0x67, 0x5b, 0xe6, 0x3c, 0x51, 0x2c, 0x00, 0x3e, 0x98, 0xc8, 0xaa, 0xbe,
  0xf0, 0xe8, 0xba, 0xbc, 0x0a, 0x66, 0x6f, 0xbe, 0x07, 0xf6, 0xdc, 0xbe,
  0xdd, 0xb5, 0xdc, 0xbe, 0x59, 0x36, 0xad, 0x3d, 0x00, 0xc5, 0x1a, 0xbd,
  0xc0, 0xac, 0xb9, 0x3e, 0x68, 0xf6, 0x0c, 0x3e, 0x67, 0xcc, 0x94, 0xbe,
  0x84, 0x39, 0x1d, 0xbe, 0xe2, 0xd9, 0xb9, 0xbd, 0x90, 0xdd, 0x9d, 0xbb,
  0xc6, 0x8a, 0x7f, 0x3d, 0xc5, 0x05, 0x99, 0x3d, 0xca, 0x52, 0x51, 0x3e,
  0xd7, 0x45, 0x3e, 0xbe, 0x29, 0xc5, 0xb1, 0x3d, 0x1a, 0x0a, 0x07, 0xc0,
  0x61, 0x14, 0x7c, 0xbe, 0xf2, 0xed, 0xee, 0xbd, 0x82, 0x4a, 0x0d, 0xbc,
  0x2c, 0xa8, 0x92, 0xbe, 0x84, 0xbb, 0x0b, 0xbe, 0xdf, 0x5a, 0x00, 0xbf,
  0xb2, 0xb3, 0xb2, 0x3c, 0xde, 0xf4, 0xff, 0xff, 0x04, 0x00, 0x00, 0x00,
  0x08, 0x00, 0x00, 0x00, 0xff, 0xff, 0xff, 0xff, 0xe0, 0x00, 0x00, 0x00,
  0xf2, 0xf4, 0xff, 0xff, 0x04, 0x00, 0x00, 0x00, 0x10, 0x00, 0x00, 0x00,
  0x0c, 0x52, 0x9a, 0x3d, 0xcd, 0x8b, 0x9d, 0xbe, 0x6e, 0x6f, 0x83, 0x3f,
  0xbd, 0xd7, 0x6b, 0xbf, 0x0e, 0xf5, 0xff, 0xff, 0x04, 0x00, 0x00, 0x00,
  0x40, 0x00, 0x00, 0x00, 0x72, 0x61, 0x61, 0xbc, 0xe3, 0xe5, 0x12, 0xbc,
  0x49, 0x6c, 0x00, 0x3e, 0x72, 0x03, 0xf7, 0xbc, 0xab, 0x3d, 0x16, 0x3f,
  0xc7, 0xf4, 0x0b, 0x3f, 0x15, 0x37, 0xc9, 0xbd, 0x86, 0xc4, 0xef, 0xbe,
  0xc7, 0x8f, 0x2d, 0x3f, 0x89, 0x58, 0x5f, 0x3f, 0x39, 0x97, 0x07, 0xbe,
  0x84, 0x54, 0xbe, 0xba, 0x98, 0xdf, 0x4a, 0x3f, 0xf8, 0x49, 0x05, 0x3f,
  0xc6, 0x2f, 0x45, 0xbf, 0xa4, 0x10, 0xe3, 0x3e, 0x5a, 0xf5, 0xff, 0xff,
  0x04, 0x00, 0x00, 0x00, 0x00, 0x08, 0x00, 0x00, 0xc9, 0xd4, 0x95, 0xbd,
  0x08, 0x03, 0xf8, 0xbe, 0x63, 0xb4, 0x86, 0xbd, 0xfe, 0x01, 0x8a, 0xbc,
  0x90, 0x9c, 0x02, 0x3a, 0x11, 0xfb, 0x6e, 0xbd, 0x03, 0x59, 0x30, 0x3f,
  0x2d, 0x4d, 0x39, 0xbd, 0x00, 0x1b, 0x6e, 0x3d, 0xb2, 0x3d, 0xb5, 0xbd,
  0xa8, 0xef, 0x38, 0xbd, 0x57, 0x86, 0xd9, 0x3d, 0x91, 0xad, 0xf2, 0xbc,
  0x54, 0xb2, 0xf0, 0xbd, 0x09, 0x84, 0x74, 0xbd, 0x8c, 0x58, 0x9a, 0x3e,
  0x26, 0xcf, 0xe1, 0xbc, 0xdc, 0xa5, 0x58, 0xbd, 0x4f, 0x3a, 0x74, 0xbe,
  0x83, 0x99, 0x7a, 0xbe, 0xc7, 0x5a, 0x19, 0x3e, 0x20, 0xa0, 0xf7, 0xbd,
  0x4e, 0xa3, 0x3e, 0xbe, 0x82, 0xc3, 0x49, 0xbd, 0x1d, 0x6c, 0x13, 0xbe,
  0x94, 0xa6, 0x32, 0x3e, 0xdd, 0x2f, 0x39, 0xbe, 0x1e, 0xf4, 0x7d, 0xbe,
  0xc1, 0xe0, 0x4a, 0xbc, 0x09, 0x04, 0xcd, 0xbe, 0xad, 0x6c, 0x9b, 0xbe,
  0x6b, 0x69, 0x8e, 0xbe, 0xf3, 0x9c, 0x59, 0x3d, 0xd2, 0xdd, 0x66, 0xbf,
  0x90, 0x25, 0x8c, 0xbe, 0x96, 0xa5, 0x9c, 0xbe, 0xb6, 0x4c, 0x4b, 0x3e,
  0xdf, 0xfe, 0x05, 0xbe, 0x90, 0x9d, 0x6e, 0x3e, 0x1d, 0x17, 0xa9, 0xbd,
  0xe8, 0xdf, 0x92, 0xbd, 0x09, 0x09, 0x9a, 0xbe, 0xce, 0xa4, 0x9f, 0xbe,
  0x0d, 0xae, 0x94, 0xbe, 0xc7, 0xc3, 0x14, 0x3f, 0x95, 0x77, 0x88, 0xbe,
  0xa0, 0x18, 0xc5, 0xbc, 0x9c, 0xa1, 0x2c, 0xbe, 0x18, 0x95, 0x89, 0xbf,
  0xd1, 0xe5, 0x5f, 0x3e, 0xfc, 0x4f, 0xdd, 0xbd, 0x1d, 0x89, 0x1f, 0x3e,
  0x28, 0xa0, 0xac, 0xbe, 0xab, 0x57, 0x41, 0xbf, 0xa2, 0xb3, 0x3c, 0xbe,
  0x5f, 0xf2, 0x76, 0xbe, 0xaa, 0xd3, 0x36, 0xbc, 0xd7, 0xcf, 0x2f, 0x3e,
  0xff, 0x78, 0xcd, 0xbd, 0xe2, 0xb6, 0xdb, 0x3d, 0xa8, 0xe9, 0xeb, 0xbe,
  0xb5, 0xee, 0x9d, 0xbd, 0x2d, 0x15, 0x24, 0xbe, 0xf5, 0x95, 0x13, 0x3f,
  0xf6, 0x8d, 0x1e, 0xbf, 0x7e, 0xd7, 0xa1, 0x3e, 0xba, 0xed, 0x21, 0xbd,
  0xde, 0xa4, 0x2c, 0x3c, 0x11, 0xb0, 0x21, 0x3f, 0x2e, 0x74, 0x15, 0xbf,
  0x51, 0x1e, 0x9e, 0xbe, 0x21, 0x47, 0x51, 0xbf, 0x4f, 0xb6, 0x4b, 0xbe,
  0xfa, 0x96, 0x68, 0x3e, 0x5d, 0x10, 0xaf, 0xbd, 0x91, 0x5e, 0xc8, 0x3d,
  0x19, 0x72, 0xa7, 0xbe, 0x25, 0x62, 0xc0, 0xbc, 0x76, 0xe0, 0x92, 0xbe,
  0x35, 0x43, 0x7a, 0xbd, 0x1d, 0xe1, 0x1e, 0x3c, 0x57, 0xe5, 0x87, 0xbe,
  0x4d, 0x67, 0x38, 0xbe, 0x4b, 0x78, 0x47, 0xbe, 0x07, 0x42, 0x09, 0xbf,
  0xa5, 0x9d, 0x07, 0x3e, 0xf5, 0x73, 0x89, 0xba, 0xeb, 0x74, 0x60, 0x3e,
  0xde, 0xa1, 0xd4, 0x3d, 0xc3, 0xaa, 0x97, 0xbf, 0x19, 0x68, 0x8d, 0xbe,
  0xf6, 0x08, 0xe8, 0xbe, 0xcc, 0x80, 0xde, 0xbe, 0x1e, 0xd3, 0x2e, 0x3d,
  0xbd, 0xb7, 0xd3, 0x3e, 0x60, 0x90, 0x3b, 0x3e, 0x4c, 0xd9, 0x99, 0xbd,
  0xc1, 0x81, 0xa9, 0xbc, 0x90, 0xe3, 0x2b, 0xbd, 0xa1, 0xb8, 0x8d, 0x3d,
  0x50, 0xbf, 0xce, 0x3c, 0x31, 0x93, 0xbd, 0x3d, 0x0a, 0xbe, 0x0c, 0xbe,
  0xe6, 0xd5, 0xb1, 0xbc, 0x68, 0x09, 0x14, 0xbe, 0x58, 0x47, 0xa0, 0x3e,
  0xf7, 0x52, 0x7e, 0x3d, 0x74, 0xaa, 0x19, 0x3e, 0x24, 0xd1, 0x1b, 0x3e,
  0x80, 0x36, 0x16, 0x3e, 0x88, 0x7d, 0x89, 0xbd, 0x72, 0xba, 0xea, 0x3d,
  0x08, 0xbe, 0x1a, 0x3e, 0x5c, 0x76, 0x74, 0xbe, 0x2f, 0x8e, 0x25, 0xbc,
  0xd1, 0x24, 0x06, 0x3c, 0x66, 0xdd, 0x90, 0xbd, 0xde, 0x38, 0x0a, 0x3e,
  0x60, 0xdb, 0x61, 0xbe, 0x77, 0xa6, 0x48, 0xbc, 0x07, 0x64, 0x08, 0x3e,
  0x0f, 0xf6, 0xe3, 0xbc, 0x97, 0x35, 0x1a, 0x3e, 0x9b, 0xc6, 0x45, 0x3d,
  0x30, 0xb7, 0x5f, 0xbd, 0x35, 0x60, 0x28, 0x3e, 0xd6, 0x9d, 0x41, 0xbe,
  0x92, 0x10, 0xb1, 0xbd, 0xde, 0xa3, 0xb3, 0xbd, 0x1e, 0x79, 0xb2, 0x3d,
  0xc6, 0xa6, 0x08, 0xbd, 0x25, 0x6d, 0x94, 0x3c, 0x52, 0x13, 0x0c, 0xbe,
  0x56, 0x39, 0xf5, 0xbc, 0xad, 0x93, 0xc6, 0xbd, 0x92, 0x4c, 0xdb, 0x3d,
  0x51, 0x1b, 0xa9, 0xbc, 0xb2, 0x2c, 0x18, 0x3e, 0xde, 0xe3, 0xd9, 0x3d,
  0x51, 0x83, 0x48, 0x3e, 0x36, 0x2c, 0x0b, 0x3c, 0x34, 0x35, 0x57, 0xbd,
  0xb8, 0xb3, 0x56, 0x3d, 0x65, 0x34, 0x5f, 0xbb, 0xd5, 0x3e, 0xe0, 0xbc,
  0x62, 0xf8, 0x90, 0x3e, 0x17, 0x5c, 0x85, 0x3b, 0x0b, 0xca, 0x16, 0x3e,
  0x86, 0xdb, 0x6d, 0x3e, 0x9f, 0x4f, 0x3b, 0xbd, 0x8e, 0x83, 0xfb, 0xbc,
  0x6d, 0xbf, 0x5e, 0x3c, 0x66, 0x83, 0xe6, 0xbd, 0x7b, 0x50, 0x85, 0xbc,
  0x54, 0x47, 0x4f, 0xbd, 0x81, 0xb5, 0x98, 0xbd, 0xd8, 0xa7, 0xc7, 0x3e,
  0x12, 0xbd, 0x2a, 0xbe, 0x78, 0x04, 0x29, 0xbe, 0xd6, 0xbb, 0x94, 0xbe,
  0x54, 0x40, 0x3d, 0xbe, 0xc0, 0x8d, 0xfd, 0x3d, 0x19, 0xe1, 0x70, 0xbe,
  0x39, 0x54, 0xce, 0xbd, 0xb4, 0x61, 0x88, 0xbe, 0x6e, 0xbe, 0xd6, 0x3c,
  0x38, 0x39, 0x0e, 0xbf, 0x00, 0x7f, 0x35, 0xbe, 0xa5, 0x76, 0x18, 0xbd,
  0x36, 0xba, 0x95, 0xbe, 0x88, 0x9a, 0x9a, 0xbe, 0xb0, 0x37, 0x0b, 0x3f,
  0x5c, 0x7f, 0x8b, 0xbe, 0x82, 0xb4, 0x62, 0xbe, 0xbf, 0x89, 0x92, 0xbf,
  0x72, 0xff, 0x1e, 0xbf, 0xec, 0x07, 0x02, 0xbe, 0x67, 0x64, 0x9b, 0xbe,
  0xbd, 0x68, 0x57, 0xbe, 0xd8, 0x94, 0x84, 0x3e, 0x57, 0x0c, 0x8e, 0x3e,
  0xc6, 0xa1, 0xea, 0x3d, 0xee, 0x46, 0x77, 0xbd, 0xdd, 0x44, 0xfd, 0xbd,
