/* Copyright 2019 The TensorFlow Authors. All Rights Reserved.

Licensed under the Apache License, Version 2.0 (the "License");
you may not use this file except in compliance with the License.
You may obtain a copy of the License at

    http://www.apache.org/licenses/LICENSE-2.0

Unless required by applicable law or agreed to in writing, software
distributed under the License is distributed on an "AS IS" BASIS,
WITHOUT WARRANTIES OR CONDITIONS OF ANY KIND, either express or implied.
See the License for the specific language governing permissions and
limitations under the License.
==============================================================================*/

// Automatically created from a TensorFlow Lite flatbuffer using the command:
// xxd -i magic_wand_model.tflite > magic_wand_model_data.cc
// See the README for a full description of the creation process.

#include "magic_wand_model_data.h"

// We need to keep the data array aligned on some architectures.
#ifdef __has_attribute
#define HAVE_ATTRIBUTE(x) __has_attribute(x)
#else
#define HAVE_ATTRIBUTE(x) 0
#endif
#if HAVE_ATTRIBUTE(aligned) || (defined(__GNUC__) && !defined(__clang__))
#define DATA_ALIGN_ATTRIBUTE __attribute__((aligned(4)))
#else
#define DATA_ALIGN_ATTRIBUTE
#endif

// CNN
const unsigned char g_magic_wand_model_data[] DATA_ALIGN_ATTRIBUTE = {
  0x1c, 0x00, 0x00, 0x00, 0x54, 0x46, 0x4c, 0x33, 0x14, 0x00, 0x20, 0x00,
  0x04, 0x00, 0x08, 0x00, 0x0c, 0x00, 0x10, 0x00, 0x14, 0x00, 0x00, 0x00,
  0x18, 0x00, 0x1c, 0x00, 0x14, 0x00, 0x00, 0x00, 0x03, 0x00, 0x00, 0x00,
  0x18, 0x00, 0x00, 0x00, 0x2c, 0x00, 0x00, 0x00, 0x58, 0x01, 0x00, 0x00,
  0x2c, 0x00, 0x00, 0x00, 0x00, 0x01, 0x00, 0x00, 0x78, 0x00, 0x00, 0x00,
  0x05, 0x00, 0x00, 0x00, 0x94, 0x07, 0x00, 0x00, 0xb0, 0x06, 0x00, 0x00,
  0x4c, 0x04, 0x00, 0x00, 0x88, 0x03, 0x00, 0x00, 0x2c, 0x02, 0x00, 0x00,
  0x01, 0x00, 0x00, 0x00, 0x50, 0x01, 0x00, 0x00, 0x14, 0x00, 0x00, 0x00,
  0x9c, 0x4e, 0x00, 0x00, 0x98, 0x4e, 0x00, 0x00, 0xb4, 0x4d, 0x00, 0x00,
  0x28, 0x4d, 0x00, 0x00, 0xa4, 0x4c, 0x00, 0x00, 0x44, 0x4c, 0x00, 0x00,
  0xd8, 0x4b, 0x00, 0x00, 0x88, 0x13, 0x00, 0x00, 0x34, 0x12, 0x00, 0x00,
  0x58, 0x10, 0x00, 0x00, 0xfc, 0x07, 0x00, 0x00, 0x70, 0x4e, 0x00, 0x00,
  0x6c, 0x4e, 0x00, 0x00, 0x68, 0x4e, 0x00, 0x00, 0x64, 0x4e, 0x00, 0x00,
  0x60, 0x4e, 0x00, 0x00, 0x5c, 0x4e, 0x00, 0x00, 0x58, 0x4e, 0x00, 0x00,
  0x54, 0x4e, 0x00, 0x00, 0xbc, 0x00, 0x00, 0x00, 0x01, 0x00, 0x00, 0x00,
  0x10, 0x00, 0x00, 0x00, 0x00, 0x00, 0x0a, 0x00, 0x10, 0x00, 0x0c, 0x00,
  0x08, 0x00, 0x04, 0x00, 0x0a, 0x00, 0x00, 0x00, 0x0c, 0x00, 0x00, 0x00,
  0x1c, 0x00, 0x00, 0x00, 0x20, 0x00, 0x00, 0x00, 0x0f, 0x00, 0x00, 0x00,
  0x73, 0x65, 0x72, 0x76, 0x69, 0x6e, 0x67, 0x5f, 0x64, 0x65, 0x66, 0x61,
  0x75, 0x6c, 0x74, 0x00, 0x01, 0x00, 0x00, 0x00, 0x14, 0x00, 0x00, 0x00,
  0x01, 0x00, 0x00, 0x00, 0x24, 0x00, 0x00, 0x00, 0x08, 0x00, 0x0c, 0x00,
  0x08, 0x00, 0x04, 0x00, 0x08, 0x00, 0x00, 0x00, 0x11, 0x00, 0x00, 0x00,
  0x04, 0x00, 0x00, 0x00, 0x07, 0x00, 0x00, 0x00, 0x64, 0x65, 0x6e, 0x73,
  0x65, 0x5f, 0x31, 0x00, 0x02, 0xb3, 0xff, 0xff, 0x04, 0x00, 0x00, 0x00,
  0x0c, 0x00, 0x00, 0x00, 0x63, 0x6f, 0x6e, 0x76, 0x32, 0x64, 0x5f, 0x69,
  0x6e, 0x70, 0x75, 0x74, 0x00, 0x00, 0x00, 0x00, 0x01, 0x00, 0x00, 0x00,
  0x0c, 0x00, 0x00, 0x00, 0x08, 0x00, 0x0c, 0x00, 0x04, 0x00, 0x08, 0x00,
  0x08, 0x00, 0x00, 0x00, 0x08, 0x00, 0x00, 0x00, 0x13, 0x00, 0x00, 0x00,
  0x13, 0x00, 0x00, 0x00, 0x6d, 0x69, 0x6e, 0x5f, 0x72, 0x75, 0x6e, 0x74,
  0x69, 0x6d, 0x65, 0x5f, 0x76, 0x65, 0x72, 0x73, 0x69, 0x6f, 0x6e, 0x00,
  0x52, 0xb3, 0xff, 0xff, 0x04, 0x00, 0x00, 0x00, 0x10, 0x00, 0x00, 0x00,
  0x31, 0x2e, 0x35, 0x2e, 0x30, 0x00, 0x00, 0x00, 0x00, 0x00, 0x00, 0x00,
  0x00, 0x00, 0x00, 0x00, 0x0f, 0x00, 0x00, 0x00, 0x4d, 0x4c, 0x49, 0x52,
  0x20, 0x43, 0x6f, 0x6e, 0x76, 0x65, 0x72, 0x74, 0x65, 0x64, 0x2e, 0x00,
  0x00, 0x00, 0x0e, 0x00, 0x18, 0x00, 0x04, 0x00, 0x08, 0x00, 0x0c, 0x00,
  0x10, 0x00, 0x14, 0x00, 0x0e, 0x00, 0x00, 0x00, 0x14, 0x00, 0x00, 0x00,
  0x5c, 0x00, 0x00, 0x00, 0x60, 0x00, 0x00, 0x00, 0x64, 0x00, 0x00, 0x00,
  0x84, 0x00, 0x00, 0x00, 0x12, 0x00, 0x00, 0x00, 0xcc, 0x4c, 0x00, 0x00,
  0x80, 0x4c, 0x00, 0x00, 0x14, 0x4c, 0x00, 0x00, 0x90, 0x4b, 0x00, 0x00,
  0x10, 0x4b, 0x00, 0x00, 0x9c, 0x4a, 0x00, 0x00, 0x34, 0x4a, 0x00, 0x00,
  0xe0, 0x11, 0x00, 0x00, 0x84, 0x10, 0x00, 0x00, 0xa8, 0x0e, 0x00, 0x00,
  0xf8, 0x05, 0x00, 0x00, 0x14, 0x05, 0x00, 0x00, 0xf8, 0x03, 0x00, 0x00,
  0x4c, 0x03, 0x00, 0x00, 0xa8, 0x02, 0x00, 0x00, 0xe4, 0x01, 0x00, 0x00,
  0x20, 0x01, 0x00, 0x00, 0x84, 0x00, 0x00, 0x00, 0x01, 0x00, 0x00, 0x00,
  0x00, 0x00, 0x00, 0x00, 0x01, 0x00, 0x00, 0x00, 0x11, 0x00, 0x00, 0x00,
  0x08, 0x00, 0x00, 0x00, 0x60, 0x05, 0x00, 0x00, 0x80, 0x04, 0x00, 0x00,
  0x88, 0x03, 0x00, 0x00, 0xcc, 0x02, 0x00, 0x00, 0x40, 0x02, 0x00, 0x00,
  0x60, 0x01, 0x00, 0x00, 0xb8, 0x00, 0x00, 0x00, 0x10, 0x00, 0x00, 0x00,
  0x04, 0x00, 0x00, 0x00, 0x6d, 0x61, 0x69, 0x6e, 0x00, 0x00, 0x00, 0x00,
  0x6a, 0xff, 0xff, 0xff, 0x00, 0x00, 0x00, 0x09, 0x04, 0x00, 0x00, 0x00,
  0x1c, 0x00, 0x00, 0x00, 0x10, 0x00, 0x00, 0x00, 0x04, 0x00, 0x00, 0x00,
  0x4e, 0xb4, 0xff, 0xff, 0x00, 0x00, 0x80, 0x3f, 0x01, 0x00, 0x00, 0x00,
  0x11, 0x00, 0x00, 0x00, 0x01, 0x00, 0x00, 0x00, 0x10, 0x00, 0x00, 0x00,
  0xb4, 0xfa, 0xff, 0xff, 0x19, 0x00, 0x00, 0x00, 0x00, 0x00, 0x00, 0x19,
  0x01, 0x00, 0x00, 0x00, 0x10, 0xb4, 0xff, 0xff, 0x14, 0x00, 0x00, 0x00,
  0x12, 0x00, 0x00, 0x00, 0x18, 0x00, 0x00, 0x00, 0x40, 0x00, 0x00, 0x00,
  0x30, 0x00, 0x00, 0x00, 0x02, 0x00, 0x00, 0x00, 0x01, 0x00, 0x00, 0x00,
  0x04, 0x00, 0x00, 0x00, 0x19, 0x00, 0x00, 0x00, 0x53, 0x74, 0x61, 0x74,
  0x65, 0x66, 0x75, 0x6c, 0x50, 0x61, 0x72, 0x74, 0x69, 0x74, 0x69, 0x6f,
  0x6e, 0x65, 0x64, 0x43, 0x61, 0x6c, 0x6c, 0x3a, 0x30, 0x00, 0x00, 0x00,
  0x02, 0x00, 0x00, 0x00, 0xff, 0xff, 0xff, 0xff, 0x04, 0x00, 0x00, 0x00,
  0xd0, 0xb4, 0xff, 0xff, 0x00, 0x00, 0x0e, 0x00, 0x18, 0x00, 0x08, 0x00,
  0x0c, 0x00, 0x10, 0x00, 0x07, 0x00, 0x14, 0x00, 0x0e, 0x00, 0x00, 0x00,
  0x00, 0x00, 0x00, 0x08, 0x03, 0x00, 0x00, 0x00, 0x18, 0x00, 0x00, 0x00,
  0x0c, 0x00, 0x00, 0x00, 0x04, 0x00, 0x00, 0x00, 0x10, 0xb4, 0xff, 0xff,
  0x01, 0x00, 0x00, 0x00, 0x10, 0x00, 0x00, 0x00, 0x03, 0x00, 0x00, 0x00,
  0x0f, 0x00, 0x00, 0x00, 0x07, 0x00, 0x00, 0x00, 0x01, 0x00, 0x00, 0x00,
  0xa8, 0xb4, 0xff, 0xff, 0x14, 0x00, 0x00, 0x00, 0x11, 0x00, 0x00, 0x00,
  0x18, 0x00, 0x00, 0x00, 0x5c, 0x00, 0x00, 0x00, 0x4c, 0x00, 0x00, 0x00,
  0x02, 0x00, 0x00, 0x00, 0x01, 0x00, 0x00, 0x00, 0x04, 0x00, 0x00, 0x00,
  0x34, 0x00, 0x00, 0x00, 0x73, 0x65, 0x71, 0x75, 0x65, 0x6e, 0x74, 0x69,
  0x61, 0x6c, 0x2f, 0x64, 0x65, 0x6e, 0x73, 0x65, 0x5f, 0x31, 0x2f, 0x4d,
  0x61, 0x74, 0x4d, 0x75, 0x6c, 0x3b, 0x73, 0x65, 0x71, 0x75, 0x65, 0x6e,
  0x74, 0x69, 0x61, 0x6c, 0x2f, 0x64, 0x65, 0x6e, 0x73, 0x65, 0x5f, 0x31,
  0x2f, 0x42, 0x69, 0x61, 0x73, 0x41, 0x64, 0x64, 0x00, 0x00, 0x00, 0x00,
  0x02, 0x00, 0x00, 0x00, 0xff, 0xff, 0xff, 0xff, 0x04, 0x00, 0x00, 0x00,
  0x98, 0xb4, 0xff, 0xff, 0xfe, 0xfc, 0xff, 0xff, 0x00, 0x00, 0x00, 0x08,
  0x03, 0x00, 0x00, 0x00, 0x24, 0x00, 0x00, 0x00, 0x18, 0x00, 0x00, 0x00,
  0x0c, 0x00, 0x00, 0x00, 0x00, 0x00, 0x06, 0x00, 0x08, 0x00, 0x07, 0x00,
  0x06, 0x00, 0x00, 0x00, 0x00, 0x00, 0x00, 0x01, 0x01, 0x00, 0x00, 0x00,
  0x0f, 0x00, 0x00, 0x00, 0x03, 0x00, 0x00, 0x00, 0x0e, 0x00, 0x00, 0x00,
  0x06, 0x00, 0x00, 0x00, 0x02, 0x00, 0x00, 0x00, 0x0c, 0xfc, 0xff, 0xff,
  0x09, 0x00, 0x00, 0x00, 0x00, 0x00, 0x00, 0x09, 0x01, 0x00, 0x00, 0x00,
  0x68, 0xb5, 0xff, 0xff, 0x14, 0x00, 0x00, 0x00, 0x10, 0x00, 0x00, 0x00,
  0x18, 0x00, 0x00, 0x00, 0x6c, 0x00, 0x00, 0x00, 0x5c, 0x00, 0x00, 0x00,
  0x02, 0x00, 0x00, 0x00, 0x01, 0x00, 0x00, 0x00, 0x10, 0x00, 0x00, 0x00,
  0x46, 0x00, 0x00, 0x00, 0x73, 0x65, 0x71, 0x75, 0x65, 0x6e, 0x74, 0x69,
  0x61, 0x6c, 0x2f, 0x64, 0x65, 0x6e, 0x73, 0x65, 0x2f, 0x4d, 0x61, 0x74,
  0x4d, 0x75, 0x6c, 0x3b, 0x73, 0x65, 0x71, 0x75, 0x65, 0x6e, 0x74, 0x69,
  0x61, 0x6c, 0x2f, 0x64, 0x65, 0x6e, 0x73, 0x65, 0x2f, 0x52, 0x65, 0x6c,
  0x75, 0x3b, 0x73, 0x65, 0x71, 0x75, 0x65, 0x6e, 0x74, 0x69, 0x61, 0x6c,
  0x2f, 0x64, 0x65, 0x6e, 0x73, 0x65, 0x2f, 0x42, 0x69, 0x61, 0x73, 0x41,
  0x64, 0x64, 0x00, 0x00, 0x02, 0x00, 0x00, 0x00, 0xff, 0xff, 0xff, 0xff,
  0x10, 0x00, 0x00, 0x00, 0x54, 0xb6, 0xff, 0xff, 0x00, 0x00, 0x0a, 0x00,
  0x10, 0x00, 0x04, 0x00, 0x08, 0x00, 0x0c, 0x00, 0x0a, 0x00, 0x00, 0x00,
  0x02, 0x00, 0x00, 0x00, 0x10, 0x00, 0x00, 0x00, 0x04, 0x00, 0x00, 0x00,
  0x01, 0x00, 0x00, 0x00, 0x0e, 0x00, 0x00, 0x00, 0x02, 0x00, 0x00, 0x00,
  0x0d, 0x00, 0x00, 0x00, 0x05, 0x00, 0x00, 0x00, 0xcc, 0xfc, 0xff, 0xff,
  0x16, 0x00, 0x00, 0x00, 0x00, 0x00, 0x00, 0x16, 0x01, 0x00, 0x00, 0x00,
  0x28, 0xb6, 0xff, 0xff, 0x14, 0x00, 0x00, 0x00, 0x0f, 0x00, 0x00, 0x00,
  0x18, 0x00, 0x00, 0x00, 0x40, 0x00, 0x00, 0x00, 0x30, 0x00, 0x00, 0x00,
  0x02, 0x00, 0x00, 0x00, 0x01, 0x00, 0x00, 0x00, 0xe0, 0x00, 0x00, 0x00,
  0x1a, 0x00, 0x00, 0x00, 0x73, 0x65, 0x71, 0x75, 0x65, 0x6e, 0x74, 0x69,
  0x61, 0x6c, 0x2f, 0x66, 0x6c, 0x61, 0x74, 0x74, 0x65, 0x6e, 0x2f, 0x52,
  0x65, 0x73, 0x68, 0x61, 0x70, 0x65, 0x00, 0x00, 0x02, 0x00, 0x00, 0x00,
  0xff, 0xff, 0xff, 0xff, 0xe0, 0x00, 0x00, 0x00, 0xfc, 0xb5, 0xff, 0xff,
  0x62, 0xfe, 0xff, 0xff, 0x00, 0x00, 0x00, 0x05, 0x01, 0x00, 0x00, 0x00,
  0x38, 0x00, 0x00, 0x00, 0x2c, 0x00, 0x00, 0x00, 0x14, 0x00, 0x00, 0x00,
  0x00, 0x00, 0x0e, 0x00, 0x14, 0x00, 0x00, 0x00, 0x10, 0x00, 0x0c, 0x00,
  0x08, 0x00, 0x04, 0x00, 0x0e, 0x00, 0x00, 0x00, 0x03, 0x00, 0x00, 0x00,
  0x01, 0x00, 0x00, 0x00, 0x03, 0x00, 0x00, 0x00, 0x01, 0x00, 0x00, 0x00,
  0x01, 0x00, 0x00, 0x00, 0x0d, 0x00, 0x00, 0x00, 0x01, 0x00, 0x00, 0x00,
  0x0c, 0x00, 0x00, 0x00, 0xc8, 0xb6, 0xff, 0xff, 0x14, 0x00, 0x00, 0x00,
  0x0e, 0x00, 0x00, 0x00, 0x20, 0x00, 0x00, 0x00, 0x58, 0x00, 0x00, 0x00,
  0x40, 0x00, 0x00, 0x00, 0x04, 0x00, 0x00, 0x00, 0x01, 0x00, 0x00, 0x00,
  0x0e, 0x00, 0x00, 0x00, 0x01, 0x00, 0x00, 0x00, 0x10, 0x00, 0x00, 0x00,
  0x22, 0x00, 0x00, 0x00, 0x73, 0x65, 0x71, 0x75, 0x65, 0x6e, 0x74, 0x69,
  0x61, 0x6c, 0x2f, 0x6d, 0x61, 0x78, 0x5f, 0x70, 0x6f, 0x6f, 0x6c, 0x69,
  0x6e, 0x67, 0x32, 0x64, 0x5f, 0x31, 0x2f, 0x4d, 0x61, 0x78, 0x50, 0x6f,
  0x6f, 0x6c, 0x00, 0x00, 0x04, 0x00, 0x00, 0x00, 0xff, 0xff, 0xff, 0xff,
  0x0e, 0x00, 0x00, 0x00, 0x01, 0x00, 0x00, 0x00, 0x10, 0x00, 0x00, 0x00,
  0xb4, 0xb6, 0xff, 0xff, 0x3e, 0xfe, 0xff, 0xff, 0x00, 0x00, 0x00, 0x01,
  0x24, 0x00, 0x00, 0x00, 0x18, 0x00, 0x00, 0x00, 0x04, 0x00, 0x00, 0x00,
  0x30, 0xfe, 0xff, 0xff, 0x01, 0x00, 0x00, 0x00, 0x01, 0x00, 0x00, 0x00,
  0x00, 0x00, 0x00, 0x01, 0x01, 0x00, 0x00, 0x00, 0x0c, 0x00, 0x00, 0x00,
  0x03, 0x00, 0x00, 0x00, 0x0b, 0x00, 0x00, 0x00, 0x09, 0x00, 0x00, 0x00,
  0x03, 0x00, 0x00, 0x00, 0x70, 0xb7, 0xff, 0xff, 0x14, 0x00, 0x00, 0x00,
  0x0d, 0x00, 0x00, 0x00, 0x20, 0x00, 0x00, 0x00, 0x94, 0x00, 0x00, 0x00,
  0x7c, 0x00, 0x00, 0x00, 0x04, 0x00, 0x00, 0x00, 0x01, 0x00, 0x00, 0x00,
  0x2a, 0x00, 0x00, 0x00, 0x01, 0x00, 0x00, 0x00, 0x10, 0x00, 0x00, 0x00,
  0x5d, 0x00, 0x00, 0x00, 0x73, 0x65, 0x71, 0x75, 0x65, 0x6e, 0x74, 0x69,
  0x61, 0x6c, 0x2f, 0x63, 0x6f, 0x6e, 0x76, 0x32, 0x64, 0x5f, 0x31, 0x2f,
  0x52, 0x65, 0x6c, 0x75, 0x3b, 0x73, 0x65, 0x71, 0x75, 0x65, 0x6e, 0x74,
  0x69, 0x61, 0x6c, 0x2f, 0x63, 0x6f, 0x6e, 0x76, 0x32, 0x64, 0x5f, 0x31,
  0x2f, 0x42, 0x69, 0x61, 0x73, 0x41, 0x64, 0x64, 0x3b, 0x73, 0x65, 0x71,
  0x75, 0x65, 0x6e, 0x74, 0x69, 0x61, 0x6c, 0x2f, 0x63, 0x6f, 0x6e, 0x76,
  0x32, 0x64, 0x5f, 0x31, 0x2f, 0x43, 0x6f, 0x6e, 0x76, 0x32, 0x44, 0x3b,
  0x63, 0x6f, 0x6e, 0x76, 0x32, 0x64, 0x5f, 0x31, 0x2f, 0x62, 0x69, 0x61,
  0x73, 0x00, 0x00, 0x00, 0x04, 0x00, 0x00, 0x00, 0xff, 0xff, 0xff, 0xff,
  0x2a, 0x00, 0x00, 0x00, 0x01, 0x00, 0x00, 0x00, 0x10, 0x00, 0x00, 0x00,
  0x84, 0xb8, 0xff, 0xff, 0x00, 0x00, 0x0e, 0x00, 0x1a, 0x00, 0x08, 0x00,
  0x0c, 0x00, 0x10, 0x00, 0x07, 0x00, 0x14, 0x00, 0x0e, 0x00, 0x00, 0x00,
  0x00, 0x00, 0x00, 0x05, 0x01, 0x00, 0x00, 0x00, 0x3c, 0x00, 0x00, 0x00,
  0x30, 0x00, 0x00, 0x00, 0x14, 0x00, 0x00, 0x00, 0x00, 0x00, 0x0e, 0x00,
  0x18, 0x00, 0x17, 0x00, 0x10, 0x00, 0x0c, 0x00, 0x08, 0x00, 0x04, 0x00,
  0x0e, 0x00, 0x00, 0x00, 0x03, 0x00, 0x00, 0x00, 0x03, 0x00, 0x00, 0x00,
  0x03, 0x00, 0x00, 0x00, 0x03, 0x00, 0x00, 0x00, 0x00, 0x00, 0x00, 0x01,
  0x01, 0x00, 0x00, 0x00, 0x0b, 0x00, 0x00, 0x00, 0x01, 0x00, 0x00, 0x00,
  0x0a, 0x00, 0x00, 0x00, 0x2c, 0xff, 0xff, 0xff, 0x11, 0x00, 0x00, 0x00,
  0x00, 0x00, 0x00, 0x11, 0x01, 0x00, 0x00, 0x00, 0x88, 0xb8, 0xff, 0xff,
  0x14, 0x00, 0x00, 0x00, 0x0c, 0x00, 0x00, 0x00, 0x20, 0x00, 0x00, 0x00,
  0x58, 0x00, 0x00, 0x00, 0x40, 0x00, 0x00, 0x00, 0x04, 0x00, 0x00, 0x00,
  0x01, 0x00, 0x00, 0x00, 0x2a, 0x00, 0x00, 0x00, 0x01, 0x00, 0x00, 0x00,
  0x08, 0x00, 0x00, 0x00, 0x20, 0x00, 0x00, 0x00, 0x73, 0x65, 0x71, 0x75,
  0x65, 0x6e, 0x74, 0x69, 0x61, 0x6c, 0x2f, 0x6d, 0x61, 0x78, 0x5f, 0x70,
  0x6f, 0x6f, 0x6c, 0x69, 0x6e, 0x67, 0x32, 0x64, 0x2f, 0x4d, 0x61, 0x78,
  0x50, 0x6f, 0x6f, 0x6c, 0x00, 0x00, 0x00, 0x00, 0x04, 0x00, 0x00, 0x00,
  0xff, 0xff, 0xff, 0xff, 0x2a, 0x00, 0x00, 0x00, 0x01, 0x00, 0x00, 0x00,
  0x08, 0x00, 0x00, 0x00, 0x60, 0xb9, 0xff, 0xff, 0x00, 0x00, 0x0e, 0x00,
  0x14, 0x00, 0x00, 0x00, 0x08, 0x00, 0x0c, 0x00, 0x07, 0x00, 0x10, 0x00,
  0x0e, 0x00, 0x00, 0x00, 0x00, 0x00, 0x00, 0x01, 0x30, 0x00, 0x00, 0x00,
  0x24, 0x00, 0x00, 0x00, 0x10, 0x00, 0x00, 0x00, 0x0c, 0x00, 0x10, 0x00,
  0x00, 0x00, 0x04, 0x00, 0x08, 0x00, 0x0f, 0x00, 0x0c, 0x00, 0x00, 0x00,
  0x01, 0x00, 0x00, 0x00, 0x01, 0x00, 0x00, 0x00, 0x00, 0x00, 0x00, 0x01,
  0x01, 0x00, 0x00, 0x00, 0x0a, 0x00, 0x00, 0x00, 0x03, 0x00, 0x00, 0x00,
  0x00, 0x00, 0x00, 0x00, 0x08, 0x00, 0x00, 0x00, 0x04, 0x00, 0x00, 0x00,
  0x0c, 0x00, 0x10, 0x00, 0x0b, 0x00, 0x00, 0x00, 0x0c, 0x00, 0x04, 0x00,
  0x0c, 0x00, 0x00, 0x00, 0x03, 0x00, 0x00, 0x00, 0x00, 0x00, 0x00, 0x03,
  0x01, 0x00, 0x00, 0x00, 0x68, 0xb9, 0xff, 0xff, 0x14, 0x00, 0x00, 0x00,
  0x0b, 0x00, 0x00, 0x00, 0x20, 0x00, 0x00, 0x00, 0x8c, 0x00, 0x00, 0x00,
  0x74, 0x00, 0x00, 0x00, 0x04, 0x00, 0x00, 0x00, 0x01, 0x00, 0x00, 0x00,
  0x80, 0x00, 0x00, 0x00, 0x03, 0x00, 0x00, 0x00, 0x08, 0x00, 0x00, 0x00,
  0x55, 0x00, 0x00, 0x00, 0x73, 0x65, 0x71, 0x75, 0x65, 0x6e, 0x74, 0x69,
  0x61, 0x6c, 0x2f, 0x63, 0x6f, 0x6e, 0x76, 0x32, 0x64, 0x2f, 0x52, 0x65,
  0x6c, 0x75, 0x3b, 0x73, 0x65, 0x71, 0x75, 0x65, 0x6e, 0x74, 0x69, 0x61,
  0x6c, 0x2f, 0x63, 0x6f, 0x6e, 0x76, 0x32, 0x64, 0x2f, 0x42, 0x69, 0x61,
  0x73, 0x41, 0x64, 0x64, 0x3b, 0x73, 0x65, 0x71, 0x75, 0x65, 0x6e, 0x74,
  0x69, 0x61, 0x6c, 0x2f, 0x63, 0x6f, 0x6e, 0x76, 0x32, 0x64, 0x2f, 0x43,
  0x6f, 0x6e, 0x76, 0x32, 0x44, 0x3b, 0x63, 0x6f, 0x6e, 0x76, 0x32, 0x64,
  0x2f, 0x62, 0x69, 0x61, 0x73, 0x00, 0x00, 0x00, 0x04, 0x00, 0x00, 0x00,
  0xff, 0xff, 0xff, 0xff, 0x80, 0x00, 0x00, 0x00, 0x03, 0x00, 0x00, 0x00,
  0x08, 0x00, 0x00, 0x00, 0x88, 0xb9, 0xff, 0xff, 0x6e, 0xba, 0xff, 0xff,
  0x04, 0x00, 0x00, 0x00, 0x00, 0x08, 0x00, 0x00, 0x67, 0x31, 0x8f, 0xbc,
  0xb4, 0xd1, 0x9f, 0xbe, 0x1e, 0x02, 0xd3, 0xbd, 0x81, 0xd8, 0xea, 0x3c,
  0xe0, 0xc3, 0xcd, 0xbe, 0x46, 0xe6, 0x96, 0x3e, 0xac, 0x50, 0x87, 0xbe,
  0x48, 0xda, 0x3e, 0x3e, 0x7e, 0x07, 0xca, 0x3d, 0xd6, 0xa8, 0xc6, 0xbd,
  0x3e, 0x67, 0x28, 0xbe, 0x48, 0x74, 0x2c, 0xbe, 0xb7, 0x8c, 0xcf, 0xbe,
  0xc1, 0x10, 0x80, 0xbd, 0x04, 0xdb, 0xc0, 0xbe, 0x29, 0xb5, 0x30, 0x3e,
  0x85, 0x4b, 0x73, 0xbd, 0x0c, 0xc6, 0x28, 0xbe, 0x75, 0xb9, 0x82, 0xbe,
  0x38, 0x0a, 0x80, 0x3e, 0x7b, 0x4a, 0xc4, 0xbe, 0xca, 0x4b, 0x43, 0xbe,
  0xeb, 0xe3, 0x0f, 0xbe, 0x53, 0xe7, 0xc3, 0xbd, 0x85, 0x1c, 0xc9, 0xbd,
  0xf3, 0x94, 0xf9, 0xbd, 0x9e, 0x79, 0x4f, 0x3d, 0x34, 0xd9, 0xe3, 0x3e,
  0xb0, 0x79, 0xa5, 0x3b, 0x74, 0xb7, 0xdf, 0x3c, 0xa0, 0x37, 0xd5, 0xbd,
  0x99, 0x4b, 0xa5, 0x3d, 0xb1, 0xf1, 0x19, 0x3e, 0x2a, 0x05, 0x09, 0xbd,
  0x21, 0xdc, 0x4b, 0xbe, 0xfa, 0xad, 0x78, 0xbd, 0x4c, 0x19, 0x3e, 0xbe,
  0x84, 0xed, 0x93, 0xbe, 0x3b, 0x76, 0x98, 0xbe, 0x4e, 0x7a, 0xe7, 0x3d,
  0x26, 0x02, 0xc3, 0xbd, 0xf0, 0x83, 0x4c, 0x3d, 0x22, 0x76, 0x17, 0x3e,
  0x9c, 0xc0, 0x3d, 0x3e, 0xcc, 0x15, 0x36, 0x3e, 0x60, 0x5a, 0x2f, 0xbe,
  0x1d, 0x2b, 0x2c, 0x3e, 0x97, 0x1f, 0x4d, 0x3e, 0xef, 0x33, 0x9c, 0x3c,
  0x18, 0xe1, 0x8e, 0xbd, 0xd9, 0x11, 0xf8, 0xbd, 0x0d, 0xce, 0x91, 0x3e,
  0x2e, 0xa2, 0x8a, 0xbd, 0x29, 0x09, 0x95, 0xbe, 0x5e, 0xbb, 0x9b, 0x3d,
  0xe4, 0xb4, 0xca, 0x3b, 0xa2, 0x93, 0x42, 0x3e, 0xe1, 0x97, 0x04, 0x3e,
  0xc2, 0x65, 0xcf, 0x3d, 0xe1, 0xc8, 0x3c, 0xbe, 0xbc, 0xe1, 0xa3, 0xbc,
  0xfa, 0x0a, 0xb3, 0xbe, 0x96, 0xb1, 0x7d, 0xbe, 0x40, 0x10, 0x03, 0xbe,
  0x1f, 0xa0, 0x1c, 0xbf, 0x6f, 0xf3, 0xc8, 0xbe, 0x6c, 0xfb, 0x05, 0xbf,
  0xd4, 0x74, 0xeb, 0xbd, 0x35, 0x1d, 0x87, 0xbe, 0x03, 0xf1, 0xc3, 0xbd,
  0x2a, 0xee, 0xba, 0x3d, 0x1f, 0x4b, 0x52, 0xbd, 0x86, 0x50, 0x84, 0xbe,
  0x56, 0x37, 0x07, 0xbf, 0x74, 0xe3, 0xfb, 0xbe, 0xee, 0x4e, 0xb2, 0xbe,
  0x7e, 0xa9, 0x8d, 0xbe, 0xb3, 0x40, 0x10, 0xbe, 0x27, 0x81, 0x2d, 0x3e,
  0x80, 0xf9, 0x85, 0xbd, 0x97, 0x51, 0xb0, 0x3e, 0x42, 0x6d, 0x5d, 0xbe,
  0xa6, 0x7a, 0x1a, 0xbe, 0xeb, 0xc2, 0xf5, 0xbb, 0xde, 0xa3, 0x1b, 0xbd,
  0x2a, 0xa1, 0x55, 0xbc, 0x4e, 0xbe, 0x1e, 0xbe, 0x90, 0x64, 0xc7, 0x3e,
  0xb0, 0x4f, 0xac, 0x3d, 0xe6, 0x63, 0xb6, 0xbe, 0xa9, 0x9c, 0x20, 0x3f,
  0x20, 0x07, 0x81, 0xbe, 0x98, 0x96, 0xb7, 0x3e, 0x2b, 0xf6, 0x70, 0x3d,
  0xc5, 0x4f, 0xa4, 0xbc, 0x9d, 0xe9, 0xbe, 0x3e, 0x3d, 0xdf, 0xc3, 0xbe,
  0xc4, 0xd6, 0xce, 0xbe, 0x15, 0xbe, 0xfc, 0x3c, 0x47, 0x4c, 0x81, 0xbe,
  0x71, 0x0a, 0xb2, 0xbc, 0xab, 0xf3, 0xd0, 0x3c, 0xed, 0xe1, 0x0d, 0x3e,
  0x21, 0xab, 0xa7, 0xbd, 0xd4, 0x1b, 0x97, 0xbe, 0xc2, 0x69, 0x09, 0xbf,
  0xc5, 0x5b, 0x62, 0xbe, 0x39, 0x55, 0xa6, 0xbe, 0xfb, 0x7f, 0x99, 0xbe,
  0x39, 0x20, 0x1f, 0x3e, 0x91, 0x40, 0x70, 0xbf, 0x7f, 0xd5, 0x0a, 0xbe,
  0x44, 0xf5, 0x3c, 0xbc, 0x12, 0x34, 0x1c, 0xbd, 0x06, 0xd1, 0x17, 0xbe,
  0xfb, 0x43, 0xb0, 0xbe, 0xa9, 0x43, 0x56, 0xbe, 0x3c, 0xb9, 0xe4, 0xbd,
  0xe2, 0xdd, 0xf9, 0xbe, 0xe6, 0x9c, 0xe2, 0xbe, 0x78, 0x17, 0x12, 0xbd,
  0xd0, 0x0d, 0x43, 0xbc, 0xf4, 0xc0, 0x8c, 0x3e, 0x97, 0x68, 0x52, 0xbd,
  0xef, 0x7d, 0x7c, 0x3e, 0x7c, 0xff, 0x31, 0xbe, 0xbd, 0x03, 0x1a, 0x3e,
  0x82, 0x5a, 0x81, 0xbd, 0x13, 0xee, 0x6a, 0x3c, 0x28, 0xee, 0x01, 0x3d,
  0x2f, 0x00, 0x14, 0x3c, 0x67, 0xf2, 0x19, 0xbc, 0x4b, 0xbf, 0x55, 0x3e,
  0xd4, 0xcc, 0xce, 0x3d, 0x84, 0xbd, 0x95, 0x3e, 0x6e, 0x40, 0xe3, 0xbd,
  0x51, 0xe3, 0xac, 0xbc, 0x91, 0xc7, 0x30, 0xbe, 0x43, 0x96, 0x2d, 0xbe,
  0x1c, 0x44, 0x1a, 0xbe, 0x96, 0x61, 0xf2, 0xbd, 0xf0, 0x25, 0x6e, 0xbe,
  0x69, 0xb9, 0xa7, 0x3d, 0x17, 0xbd, 0xd9, 0xbd, 0xa1, 0x78, 0xba, 0x3d,
  0x6a, 0x4f, 0x09, 0xbd, 0x0d, 0xc0, 0x37, 0x3d, 0x41, 0x16, 0x6f, 0xbe,
  0x87, 0xb6, 0xef, 0x3d, 0xbf, 0x7c, 0x98, 0xbe, 0xaa, 0x99, 0xd4, 0x3c,
  0x0a, 0xed, 0xb6, 0xbc, 0xbd, 0x32, 0x53, 0xbe, 0x93, 0xf8, 0x27, 0xbd,
  0x4d, 0x80, 0xf0, 0x3c, 0x64, 0x82, 0x29, 0x3d, 0xb0, 0xd7, 0x2d, 0xbd,
  0xdf, 0xf4, 0x43, 0xbe, 0x90, 0xe8, 0x35, 0x3f, 0xf0, 0xb8, 0x89, 0xbd,
  0x6a, 0xad, 0x96, 0x3e, 0xda, 0x2b, 0x4f, 0xbf, 0xad, 0xe4, 0x28, 0xbe,
  0xbc, 0x15, 0xcc, 0xbe, 0xf0, 0xf0, 0x73, 0xbe, 0x25, 0xae, 0x06, 0xbd,
  0x98, 0x8d, 0xa1, 0xbe, 0x53, 0x10, 0x6b, 0x3e, 0x60, 0x29, 0x8e, 0x3e,
  0xa6, 0x96, 0xfc, 0xbe, 0x03, 0xc8, 0xfb, 0x3e, 0x85, 0x2b, 0xf1, 0xbe,
  0x8b, 0x25, 0x74, 0x3e, 0x2d, 0xb1, 0xa0, 0xbd, 0x70, 0x14, 0x14, 0xbe,
  0x27, 0xa0, 0x4b, 0x3e, 0x5d, 0xf1, 0x22, 0xbe, 0x97, 0xac, 0xa0, 0xbe,
  0xa8, 0x09, 0x86, 0x3e, 0xe0, 0x34, 0xf5, 0x3e, 0x6d, 0xd6, 0x10, 0x3e,
  0xc1, 0x79, 0xba, 0xbd, 0x26, 0xd1, 0x48, 0x3e, 0xf9, 0xce, 0xd4, 0xbd,
  0xe4, 0xea, 0x10, 0xbe, 0x70, 0x16, 0xed, 0xbe, 0x59, 0x2b, 0xb3, 0xbe,
  0x88, 0xfa, 0xce, 0x3e, 0x3f, 0x20, 0x49, 0xbe, 0x54, 0xc9, 0x06, 0xbd,
  0x04, 0xfc, 0x0b, 0xbe, 0xa2, 0x1e, 0x03, 0xbe, 0xda, 0x38, 0xe1, 0xbd,
  0xc5, 0x6e, 0x29, 0xbe, 0xf3, 0xbd, 0xe3, 0x3e, 0x60, 0x47, 0x68, 0x3d,
  0xaa, 0x04, 0xf2, 0x3e, 0x23, 0x60, 0x8d, 0xbe, 0xf7, 0x4c, 0xab, 0x3d,
  0x4b, 0x55, 0x3e, 0xbe, 0x6b, 0xe0, 0x3b, 0xbe, 0x6c, 0xb6, 0x0f, 0xbe,
  0x21, 0xd6, 0x2d, 0xbe, 0xf5, 0x70, 0x76, 0x3e, 0x88, 0xf0, 0xd7, 0xbd,
  0x3e, 0xbb, 0x82, 0xbe, 0xad, 0x08, 0x86, 0x3e, 0x32, 0x1b, 0xf4, 0xbe,
  0x49, 0xbd, 0x92, 0x3e, 0x3f, 0x04, 0x70, 0xbe, 0x44, 0xd2, 0x14, 0xbf,
  0xea, 0xe7, 0x91, 0x3e, 0x4f, 0x24, 0x23, 0xbf, 0xf7, 0xe6, 0xaf, 0x3d,
  0xb4, 0x6e, 0x5a, 0xbd, 0x42, 0x79, 0xae, 0x3d, 0x62, 0x36, 0x23, 0x3e,
  0x06, 0x1f, 0x5d, 0xbf, 0xbd, 0xfe, 0xb6, 0xbe, 0xaf, 0x66, 0x40, 0xbf,
  0x80, 0x46, 0x1c, 0xbf, 0xfb, 0x27, 0x83, 0x3e, 0xe7, 0xd5, 0x95, 0xbf,
  0x18, 0xa7, 0xee, 0x3d, 0x78, 0xd1, 0x88, 0xbc, 0x79, 0xd4, 0x42, 0xbd,
  0x40, 0x34, 0x8e, 0x3d, 0xa5, 0xe6, 0x7e, 0x3d, 0x49, 0x84, 0x46, 0x3d,
  0x6b, 0xca, 0xd2, 0xbd, 0x5e, 0x6a, 0x04, 0xbd, 0x6c, 0xf4, 0x41, 0x3d,
  0x1d, 0x0e, 0xa9, 0xbd, 0x51, 0x8b, 0x68, 0x3c, 0xc6, 0x49, 0x5a, 0xbd,
  0xa9, 0xa9, 0x28, 0xbd, 0x41, 0xb8, 0x06, 0xbe, 0xf4, 0xaf, 0x1b, 0x3f,
  0x84, 0x70, 0x6d, 0xbd, 0x1e, 0x26, 0xb9, 0xbd, 0xa2, 0x9a, 0x78, 0x3e,
  0x65, 0x7d, 0x4c, 0xbb, 0x7d, 0xb2, 0x65, 0xbe, 0xa4, 0x99, 0x30, 0xbd,
  0x6c, 0x37, 0x89, 0xbe, 0x82, 0x01, 0x0d, 0xbd, 0x80, 0xc9, 0x15, 0xbe,
  0x68, 0xd8, 0x57, 0xbe, 0xff, 0x5b, 0x14, 0x3e, 0xf9, 0xbe, 0x87, 0x3e,
  0x23, 0xb3, 0x47, 0xbe, 0x46, 0x39, 0x7a, 0xbc, 0x02, 0x42, 0x66, 0xbe,
  0x69, 0x67, 0x1a, 0xbe, 0xa9, 0x36, 0x3d, 0xbe, 0x15, 0x68, 0xf7, 0x3c,
  0x27, 0xa5, 0x0c, 0x3d, 0x8c, 0x73, 0xf8, 0xbd, 0x38, 0x3c, 0xb2, 0x3b,
  0x31, 0x3e, 0x36, 0xbe, 0x1d, 0xe4, 0xa0, 0xbd, 0xfe, 0xc6, 0x10, 0x3d,
  0xcb, 0x7a, 0x3e, 0x3d, 0xe0, 0x88, 0xbc, 0x3c, 0x50, 0xfa, 0x7a, 0xbc,
  0x53, 0xa4, 0xc7, 0x3c, 0x84, 0xb6, 0x97, 0xbe, 0x6d, 0x40, 0x08, 0x3e,
  0x4b, 0x5e, 0x76, 0xbe, 0xe8, 0x2a, 0x58, 0x3d, 0xa2, 0xf6, 0x22, 0x3e,
  0x85, 0xb5, 0x94, 0xbd, 0xf2, 0xe4, 0x8b, 0x3e, 0x45, 0xcb, 0x43, 0xbb,
  0x8e, 0xe5, 0x69, 0x3d, 0x57, 0xe9, 0xff, 0xbc, 0x16, 0x77, 0x09, 0xbe,
  0xf1, 0x0b, 0xcf, 0x3d, 0x29, 0x25, 0x1d, 0x3e, 0x30, 0x4e, 0x43, 0x3e,
  0xad, 0x5e, 0x13, 0x3e, 0x13, 0x16, 0x5f, 0x3e, 0xeb, 0x0c, 0x66, 0xbd,
  0x67, 0xea, 0x39, 0x3e, 0x91, 0xc7, 0x3e, 0xbe, 0x7d, 0xd5, 0xfc, 0xbd,
  0x54, 0xff, 0x5e, 0xbd, 0xfa, 0x41, 0xda, 0x3d, 0x4b, 0x30, 0x1a, 0xbf,
  0x68, 0xa1, 0x8b, 0xbd, 0x3d, 0x98, 0x46, 0xbf, 0x7d, 0x4b, 0x0b, 0xbd,
  0xbc, 0x77, 0xf9, 0xbe, 0x85, 0x15, 0x4c, 0xbe, 0xa4, 0x32, 0x2b, 0xbe,
  0x80, 0x5a, 0x3f, 0xbf, 0xa4, 0x04, 0x8e, 0x3e, 0x04, 0xa1, 0x7e, 0xbd,
  0x28, 0x2c, 0x80, 0xbd, 0x51, 0x10, 0xd7, 0x3e, 0x1b, 0xa4, 0xc3, 0xbd,
  0x36, 0xf1, 0x90, 0x3d, 0x62, 0x87, 0x91, 0x3d, 0x1b, 0xca, 0x5e, 0x3c,
  0x7d, 0xc7, 0x8a, 0x3d, 0xed, 0x3a, 0x2f, 0xbd, 0x7b, 0xbc, 0x49, 0x3c,
  0x54, 0xac, 0x01, 0xbe, 0xb7, 0x0d, 0x56, 0x3d, 0xee, 0x99, 0x28, 0x3c,
  0xf3, 0x2d, 0x0b, 0x3e, 0x41, 0xbd, 0x0f, 0xbe, 0xbd, 0x14, 0x13, 0xbe,
  0x2b, 0xd9, 0x17, 0x3c, 0xbb, 0x58, 0x64, 0x3e, 0xaf, 0x1e, 0x96, 0x3c,
  0xe3, 0xd2, 0x1d, 0x3e, 0xa3, 0x97, 0xa6, 0xbd, 0x89, 0xf2, 0x83, 0x3e,
  0x33, 0xd3, 0x8e, 0xbe, 0x6d, 0x6e, 0x0c, 0xbf, 0xa6, 0x1f, 0xc9, 0xbe,
  0xc8, 0xb8, 0xa8, 0x3e, 0x3a, 0xcf, 0x27, 0xbe, 0xb8, 0xe8, 0x5a, 0x3e,
  0x05, 0x2d, 0x04, 0xbe, 0xd4, 0xd7, 0xf5, 0x3d, 0x59, 0x62, 0xf8, 0xbd,
  0xba, 0xf5, 0x04, 0x3e, 0x47, 0x14, 0xe4, 0xbe, 0x31, 0xd6, 0x4f, 0x3d,
  0x4d, 0xe1, 0x8e, 0xbe, 0x6f, 0xfd, 0xf9, 0x3d, 0x97, 0x07, 0x22, 0x3f,
  0x7c, 0x91, 0x94, 0x3e, 0xe5, 0x40, 0x28, 0xbf, 0xc5, 0x4b, 0xfb, 0x3e,
  0x71, 0xd0, 0x85, 0xbf, 0xe8, 0x64, 0x17, 0xbe, 0xc0, 0x6a, 0x2a, 0xbf,
  0x87, 0x3f, 0xc3, 0xbd, 0xeb, 0x95, 0x13, 0xbe, 0xac, 0xd2, 0x22, 0xbb,
  0x26, 0x98, 0x17, 0xbf, 0x41, 0xe4, 0x90, 0x3e, 0x7b, 0x53, 0xc2, 0xbe,
  0xbb, 0x4d, 0x9f, 0x3d, 0xfa, 0x37, 0x3d, 0xbf, 0x02, 0xa2, 0x21, 0xbd,
  0xc9, 0x7b, 0x85, 0xbe, 0x63, 0xfc, 0x7a, 0xbd, 0x21, 0x85, 0x18, 0xbf,
  0xe1, 0x9f, 0x37, 0xbf, 0x8d, 0x26, 0x2f, 0xbf, 0x0b, 0x96, 0x1d, 0x3e,
  0xb8, 0xd4, 0x3b, 0xbf, 0x23, 0xba, 0x61, 0x3d, 0x06, 0x29, 0x9a, 0x3e,
  0x46, 0x85, 0xfb, 0xbd, 0xea, 0x4e, 0xbc, 0xbc, 0x24, 0x6d, 0x5e, 0xbf,
  0xec, 0x09, 0x05, 0xbf, 0xc1, 0x6a, 0xe3, 0x3c, 0x56, 0x00, 0x73, 0xbf,
  0x1e, 0xa2, 0x78, 0x3e, 0x04, 0x52, 0x11, 0xbf, 0x96, 0xba, 0x81, 0x3d,
  0xee, 0x3a, 0x80, 0xbd, 0x31, 0xb9, 0x0e, 0xc0, 0xfb, 0x8f, 0x97, 0xbc,
  0xfb, 0xfe, 0xd2, 0x3e, 0xaa, 0xc6, 0x02, 0xbf, 0x3a, 0x5e, 0x1e, 0x3e,
  0x88, 0x53, 0x6b, 0xbf, 0xb2, 0xc3, 0x06, 0x3f, 0xa7, 0x9c, 0x92, 0xbf,
  0x61, 0x1d, 0xbc, 0xbf, 0x97, 0x4d, 0xbb, 0x3d, 0x48, 0x16, 0x5f, 0xbe,
  0x1b, 0xee, 0xdd, 0xbd, 0xa7, 0xdd, 0x19, 0xbe, 0xd4, 0x1f, 0x76, 0xbf,
  0x7a, 0x28, 0xc3, 0x3e, 0xf7, 0xec, 0x72, 0xbf, 0x1b, 0x1e, 0x5f, 0xbd,
  0xcd, 0xd4, 0x6b, 0xbe, 0xa6, 0x4f, 0x17, 0xbf, 0x04, 0xf5, 0x0f, 0xbe,
  0x1f, 0xed, 0xf2, 0xbe, 0xe1, 0x04, 0x90, 0xbe, 0xb5, 0x03, 0xdd, 0x3c,
  0xa3, 0xa3, 0xa7, 0xbd, 0x3c, 0xd2, 0x19, 0x3f, 0x8a, 0xf0, 0xb0, 0xbe,
  0x7b, 0x82, 0xfa, 0xbe, 0x7d, 0x40, 0xb3, 0xbe, 0x16, 0xb7, 0xcb, 0xbe,
  0x9f, 0x6a, 0x28, 0xbf, 0xb9, 0x2a, 0x41, 0xbe, 0x1a, 0x9e, 0x54, 0xbe,
  0xc4, 0x0e, 0xfa, 0xbd, 0xfd, 0x92, 0xfb, 0xbe, 0x36, 0xd2, 0x00, 0x3f,
  0x3c, 0x64, 0x0c, 0xbe, 0x90, 0x2c, 0x0f, 0x3e, 0x72, 0x7a, 0xcc, 0xbe,
  0x3b, 0x24, 0xaa, 0xbd, 0x62, 0xe4, 0xb1, 0x3e, 0x85, 0x08, 0x22, 0xbf,
  0x25, 0x98, 0x94, 0xbe, 0xd3, 0xfb, 0xc0, 0x3e, 0xfb, 0xc5, 0x71, 0xbc,
  0x7e, 0x13, 0xe6, 0x3e, 0x04, 0xa2, 0x4e, 0x3e, 0x8e, 0xa6, 0x81, 0x3e,
  0x00, 0x39, 0x08, 0x3e, 0xcc, 0x59, 0x9b, 0x3e, 0x97, 0x1b, 0x53, 0x3e,
  0x08, 0x02, 0x94, 0x3e, 0xd2, 0xb1, 0xe7, 0x3d, 0xa2, 0xb7, 0x31, 0x3d,
  0x72, 0x98, 0xb6, 0xbd, 0x19, 0x5d, 0x9e, 0x3e, 0x3a, 0xb3, 0xca, 0x3d,
  0x6f, 0x04, 0x07, 0xbe, 0x91, 0xb0, 0x92, 0xbc, 0x38, 0x1f, 0xd7, 0xbe,
  0x39, 0xe7, 0x79, 0x3e, 0xc9, 0x2b, 0xbf, 0xbe, 0xf2, 0xad, 0x58, 0x3c,
  0xdf, 0x55, 0xb9, 0x3d, 0xc0, 0x38, 0x8c, 0xbe, 0xb3, 0xa7, 0x4b, 0xbe,
  0x54, 0x69, 0x64, 0xbd, 0xdb, 0xbf, 0x11, 0xbf, 0x57, 0x12, 0x30, 0x3e,
  0xd7, 0xbf, 0x27, 0xbf, 0xfc, 0x89, 0xc0, 0x3d, 0x4f, 0xce, 0x88, 0x3c,
  0xd1, 0x7c, 0x4a, 0xbd, 0xb3, 0x83, 0xda, 0xbd, 0x4a, 0x1c, 0x8e, 0xbb,
  0x99, 0x34, 0x35, 0xbf, 0xb8, 0x2d, 0x73, 0xbd, 0x78, 0xa2, 0x47, 0xbf,
  0x6d, 0xf4, 0xd6, 0xbd, 0x3c, 0x0e, 0x30, 0xbe, 0x9b, 0x4f, 0x80, 0xbe,
  0x54, 0xe8, 0x2d, 0x3d, 0xe4, 0xdc, 0xb5, 0xbd, 0x26, 0xb6, 0xec, 0xbd,
  0x0c, 0x58, 0x53, 0xbd, 0x4f, 0xe5, 0xa3, 0xbd, 0x9e, 0x11, 0x56, 0x3f,
  0x02, 0x32, 0xee, 0xbd, 0x0d, 0x1e, 0xdb, 0x3d, 0xc6, 0xb3, 0xb2, 0x3b,
  0xbc, 0xbc, 0xeb, 0xbe, 0x9d, 0x8d, 0x4d, 0x3d, 0x25, 0xc2, 0xb4, 0xbe,
  0x0c, 0x2c, 0xc1, 0x3c, 0x18, 0x64, 0x17, 0xbe, 0x62, 0x59, 0x87, 0xbd,
  0x7f, 0x03, 0xe5, 0xbd, 0xa9, 0x6a, 0x25, 0x3e, 0x91, 0x95, 0xc1, 0xbe,
  0xc8, 0x4c, 0x03, 0x3e, 0xae, 0xdb, 0x95, 0xbe, 0xe2, 0x31, 0x3b, 0x3e,
  0xaa, 0x24, 0x8a, 0xbe, 0x63, 0x30, 0x87, 0x3d, 0x23, 0x90, 0x25, 0xbf,
  0x7a, 0xcc, 0x08, 0xbf, 0x55, 0x6c, 0xf5, 0xbd, 0x8c, 0x64, 0x29, 0x3c,
  0x8a, 0x4a, 0xef, 0xbc, 0xaa, 0x76, 0x9a, 0x3d, 0xfc, 0x0b, 0x98, 0xbe,
  0x50, 0x89, 0xb6, 0xbd, 0xe6, 0x16, 0x01, 0xbf, 0xfa, 0xac, 0x81, 0xbb,
  0x10, 0x3d, 0x4d, 0xbe, 0xcc, 0xb5, 0xef, 0x3e, 0xf2, 0xe0, 0x86, 0xbe,
  0x3e, 0x19, 0xb9, 0x3e, 0xdd, 0xeb, 0x16, 0xbe, 0x7b, 0x3f, 0xd9, 0xbc,
  0x6f, 0xe1, 0x4a, 0xbd, 0x29, 0x3a, 0xc2, 0xbe, 0xc0, 0xd2, 0x8f, 0xbd,
  0x08, 0xeb, 0x85, 0x3e, 0x10, 0xdf, 0x90, 0xbe, 0x9a, 0x4d, 0x74, 0x3e,
  0xcd, 0x99, 0x30, 0xbe, 0xf6, 0xc4, 0x0f, 0x3e, 0xa5, 0x2e, 0xb7, 0xbe,
  0xc5, 0x67, 0xdc, 0xbe, 0xed, 0x53, 0x46, 0xbd, 0x46, 0x85, 0xbc, 0xbe,
  0x2b, 0x1e, 0xc4, 0x3d, 0xdb, 0x35, 0x97, 0xbd, 0x00, 0x3a, 0x41, 0xbe,
  0x6a, 0xcb, 0xe2, 0x3e, 0x34, 0xc0, 0x06, 0xbf, 0x76, 0x5d, 0x07, 0x3e,
  0xbb, 0x1f, 0x2a, 0xbe, 0x50, 0x46, 0x96, 0xbf, 0x46, 0xf2, 0x59, 0x3d,
  0x91, 0x28, 0x59, 0xbf, 0x57, 0xf0, 0x26, 0x3b, 0x55, 0xc2, 0x95, 0xbe,
  0x88, 0x0a, 0xb5, 0xbc, 0x56, 0xc2, 0xff, 0xff, 0x10, 0x00, 0x00, 0x00,
  0x0a, 0x00, 0x00, 0x00, 0x1c, 0x00, 0x00, 0x00, 0x38, 0x00, 0x00, 0x00,
  0x04, 0x00, 0x00, 0x00, 0x10, 0x00, 0x00, 0x00, 0x04, 0x00, 0x00, 0x00,
  0x01, 0x00, 0x00, 0x00, 0x08, 0x00, 0x00, 0x00, 0x1a, 0x00, 0x00, 0x00,
  0x73, 0x65, 0x71, 0x75, 0x65, 0x6e, 0x74, 0x69, 0x61, 0x6c, 0x2f, 0x63,
  0x6f, 0x6e, 0x76, 0x32, 0x64, 0x5f, 0x31, 0x2f, 0x43, 0x6f, 0x6e, 0x76,
  0x32, 0x44, 0x00, 0x00, 0xe0, 0xc1, 0xff, 0xff, 0xc6, 0xc2, 0xff, 0xff,
  0x04, 0x00, 0x00, 0x00, 0x80, 0x01, 0x00, 0x00, 0x2c, 0xea, 0x9f, 0xbe,
  0x74, 0xe5, 0x8f, 0xbe, 0x17, 0xcd, 0xf1, 0x3d, 0xb7, 0xb3, 0x67, 0xbe,
  0xd0, 0xdc, 0xb5, 0xbe, 0x81, 0x80, 0x5b, 0x3d, 0xed, 0x51, 0x1d, 0xbe,
  0xb5, 0x3c, 0xc0, 0x3c, 0x85, 0x23, 0x54, 0xbd, 0x60, 0xc8, 0x8d, 0x3e,
  0x2e, 0x20, 0xd3, 0x3e, 0x11, 0x19, 0x32, 0xbe, 0x50, 0xb0, 0xb5, 0xbc,
  0x7a, 0x98, 0x7e, 0x3d, 0x79, 0xe3, 0x17, 0xbe, 0x8b, 0x17, 0x75, 0x3e,
  0x6c, 0x6f, 0x8a, 0xbd, 0x8e, 0xae, 0x65, 0x3e, 0xa5, 0x9f, 0x1b, 0xbe,
  0xac, 0x9f, 0xca, 0x3e, 0xc6, 0x63, 0x5f, 0x3e, 0xe2, 0x6a, 0x4e, 0xbd,
  0xea, 0xee, 0xd2, 0xbe, 0x58, 0x3f, 0xbc, 0xbe, 0xe2, 0x47, 0x1b, 0xbd,
  0x46, 0xcf, 0x49, 0xbd, 0xf9, 0x80, 0xe5, 0xbc, 0x4d, 0xf6, 0x1c, 0x3e,
  0x2c, 0x0e, 0x3d, 0xbd, 0x1b, 0x03, 0xd2, 0x3d, 0xe3, 0x43, 0xb3, 0x3d,
  0x37, 0xa8, 0xc9, 0xbd, 0xc4, 0x08, 0x27, 0xbd, 0xe1, 0x0c, 0xcd, 0x3d,
  0x72, 0x58, 0xb7, 0xbd, 0x00, 0x06, 0x29, 0xbd, 0xf3, 0x21, 0xd9, 0x3c,
  0xa1, 0x3e, 0xf1, 0x3e, 0xd7, 0x7f, 0x83, 0x3d, 0xc9, 0xfe, 0xfe, 0x3d,
  0x7a, 0x7b, 0x8c, 0x3c, 0x1e, 0xf5, 0x49, 0xbe, 0x9b, 0x68, 0xb8, 0xbc,
  0xce, 0x13, 0xb8, 0xbe, 0xe8, 0xe8, 0x15, 0xbd, 0x9c, 0x48, 0x4b, 0xbe,
  0xa3, 0x4c, 0x4b, 0xbe, 0xb8, 0x89, 0x95, 0x3d, 0x6b, 0xde, 0xbe, 0x3d,
  0xa5, 0x28, 0x8d, 0xbd, 0x41, 0xb8, 0x3d, 0x3d, 0xdb, 0x35, 0x35, 0x3d,
  0x83, 0x85, 0x4f, 0xbd, 0xc6, 0x40, 0x21, 0xbd, 0xcf, 0x5a, 0xb9, 0x3d,
  0x0b, 0xda, 0x43, 0xbd, 0x69, 0x65, 0xf3, 0xbd, 0x44, 0x8c, 0x53, 0x3d,
  0xc7, 0x28, 0x42, 0xbe, 0x2a, 0xfc, 0x87, 0xbd, 0x85, 0x95, 0xc4, 0xbe,
  0xbe, 0x36, 0xa2, 0x3d, 0x9a, 0xda, 0x41, 0x3e, 0xa2, 0x56, 0x73, 0xbe,
  0x83, 0xaf, 0xce, 0xbe, 0x35, 0xeb, 0x56, 0x3d, 0x00, 0x3d, 0xff, 0xbd,
  0xec, 0x1d, 0xd5, 0xbe, 0x0b, 0x13, 0x2b, 0xbc, 0x38, 0x33, 0xc5, 0xbe,
  0x37, 0xaf, 0x4d, 0xbe, 0x76, 0xca, 0x8c, 0x3d, 0x65, 0xa8, 0x26, 0x3e,
  0xf4, 0xf0, 0x3b, 0xbe, 0xcd, 0x45, 0x3e, 0xbe, 0x2b, 0xa9, 0xb8, 0x3d,
  0x8b, 0xe9, 0x3f, 0xbe, 0xbc, 0xa5, 0x50, 0xbe, 0x34, 0x7a, 0xbf, 0xbc,
  0xc1, 0x62, 0x34, 0xbe, 0x86, 0x82, 0xec, 0xbd, 0xb0, 0x44, 0x3a, 0xbe,
  0x9a, 0x78, 0x06, 0xbe, 0x73, 0x1e, 0x52, 0xbd, 0x7b, 0x36, 0x08, 0xbe,
  0xaa, 0xec, 0x93, 0x3d, 0x39, 0x74, 0xde, 0xbe, 0x1d, 0x0a, 0xaa, 0xbd,
  0xc5, 0x07, 0xf6, 0xbd, 0xf2, 0x0b, 0x0b, 0x3d, 0xbb, 0x37, 0xc7, 0x3b,
  0xfc, 0x12, 0x91, 0xbb, 0x4d, 0xdc, 0x51, 0x3e, 0xba, 0xb8, 0x95, 0xbc,
  0x7f, 0x23, 0x23, 0xbe, 0x94, 0x7d, 0x95, 0x3e, 0x2e, 0xc4, 0xff, 0xff,
  0x10, 0x00, 0x00, 0x00, 0x09, 0x00, 0x00, 0x00, 0x1c, 0x00, 0x00, 0x00,
  0x38, 0x00, 0x00, 0x00, 0x04, 0x00, 0x00, 0x00, 0x08, 0x00, 0x00, 0x00,
  0x04, 0x00, 0x00, 0x00, 0x03, 0x00, 0x00, 0x00, 0x01, 0x00, 0x00, 0x00,
  0x18, 0x00, 0x00, 0x00, 0x73, 0x65, 0x71, 0x75, 0x65, 0x6e, 0x74, 0x69,
  0x61, 0x6c, 0x2f, 0x63, 0x6f, 0x6e, 0x76, 0x32, 0x64, 0x2f, 0x43, 0x6f,
  0x6e, 0x76, 0x32, 0x44, 0x00, 0x00, 0x00, 0x00, 0xb8, 0xc3, 0xff, 0xff,
  0x9e, 0xc4, 0xff, 0xff, 0x04, 0x00, 0x00, 0x00, 0x00, 0x01, 0x00, 0x00,
  0x8f, 0x32, 0x60, 0xbf, 0x60, 0x60, 0xe6, 0x3e, 0x2a, 0x07, 0xab, 0x3e,
  0x28, 0x16, 0x6f, 0xbc, 0xad, 0x46, 0xca, 0x3e, 0x34, 0x35, 0x48, 0x3e,
  0x48, 0xd2, 0xc8, 0xbd, 0x70, 0x46, 0x97, 0xbe, 0x8a, 0x39, 0x74, 0x3e,
  0x26, 0xd1, 0xad, 0x3e, 0x9a, 0xcc, 0x8c, 0xbe, 0x91, 0x3b, 0x81, 0xbe,
  0x78, 0x72, 0xcd, 0x3d, 0x18, 0xa5, 0xd7, 0xbe, 0x45, 0x0e, 0x2f, 0xbf,
  0x29, 0xe3, 0x37, 0xbf, 0xa9, 0x86, 0x3d, 0x3c, 0x1d, 0x28, 0x25, 0xbf,
  0xc1, 0x65, 0x89, 0xbf, 0xcc, 0xb2, 0x49, 0x3f, 0x0c, 0x2a, 0xb8, 0x3e,
  0x66, 0x94, 0xb2, 0xbd, 0x7e, 0xd8, 0x0b, 0xbf, 0x88, 0xab, 0xc1, 0xbc,
  0x1e, 0xf9, 0xe7, 0xbe, 0x8a, 0xb6, 0x22, 0xbf, 0x8f, 0xbb, 0xdb, 0xbe,
  0x98, 0x83, 0x7c, 0xbe, 0xe1, 0xdc, 0x45, 0x3e, 0xed, 0x01, 0x2e, 0xbe,
  0x1c, 0xcb, 0x63, 0xbf, 0xd8, 0x2c, 0xcd, 0x3e, 0x72, 0x1d, 0x1f, 0xbf,
  0xa3, 0x9f, 0x2d, 0xbf, 0x9c, 0x77, 0x28, 0xbf, 0xc5, 0x3c, 0x0d, 0xbe,
  0x3a, 0x68, 0x6c, 0xbf, 0x61, 0xac, 0x48, 0xbf, 0xec, 0x92, 0xfa, 0x3d,
  0x8b, 0x80, 0x88, 0x3e, 0x54, 0x14, 0x06, 0xbf, 0x59, 0xb1, 0x05, 0x3f,
  0x15, 0x94, 0x8b, 0x3e, 0x06, 0x29, 0x4a, 0x3f, 0x0d, 0x7b, 0xad, 0xbf,
  0x96, 0xdf, 0x3d, 0xbf, 0xa8, 0x4f, 0x0a, 0xbf, 0x0e, 0x1c, 0xdf, 0x3e,
  0x04, 0x7c, 0xaa, 0xbd, 0x80, 0x48, 0x16, 0x3e, 0x1a, 0x0b, 0xb4, 0xbd,
  0x47, 0x3e, 0xf2, 0xbd, 0xeb, 0x7a, 0xf2, 0xbb, 0x3f, 0x28, 0x65, 0x3e,
  0x0f, 0x4c, 0x09, 0x3f, 0x39, 0x2c, 0x6d, 0xbf, 0x25, 0x67, 0x24, 0xbf,
  0x63, 0xc5, 0xa6, 0xbe, 0xca, 0x49, 0x84, 0x3e, 0x7e, 0xed, 0xb8, 0x3e,
  0xbd, 0x5c, 0x32, 0xbf, 0x3b, 0x38, 0x40, 0x3e, 0x5d, 0xd7, 0x19, 0x3e,
  0x34, 0x8e, 0xd3, 0x3e, 0x86, 0xc5, 0xff, 0xff, 0x10, 0x00, 0x00, 0x00,
  0x08, 0x00, 0x00, 0x00, 0x14, 0x00, 0x00, 0x00, 0x30, 0x00, 0x00, 0x00,
  0x02, 0x00, 0x00, 0x00, 0x04, 0x00, 0x00, 0x00, 0x10, 0x00, 0x00, 0x00,
  0x19, 0x00, 0x00, 0x00, 0x73, 0x65, 0x71, 0x75, 0x65, 0x6e, 0x74, 0x69,
  0x61, 0x6c, 0x2f, 0x64, 0x65, 0x6e, 0x73, 0x65, 0x5f, 0x31, 0x2f, 0x4d,
  0x61, 0x74, 0x4d, 0x75, 0x6c, 0x00, 0x00, 0x00, 0x08, 0xc5, 0xff, 0xff,
  0xee, 0xc5, 0xff, 0xff, 0x04, 0x00, 0x00, 0x00, 0x00, 0x38, 0x00, 0x00,
  0x81, 0x59, 0x94, 0xbe, 0xab, 0x07, 0x6a, 0x3e, 0x80, 0x6c, 0x2f, 0xbf,
  0xb7, 0x7a, 0xee, 0x3e, 0x02, 0x2f, 0xa2, 0xbe, 0x29, 0xc7, 0x35, 0x3e,
  0x84, 0x2f, 0x06, 0x3f, 0x8c, 0x76, 0x2a, 0xbe, 0xe3, 0x73, 0xd1, 0xbe,
  0x3e, 0x50, 0x9e, 0xbe, 0xd8, 0xde, 0x12, 0x3f, 0xc1, 0x6b, 0x54, 0x3f,
  0xf9, 0xe6, 0x11, 0xbf, 0x84, 0xf0, 0x44, 0xbf, 0x58, 0x80, 0xcf, 0x3d,
  0x45, 0xab, 0x76, 0x3e, 0x55, 0x18, 0x6e, 0xbe, 0x94, 0x22, 0x2f, 0xbe,
  0x1c, 0xda, 0x82, 0xbd, 0xb1, 0x6f, 0x1e, 0x3f, 0x76, 0x48, 0x33, 0x3a,
  0x3e, 0xf4, 0x2b, 0xbf, 0xd4, 0x50, 0x5a, 0xbe, 0x13, 0x91, 0x03, 0xbf,
  0xea, 0xd6, 0xcc, 0x3e, 0x48, 0xe8, 0xfb, 0xbd, 0x15, 0xe4, 0xf6, 0x3d,
  0x6b, 0x42, 0xf0, 0x3e, 0xa8, 0x2c, 0x02, 0xbf, 0xcd, 0xce, 0x0c, 0xbf,
  0xa7, 0xe0, 0x4a, 0x3e, 0xf1, 0x9b, 0xc7, 0xbe, 0x27, 0xb0, 0x1a, 0xbf,
  0x7f, 0xb7, 0x12, 0xbe, 0x72, 0x9d, 0x7d, 0x3c, 0x38, 0x03, 0x81, 0x3e,
  0xf8, 0x60, 0x51, 0x3e, 0xeb, 0x97, 0xc5, 0x3d, 0xf9, 0xa1, 0xe4, 0x3e,
  0x90, 0x99, 0x8e, 0xbe, 0x1a, 0x28, 0x0e, 0x3e, 0x15, 0x7d, 0x74, 0x3c,
  0xce, 0xd8, 0x1e, 0xbd, 0x1c, 0x29, 0x8d, 0x3e, 0x60, 0x68, 0x23, 0xbf,
  0x8f, 0xc3, 0x3d, 0x3d, 0xdc, 0x9c, 0x18, 0x3d, 0x34, 0x32, 0xf0, 0x3d,
  0x48, 0x4b, 0x94, 0xbd, 0x9c, 0x9c, 0x8e, 0xbc, 0x3c, 0x13, 0x1e, 0xbe,
  0x26, 0xe9, 0xb2, 0x3e, 0x6b, 0x2e, 0x57, 0x3e, 0xbd, 0xdc, 0x1d, 0xbe,
  0x41, 0x0f, 0x04, 0x3f, 0xed, 0x6b, 0xfe, 0xbd, 0xe2, 0xe6, 0x8c, 0xbe,
  0xdb, 0x44, 0xb0, 0xbe, 0x6e, 0xc2, 0x8d, 0xbc, 0xcf, 0x44, 0x46, 0x3e,
  0x61, 0x2d, 0x0d, 0xbf, 0xc3, 0x6e, 0x94, 0xbe, 0xe2, 0xd1, 0x10, 0x3e,
  0x9c, 0x35, 0x59, 0x3e, 0x16, 0xc6, 0x50, 0x3d, 0x1d, 0x03, 0xe9, 0x3d,
  0xf9, 0xab, 0xf6, 0x3d, 0x4f, 0x42, 0x55, 0x3d, 0x75, 0x1c, 0xf2, 0xbd,
  0x32, 0x01, 0x80, 0xbe, 0x7b, 0xd2, 0x9b, 0x3e, 0x82, 0xbd, 0x5e, 0xbe,
  0x30, 0x3b, 0xd2, 0x3c, 0xc0, 0xff, 0xff, 0xbe, 0xa5, 0x28, 0x37, 0x3e,
  0x24, 0xf7, 0x36, 0x3e, 0x70, 0x22, 0x02, 0xbf, 0xa9, 0x95, 0xfe, 0xbe,
  0x2f, 0x21, 0x92, 0x3e, 0x3f, 0xc1, 0x95, 0xbd, 0xbe, 0xcc, 0x2e, 0xbd,
  0xc9, 0x63, 0x9a, 0x3e, 0xc9, 0x2d, 0x8f, 0xbe, 0xa3, 0x2c, 0x93, 0x3e,
  0x9c, 0xf6, 0xe3, 0xbd, 0x80, 0x7c, 0x94, 0xbe, 0x68, 0x18, 0x47, 0x3d,
  0xdf, 0x1c, 0xb4, 0xbd, 0x3f, 0xe7, 0xb5, 0x3e, 0x35, 0x8b, 0x2d, 0xbf,
  0x43, 0x85, 0xc1, 0x3e, 0xd7, 0x6c, 0x3a, 0xbf, 0xdc, 0x45, 0xa3, 0xbe,
  0xe5, 0x8c, 0xc0, 0xbe, 0xf9, 0x3d, 0xbd, 0x3d, 0x3c, 0xe2, 0xae, 0xbe,
  0xaf, 0x65, 0x7a, 0xbc, 0xd5, 0x69, 0x78, 0x3e, 0x92, 0x00, 0x26, 0xbe,
  0xc4, 0xd4, 0x09, 0xbe, 0x05, 0x7d, 0x3f, 0xbd, 0x18, 0xc2, 0x81, 0xbd,
  0x6f, 0xaa, 0x9f, 0xbe, 0xe0, 0x7b, 0x62, 0x3e, 0xb1, 0x1a, 0xb4, 0x3e,
  0xbf, 0xe8, 0x7f, 0xbd, 0x4a, 0x7a, 0xe2, 0xbd, 0xe0, 0x79, 0xb6, 0xbe,
  0xf1, 0x2c, 0xa8, 0xbe, 0x40, 0x67, 0xcd, 0xbe, 0xd7, 0x30, 0x16, 0x3e,
  0xc9, 0xfc, 0x12, 0xbf, 0xb2, 0xf7, 0x17, 0xbe, 0xf9, 0xe5, 0x31, 0x3e,
  0xbf, 0x05, 0x98, 0xbe, 0x70, 0xcc, 0x89, 0xbd, 0x2f, 0xa3, 0x8f, 0xbe,
  0x43, 0x12, 0x07, 0x3d, 0x24, 0x6e, 0x48, 0x3e, 0x6d, 0xfc, 0xc2, 0xbd,
  0x72, 0x34, 0xc5, 0x3e, 0xd4, 0xf3, 0x07, 0xbe, 0x20, 0x4f, 0x45, 0x3d,
  0xd4, 0x73, 0xb5, 0xbe, 0x3d, 0xd7, 0x2e, 0xbf, 0x75, 0x86, 0x80, 0xbe,
  0x7f, 0x29, 0x34, 0xbc, 0xdf, 0x33, 0x1d, 0xbe, 0x53, 0x9f, 0xd2, 0xbd,
  0x62, 0x8b, 0x6c, 0xbc, 0x0d, 0x65, 0x44, 0xbd, 0x5e, 0x71, 0x60, 0xbe,
  0x78, 0x32, 0x8e, 0xbe, 0xa7, 0x00, 0xe0, 0x3d, 0x9c, 0x4f, 0x7e, 0xbd,
  0x53, 0xcc, 0x21, 0x3d, 0xab, 0x18, 0x80, 0x3e, 0x97, 0xa7, 0xa2, 0xbe,
  0x71, 0x01, 0x0f, 0xbe, 0x3c, 0xd1, 0x1b, 0x3d, 0xad, 0x6e, 0x4a, 0xbf,
  0x86, 0xb6, 0x84, 0xbe, 0xe3, 0x91, 0x63, 0x3e, 0xb2, 0x07, 0xdf, 0xbe,
  0x42, 0x23, 0xe2, 0x3d, 0xfe, 0x34, 0x8c, 0x3c, 0xbc, 0xc5, 0xac, 0xbd,
  0xa2, 0x11, 0xb0, 0x3e, 0xdf, 0xb3, 0x30, 0x3d, 0x41, 0x6a, 0x20, 0x3c,
  0xf8, 0xa1, 0x94, 0x3e, 0xc4, 0xe0, 0x8b, 0x3e, 0x97, 0xd1, 0x3c, 0x3e,
  0xe5, 0xd0, 0x72, 0xbe, 0xe6, 0xf6, 0x9a, 0x3c, 0x70, 0xfb, 0x38, 0x3f,
  0x32, 0x17, 0xc0, 0xbe, 0xe9, 0xae, 0x8f, 0xbe, 0xc5, 0x02, 0x1f, 0x3e,
  0xa4, 0x18, 0x52, 0xbe, 0x2d, 0x26, 0x26, 0x3e, 0x01, 0x1c, 0xde, 0xbd,
  0x3b, 0xf6, 0x61, 0xbd, 0xb8, 0x1d, 0xf0, 0x3c, 0x5b, 0xee, 0x95, 0xbd,
  0xc2, 0x8d, 0x18, 0xbd, 0x75, 0x75, 0x6a, 0x3e, 0x9c, 0xba, 0xe2, 0x3d,
  0x6a, 0x73, 0x9e, 0x3c, 0xc5, 0x30, 0x88, 0xbd, 0x16, 0x22, 0xb6, 0x3e,
  0x22, 0x75, 0x09, 0x3f, 0xb1, 0x70, 0xc9, 0xbe, 0x6b, 0x62, 0x09, 0xbe,
  0xd2, 0x9a, 0xad, 0x3e, 0xce, 0x58, 0x56, 0xbd, 0x48, 0x0e, 0x48, 0x3e,
  0xf2, 0xd0, 0x0a, 0xbe, 0x18, 0xca, 0x26, 0xbe, 0xb4, 0xec, 0xd2, 0x3d,
  0x34, 0x85, 0xdc, 0xbd, 0x59, 0xa5, 0xad, 0xbc, 0xf8, 0x39, 0x8d, 0x3e,
  0x07, 0xd3, 0x44, 0x3e, 0x2d, 0xd3, 0x1b, 0x3e, 0x8f, 0xaa, 0xff, 0x3d,
  0x42, 0x3a, 0x1d, 0xbd, 0x48, 0x81, 0x46, 0x3e, 0x4e, 0xa7, 0x5f, 0xbf,
  0xb6, 0x0a, 0xe2, 0xbb, 0xed, 0x5f, 0x07, 0x3e, 0x02, 0x22, 0x80, 0x3e,
  0x1a, 0x3e, 0xf2, 0x3e, 0x58, 0xcd, 0x44, 0xbe, 0xd8, 0x7b, 0x82, 0x3c,
  0xe7, 0x5a, 0xa8, 0x3e, 0xa5, 0x0a, 0x1a, 0xbf, 0xd2, 0xe2, 0xec, 0xbd,
  0xd9, 0xe4, 0x47, 0x3e, 0xc5, 0x12, 0x1e, 0xbe, 0xae, 0xdd, 0xa0, 0x3d,
  0x13, 0x86, 0x40, 0x3e, 0xb0, 0x7d, 0x79, 0xbd, 0xd9, 0x7c, 0x94, 0xbe,
  0xbe, 0x46, 0x51, 0xbf, 0x63, 0x11, 0x90, 0x3d, 0x7d, 0x6c, 0xa5, 0x3e,
  0x8f, 0x86, 0x9a, 0x3e, 0x0e, 0x4e, 0x05, 0x3e, 0xef, 0x67, 0xc9, 0xbe,
  0x01, 0x7a, 0x06, 0xbf, 0xca, 0x4c, 0x50, 0x3f, 0x05, 0xae, 0x8f, 0xbf,
  0xea, 0xff, 0x9f, 0x3e, 0x16, 0x3d, 0x0e, 0xbd, 0x95, 0x1d, 0x0d, 0xbe,
  0x5d, 0x2d, 0xf8, 0xbd, 0x0f, 0x04, 0xc8, 0x3e, 0xb7, 0x18, 0x7f, 0xbd,
  0x84, 0xdf, 0x9a, 0x3e, 0x6f, 0x14, 0x98, 0xbe, 0x52, 0x6a, 0xe4, 0x3d,
  0x78, 0x10, 0x12, 0x3e, 0x69, 0x6e, 0x1a, 0xbd, 0xe5, 0x51, 0x26, 0xbf,
  0xe1, 0x30, 0x7f, 0x3d, 0x82, 0x33, 0x80, 0xbc, 0xa6, 0xe6, 0xdd, 0x3d,
  0x8e, 0x01, 0x88, 0x3e, 0x41, 0x9d, 0x8f, 0x3e, 0x90, 0x94, 0xdf, 0x3d,
  0x89, 0x3a, 0xaa, 0xbe, 0xf3, 0x04, 0x28, 0x3e, 0x60, 0x53, 0x1d, 0xbe,
  0x43, 0xcf, 0xcb, 0xbe, 0xdc, 0x28, 0x05, 0xbf, 0xc1, 0x49, 0x38, 0x3d,
  0x66, 0x8d, 0xac, 0xbd, 0x45, 0xa7, 0x19, 0xbf, 0x9f, 0x5f, 0x13, 0x3d,
  0xf4, 0xb8, 0x8f, 0xbf, 0x79, 0xe3, 0x34, 0x3e, 0x8d, 0xd9, 0x6d, 0x3d,
  0x6e, 0x9f, 0x86, 0x3e, 0xaa, 0x2e, 0xee, 0x3d, 0xb2, 0x30, 0xaa, 0x3d,
  0x40, 0x50, 0x43, 0x3d, 0x3c, 0xe6, 0x67, 0xbf, 0xbd, 0x63, 0x2a, 0x3e,
  0x69, 0xeb, 0x4d, 0xbe, 0x50, 0x0c, 0xd5, 0xbc, 0xd8, 0x5b, 0x94, 0xbe,
  0x05, 0x0a, 0xe8, 0x3e, 0x9a, 0x0a, 0x4d, 0xbe, 0x91, 0x8f, 0x83, 0xbf,
  0x67, 0x86, 0x05, 0x3d, 0x27, 0xa8, 0xe8, 0xbe, 0x53, 0x35, 0x89, 0x3c,
  0xf9, 0x71, 0x9e, 0x3e, 0x68, 0x0b, 0xc5, 0x3e, 0xe6, 0x99, 0x38, 0x3d,
  0x21, 0xa3, 0x84, 0x3e, 0x2c, 0x41, 0xac, 0xbd, 0x53, 0xb3, 0x3b, 0xbf,
  0x50, 0xdc, 0x2b, 0xbe, 0x6d, 0xb8, 0x08, 0xbd, 0x84, 0xba, 0x07, 0x3e,
  0xfb, 0xdd, 0xc3, 0xbe, 0xbd, 0x20, 0xa2, 0x3e, 0xd8, 0xf6, 0xf9, 0x3c,
  0x05, 0x71, 0x55, 0xbf, 0x7a, 0xf7, 0xb4, 0x3d, 0x44, 0xa4, 0x93, 0xbd,
  0x45, 0x15, 0x2f, 0xbe, 0x8b, 0xd5, 0x05, 0x3f, 0xe7, 0xd1, 0xcb, 0x3e,
  0x70, 0xa4, 0x9e, 0x3d, 0xfb, 0xf9, 0x4d, 0xbd, 0xc9, 0xe3, 0x3b, 0x3c,
  0xbe, 0xc3, 0xa2, 0xbe, 0x7d, 0x5e, 0xdb, 0xbb, 0x32, 0xc7, 0x88, 0xbd,
  0xde, 0xb6, 0x1c, 0x3e, 0x16, 0x7d, 0xd0, 0xbe, 0x79, 0x1a, 0xef, 0xbd,
  0xc6, 0x0a, 0x3e, 0x3e, 0x09, 0xbc, 0x9b, 0xbf, 0xbc, 0xb4, 0xfa, 0x3d,
  0x98, 0x3e, 0x74, 0xbe, 0x30, 0xc7, 0xe5, 0x3d, 0xbb, 0xf8, 0x2a, 0x3f,
  0x53, 0x80, 0x37, 0x3d, 0x64, 0x1a, 0xce, 0x39, 0xe8, 0x17, 0xf1, 0x3d,
  0x8a, 0xb2, 0x98, 0x3d, 0xec, 0xf2, 0xdf, 0xbe, 0xcc, 0xd8, 0x2d, 0x3e,
  0xfd, 0x3d, 0xb1, 0x3d, 0x58, 0x71, 0x88, 0xbd, 0x90, 0x88, 0x60, 0xbe,
  0x81, 0x6f, 0x8a, 0x3d, 0xb6, 0x94, 0x10, 0x3d, 0xb4, 0x13, 0x91, 0xbf,
  0x7d, 0xa4, 0x8b, 0x3d, 0xdc, 0x6f, 0x62, 0xbe, 0x87, 0x25, 0x8d, 0xbb,
  0x91, 0xcb, 0x2e, 0x3f, 0x60, 0x6f, 0xd8, 0xbd, 0x24, 0x99, 0x80, 0x3d,
  0x17, 0xbc, 0xda, 0xbd, 0x20, 0xe2, 0xfc, 0x3d, 0xf3, 0x6a, 0x47, 0xbe,
  0x1e, 0x24, 0xe0, 0x3e, 0x6f, 0x99, 0xaf, 0x3e, 0xa8, 0xa3, 0x13, 0xbd,
  0x7a, 0xc5, 0x62, 0xbe, 0xa8, 0x2e, 0x50, 0xbe, 0xf6, 0x60, 0x69, 0x3e,
  0x08, 0x9d, 0x0d, 0xbf, 0xcf, 0x67, 0x0c, 0x3d, 0xb7, 0x93, 0x6b, 0xbd,
  0xcb, 0x22, 0xd4, 0x3d, 0x54, 0xa6, 0xe9, 0x3e, 0x49, 0xa4, 0x9b, 0x3e,
  0x44, 0xea, 0x23, 0x3e, 0xfe, 0x42, 0x76, 0xbd, 0x52, 0x8d, 0x04, 0x3d,
  0xa9, 0x9f, 0xee, 0xbc, 0x84, 0x6b, 0xce, 0x3e, 0x53, 0x6a, 0x50, 0x3e,
  0x20, 0x2d, 0x92, 0x3d, 0x24, 0x08, 0xc5, 0xbe, 0x4a, 0x93, 0x72, 0xbe,
  0x4d, 0x68, 0xd7, 0xbd, 0x53, 0xc0, 0xa5, 0xbe, 0xe3, 0x12, 0x8b, 0x3e,
  0x6b, 0xfe, 0x47, 0xbe, 0x5d, 0x56, 0xc2, 0x3d, 0x70, 0x5c, 0x3a, 0xbe,
  0xf9, 0x33, 0x87, 0x3f, 0x04, 0xbc, 0x14, 0x3e, 0xec, 0x7f, 0xa8, 0x3d,
  0xc6, 0x63, 0x1b, 0x3e, 0x63, 0x8e, 0x1b, 0xbc, 0x2b, 0x18, 0x77, 0x3e,
  0xf5, 0xa6, 0x19, 0x3e, 0x5a, 0x01, 0xf4, 0x3d, 0x96, 0x08, 0xc9, 0xbd,
  0x0d, 0xc0, 0x39, 0x3c, 0x98, 0x70, 0x6c, 0x3d, 0x2c, 0xf1, 0x25, 0x3e,
  0x41, 0xab, 0x89, 0x3c, 0x67, 0xf5, 0x07, 0x3e, 0x58, 0x83, 0x4f, 0xbd,
  0xb7, 0xab, 0x56, 0xbe, 0x34, 0xd1, 0x32, 0xbf, 0x5a, 0xb5, 0x51, 0xbd,
  0x5d, 0xbb, 0x23, 0x3d, 0x9f, 0xc9, 0x0e, 0x3e, 0x88, 0xd2, 0xdf, 0xbd,
  0xe6, 0xa9, 0xad, 0x3d, 0x25, 0x25, 0x09, 0xbd, 0x8b, 0x67, 0x7b, 0xbe,
  0xbc, 0x2f, 0x81, 0xbf, 0xdb, 0xe5, 0xb5, 0xbe, 0x8d, 0xd2, 0x8e, 0x3e,
  0x68, 0x03, 0x13, 0xbf, 0x2b, 0x8c, 0x4a, 0x3d, 0x27, 0x99, 0x57, 0x3e,
  0x17, 0x52, 0x97, 0x3e, 0xc9, 0x34, 0xf7, 0xbe, 0x0d, 0x53, 0x62, 0x3f,
  0x6d, 0xcb, 0x64, 0xbd, 0xbb, 0xd6, 0x1b, 0xbe, 0xfb, 0xf0, 0x22, 0xbe,
  0x93, 0xe0, 0xa9, 0x3e, 0xae, 0x13, 0x19, 0xbe, 0xa2, 0x26, 0x89, 0xbe,
  0xec, 0x1c, 0xcf, 0x3a, 0x83, 0xa5, 0x62, 0xbe, 0xe5, 0xef, 0x3e, 0x3e,
  0x93, 0xed, 0x28, 0xbd, 0xfa, 0x0a, 0x88, 0xbc, 0xa8, 0xa2, 0xe2, 0xbd,
  0x89, 0x28, 0x79, 0x3e, 0x55, 0x65, 0xd8, 0xbc, 0xaf, 0x20, 0x70, 0xbe,
  0xd4, 0xc6, 0x1c, 0x3f, 0x00, 0x56, 0x8f, 0xbd, 0x0f, 0xc7, 0x45, 0x3e,
  0x11, 0x72, 0x4d, 0xbe, 0x85, 0xf2, 0xac, 0x3d, 0xe6, 0x83, 0x5d, 0xbe,
  0x04, 0x2e, 0xe0, 0xbd, 0xc9, 0x4e, 0x1b, 0x3f, 0xfb, 0x03, 0x6c, 0x3e,
  0xac, 0x3a, 0xcc, 0xbe, 0xab, 0x2f, 0x03, 0x3e, 0x6c, 0xe6, 0x48, 0x3e,
  0xc8, 0xbf, 0x79, 0xbe, 0x3d, 0x7b, 0xce, 0x3e, 0x9f, 0x0b, 0x1e, 0x3e,
  0xc6, 0x64, 0x53, 0xbf, 0xc9, 0x03, 0x7c, 0x3e, 0x2f, 0x63, 0xfc, 0xbc,
  0x74, 0xe1, 0x33, 0xbd, 0x9f, 0x1e, 0x63, 0xbe, 0xd1, 0x3b, 0xcb, 0x3e,
  0xc7, 0x89, 0x89, 0x3d, 0x36, 0x58, 0x86, 0xbe, 0xb2, 0x18, 0xaf, 0xbd,
  0xb2, 0xdc, 0xcd, 0xbe, 0x35, 0x57, 0xa9, 0xbe, 0x09, 0xb7, 0x08, 0x3d,
  0xd2, 0xb0, 0x38, 0x3b, 0x37, 0x33, 0x13, 0xbf, 0x91, 0x72, 0x8f, 0x3e,
  0x9d, 0xd5, 0xef, 0x3d, 0xae, 0xb4, 0xaa, 0xbe, 0xb8, 0xe6, 0xc5, 0x3e,
  0xed, 0xcb, 0xce, 0xbd, 0x9a, 0x18, 0x0e, 0xbe, 0x3f, 0x10, 0x5f, 0x3c,
  0x4f, 0x29, 0x07, 0x3d, 0x54, 0x89, 0x3f, 0x3d, 0xb1, 0xdd, 0x9e, 0xbe,
  0xf6, 0x24, 0x25, 0x3d, 0xcb, 0x58, 0x7b, 0xbf, 0xdd, 0xb1, 0x00, 0xbf,
  0x25, 0x20, 0x38, 0xbe, 0x83, 0x26, 0x3f, 0x3d, 0x93, 0xb2, 0xaa, 0xbe,
  0xf4, 0x03, 0x87, 0x3e, 0xe4, 0x46, 0x4b, 0x3c, 0x2e, 0x7b, 0x2c, 0xbf,
  0x9d, 0xc1, 0xbe, 0x3e, 0x31, 0x4d, 0x82, 0xbd, 0x23, 0x08, 0xbe, 0xbd,
  0x5d, 0x51, 0xf2, 0x3a, 0x43, 0xb2, 0xa5, 0xbd, 0xb7, 0xcc, 0x4e, 0xbd,
  0xc0, 0xf9, 0x2e, 0xbe, 0x18, 0x16, 0xab, 0x3d, 0xff, 0x03, 0x8d, 0x3d,
  0xa8, 0xec, 0x99, 0x3c, 0xdb, 0xea, 0x20, 0xbd, 0x6a, 0xa1, 0xf1, 0xbc,
  0xc1, 0xe0, 0xb0, 0x3c, 0x94, 0x97, 0x05, 0xbe, 0x1b, 0x9d, 0x7c, 0xbe,
  0xcb, 0x45, 0x9e, 0xbf, 0x7e, 0xc1, 0x97, 0x3e, 0x81, 0x68, 0x5b, 0xbe,
  0x44, 0x12, 0x31, 0x3e, 0x17, 0x31, 0xde, 0xbe, 0xa3, 0x39, 0xcf, 0xbd,
  0x8c, 0x7d, 0x74, 0xbe, 0x41, 0x97, 0xf4, 0x3d, 0xc2, 0x36, 0x22, 0x3f,
  0x3e, 0xa4, 0x0a, 0xbd, 0xdf, 0xff, 0x3a, 0xbf, 0xd8, 0xba, 0x25, 0x3e,
  0x09, 0xe2, 0x5e, 0xbc, 0x56, 0xe2, 0x14, 0xbf, 0xc0, 0x1b, 0x32, 0x3e,
  0x08, 0x9b, 0xc1, 0xbe, 0x68, 0x73, 0xaa, 0xbe, 0xe4, 0x15, 0x29, 0x3f,
  0x51, 0xe8, 0xb0, 0xbe, 0x65, 0xd2, 0xee, 0xbe, 0x1f, 0x05, 0x09, 0xbe,
  0xe1, 0x4e, 0x80, 0x3e, 0x60, 0x4f, 0x2b, 0x3d, 0x5a, 0x34, 0xd5, 0xbe,
  0xa3, 0xf3, 0xcf, 0x3d, 0x23, 0xcd, 0x18, 0x3f, 0x3c, 0x9a, 0x3f, 0xbf,
  0x43, 0xbe, 0x11, 0xbe, 0x7b, 0x20, 0x4d, 0x3e, 0x9a, 0x8c, 0x81, 0xbf,
  0x95, 0xe2, 0xf9, 0x3d, 0x36, 0x94, 0xde, 0xbe, 0x1b, 0x08, 0x50, 0xbf,
  0xe7, 0x59, 0x39, 0xbe, 0x96, 0x53, 0xc8, 0xbe, 0x60, 0xfa, 0x3f, 0xbc,
  0x56, 0xcc, 0x73, 0xbe, 0x56, 0x24, 0x0c, 0x3e, 0x2c, 0xa7, 0xbe, 0xbe,
  0x7f, 0x0c, 0x4d, 0xbf, 0xea, 0x42, 0x9a, 0xbb, 0x85, 0xd2, 0x00, 0x3e,
  0xc1, 0x7e, 0xdf, 0xbe, 0xa4, 0xe3, 0x4f, 0x3d, 0x66, 0x12, 0xe3, 0x3d,
  0xdf, 0x06, 0x37, 0xbf, 0x83, 0x47, 0x39, 0x3e, 0xa5, 0x25, 0xd5, 0xbe,
  0x81, 0x24, 0x16, 0xbf, 0x60, 0xee, 0xd7, 0x3e, 0x50, 0xae, 0x0b, 0xbf,
  0xc4, 0x79, 0xdf, 0x3d, 0xe0, 0x06, 0xc2, 0xbd, 0x14, 0x61, 0x0a, 0x3e,
  0xa1, 0xe8, 0x41, 0xbd, 0x55, 0xe0, 0x20, 0xbf, 0x62, 0x8b, 0x82, 0x3e,
  0xa0, 0x7d, 0xd2, 0xbd, 0x9e, 0x8e, 0xa8, 0x3e, 0xad, 0x32, 0xa4, 0xbe,
  0x46, 0xc7, 0xc5, 0x3e, 0x22, 0x71, 0x28, 0xbf, 0x98, 0x51, 0xa8, 0xbd,
  0xbb, 0x83, 0x96, 0xbd, 0x05, 0xc0, 0x09, 0x3f, 0xd3, 0x7a, 0x23, 0x3e,
  0x8a, 0xe2, 0x99, 0xbe, 0xbc, 0x40, 0x01, 0x3d, 0x9c, 0x76, 0x04, 0xbf,
  0xb8, 0xdf, 0x8c, 0xbd, 0x73, 0x10, 0x29, 0x3e, 0xf0, 0xf3, 0x91, 0x3e,
  0x21, 0x26, 0xac, 0x3c, 0xf1, 0x82, 0x3c, 0xbe, 0xf2, 0xcf, 0xbd, 0xbe,
  0xad, 0x4d, 0x67, 0x3d, 0x9b, 0x7d, 0x95, 0x3e, 0xe4, 0x73, 0x4a, 0xbe,
  0xae, 0xb7, 0x3d, 0x3d, 0x26, 0xb3, 0xbe, 0x3d, 0xde, 0x89, 0x00, 0x3f,
  0xf0, 0xfb, 0x7a, 0xbe, 0x7c, 0x83, 0x78, 0xbd, 0xf9, 0x45, 0x3b, 0xbe,
  0xb9, 0xc0, 0x5c, 0xbd, 0x4c, 0x7f, 0x22, 0x3d, 0x9c, 0x77, 0x7a, 0x3e,
  0xb2, 0x9d, 0xd9, 0x3b, 0x8c, 0x2f, 0x42, 0x3e, 0x54, 0xc7, 0x9d, 0xbe,
  0x84, 0xb8, 0x64, 0xbe, 0xaf, 0x62, 0x08, 0x3d, 0x71, 0xd3, 0x47, 0x3e,
  0x0f, 0x35, 0xd9, 0xbd, 0xf6, 0x53, 0x61, 0x3d, 0xbc, 0x8a, 0xe2, 0xbd,
  0x58, 0x3c, 0xb6, 0x3e, 0xba, 0x8b, 0x06, 0x3d, 0x6a, 0xe7, 0x57, 0xbd,
  0x3e, 0x3c, 0x49, 0x3e, 0x78, 0xb7, 0xaa, 0xbe, 0x8a, 0xbb, 0xc5, 0xbc,
  0x50, 0x0a, 0x03, 0x3c, 0xf6, 0x0a, 0x97, 0x3d, 0x02, 0xc6, 0xe4, 0x3d,
  0xa4, 0x10, 0x87, 0xbd, 0xf6, 0xa8, 0x56, 0x3d, 0x18, 0xa6, 0xba, 0x3e,
  0x0d, 0x21, 0x9c, 0x3c, 0x58, 0xb3, 0x62, 0x3e, 0x82, 0xe3, 0x7d, 0xbe,
  0xd9, 0xfb, 0xc9, 0x3c, 0x0c, 0xd3, 0x60, 0x3e, 0x2b, 0xb2, 0xe5, 0xbd,
  0xa0, 0x95, 0xdc, 0xbc, 0xaa, 0xc8, 0xc7, 0x3e, 0xb6, 0xc5, 0x63, 0x3e,
  0x50, 0xf1, 0xaf, 0x3c, 0x9c, 0x08, 0x55, 0xbd, 0x74, 0xf8, 0x16, 0xbe,
  0x50, 0x57, 0xa8, 0xbd, 0xbd, 0xe7, 0x5d, 0xbe, 0x47, 0xf8, 0x3b, 0x3e,
  0x1e, 0x63, 0x72, 0x3d, 0x3f, 0xe9, 0x69, 0xbe, 0x54, 0x4e, 0x76, 0x3e,
  0xaf, 0x28, 0xa6, 0xbe, 0x4f, 0xc9, 0x90, 0x3e, 0xc7, 0x06, 0x4c, 0x3e,
  0xdb, 0x2f, 0x8c, 0x3e, 0x59, 0x24, 0xb5, 0x3d, 0x8d, 0x96, 0xa0, 0x3e,
  0x82, 0x9e, 0xd7, 0xbd, 0xe4, 0xe6, 0x95, 0xbd, 0x5b, 0x2e, 0x2d, 0x3e,
  0x32, 0xe1, 0xd9, 0xbe, 0xcc, 0x79, 0x57, 0x3e, 0x8f, 0x2e, 0x74, 0x3d,
  0xdb, 0xc4, 0xfb, 0x3d, 0x03, 0x57, 0x2b, 0xbe, 0x2a, 0xc2, 0xad, 0xbe,
  0x17, 0x37, 0x88, 0x3e, 0xb8, 0x9b, 0x4c, 0xbe, 0x6f, 0x7c, 0x37, 0x3d,
  0x94, 0xcd, 0xc4, 0x3d, 0xbf, 0xdc, 0x89, 0x3c, 0xb4, 0xf0, 0xf6, 0xbd,
  0x70, 0x03, 0x43, 0x3e, 0x2b, 0x0e, 0x7f, 0xbe, 0x7a, 0xbd, 0xfc, 0xbd,
  0x6d, 0x6e, 0xa4, 0xbd, 0x74, 0x29, 0x39, 0xbd, 0x5e, 0x61, 0x66, 0x3b,
  0x72, 0xab, 0x84, 0xbe, 0xce, 0x9c, 0x5e, 0x3d, 0x0b, 0x9c, 0x20, 0xbe,
  0xe9, 0x11, 0xdf, 0xbe, 0xce, 0x8a, 0x5d, 0x3e, 0xe9, 0x99, 0x85, 0xbe,
  0x33, 0xb3, 0xbd, 0x3d, 0x34, 0x81, 0xa9, 0x3d, 0xe2, 0x3d, 0x69, 0xbd,
  0x33, 0x82, 0x1f, 0xbd, 0xae, 0x9a, 0x8b, 0x3d, 0x4d, 0x4e, 0x5a, 0x3d,
  0x90, 0xc5, 0x87, 0xbd, 0xb5, 0xda, 0x83, 0x3d, 0x4f, 0x98, 0x9e, 0x3c,
  0x3f, 0x89, 0x2a, 0xbd, 0xb7, 0x1c, 0x99, 0xbe, 0xa9, 0x36, 0x82, 0x3e,
  0x56, 0xdb, 0xc6, 0xbd, 0x2c, 0x2a, 0xbf, 0xbe, 0x3c, 0x6e, 0x9c, 0x3d,
  0xe1, 0x10, 0x0e, 0xbf, 0x8d, 0x40, 0x3a, 0x3d, 0x4e, 0x72, 0x9e, 0x3d,
  0xa3, 0xd9, 0x70, 0x3d, 0x50, 0x01, 0xae, 0x3d, 0x93, 0x2e, 0x41, 0x3e,
  0x14, 0xa4, 0xaa, 0xbd, 0xb5, 0xa4, 0x9a, 0xbe, 0x6e, 0x6a, 0xeb, 0x3c,
  0xd3, 0x3f, 0x3c, 0xbd, 0xde, 0x0e, 0x69, 0x3e, 0x34, 0x9f, 0xdd, 0xbd,
  0x13, 0x6a, 0x7c, 0x3d, 0xf0, 0x9a, 0x48, 0xbe, 0xcc, 0x51, 0x5e, 0xbf,
  0x3c, 0x13, 0xad, 0x3d, 0x5e, 0x1a, 0x33, 0xbf, 0x48, 0xea, 0x93, 0x3e,
  0xe1, 0x88, 0x91, 0xbd, 0x38, 0x52, 0x10, 0x3f, 0x46, 0xa9, 0x5e, 0x3d,
  0x80, 0xb0, 0xb4, 0x3d, 0x6f, 0x65, 0x81, 0xbd, 0xec, 0x5e, 0xa3, 0xbf,
  0x68, 0x2c, 0x81, 0x3d, 0xc9, 0x9a, 0x28, 0xbd, 0x19, 0x76, 0x3d, 0x3c,
  0x19, 0x7b, 0xb3, 0xbe, 0xa4, 0x26, 0xca, 0x3e, 0x24, 0xd3, 0x88, 0x3b,
  0x3f, 0xf5, 0x3f, 0xbf, 0x43, 0xdd, 0x91, 0x3e, 0x87, 0x78, 0xcf, 0xbe,
  0xd5, 0x4f, 0x7f, 0x3e, 0xd5, 0x7a, 0x39, 0xbe, 0x5f, 0x89, 0xb9, 0x3e,
  0x10, 0xfe, 0xcd, 0x3d, 0x92, 0x06, 0x12, 0x3e, 0xf9, 0xe4, 0xef, 0x3c,
  0x2d, 0x06, 0x39, 0xbf, 0x4d, 0x6f, 0xfd, 0x3d, 0x72, 0x42, 0xb8, 0xbe,
  0x52, 0x3a, 0x84, 0xbe, 0xae, 0xf4, 0x78, 0xbe, 0x9b, 0xb6, 0x5e, 0x3e,
  0x53, 0x14, 0x96, 0xbb, 0x92, 0x9c, 0x0c, 0xbf, 0xb9, 0xaa, 0x3b, 0x3c,
  0x75, 0xae, 0xaa, 0x3e, 0x91, 0xa0, 0x66, 0xbe, 0x31, 0x98, 0xed, 0x3c,
  0xac, 0x9d, 0x1e, 0xbf, 0x22, 0x21, 0xad, 0xbb, 0xf9, 0xc4, 0x6e, 0x3c,
  0x3e, 0x49, 0x88, 0xbd, 0x12, 0xae, 0xa0, 0x3b, 0xbf, 0xcd, 0xf4, 0x3d,
  0xcb, 0xbc, 0x44, 0x3d, 0x2d, 0xb8, 0x3f, 0xbe, 0x9b, 0xf2, 0x05, 0x3f,
  0xf8, 0x51, 0x0a, 0xbf, 0xc5, 0x8c, 0xa9, 0x3e, 0xbb, 0x4f, 0x0b, 0x3e,
  0x9a, 0x2b, 0x28, 0xbe, 0xdc, 0xd8, 0x8e, 0xbc, 0x8a, 0x45, 0x00, 0xbf,
  0x07, 0x30, 0x4f, 0x3e, 0xd7, 0x2c, 0xa6, 0xbe, 0x00, 0x7e, 0xeb, 0xbd,
  0x04, 0x5c, 0x25, 0x3e, 0xf7, 0x1f, 0xad, 0x3e, 0x0e, 0xb4, 0x1c, 0xbe,
  0x0c, 0x6c, 0xde, 0xbb, 0x43, 0xe6, 0x15, 0x3e, 0x89, 0x8c, 0x16, 0xbe,
  0x6e, 0x32, 0x09, 0x3f, 0x19, 0x34, 0x3c, 0xbf, 0x27, 0x1c, 0xac, 0x3d,
  0xca, 0x1d, 0x58, 0x3d, 0xb2, 0xd5, 0xd8, 0x3d, 0xd8, 0x1e, 0xa8, 0xbd,
  0xe0, 0x2b, 0xa4, 0xbe, 0xf8, 0x11, 0x0c, 0xbe, 0xc9, 0x0e, 0x6f, 0x3e,
  0x7d, 0x49, 0xf2, 0xbd, 0xbb, 0xec, 0xb4, 0xbd, 0xc3, 0x4d, 0x83, 0x3e,
  0xd5, 0x88, 0x84, 0x3d, 0xa2, 0xc0, 0x0a, 0xbe, 0xfb, 0x4f, 0xc6, 0xbe,
  0xf4, 0x98, 0x7f, 0xbe, 0xf9, 0x14, 0xe1, 0x3e, 0x4b, 0x44, 0x43, 0xbf,
  0x8b, 0xda, 0x5f, 0xbd, 0xf3, 0xc8, 0xdb, 0x3d, 0x2d, 0xa5, 0xbf, 0x3e,
  0x80, 0xb1, 0x61, 0x3e, 0x5a, 0x0c, 0x59, 0xbe, 0xbb, 0xd9, 0xf5, 0x3e,
  0x7e, 0xab, 0xee, 0x3e, 0x1a, 0x2e, 0x0c, 0xbe, 0xc4, 0x54, 0x18, 0xbe,
  0x9c, 0xac, 0x9f, 0xbd, 0xb5, 0x6f, 0x34, 0xbd, 0x3a, 0x50, 0xa7, 0xbe,
  0xdf, 0x46, 0xd8, 0xbe, 0x8b, 0xdc, 0x11, 0xbf, 0x3a, 0x37, 0xd4, 0xbe,
  0xdf, 0x00, 0xba, 0xbd, 0x65, 0x3f, 0x8f, 0xbe, 0x12, 0x11, 0x8d, 0x3e,
  0xa1, 0x52, 0x31, 0x3e, 0x90, 0x66, 0x2b, 0x3d, 0x23, 0xd5, 0xbd, 0x3d,
  0x89, 0x4f, 0x28, 0x3e, 0x79, 0x9b, 0x36, 0x3f, 0xe3, 0x53, 0x04, 0xbe,
  0x25, 0xb8, 0xad, 0x3c, 0x21, 0xac, 0x87, 0xbe, 0x34, 0x71, 0xaf, 0xba,
  0x1a, 0x1f, 0x12, 0xbe, 0x18, 0xcd, 0xe1, 0xbe, 0x2b, 0xb6, 0x2a, 0xbe,
  0xfe, 0x3b, 0xc5, 0xbe, 0x8c, 0xa9, 0x9f, 0x3c, 0xcd, 0xbc, 0x1d, 0xbf,
  0x65, 0x28, 0x8f, 0x3e, 0xa6, 0x99, 0xbb, 0xbe, 0xfb, 0xc2, 0xc2, 0x3d,
  0x53, 0x19, 0xd6, 0x3d, 0x16, 0x01, 0x41, 0xbe, 0xe7, 0xe7, 0xc7, 0x3e,
  0x9d, 0xc9, 0x16, 0x3e, 0x7e, 0x76, 0x08, 0xbe, 0x07, 0xb0, 0x89, 0xbe,
  0x66, 0xc8, 0x14, 0x3e, 0x30, 0xf7, 0x4e, 0xbf, 0x6d, 0x95, 0x2e, 0xbe,
  0x7f, 0x95, 0x10, 0xbf, 0x51, 0x44, 0xbb, 0xbe, 0x98, 0x69, 0x3d, 0xbe,
  0xcf, 0x43, 0x5e, 0xbe, 0x2f, 0xad, 0x13, 0x3e, 0xfa, 0x25, 0x19, 0xbf,
  0xe3, 0x92, 0x89, 0xbd, 0x68, 0xf2, 0xaf, 0x3d, 0x38, 0x6b, 0xac, 0xbe,
  0xb1, 0xc2, 0xb4, 0xbe, 0xf9, 0xc4, 0x8a, 0xbd, 0xc2, 0x1d, 0x11, 0xbe,
  0x74, 0xa6, 0x4f, 0x3c, 0x70, 0xab, 0xba, 0x3d, 0x21, 0x19, 0x0a, 0xbf,
  0xa0, 0x3a, 0xc8, 0xbe, 0x74, 0x10, 0xe4, 0xbd, 0x5b, 0xa5, 0xd5, 0xbe,
  0x49, 0x90, 0x07, 0x3d, 0x6d, 0x24, 0x4e, 0x3d, 0xd1, 0x1d, 0x90, 0x3d,
  0x03, 0x44, 0xd4, 0xbd, 0xc1, 0x76, 0x02, 0x3e, 0x8d, 0xa7, 0x7b, 0x3e,
  0xca, 0x93, 0x62, 0xbf, 0xe0, 0x92, 0xe9, 0xbd, 0xde, 0x5d, 0x45, 0xbd,
  0x54, 0xed, 0x46, 0x3d, 0xfa, 0x7a, 0x03, 0x3e, 0x79, 0xaf, 0x8e, 0x3c,
  0x57, 0xe9, 0x40, 0xbe, 0xd1, 0x0a, 0x40, 0xbf, 0x02, 0xff, 0x7b, 0x3e,
  0x7e, 0x36, 0x11, 0xbf, 0x09, 0xcb, 0x90, 0xbe, 0xfe, 0x84, 0x05, 0xbc,
  0x97, 0x6c, 0x3b, 0x3d, 0x99, 0x75, 0xa0, 0xbd, 0xf6, 0x2e, 0x1c, 0x3d,
  0x9a, 0xe4, 0xee, 0x3d, 0xd9, 0x86, 0x32, 0xbf, 0x92, 0x58, 0xdc, 0xbe,
  0x72, 0x73, 0xea, 0xbe, 0xa8, 0xba, 0x35, 0xbe, 0x7b, 0xe4, 0x16, 0x3e,
  0xf6, 0x37, 0xd5, 0x3c, 0x1d, 0x9b, 0x24, 0xbf, 0xf6, 0xcb, 0x0f, 0xbf,
  0xec, 0x2f, 0x17, 0x3e, 0x1d, 0x2e, 0x4b, 0xbe, 0x2b, 0xdd, 0xa6, 0xbe,
  0x14, 0x4f, 0x65, 0x3b, 0xc6, 0x5d, 0x98, 0xbe, 0xe7, 0xc9, 0x0e, 0xbe,
  0x83, 0x53, 0xd6, 0x3d, 0x81, 0xe8, 0xd8, 0x3d, 0x86, 0xe9, 0x0d, 0xbf,
  0xe3, 0xd1, 0xff, 0xbd, 0x5c, 0x91, 0x5f, 0xbe, 0x32, 0xd0, 0xbe, 0x3d,
  0x16, 0xf5, 0xef, 0x3e, 0x9a, 0x62, 0x11, 0x3d, 0x5e, 0x43, 0x8a, 0xbf,
  0x77, 0x20, 0x13, 0xbf, 0x4c, 0xee, 0x70, 0xbe, 0x35, 0xed, 0x2d, 0x3e,
  0xb0, 0x32, 0x93, 0xbe, 0xc5, 0x47, 0x43, 0xbe, 0x61, 0x62, 0xa5, 0xbd,
  0x3a, 0xe6, 0xd3, 0xbe, 0x49, 0x96, 0x71, 0x3d, 0x7f, 0xf6, 0x03, 0x3d,
  0x3c, 0x8f, 0xa7, 0xbd, 0x31, 0xca, 0xc0, 0xbe, 0x45, 0x45, 0x68, 0x3e,
  0x58, 0x84, 0xd4, 0xbe, 0xd3, 0x6f, 0x26, 0xbd, 0x0b, 0x19, 0x91, 0xbe,
  0x83, 0x58, 0x68, 0xbe, 0x02, 0x7c, 0x20, 0xbf, 0x09, 0x89, 0x67, 0x3e,
  0x86, 0xe4, 0xe2, 0x3e, 0x3d, 0x29, 0x62, 0xbe, 0x83, 0x44, 0x25, 0xbf,
  0xd6, 0x8a, 0xa5, 0xbe, 0x9b, 0x34, 0xb0, 0xbe, 0xfb, 0xf9, 0x46, 0x3d,
  0x3e, 0x35, 0xe8, 0xbd, 0x82, 0x81, 0x1c, 0x3e, 0xdb, 0x0c, 0xc0, 0xbd,
  0xa0, 0x39, 0xaf, 0x3c, 0x28, 0x38, 0x57, 0xbd, 0x11, 0x7d, 0xa6, 0x3c,
  0xfd, 0x42, 0x58, 0xbd, 0xa9, 0x04, 0x7e, 0x3e, 0x3c, 0xaf, 0x99, 0x3e,
  0x2a, 0x4b, 0xbe, 0x3d, 0x46, 0x61, 0x09, 0x3f, 0x95, 0x91, 0x90, 0xbe,
  0x32, 0x46, 0x13, 0xbe, 0xf0, 0xb7, 0x7b, 0x3e, 0x5d, 0x44, 0x65, 0x3e,
  0x36, 0xa2, 0x28, 0xbe, 0x01, 0x00, 0xb3, 0xbd, 0x6a, 0xf5, 0x44, 0xbf,
  0x69, 0x6a, 0xf5, 0xbe, 0x9d, 0xa7, 0x1c, 0x3d, 0x20, 0x8c, 0x0a, 0x3d,
  0x41, 0xe8, 0xe5, 0x3e, 0xfd, 0xd1, 0x1c, 0xbc, 0xd7, 0x5e, 0x12, 0xbc,
  0x00, 0xe4, 0x22, 0xbe, 0x7f, 0x27, 0x70, 0xbe, 0x6f, 0xa2, 0xe9, 0x3e,
  0xc1, 0x33, 0x20, 0xbf, 0x63, 0x60, 0x69, 0x3e, 0x65, 0x43, 0x82, 0xbe,
  0x34, 0xf7, 0xd2, 0x3e, 0x14, 0x82, 0x77, 0x3e, 0xf6, 0x83, 0xd6, 0xbd,
  0x30, 0xa2, 0x91, 0xbf, 0x79, 0xbb, 0xf0, 0x3e, 0x1d, 0x5b, 0x1f, 0xbf,
  0x16, 0xc2, 0xe9, 0xbe, 0x2f, 0xa9, 0x99, 0x3d, 0x70, 0x88, 0xb0, 0x3d,
  0xda, 0xaf, 0x85, 0xbf, 0xf9, 0x66, 0x5b, 0xbf, 0xee, 0x1b, 0x54, 0xbd,
  0xf3, 0x41, 0x62, 0xbf, 0xec, 0x05, 0x42, 0xbf, 0x1f, 0x79, 0x90, 0xbe,
  0x13, 0x4e, 0xe6, 0xbc, 0x2f, 0xb4, 0x18, 0xbc, 0xbb, 0x15, 0x05, 0x3e,
  0x17, 0x4d, 0x2a, 0xbe, 0xdb, 0x98, 0x32, 0x3b, 0x4c, 0x03, 0x27, 0xbf,
  0xae, 0xb3, 0x8d, 0x3b, 0x89, 0xbf, 0xb9, 0x3e, 0x51, 0x28, 0x5a, 0x3c,
  0xb0, 0x7a, 0xf7, 0xbe, 0x08, 0x78, 0xc2, 0xba, 0x7a, 0x70, 0x15, 0x3d,
  0xa5, 0x1d, 0x60, 0x3e, 0xff, 0xe9, 0xe6, 0x3e, 0xbb, 0xe4, 0xcd, 0xbe,
  0xd6, 0xda, 0x00, 0x3f, 0xa8, 0xbc, 0x71, 0x3e, 0xb4, 0x0a, 0x36, 0xbe,
  0x35, 0x8f, 0xb3, 0xbd, 0x93, 0xc7, 0x52, 0x3e, 0xc3, 0x24, 0x61, 0xbc,
  0xa5, 0xe6, 0x61, 0xbe, 0x8f, 0x56, 0xf8, 0x3d, 0x26, 0x63, 0x9f, 0x3e,
  0x9b, 0x29, 0x03, 0x3f, 0xeb, 0x8b, 0xb8, 0xbe, 0xc1, 0x74, 0x90, 0x3d,
  0x85, 0x27, 0x85, 0x3e, 0x9d, 0xb3, 0xc7, 0xbd, 0x38, 0x4d, 0x8f, 0x3e,
  0xdc, 0x7b, 0x90, 0xbe, 0x89, 0x0f, 0xa2, 0x3e, 0x71, 0xde, 0xde, 0xbd,
  0xc4, 0xb7, 0x3d, 0x3e, 0x34, 0x7f, 0xef, 0xbc, 0x0f, 0x04, 0x19, 0x3e,
  0xe3, 0xcc, 0x35, 0x3e, 0x94, 0x11, 0x12, 0xbe, 0x12, 0x28, 0x31, 0x3c,
  0x5d, 0x58, 0x9c, 0x3e, 0x98, 0x1f, 0x67, 0x3e, 0x19, 0x19, 0x9f, 0xbd,
  0x33, 0x03, 0xc5, 0xbd, 0x90, 0x2e, 0x21, 0xbd, 0x60, 0x73, 0x00, 0xbe,
  0x85, 0xc5, 0xcb, 0x3e, 0x38, 0xe6, 0xe7, 0xbe, 0xbf, 0x82, 0x2d, 0x3d,
  0x57, 0x90, 0xc5, 0x3d, 0x14, 0x13, 0x0f, 0x3f, 0x0a, 0x9b, 0xad, 0x3d,
  0x99, 0x29, 0x42, 0xbe, 0x59, 0xc7, 0x38, 0x3e, 0x73, 0xa9, 0x24, 0x3d,
  0xfb, 0xaa, 0x07, 0x3e, 0xb1, 0x31, 0x3a, 0x3d, 0x58, 0xe8, 0x81, 0x3e,
  0xfe, 0xfe, 0xc6, 0x3d, 0xa6, 0x25, 0x1a, 0xbe, 0xdf, 0xb8, 0x62, 0xbe,
  0x14, 0x04, 0x38, 0xbe, 0xaf, 0xfd, 0xa2, 0x3e, 0x55, 0x49, 0xb6, 0xbe,
  0x00, 0x39, 0x28, 0x3d, 0xa6, 0xbb, 0x86, 0x3e, 0xce, 0x18, 0xb9, 0x3e,
  0x82, 0xec, 0x24, 0xbc, 0xcd, 0x26, 0x6e, 0x3c, 0xb2, 0xbf, 0xa7, 0x3e,
  0x45, 0x80, 0x90, 0x3e, 0x04, 0x9c, 0x50, 0x3e, 0xef, 0x00, 0x80, 0x3d,
  0xa8, 0x1e, 0x62, 0x3e, 0x30, 0x7b, 0x70, 0xbc, 0x07, 0x5c, 0x9c, 0x3d,
  0x93, 0xfd, 0x2e, 0xbf, 0x8a, 0x08, 0x76, 0x3d, 0x6a, 0xeb, 0x93, 0x3e,
  0x38, 0xda, 0xdc, 0x3d, 0x13, 0xfb, 0x0b, 0xbe, 0x02, 0x27, 0x08, 0x3d,
  0xca, 0xc7, 0x9b, 0x3e, 0x92, 0xa9, 0xf0, 0x3c, 0xef, 0x0b, 0x6e, 0xbe,
  0x0c, 0x90, 0x9f, 0x3e, 0x14, 0x40, 0xe5, 0x3e, 0xfb, 0x70, 0x09, 0xbd,
  0x60, 0x7e, 0x00, 0xbe, 0x2d, 0x38, 0x9e, 0x3e, 0x47, 0x2c, 0xa5, 0x3d,
  0x73, 0xd2, 0x60, 0xbe, 0x70, 0xc9, 0xf3, 0xbe, 0x28, 0xe3, 0xcb, 0x3e,
  0x6e, 0x99, 0xd9, 0x3d, 0x7c, 0x8b, 0x9b, 0x3e, 0x67, 0x5e, 0x16, 0xbe,
  0xd2, 0xaa, 0x42, 0xbe, 0xd4, 0xbb, 0x9a, 0x3e, 0x31, 0x39, 0x57, 0x3e,
  0x6e, 0x4a, 0x3e, 0x3d, 0xf6, 0x6b, 0xf7, 0x3d, 0xa1, 0x72, 0x4c, 0x3f,
  0xb2, 0x9f, 0x2a, 0xbe, 0x31, 0xee, 0xb8, 0xbb, 0x3d, 0xb7, 0xf7, 0x3c,
  0x61, 0x68, 0x0a, 0x3d, 0xf3, 0x6a, 0xa0, 0xbd, 0xb1, 0x7d, 0x00, 0xbe,
  0xdf, 0x0e, 0x9d, 0x3e, 0x15, 0xda, 0x46, 0x3e, 0x3e, 0xc1, 0xdd, 0xbd,
  0x7f, 0xbc, 0xae, 0x3e, 0x6e, 0xdb, 0x9c, 0xbe, 0xf3, 0x70, 0xb6, 0x3e,
  0xf6, 0xb8, 0xd1, 0x3c, 0x98, 0xa8, 0x31, 0x3e, 0x55, 0xd2, 0x08, 0xbd,
  0xb7, 0xbe, 0x8e, 0x3f, 0x1b, 0x22, 0x98, 0xbe, 0x24, 0x99, 0xc8, 0x39,
  0x6c, 0xf3, 0x79, 0x3e, 0x2e, 0x98, 0x34, 0x3c, 0x49, 0xc2, 0x51, 0xbe,
  0xc2, 0x38, 0x36, 0xbe, 0x8b, 0xaf, 0x79, 0x3e, 0x2f, 0x97, 0x2a, 0x3a,
  0x1b, 0xe1, 0x5a, 0x3e, 0x86, 0xfb, 0x1b, 0x3e, 0x75, 0x11, 0x18, 0x3d,
  0xfa, 0xb3, 0xf2, 0xbd, 0x5a, 0xec, 0xb8, 0x3d, 0x27, 0xb6, 0x1d, 0x3e,
  0x53, 0x43, 0x1b, 0xbe, 0xc4, 0x59, 0x2b, 0x3f, 0xd9, 0xc0, 0x0a, 0xbf,
  0xcc, 0x20, 0x15, 0xbe, 0xe9, 0x7c, 0xc9, 0xbe, 0x4a, 0x7e, 0x0f, 0x3e,
  0xe0, 0xec, 0x25, 0xbe, 0x39, 0x76, 0xea, 0xbd, 0x9a, 0x03, 0x8e, 0x3d,
  0x16, 0x3c, 0x62, 0xbe, 0xcb, 0x90, 0x98, 0x3e, 0x9d, 0xa0, 0xdc, 0x3e,
  0xb5, 0x5f, 0x84, 0xbe, 0xc2, 0xf4, 0xc8, 0xbd, 0xb1, 0x15, 0x05, 0xbe,
  0x9d, 0xba, 0x39, 0x3e, 0x6c, 0x88, 0x47, 0xbd, 0xa9, 0x73, 0x7b, 0x3e,
  0x7d, 0x2f, 0x20, 0xbf, 0x38, 0x7b, 0x68, 0xbe, 0x13, 0x81, 0x18, 0xbe,
  0x63, 0x9f, 0x91, 0xbd, 0x60, 0x99, 0x88, 0xbe, 0x8f, 0x27, 0x37, 0xbe,
  0x54, 0x1c, 0xa2, 0xbe, 0xcd, 0xf7, 0x3d, 0xbd, 0xe0, 0xaf, 0xa2, 0xbc,
  0x7f, 0xa8, 0xdc, 0x3d, 0xfc, 0x8c, 0x8c, 0xbd, 0x50, 0x3c, 0x6b, 0x3d,
  0x00, 0xd6, 0x77, 0x3e, 0x10, 0xfe, 0x71, 0x3e, 0x2c, 0xa0, 0x09, 0x3e,
  0x53, 0x60, 0xd7, 0x3e, 0x0b, 0xd5, 0x3d, 0xbf, 0xfb, 0xe4, 0x01, 0xbe,
  0xfa, 0x37, 0x97, 0xbe, 0xdc, 0x95, 0x56, 0x3e, 0xb6, 0xcd, 0x4c, 0xbe,
  0x35, 0x82, 0x1d, 0xbf, 0x5f, 0xb6, 0xb3, 0x3c, 0x62, 0x26, 0x39, 0xbf,
  0xf2, 0xe0, 0x2c, 0x3e, 0x08, 0x55, 0xac, 0x3d, 0x55, 0x0f, 0x31, 0xbe,
  0xcc, 0x5b, 0x53, 0xbe, 0xfd, 0x35, 0x0e, 0x3d, 0xfe, 0x92, 0xfd, 0x3d,
  0xe5, 0xd7, 0x3d, 0xbe, 0x18, 0x6d, 0xc3, 0x3e, 0x51, 0x2d, 0x01, 0xbf,
  0x4a, 0x25, 0xc5, 0xbc, 0xdc, 0x77, 0x9d, 0xbe, 0xeb, 0x05, 0x5b, 0x3e,
  0x65, 0x60, 0x43, 0xbe, 0xb0, 0xd6, 0x57, 0xbf, 0x3e, 0xd5, 0xe7, 0xbe,
  0xf2, 0x76, 0xc6, 0xbe, 0xde, 0x12, 0x75, 0xbd, 0x0f, 0xa3, 0xce, 0x3c,
  0xf8, 0xc7, 0x95, 0xbe, 0x7d, 0xf2, 0x2c, 0xbf, 0x46, 0xd1, 0x65, 0x3e,
  0xc3, 0x7c, 0x73, 0x3e, 0x19, 0xfb, 0x3d, 0xbe, 0x7e, 0x2e, 0xd0, 0xbe,
  0x5c, 0xac, 0x22, 0xbf, 0xf9, 0xad, 0x00, 0xbe, 0xa3, 0xd0, 0x2d, 0xbf,
  0x3e, 0x8e, 0x9f, 0x3e, 0x5b, 0x3f, 0x78, 0xbe, 0xc0, 0xf7, 0x25, 0xbf,
  0x8e, 0xa7, 0x87, 0xbf, 0x38, 0x48, 0x92, 0xbe, 0xe2, 0xa8, 0xbd, 0xbe,
  0x9d, 0x8b, 0x92, 0xbe, 0xe6, 0x46, 0xfe, 0xbd, 0x0d, 0xee, 0x43, 0xbe,
  0x1c, 0x17, 0x09, 0xbd, 0x6e, 0x19, 0x54, 0xbe, 0x98, 0x13, 0xd9, 0xbd,
  0xe8, 0x9c, 0x7f, 0xbf, 0xc5, 0xb1, 0xf1, 0xbd, 0xd7, 0xdb, 0x95, 0xbe,
  0xab, 0x2a, 0x0e, 0xbe, 0xa7, 0x8d, 0x08, 0x3d, 0x55, 0x32, 0xc3, 0x3e,
  0x6f, 0xc3, 0x1e, 0x3f, 0x5c, 0x80, 0x59, 0xbe, 0x89, 0x1a, 0x92, 0xbe,
  0x78, 0x4b, 0xb0, 0xbe, 0xc6, 0x93, 0xae, 0xbd, 0x3b, 0x95, 0x24, 0xbe,
  0xe2, 0x53, 0x9f, 0xbe, 0x08, 0x8f, 0x0f, 0xbf, 0xc8, 0x4b, 0xb9, 0xbc,
  0x5a, 0xa4, 0xeb, 0xbd, 0x1a, 0xf8, 0x85, 0xbe, 0x25, 0x64, 0xe1, 0x3e,
  0xaf, 0xfc, 0xbe, 0x3d, 0xa1, 0xca, 0x20, 0x3f, 0x15, 0x9b, 0x04, 0xbe,
  0x80, 0xc7, 0x63, 0x3e, 0x71, 0xc2, 0x7b, 0x3d, 0x40, 0x39, 0x15, 0x3e,
  0x86, 0x6f, 0x41, 0xbd, 0x1e, 0x73, 0x50, 0xbe, 0x43, 0xb4, 0x03, 0x3e,
  0xa4, 0x7f, 0x41, 0xbf, 0x72, 0xbc, 0x79, 0x3f, 0x78, 0x8b, 0x86, 0xbe,
  0x62, 0xe1, 0x4a, 0x3e, 0xf5, 0x23, 0xeb, 0xbd, 0x75, 0x00, 0x29, 0xbf,
  0xc6, 0xa7, 0xc5, 0x3d, 0x34, 0x3f, 0xe7, 0x3e, 0x4f, 0x7d, 0xf7, 0x3d,
  0x09, 0x54, 0xaf, 0x3d, 0x04, 0xa3, 0xba, 0x3e, 0x01, 0x0a, 0x72, 0xbe,
  0xe5, 0xec, 0xeb, 0x3d, 0xcc, 0xed, 0x2b, 0x3e, 0x6a, 0xa3, 0x77, 0x3d,
  0x39, 0xf3, 0x86, 0xbd, 0xf0, 0x18, 0x3e, 0xbc, 0xce, 0xc2, 0x09, 0x3e,
  0x73, 0xb0, 0xb1, 0xbd, 0xfc, 0xdf, 0x91, 0x3e, 0x0c, 0x32, 0xdc, 0xbd,
  0x7a, 0x87, 0x8f, 0xbe, 0xb7, 0x73, 0xce, 0x3d, 0x5e, 0xae, 0xbf, 0x3e,
  0x91, 0x41, 0xe6, 0xbd, 0x2c, 0xf4, 0x7e, 0x3c, 0xa9, 0xa1, 0x6d, 0x3e,
  0xbd, 0x9e, 0x8f, 0xbe, 0x50, 0x7d, 0x87, 0xbc, 0xf7, 0x6d, 0xe2, 0x3c,
  0x6e, 0xfe, 0x2a, 0x3e, 0xb1, 0x5d, 0x34, 0x3e, 0x25, 0x3b, 0xea, 0xbd,
  0x51, 0x1b, 0x78, 0x3d, 0x96, 0x5f, 0x34, 0x3e, 0x63, 0x93, 0x40, 0x3e,
  0xde, 0xf5, 0xde, 0x3e, 0xc5, 0xe4, 0x3a, 0x3f, 0xfe, 0x61, 0x97, 0xbc,
  0xa9, 0xb9, 0x0d, 0x3f, 0xdd, 0xd6, 0x1b, 0x3e, 0x0b, 0x57, 0x2b, 0x3e,
  0x3d, 0x87, 0x81, 0x3e, 0x2a, 0xb4, 0x29, 0xbe, 0x13, 0x95, 0x02, 0x3e,
  0x17, 0x81, 0x46, 0xbe, 0x41, 0x55, 0x6f, 0x3e, 0xe0, 0xca, 0x95, 0x3e,
  0x05, 0x67, 0x8e, 0x3b, 0x56, 0x13, 0x8d, 0x3c, 0xb4, 0x20, 0x8d, 0xbd,
  0x3f, 0xbe, 0xe0, 0xbc, 0xc1, 0xdb, 0xe4, 0x3e, 0xba, 0x93, 0x65, 0x3f,
  0x34, 0xad, 0x6a, 0xbd, 0xea, 0x32, 0x35, 0x3f, 0x5a, 0x9c, 0x9c, 0x3e,
  0x4c, 0x45, 0xc3, 0xbd, 0xe2, 0xc1, 0x93, 0x3d, 0x40, 0xc2, 0x2a, 0xbd,
  0xa5, 0xaa, 0xd2, 0x3d, 0x29, 0xef, 0x32, 0xbe, 0x6a, 0xb9, 0x83, 0x3e,
  0xd8, 0x8a, 0x1e, 0x3f, 0x24, 0xdb, 0xb4, 0x3d, 0x1a, 0x94, 0x8a, 0xbd,
  0xc5, 0xa1, 0x69, 0xbd, 0x83, 0x51, 0x69, 0xbe, 0x92, 0xea, 0xf2, 0x3e,
  0x45, 0x4d, 0x76, 0x3f, 0xa9, 0x90, 0x82, 0xbd, 0x6f, 0x28, 0x8e, 0x3e,
  0x91, 0x3a, 0xc8, 0x3e, 0x9e, 0xa6, 0x9f, 0xbe, 0xa4, 0xed, 0xcb, 0xbd,
  0x72, 0xdd, 0x63, 0x3d, 0x9f, 0xe2, 0x62, 0x3e, 0x5b, 0x39, 0x4f, 0xbe,
  0xcf, 0x96, 0xcb, 0x3d, 0x84, 0x35, 0xce, 0x3e, 0x4f, 0x84, 0xdd, 0x3c,
  0x81, 0xad, 0xdd, 0x3d, 0x27, 0x82, 0xba, 0xbd, 0xe1, 0xf7, 0x31, 0xbe,
  0xda, 0xbb, 0xb4, 0x3e, 0xbc, 0x61, 0x00, 0x3f, 0xec, 0xfd, 0x3c, 0x3c,
  0x92, 0x2d, 0xb9, 0x3e, 0xaa, 0xb3, 0x9c, 0x3e, 0x23, 0x1e, 0x0d, 0xbd,
  0x6c, 0x64, 0xbf, 0x3d, 0x77, 0xe8, 0x99, 0xbe, 0x11, 0x11, 0xf0, 0x3e,
  0x99, 0xf2, 0x3a, 0x3e, 0x92, 0x27, 0x44, 0xbe, 0xb9, 0x6a, 0xa9, 0xbe,
  0xcb, 0x14, 0x3c, 0x3e, 0x0b, 0xde, 0x36, 0x3d, 0xb6, 0x97, 0x05, 0xbb,
  0x01, 0x14, 0xb5, 0xbe, 0xc0, 0x71, 0x8f, 0x3e, 0xf3, 0xd3, 0x28, 0x3f,
  0x37, 0x19, 0x98, 0x3d, 0x7e, 0x88, 0x2f, 0x3f, 0xf5, 0xad, 0x59, 0x3e,
  0x83, 0x6f, 0xeb, 0xbd, 0x9b, 0xac, 0xae, 0xbd, 0x4e, 0xa6, 0x2b, 0xbe,
  0xaf, 0x74, 0x3c, 0x3e, 0x94, 0x22, 0xac, 0x3d, 0x81, 0x43, 0x44, 0xbe,
  0xc7, 0x06, 0x49, 0x3e, 0xac, 0x13, 0x2a, 0x3e, 0xb0, 0xd2, 0x17, 0x3d,
  0x57, 0xfe, 0x5e, 0x3d, 0x47, 0x33, 0x4c, 0xbe, 0x60, 0x3e, 0x0c, 0x3e,
  0xf1, 0x3b, 0xd2, 0x3e, 0x9f, 0x88, 0x41, 0xbe, 0x0d, 0x02, 0x3c, 0x3f,
  0x94, 0x41, 0x94, 0x3e, 0x46, 0x6b, 0x8b, 0xbe, 0xff, 0x96, 0xf9, 0x3d,
  0x29, 0x21, 0x95, 0x3d, 0xe1, 0x50, 0x87, 0x3d, 0xf4, 0x19, 0xa1, 0x3e,
  0x4a, 0x32, 0x47, 0x3a, 0xa9, 0x8f, 0x08, 0x3f, 0x01, 0x54, 0x67, 0xbe,
  0x0e, 0xe9, 0x3d, 0x3e, 0x08, 0x32, 0x1a, 0x3e, 0x7d, 0x5f, 0xab, 0xbd,
  0x6e, 0x6d, 0x21, 0x3d, 0xa3, 0x41, 0xd8, 0x3e, 0x7c, 0x65, 0xb5, 0x3d,
  0xf0, 0x8d, 0x0d, 0x3f, 0xb6, 0x8c, 0x2b, 0x3f, 0xfe, 0xef, 0x00, 0x3e,
  0xc1, 0xc7, 0xfd, 0x3d, 0xdc, 0x49, 0x4e, 0x3e, 0x21, 0x22, 0xed, 0x3d,
  0x8d, 0x90, 0xfb, 0x3d, 0xf2, 0xea, 0x04, 0x3e, 0xcd, 0x03, 0x1f, 0x3e,
  0x41, 0xa6, 0x4e, 0xbe, 0x54, 0x10, 0x69, 0x3e, 0x91, 0xd5, 0xeb, 0x3d,
  0xa4, 0x99, 0xa4, 0xb9, 0xfa, 0x9c, 0x83, 0x3d, 0xee, 0x39, 0x73, 0xbe,
  0x99, 0x1d, 0xdd, 0x3d, 0x50, 0xda, 0xc7, 0x3e, 0xa3, 0xf5, 0xa7, 0x3e,
  0x46, 0xbb, 0x36, 0x3e, 0x6d, 0xc0, 0xd3, 0x3d, 0x65, 0xc8, 0xbe, 0xbc,
  0x4b, 0xc5, 0x34, 0xbc, 0x76, 0x03, 0x77, 0xbe, 0x88, 0x48, 0x07, 0x3e,
  0x95, 0x90, 0xe8, 0x3b, 0x09, 0x63, 0xf9, 0xbd, 0x69, 0xd8, 0x38, 0xbd,
  0xac, 0x61, 0x63, 0x3e, 0xe8, 0x64, 0xb3, 0x3e, 0xf7, 0x69, 0x6a, 0xbe,
  0x15, 0xb9, 0x0c, 0xbe, 0x08, 0xb8, 0xcf, 0xbd, 0x0b, 0xd7, 0x03, 0x3f,
  0xb4, 0x7b, 0x16, 0x3e, 0x23, 0x91, 0xf3, 0x3e, 0xda, 0xe3, 0x19, 0x3e,
  0x1a, 0x25, 0x00, 0xbe, 0x5d, 0x20, 0xf4, 0x3b, 0xa1, 0x03, 0x7b, 0x3c,
  0xd4, 0x44, 0x2a, 0x3e, 0x6a, 0x08, 0x1a, 0xbd, 0x3b, 0x2b, 0x22, 0xbe,
  0xdb, 0xfd, 0x3d, 0x3b, 0x4f, 0x3a, 0xa4, 0xbd, 0xac, 0x18, 0x6c, 0x3e,
  0xea, 0x62, 0x33, 0xbe, 0x51, 0x41, 0xe6, 0xbe, 0x7b, 0xba, 0x05, 0xbe,
  0x1b, 0x04, 0x14, 0x3f, 0xbd, 0xc0, 0x2d, 0xbd, 0x61, 0x49, 0x12, 0x3e,
  0x25, 0xcd, 0x91, 0x3e, 0xd1, 0x6b, 0x61, 0xbb, 0x42, 0xe7, 0x43, 0xbe,
  0x92, 0x48, 0xdf, 0xbd, 0x5f, 0xb3, 0x9c, 0x3d, 0x70, 0xa0, 0x04, 0x3c,
  0xa3, 0x5d, 0xbc, 0xbd, 0x3c, 0xa0, 0x22, 0x3e, 0xb2, 0x5c, 0x3a, 0x3d,
  0x47, 0x14, 0xb7, 0x3d, 0xac, 0x5c, 0xe8, 0xbe, 0x5f, 0x70, 0xd5, 0xbd,
  0xd0, 0xd4, 0x99, 0x3d, 0xf8, 0xcd, 0x3b, 0x3e, 0xcf, 0xa2, 0x44, 0x3b,
  0xa2, 0x84, 0x4a, 0x3e, 0x2c, 0x51, 0xd7, 0x3e, 0x18, 0xe6, 0xc7, 0xbd,
  0x6a, 0x14, 0x05, 0xbe, 0x68, 0x59, 0x2e, 0xbe, 0x4d, 0xe4, 0xa8, 0x3d,
  0xb5, 0xa9, 0xbc, 0x3d, 0x0e, 0x74, 0xaa, 0xbd, 0x69, 0xe9, 0xa9, 0xbd,
  0x6a, 0xae, 0xe7, 0x3d, 0xf9, 0x7e, 0x67, 0x3e, 0x71, 0x23, 0xeb, 0xbe,
  0x43, 0x23, 0x9e, 0x3f, 0x18, 0xaf, 0x44, 0x3e, 0xd8, 0x37, 0x35, 0xbe,
  0xa1, 0xad, 0x45, 0x3e, 0x47, 0xc3, 0x6f, 0x3e, 0xab, 0xde, 0x7f, 0xbe,
  0x71, 0x05, 0x4b, 0xbd, 0xa7, 0x39, 0x1d, 0x3e, 0xa5, 0x3d, 0xa9, 0x3d,
  0x44, 0x91, 0x9d, 0xba, 0xaa, 0x52, 0xa6, 0x3d, 0x45, 0x3e, 0xf9, 0xbe,
  0xbd, 0xef, 0x3f, 0x3c, 0x6a, 0x1c, 0x7b, 0x3e, 0x16, 0xaa, 0x96, 0x3e,
  0x89, 0x76, 0x68, 0xbe, 0x0f, 0x6f, 0xc1, 0xbd, 0x00, 0x9c, 0x0a, 0x3a,
  0xaf, 0x02, 0xb7, 0xbd, 0xfc, 0xcd, 0x8d, 0x3e, 0x70, 0xa1, 0xd6, 0x3e,
  0x21, 0xb0, 0xb9, 0xbd, 0x6f, 0xf0, 0x30, 0xbe, 0x8a, 0x31, 0x3a, 0xbe,
  0x1b, 0xf4, 0x9f, 0xbe, 0x0b, 0xe3, 0x4a, 0x3e, 0xb8, 0x43, 0xa2, 0xbe,
  0xf9, 0x28, 0xc9, 0xbe, 0xc9, 0x5a, 0x8b, 0x3d, 0xee, 0x19, 0x74, 0x3d,
  0x26, 0xc7, 0x5e, 0x3e, 0xcd, 0x1e, 0x76, 0xbe, 0xeb, 0xae, 0xaa, 0x3e,
  0xb5, 0x00, 0x6e, 0xbe, 0x5d, 0xc4, 0xf6, 0xbc, 0x64, 0xca, 0x1f, 0xbc,
  0x72, 0x8a, 0x96, 0x3d, 0x69, 0xc0, 0xab, 0x3e, 0xaa, 0x5b, 0x16, 0x3e,
  0xa7, 0x72, 0x98, 0x3e, 0xa0, 0x5b, 0x0f, 0xbf, 0x81, 0xf3, 0x2f, 0x3e,
  0x66, 0xb5, 0x8f, 0xbe, 0x57, 0x6c, 0x93, 0x3c, 0xf6, 0xc2, 0x29, 0xbc,
  0x98, 0x01, 0x09, 0x3b, 0x0c, 0xe2, 0x3c, 0xbc, 0x85, 0x28, 0x9f, 0xbe,
  0x10, 0x78, 0xcf, 0xbd, 0x81, 0x95, 0xc7, 0xbb, 0x88, 0x72, 0x17, 0x3d,
  0x23, 0x08, 0x3d, 0xbd, 0xab, 0x8a, 0x68, 0x3e, 0xa7, 0x32, 0x90, 0x3e,
  0xcb, 0xce, 0xa1, 0x3e, 0x31, 0xed, 0x94, 0xbd, 0x66, 0x27, 0xd1, 0x3c,
  0xea, 0x75, 0xdd, 0x3e, 0x91, 0x51, 0xed, 0xbd, 0x98, 0x7a, 0x69, 0xbe,
  0xd3, 0x6b, 0xab, 0xbd, 0x53, 0x64, 0x32, 0xbe, 0x7e, 0xb0, 0x4a, 0x3b,
  0x03, 0x03, 0x30, 0xbe, 0x34, 0x9e, 0xf0, 0xbc, 0x49, 0x3a, 0x31, 0x3d,
  0x8e, 0xb0, 0x01, 0x3e, 0xc6, 0x36, 0x9f, 0xbe, 0xd6, 0x6b, 0x01, 0xbd,
  0xe7, 0x77, 0xb4, 0x3e, 0x19, 0x39, 0x10, 0x3e, 0x34, 0x7f, 0x5a, 0xbe,
  0x3b, 0x2c, 0x71, 0xbe, 0x1a, 0x8d, 0x69, 0x3e, 0x75, 0xe5, 0x5b, 0x3d,
  0xd0, 0xef, 0xd6, 0xbe, 0x5e, 0xf0, 0x9d, 0xbd, 0xa9, 0x45, 0x30, 0xbe,
  0x84, 0x89, 0x3f, 0x3e, 0xd5, 0x4f, 0x4a, 0xbb, 0x38, 0x78, 0x36, 0xbf,
  0x38, 0x29, 0xba, 0x3d, 0x92, 0xdb, 0xf4, 0x3e, 0x44, 0x40, 0x26, 0xbd,
  0x71, 0x58, 0xad, 0x3d, 0x32, 0x6b, 0x08, 0x3f, 0xe9, 0x85, 0xd3, 0x3e,
  0xe6, 0xf3, 0x00, 0xbf, 0x98, 0x33, 0xd5, 0xbc, 0x58, 0x2e, 0x80, 0x3e,
  0x78, 0xe0, 0x1d, 0x3d, 0xe6, 0x3f, 0x4a, 0xbe, 0x74, 0xd8, 0x4f, 0x3e,
  0x79, 0xae, 0x9d, 0xbd, 0xd8, 0xd3, 0xe1, 0xbc, 0x9a, 0x96, 0xdd, 0xbe,
  0xec, 0x77, 0x3c, 0xbe, 0x4a, 0xd5, 0xd9, 0x3d, 0x77, 0x09, 0x79, 0x3e,
  0x24, 0x1d, 0xe0, 0xbc, 0xd9, 0x09, 0x0b, 0x3e, 0xc8, 0x6d, 0x83, 0xbb,
  0x50, 0x05, 0x10, 0xbe, 0xfe, 0x96, 0x87, 0x3d, 0x6d, 0xc1, 0x75, 0xbd,
  0x4e, 0x7c, 0xa8, 0x3e, 0x92, 0x8f, 0xac, 0xbe, 0x9a, 0x78, 0x8f, 0xbd,
  0xa5, 0x35, 0x9b, 0x3d, 0x90, 0xff, 0x16, 0xbe, 0xdc, 0x52, 0x91, 0x3d,
  0x11, 0xdd, 0xf3, 0xbe, 0x4c, 0xfe, 0x11, 0xbf, 0xb2, 0x90, 0x44, 0x3d,
  0x1e, 0xb4, 0x8f, 0x3d, 0xf8, 0xc3, 0xd9, 0x3d, 0x6e, 0xae, 0x75, 0xbd,
  0x7f, 0x78, 0x80, 0xbe, 0x62, 0xa3, 0x4c, 0x3e, 0x34, 0xe3, 0x9a, 0xbd,
  0xf1, 0x46, 0x75, 0x3e, 0x5e, 0x6a, 0x76, 0xbe, 0x1a, 0x1d, 0x11, 0xbe,
  0x3b, 0x66, 0x85, 0xbe, 0xf3, 0x2a, 0x95, 0x3d, 0x80, 0x9b, 0x9e, 0xbd,
  0x7c, 0x7b, 0x00, 0x3d, 0x2c, 0xa2, 0xb0, 0xbe, 0x76, 0x79, 0x8e, 0xbf,
  0x52, 0xef, 0x7c, 0x3d, 0xa6, 0xa4, 0xc1, 0xbb, 0x4d, 0xab, 0x0e, 0xbd,
  0xbd, 0xd0, 0x1e, 0x3c, 0x6d, 0x0f, 0x08, 0xbe, 0xf7, 0xe4, 0x8d, 0xbe,
  0xf2, 0x3d, 0x16, 0xbe, 0xfa, 0x44, 0xd7, 0xbe, 0xb1, 0xc6, 0xa2, 0x3d,
  0xce, 0x0d, 0x87, 0xbe, 0x8a, 0xc0, 0xd7, 0xbd, 0x81, 0x8b, 0x65, 0xbe,
  0x94, 0xde, 0x74, 0xbe, 0x4c, 0x09, 0x08, 0x3e, 0xb8, 0x3f, 0x74, 0xbf,
  0x3a, 0x11, 0xd8, 0x3d, 0x32, 0x80, 0x04, 0x3d, 0xdd, 0x74, 0xb7, 0x3d,
  0x9e, 0x4b, 0x8a, 0x3d, 0xb5, 0x15, 0x81, 0xbe, 0x27, 0x34, 0xb6, 0xbe,
  0x15, 0x59, 0xd3, 0xbe, 0x9a, 0x8e, 0x0c, 0x3d, 0x86, 0xab, 0x90, 0xbe,
  0xe4, 0x06, 0x8b, 0xbe, 0x3f, 0xfe, 0x55, 0xbe, 0x16, 0x39, 0xc1, 0x3d,
  0x6a, 0xbe, 0xfc, 0x3e, 0x89, 0x6d, 0xae, 0xbe, 0x7c, 0x38, 0x8f, 0xbc,
  0x48, 0x43, 0x1d, 0xbe, 0x33, 0xd5, 0x35, 0x3f, 0xc8, 0xe4, 0xd2, 0x3d,
  0xfe, 0x51, 0x7d, 0xbe, 0x4f, 0x05, 0xcd, 0x3d, 0xb1, 0xe6, 0xf5, 0xbe,
  0xef, 0x20, 0x3c, 0xbf, 0x7a, 0x52, 0x0a, 0xbd, 0xd2, 0x1f, 0x0d, 0xbe,
  0x52, 0x92, 0x77, 0xbe, 0xb1, 0xf1, 0xb8, 0x3e, 0xa7, 0xb3, 0xcb, 0x3e,
  0x93, 0x0c, 0x75, 0x3d, 0xc1, 0xa5, 0x37, 0xbe, 0xce, 0xd5, 0x02, 0xbf,
  0xed, 0x54, 0xcf, 0x3e, 0xae, 0xa5, 0x97, 0xbe, 0x42, 0x07, 0xd2, 0x3e,
  0x6f, 0x53, 0x97, 0x3e, 0x55, 0x78, 0x14, 0x3e, 0x7b, 0xa9, 0x60, 0xbe,
  0x64, 0x89, 0xa2, 0xbe, 0x19, 0x2f, 0x0e, 0xbf, 0xc9, 0x29, 0xca, 0xbe,
  0x7e, 0xc2, 0xe0, 0xbe, 0xf5, 0x7f, 0xbd, 0xbe, 0xd4, 0x61, 0x84, 0xbe,
  0x0f, 0xdf, 0x5a, 0x3e, 0x2b, 0x78, 0xe6, 0xbf, 0x33, 0x05, 0x28, 0x3e,
  0x1e, 0x6f, 0x22, 0x3d, 0x81, 0x59, 0x67, 0x3e, 0x64, 0xb0, 0x12, 0xbe,
  0xb2, 0x43, 0xa3, 0x3e, 0x19, 0x88, 0x1a, 0x3d, 0x96, 0x38, 0x5f, 0x3d,
  0x10, 0x50, 0x44, 0x3e, 0xfa, 0xdc, 0xb6, 0x3d, 0x24, 0x30, 0xbc, 0xbd,
  0x45, 0x2c, 0x83, 0xbd, 0x52, 0x1e, 0x1f, 0x3e, 0xa1, 0xd5, 0x0d, 0xbe,
  0xb4, 0x6b, 0x05, 0x3e, 0x7f, 0xf5, 0xd5, 0xbe, 0x3a, 0x7d, 0xa5, 0xbd,
  0x27, 0x92, 0x3d, 0xbd, 0x73, 0xa6, 0x54, 0x3e, 0xdb, 0x71, 0xe0, 0x3d,
  0xc1, 0x9e, 0x74, 0xbe, 0xac, 0x5d, 0x12, 0x3e, 0xae, 0x30, 0x02, 0xbe,
  0xa5, 0xcb, 0x36, 0xbc, 0x17, 0x51, 0x8c, 0x3c, 0x1c, 0x50, 0xac, 0x3e,
  0xc1, 0xa7, 0xdd, 0xbe, 0xf8, 0xcd, 0x3e, 0xbe, 0x82, 0xfc, 0xbe, 0x3d,
  0x0d, 0xc6, 0x4d, 0xbe, 0x99, 0xbe, 0xc7, 0xbd, 0x1e, 0x72, 0x2e, 0xbe,
  0x43, 0x82, 0x15, 0x3d, 0x79, 0xf3, 0xce, 0xbd, 0xcf, 0x77, 0x53, 0x3d,
  0x6d, 0xab, 0xd7, 0x3b, 0xe0, 0xb1, 0x76, 0x3e, 0x51, 0x5d, 0x75, 0xbe,
  0xb2, 0x57, 0x2d, 0xbf, 0x23, 0xd0, 0x0c, 0xbf, 0x52, 0xc6, 0x02, 0x3e,
  0x9e, 0xc0, 0xab, 0x3e, 0x5e, 0xb1, 0x42, 0xbf, 0x0e, 0x95, 0xa4, 0xbe,
  0x1d, 0xef, 0x4b, 0xbf, 0x7b, 0xba, 0x03, 0xbf, 0x75, 0x86, 0x03, 0x3f,
  0xe5, 0x60, 0xb4, 0x3c, 0xe0, 0x56, 0x9e, 0xbe, 0x2d, 0x20, 0x8a, 0xbe,
  0xce, 0x31, 0x94, 0x3d, 0x11, 0x36, 0x2e, 0xbe, 0xf0, 0xa7, 0x20, 0x3c,
  0x8d, 0xa8, 0x03, 0xbe, 0x7a, 0xb0, 0x89, 0xbd, 0xcf, 0xa3, 0x08, 0xbf,
  0xd2, 0x48, 0xf0, 0xbe, 0x2a, 0x72, 0xcf, 0xbc, 0x5c, 0xc0, 0x35, 0xbf,
  0x8d, 0x5d, 0xb9, 0xbe, 0x82, 0x6a, 0xd1, 0x3e, 0xa3, 0x1f, 0x58, 0xbe,
  0xe3, 0x2f, 0xb8, 0x3e, 0xaf, 0x43, 0xcf, 0xbe, 0x1a, 0xcb, 0x41, 0x3e,
  0x0f, 0x32, 0x4c, 0xbe, 0xca, 0xf8, 0xea, 0xbc, 0xe8, 0x61, 0x3b, 0x3e,
  0xe6, 0x79, 0xab, 0xbf, 0xcc, 0x32, 0x06, 0xbe, 0x74, 0x59, 0x14, 0x3e,
  0x90, 0x4a, 0x37, 0xbe, 0x43, 0x07, 0xdc, 0x3c, 0x2f, 0xfb, 0x83, 0x3b,
  0xf1, 0xf3, 0xda, 0xbd, 0xbd, 0x38, 0xd8, 0x3d, 0x95, 0x1d, 0x24, 0x3e,
  0x59, 0xf8, 0x1f, 0x3f, 0x8a, 0x08, 0x6b, 0xbf, 0xf5, 0x9f, 0xe0, 0xbe,
  0x8e, 0xfb, 0x0b, 0x3e, 0xb8, 0x06, 0x3f, 0xbe, 0xcb, 0x06, 0x44, 0xbe,
  0x07, 0xfc, 0x81, 0x3d, 0xad, 0xb4, 0x8b, 0xbe, 0x62, 0x1e, 0xa3, 0xbd,
  0x5d, 0x7b, 0x7a, 0x3e, 0x11, 0x2c, 0x93, 0xbe, 0x7e, 0x83, 0x1a, 0xbd,
  0x02, 0x4b, 0x24, 0x3d, 0xb3, 0x1c, 0x55, 0xbe, 0x84, 0xd5, 0x0b, 0x3e,
  0x8e, 0x83, 0xcd, 0xbd, 0x54, 0x6f, 0x50, 0x3f, 0x51, 0x9e, 0x8f, 0xbe,
  0x54, 0xd6, 0xd3, 0x3c, 0x18, 0x2d, 0x9d, 0x3d, 0x78, 0xd4, 0x0c, 0xbd,
  0x35, 0x68, 0x6f, 0x3e, 0x13, 0xe9, 0x86, 0x3d, 0xce, 0x27, 0x04, 0xbf,
  0x97, 0x1b, 0x78, 0x3e, 0x2f, 0x2c, 0xe3, 0xbd, 0xe9, 0xbc, 0xa6, 0xbe,
  0x3e, 0x0b, 0x92, 0x3d, 0xdb, 0x97, 0x12, 0x3e, 0x80, 0x2e, 0x3a, 0xbe,
  0xed, 0x1f, 0x78, 0x3e, 0xa5, 0x0d, 0x7a, 0xbe, 0xbe, 0x6d, 0x32, 0x3e,
  0xe3, 0xff, 0xb8, 0xbd, 0x8c, 0xb0, 0xd9, 0xbd, 0x04, 0x19, 0x08, 0xbf,
  0x10, 0x15, 0x8c, 0x3d, 0xe7, 0xdc, 0x1f, 0x3e, 0x00, 0x53, 0x5e, 0xbd,
  0x1e, 0x4e, 0x78, 0xbe, 0x87, 0x41, 0x8b, 0x3e, 0xb9, 0xb4, 0x1f, 0xbc,
  0xe7, 0x62, 0x8b, 0xbe, 0x06, 0xa1, 0x71, 0x3d, 0x1c, 0x95, 0x81, 0x3e,
  0x7c, 0x4a, 0x20, 0xbf, 0x5d, 0xc5, 0x8c, 0xbd, 0x6b, 0x9a, 0x12, 0xbf,
  0x56, 0x83, 0x9a, 0xbe, 0x2e, 0x67, 0x4f, 0x3e, 0x66, 0x00, 0xc9, 0x3d,
  0x1c, 0x8b, 0x35, 0xbe, 0xbb, 0x51, 0x6b, 0x3d, 0xc7, 0x11, 0x65, 0x3e,
  0x32, 0x75, 0x09, 0x3e, 0xe6, 0x1b, 0x49, 0xbe, 0x88, 0xd4, 0x52, 0xbe,
  0xc6, 0xdb, 0x9e, 0xbd, 0xdf, 0x82, 0x60, 0x3e, 0x65, 0x36, 0xd2, 0x3d,
  0x05, 0xaf, 0x2a, 0xbd, 0x63, 0xda, 0xb7, 0xbe, 0x14, 0x71, 0xb9, 0xbd,
  0x0f, 0x7a, 0x02, 0xbf, 0x92, 0xc4, 0xb2, 0xbe, 0x7b, 0xbb, 0xaa, 0xbd,
  0xa1, 0xca, 0xb9, 0x3b, 0xe1, 0x67, 0x9d, 0x3d, 0x0f, 0xd5, 0x45, 0xbe,
  0xd7, 0xa1, 0x93, 0x3e, 0x1f, 0x6d, 0x33, 0x3e, 0x39, 0xa4, 0xbb, 0xbe,
  0xea, 0x78, 0x8d, 0x3b, 0x26, 0xcd, 0x10, 0x3e, 0xd3, 0xf5, 0x0a, 0xbe,
  0x39, 0x41, 0xb6, 0xbc, 0x92, 0x0e, 0x00, 0x3e, 0x12, 0xe9, 0xc5, 0xbd,
  0x0a, 0xd7, 0x7a, 0xbe, 0x35, 0x3a, 0x75, 0xbf, 0x06, 0xf0, 0xaa, 0xbe,
  0x90, 0x51, 0x27, 0xbf, 0x05, 0x77, 0x62, 0xbc, 0xda, 0xda, 0xe8, 0xbd,
  0x25, 0x51, 0x9a, 0x3d, 0xc5, 0x6c, 0x01, 0x3e, 0x5f, 0x7b, 0xd6, 0x3c,
  0xa0, 0x9c, 0xa0, 0xbf, 0x39, 0xc4, 0x6c, 0x3e, 0x0b, 0x27, 0x2b, 0xbd,
  0x99, 0x19, 0x1d, 0xbc, 0x84, 0xe0, 0x99, 0xbd, 0x37, 0x56, 0x10, 0x3e,
  0x1c, 0x12, 0xa1, 0xbd, 0xd3, 0x2d, 0x05, 0xbe, 0x1a, 0xc0, 0xde, 0xbe,
  0x18, 0x7b, 0x71, 0xbe, 0x6f, 0x0a, 0x31, 0xbe, 0x6b, 0x67, 0xee, 0xbd,
  0x2e, 0x00, 0x1c, 0xbe, 0x73, 0x7d, 0x8a, 0x3d, 0x2e, 0xce, 0x78, 0x3e,
  0xf5, 0xf9, 0x1d, 0x3e, 0x79, 0xb0, 0xca, 0x3e, 0x0d, 0x21, 0x92, 0x3d,
  0xfb, 0x78, 0x74, 0x3d, 0x8b, 0xfd, 0xaf, 0xbe, 0xae, 0x20, 0x1a, 0xbe,
  0x41, 0xd3, 0xfb, 0xbc, 0x8c, 0x64, 0x3a, 0x3e, 0x48, 0xf6, 0xa4, 0xbd,
  0xc9, 0x2a, 0xbb, 0xbf, 0xe7, 0xc0, 0xed, 0xbe, 0xaf, 0xd9, 0x45, 0x3e,
  0xe3, 0x2d, 0xbb, 0xbd, 0xb5, 0x01, 0xd3, 0xbc, 0xce, 0xcb, 0x0a, 0xbf,
  0x2b, 0x2b, 0x0c, 0xbd, 0x56, 0x65, 0xa5, 0xbd, 0x7a, 0x83, 0x87, 0x3e,
  0x2c, 0xe3, 0x71, 0x3e, 0x96, 0x97, 0x4c, 0xbe, 0x4f, 0x5f, 0x55, 0xbe,
  0x30, 0x33, 0xd0, 0xbe, 0x62, 0x11, 0x9b, 0x3d, 0x73, 0x86, 0x78, 0xbe,
  0xd3, 0x03, 0x4a, 0x3d, 0x4c, 0x63, 0x10, 0xbf, 0xe4, 0x4d, 0x8a, 0xbe,
  0xb9, 0x36, 0xea, 0x3e, 0x26, 0x8a, 0xad, 0x3d, 0x98, 0xc9, 0x66, 0xbe,
  0x35, 0x0b, 0x95, 0xbe, 0x61, 0xd6, 0x2c, 0xbe, 0x2b, 0x83, 0x1d, 0xbe,
  0x63, 0xb2, 0x81, 0x3e, 0x46, 0x59, 0xca, 0xbe, 0x3c, 0xb2, 0x8d, 0x3c,
  0x48, 0xe6, 0xdc, 0xbd, 0x54, 0xad, 0x7b, 0xbd, 0x7c, 0xe7, 0x93, 0xbe,
  0x3f, 0x38, 0xec, 0xbe, 0x49, 0x5f, 0x4e, 0x3e, 0x12, 0x05, 0x3e, 0x3e,
  0xc7, 0x0f, 0xab, 0x3e, 0x18, 0x02, 0x97, 0x3e, 0x77, 0xd7, 0x45, 0x3e,
  0x31, 0xcb, 0x22, 0x3e, 0x29, 0xfe, 0x28, 0xbe, 0xdc, 0x5a, 0x21, 0x3e,
  0x06, 0xd2, 0x29, 0xbe, 0x99, 0x90, 0x5a, 0x3e, 0xce, 0x16, 0x9c, 0xbe,
  0x91, 0xa1, 0xd7, 0x3d, 0x64, 0xb3, 0xd2, 0xbe, 0x7b, 0xc2, 0xd6, 0xbe,
  0x08, 0xc2, 0x8f, 0x3d, 0x7f, 0x34, 0x0d, 0xbf, 0xa5, 0x09, 0x43, 0xbe,
  0x6d, 0xbb, 0x62, 0x3e, 0x10, 0x81, 0xcb, 0xbd, 0x76, 0x5b, 0x26, 0x3e,
  0xe8, 0x5f, 0xb3, 0xbe, 0xb4, 0x4f, 0x9d, 0x3d, 0xae, 0xd1, 0xec, 0xbd,
  0x5a, 0x7c, 0x1f, 0xbd, 0x63, 0x70, 0x92, 0xbe, 0x7b, 0x5f, 0xaa, 0x3e,
  0xb8, 0x8d, 0x1c, 0xbf, 0xf9, 0x3f, 0x88, 0x3e, 0xea, 0x54, 0xa1, 0xbe,
  0x44, 0x0d, 0x0a, 0xbe, 0xb1, 0x7b, 0xc9, 0x3c, 0x32, 0xd3, 0x2b, 0xbf,
  0x05, 0x5a, 0x25, 0x3e, 0x9b, 0x2b, 0x05, 0x3e, 0x62, 0x69, 0x0d, 0x3e,
  0xa4, 0x00, 0x37, 0xbd, 0x78, 0x85, 0x6f, 0xbe, 0xc5, 0xd1, 0x4e, 0x3d,
  0xf5, 0x90, 0x49, 0x3e, 0x31, 0x14, 0x0d, 0xbe, 0xef, 0xa5, 0x93, 0xbd,
  0xd1, 0x55, 0x31, 0x3e, 0xc9, 0x3e, 0x11, 0xbf, 0x08, 0x9e, 0xac, 0x3d,
  0xaa, 0xc5, 0x06, 0x3e, 0x3c, 0xcd, 0x62, 0xbe, 0xda, 0x04, 0x86, 0x3e,
  0x4f, 0xa3, 0xf5, 0xbd, 0x0c, 0xb8, 0xfa, 0xbb, 0x4d, 0x4d, 0xe0, 0xbe,
  0x6e, 0xa7, 0xe0, 0xbe, 0x88, 0xd5, 0xa0, 0x3e, 0x6a, 0xec, 0xe6, 0xbe,
  0x40, 0x40, 0x0d, 0xbf, 0xe5, 0x78, 0x42, 0xbe, 0xe6, 0x32, 0xb6, 0xbe,
  0x60, 0x92, 0xcc, 0x3d, 0x4f, 0x7b, 0x9c, 0xbb, 0xcc, 0xd4, 0x97, 0xbf,
  0x84, 0x6f, 0xc0, 0x3d, 0x5e, 0x7e, 0x02, 0x3e, 0xd0, 0x8a, 0x62, 0x3d,
  0xf3, 0x42, 0xec, 0xbd, 0x0f, 0xec, 0x57, 0xbd, 0xdd, 0x79, 0x14, 0x3e,
  0x25, 0xd9, 0x18, 0xbd, 0x1b, 0x88, 0xa9, 0x3b, 0xdf, 0x5f, 0xea, 0x3d,
  0x55, 0xc8, 0x9c, 0xbe, 0xe0, 0x3d, 0x8d, 0xbf, 0x2d, 0x77, 0x37, 0x3e,
  0xc5, 0x60, 0xca, 0xbd, 0xe6, 0x94, 0x7c, 0x3e, 0x71, 0x40, 0x1f, 0x3e,
  0x60, 0xcb, 0x49, 0xbe, 0x22, 0x4c, 0x21, 0x3e, 0x45, 0xda, 0xd5, 0x3d,
  0x14, 0x6a, 0x1b, 0x3d, 0x51, 0xa0, 0x51, 0xbd, 0x19, 0x1f, 0x59, 0xbd,
  0x0b, 0x50, 0x96, 0x3d, 0x6f, 0xfc, 0x15, 0xbe, 0xab, 0x2d, 0x23, 0xbd,
  0x31, 0x1c, 0x6d, 0x3e, 0x8a, 0x0a, 0xd1, 0xbc, 0x31, 0xda, 0x95, 0xbe,
  0x6e, 0xa5, 0x67, 0x3e, 0x60, 0x4e, 0x41, 0xbe, 0xca, 0x9b, 0x54, 0xbe,
  0x95, 0xac, 0xb2, 0x3e, 0xfe, 0x48, 0x8a, 0xbe, 0x9b, 0xeb, 0x8d, 0x3d,
  0xe4, 0x76, 0xc4, 0x3d, 0x60, 0x66, 0x86, 0x3e, 0x85, 0x00, 0x11, 0xbe,
  0x5f, 0x8e, 0xbc, 0xbd, 0x6f, 0x60, 0x17, 0xbe, 0x7b, 0xf2, 0xca, 0xbe,
  0x95, 0x7f, 0x9d, 0xbe, 0x84, 0x82, 0x90, 0x3e, 0x56, 0x9d, 0x62, 0x3d,
  0xb2, 0x9b, 0x30, 0xbf, 0xda, 0x32, 0x2f, 0x3d, 0x4e, 0x14, 0x3d, 0x3d,
  0x7c, 0xc1, 0x2d, 0xbd, 0xbc, 0x14, 0x13, 0x3e, 0xff, 0xc7, 0x58, 0x3d,
  0xe2, 0xb9, 0x87, 0xbe, 0x86, 0x2c, 0xa3, 0x3e, 0xa3, 0x77, 0xd0, 0x3e,
  0x77, 0x5b, 0x97, 0xbd, 0x9a, 0xe5, 0x09, 0x39, 0x29, 0xb3, 0x54, 0xbf,
  0x7b, 0x24, 0xcc, 0x3e, 0xd4, 0xf9, 0xf2, 0x3e, 0x0b, 0xcf, 0xfb, 0xbd,
  0x98, 0x0a, 0xf0, 0x3a, 0xe3, 0x32, 0x5c, 0xbf, 0x6a, 0xf4, 0xce, 0x3e,
  0x0a, 0xc4, 0x23, 0x3e, 0x14, 0x15, 0x4b, 0xbe, 0xd6, 0x6b, 0x66, 0xbf,
  0x96, 0x9d, 0x92, 0x3e, 0xd0, 0x86, 0x2c, 0xbf, 0xa8, 0xa0, 0xbc, 0xbc,
  0x1a, 0xf9, 0xa9, 0x3e, 0xb7, 0xbb, 0x0d, 0x3f, 0x09, 0x10, 0x10, 0xbf,
  0xb8, 0xf4, 0xe8, 0xbe, 0x41, 0x88, 0xaf, 0xbe, 0x90, 0xfd, 0x14, 0xbf,
  0x23, 0x2d, 0xd6, 0xbd, 0xe9, 0x08, 0xcd, 0xbe, 0xd3, 0x6a, 0x75, 0xbe,
  0xfc, 0xc3, 0xe4, 0x3e, 0x4e, 0x5e, 0x3f, 0x3d, 0x9c, 0xe6, 0x00, 0xbe,
  0xc1, 0xb4, 0x87, 0xbf, 0x10, 0xff, 0xac, 0x3d, 0xae, 0x41, 0x49, 0xbf,
  0x95, 0x3e, 0x18, 0x3d, 0x21, 0x0b, 0xe8, 0xbd, 0xda, 0x71, 0x88, 0x3e,
  0xb9, 0x52, 0x37, 0xbf, 0x79, 0xf1, 0x15, 0xbf, 0x58, 0xd9, 0x9d, 0x3c,
  0x0e, 0xac, 0x3c, 0xbf, 0x33, 0xc5, 0x05, 0xbb, 0x18, 0xa3, 0xbf, 0x3e,
  0x0e, 0x7b, 0xde, 0xbe, 0x69, 0x80, 0x13, 0xbf, 0xc3, 0x16, 0x56, 0x3d,
  0x7a, 0x4a, 0x2d, 0xbd, 0xa3, 0x48, 0x8b, 0x3d, 0x12, 0xd6, 0xe4, 0xbe,
  0x18, 0x50, 0x28, 0xbf, 0x94, 0x30, 0x15, 0xbf, 0x2f, 0xbe, 0x64, 0x3b,
  0x14, 0x74, 0x25, 0x3e, 0x43, 0x0d, 0x2e, 0xbf, 0x0f, 0x35, 0xb4, 0xbe,
  0xce, 0xe7, 0x8f, 0x3d, 0x76, 0xcf, 0x63, 0xbf, 0xb2, 0xe5, 0x46, 0xbd,
  0xa6, 0xe9, 0x95, 0x3e, 0x23, 0x07, 0x35, 0x3e, 0xb1, 0xba, 0xec, 0xbd,
  0x96, 0x61, 0x76, 0xbe, 0x06, 0x35, 0x20, 0x3e, 0xd3, 0xe6, 0x56, 0x3e,
  0xab, 0x5f, 0x0e, 0xbe, 0xc6, 0x94, 0x8c, 0xbe, 0xe6, 0x00, 0x06, 0x3e,
  0xc9, 0x26, 0xc1, 0xbe, 0x18, 0x94, 0xb8, 0x3c, 0x90, 0x21, 0xf6, 0x3d,
  0xb8, 0x14, 0xf8, 0x3d, 0xe0, 0x29, 0xb3, 0x3c, 0x36, 0xca, 0x09, 0xbf,
  0xb0, 0x2e, 0x14, 0x3f, 0x19, 0x48, 0x93, 0x3e, 0xc9, 0xc3, 0x28, 0xbe,
  0x4e, 0xa2, 0xf9, 0xbe, 0xc8, 0x1a, 0x6a, 0xbd, 0xd4, 0x0e, 0xc3, 0xbd,
  0xe6, 0x3c, 0xd9, 0x3d, 0xe0, 0x13, 0x9b, 0xbf, 0x61, 0x45, 0xc3, 0x3d,
  0x3a, 0x96, 0x57, 0x3e, 0x9c, 0x37, 0xdd, 0xbe, 0xd8, 0x90, 0x2d, 0xbe,
  0x6e, 0x61, 0x6e, 0xbe, 0x0d, 0xa7, 0xc6, 0x3d, 0x23, 0xf2, 0x8d, 0x3e,
  0xc7, 0xcc, 0x9a, 0xbe, 0x69, 0x52, 0x52, 0x3e, 0xf7, 0x16, 0xdc, 0x3c,
  0x44, 0xb4, 0x05, 0xbe, 0x12, 0x12, 0x6c, 0x3d, 0xda, 0x2e, 0x90, 0xbc,
  0x61, 0x0f, 0xfc, 0x3c, 0xb4, 0xbd, 0x2c, 0x3e, 0xb0, 0x3d, 0x19, 0xbf,
  0x63, 0xc3, 0xfd, 0xbd, 0x2f, 0x17, 0xe2, 0x3d, 0x24, 0xd3, 0x37, 0x3e,
  0x29, 0x7a, 0x03, 0xbf, 0xdc, 0x9d, 0xc8, 0x3c, 0xf5, 0xa9, 0x94, 0x3d,
  0xea, 0x17, 0xe1, 0x3e, 0x32, 0x11, 0x01, 0x3e, 0x9a, 0x87, 0x13, 0x3e,
  0x58, 0x5f, 0x50, 0x3d, 0x85, 0x6e, 0x44, 0xbe, 0xdd, 0xaf, 0x9b, 0x3e,
  0xdc, 0x0e, 0x0e, 0xbf, 0x43, 0xf1, 0x8b, 0xbc, 0x61, 0xe0, 0x31, 0x3e,
  0x3f, 0xaf, 0x13, 0xbf, 0xa5, 0x15, 0x1b, 0x3d, 0x78, 0xb1, 0xec, 0x3d,
  0xba, 0xea, 0x0a, 0xbd, 0x3f, 0xae, 0xb5, 0x3d, 0x50, 0x5f, 0xc0, 0xbc,
  0x78, 0x61, 0xe6, 0x3d, 0x4f, 0xca, 0xfe, 0x3d, 0xd9, 0xe7, 0x0c, 0xbe,
  0x47, 0x1b, 0x24, 0x3e, 0xbc, 0x9b, 0x2a, 0x3e, 0x7e, 0x1f, 0x26, 0xbe,
  0x62, 0xfc, 0x81, 0x3b, 0x89, 0xd1, 0xb4, 0xbe, 0x23, 0x42, 0x14, 0x3e,
  0xa6, 0xfe, 0xe9, 0x3d, 0xed, 0xa6, 0xab, 0xbe, 0x4b, 0xea, 0x20, 0x3e,
  0x0b, 0x54, 0x00, 0x3e, 0x9c, 0x98, 0x85, 0x3d, 0x80, 0x3c, 0x08, 0xbf,
  0x12, 0x22, 0x34, 0x3d, 0xf1, 0x0b, 0x95, 0xbc, 0x5c, 0xf3, 0xea, 0xbc,
  0xd8, 0x17, 0xc6, 0x3d, 0x0f, 0x54, 0x45, 0x3e, 0x9c, 0x18, 0x58, 0xbd,
  0x8d, 0xbc, 0x21, 0xbf, 0x67, 0x66, 0x65, 0x3e, 0x5f, 0xd5, 0x81, 0xbe,
  0x25, 0x35, 0x25, 0x3e, 0x36, 0x0c, 0x80, 0x3e, 0x08, 0xc4, 0xda, 0xbd,
  0x51, 0x32, 0x3e, 0x3e, 0x99, 0xd0, 0x7a, 0x3e, 0x87, 0x4d, 0xfc, 0x3c,
  0x89, 0x41, 0x5d, 0xbf, 0xfe, 0x8e, 0x6e, 0x3d, 0x8f, 0xa6, 0x9f, 0xbe,
  0x4b, 0x89, 0xb8, 0xb9, 0x6e, 0xf4, 0xe4, 0xbe, 0x64, 0x77, 0xcf, 0x3d,
  0xfd, 0xdf, 0x20, 0xbd, 0x6f, 0x42, 0x05, 0xbf, 0xe6, 0x36, 0xdd, 0xbc,
  0xf1, 0x35, 0xc4, 0x3e, 0x81, 0xc8, 0x3f, 0xbe, 0x3d, 0x19, 0x6e, 0x3e,
  0xf2, 0xc8, 0x60, 0x3f, 0x49, 0xed, 0x02, 0xbf, 0x8c, 0x7a, 0xad, 0xbe,
  0x3c, 0xe2, 0x9c, 0xbf, 0x4e, 0x32, 0x6e, 0x3f, 0x41, 0xc7, 0x27, 0xbf,
  0x37, 0xf9, 0xb2, 0xbe, 0x11, 0xae, 0x6a, 0xbe, 0x73, 0x7c, 0x71, 0xbf,
  0x07, 0x86, 0x1a, 0x3f, 0x51, 0x1b, 0xeb, 0x3d, 0x91, 0x5c, 0x63, 0x3d,
  0x96, 0xb5, 0x91, 0xbf, 0x2a, 0xab, 0x6b, 0xbe, 0xba, 0x31, 0xbd, 0xbe,
  0x2a, 0x42, 0xbb, 0x3e, 0xbe, 0xd5, 0xd7, 0x3d, 0x82, 0xcd, 0x03, 0xbe,
  0xb4, 0xfb, 0x2f, 0x3d, 0x5d, 0x3a, 0xb5, 0xbf, 0xc4, 0x07, 0x00, 0x3d,
  0xb8, 0x88, 0xc3, 0xbe, 0x26, 0x9e, 0x9c, 0x3d, 0x9d, 0x47, 0xe3, 0x3e,
  0x5a, 0x42, 0x87, 0xbe, 0x32, 0xfb, 0xbc, 0x3e, 0x12, 0x40, 0x7a, 0xbe,
  0xce, 0x71, 0x5f, 0xbd, 0xf1, 0xff, 0xe4, 0xbd, 0x46, 0x3c, 0x72, 0xbf,
  0x40, 0x8f, 0x73, 0xbe, 0xc1, 0xa5, 0x7f, 0x3e, 0x5f, 0x1f, 0x5f, 0x3e,
  0x43, 0x6d, 0x07, 0xbd, 0x8c, 0x0c, 0xa1, 0xbd, 0x5f, 0xa6, 0x2e, 0xbf,
  0x96, 0xcb, 0x3c, 0xbb, 0x60, 0x7a, 0x6a, 0xbc, 0x71, 0xf8, 0x2d, 0x3e,
  0x55, 0x25, 0xa3, 0x3e, 0x87, 0x1b, 0x9c, 0xbd, 0xdd, 0x41, 0x20, 0x3f,
  0x36, 0x38, 0x51, 0xbf, 0xbc, 0x04, 0xfd, 0x3d, 0x2e, 0x17, 0x12, 0x3e,
  0xab, 0xd0, 0xb7, 0xbf, 0x49, 0x48, 0x04, 0xbe, 0x1e, 0xba, 0xce, 0x3e,
  0xaf, 0x6c, 0xdc, 0x3e, 0x7e, 0x89, 0x83, 0xbd, 0x41, 0x85, 0x2f, 0xbd,
  0x15, 0x4a, 0x7d, 0xbf, 0xb3, 0xb3, 0x50, 0x3c, 0x4d, 0xe9, 0x89, 0xbd,
  0x9c, 0xe2, 0xfd, 0x3d, 0x6d, 0xc5, 0x7b, 0x3e, 0x8c, 0x2d, 0x82, 0xbc,
  0xd0, 0x2b, 0xb1, 0x3e, 0x94, 0x2b, 0xf9, 0xbe, 0x24, 0x76, 0x84, 0x3e,
  0x8c, 0x9e, 0x91, 0xbe, 0xd0, 0x3c, 0x4b, 0xbf, 0x75, 0x41, 0x97, 0xbe,
  0x0f, 0x62, 0x0a, 0x3f, 0x31, 0x97, 0x05, 0x3e, 0x0f, 0xe4, 0x4d, 0xb9,
  0xf7, 0x69, 0xcf, 0xbb, 0x19, 0x66, 0xe6, 0xbe, 0xa5, 0x94, 0x09, 0xbe,
  0xaf, 0xd3, 0x41, 0x3e, 0xb8, 0x15, 0x2a, 0x3e, 0xcf, 0x8a, 0x9f, 0x3d,
  0x6e, 0xab, 0x66, 0xbd, 0xdb, 0x7a, 0xf0, 0x3e, 0x25, 0xe2, 0xef, 0xbe,
  0xd0, 0xf7, 0x9c, 0x3d, 0x47, 0xa1, 0x1a, 0xbe, 0xc9, 0x94, 0x13, 0xbf,
  0x7d, 0x46, 0x99, 0x3a, 0xfa, 0xac, 0x0b, 0x3f, 0x2f, 0x65, 0x9e, 0x3e,
  0xf4, 0x31, 0x81, 0x3c, 0xc4, 0x53, 0xeb, 0x3d, 0xf9, 0xdd, 0x1f, 0xbf,
  0x60, 0xfc, 0xb4, 0xbe, 0x08, 0xcf, 0x50, 0x3e, 0x39, 0x63, 0xcd, 0xba,
  0x98, 0x75, 0xc4, 0xbe, 0x0f, 0x05, 0xa6, 0xbd, 0x35, 0x2f, 0x96, 0x3e,
  0xe9, 0xe8, 0xce, 0xbe, 0x01, 0x98, 0x24, 0xbe, 0xce, 0xa5, 0x30, 0x3e,
  0x71, 0xd8, 0x47, 0xbf, 0xce, 0x1b, 0x8a, 0xbe, 0x86, 0xed, 0xbd, 0xbd,
  0xa7, 0x49, 0x83, 0x3d, 0xbd, 0xcc, 0xa3, 0x3d, 0x29, 0x52, 0x88, 0xbe,
  0x55, 0xca, 0x8b, 0xbd, 0x6c, 0xba, 0x80, 0xbe, 0x35, 0x9a, 0xa5, 0x3e,
  0x7b, 0x17, 0x10, 0x3e, 0x8b, 0x40, 0x7b, 0x3c, 0x27, 0x32, 0xbf, 0x3b,
  0xd3, 0x2f, 0x21, 0xbe, 0xab, 0x6a, 0x88, 0xbe, 0x35, 0x7a, 0x1a, 0x3e,
  0x3e, 0x92, 0xbe, 0x3d, 0x25, 0x9e, 0xed, 0x3d, 0x5b, 0x87, 0x39, 0xbd,
  0xf1, 0x23, 0x54, 0x3e, 0x97, 0xd8, 0xe8, 0x3e, 0x68, 0xa1, 0x4b, 0x3d,
  0x97, 0xca, 0xba, 0xbd, 0xce, 0x50, 0xb1, 0x3e, 0xba, 0x90, 0x32, 0xbd,
  0x27, 0xae, 0x32, 0x3e, 0x19, 0x1e, 0x06, 0x3e, 0x6e, 0x07, 0x3f, 0xbd,
  0x39, 0xbb, 0xf3, 0x3d, 0x96, 0x05, 0x0e, 0x3f, 0x25, 0x66, 0xf8, 0xbe,
  0xc1, 0x55, 0xd7, 0x3c, 0x82, 0x0c, 0x78, 0x3d, 0x23, 0x11, 0xe3, 0xbe,
  0xf0, 0x12, 0x05, 0x3e, 0x18, 0xbb, 0x9a, 0xbc, 0x18, 0xd7, 0x19, 0xbe,
  0xfc, 0x8d, 0xfa, 0x3c, 0x3e, 0x69, 0x69, 0x3e, 0x6e, 0xb0, 0x94, 0xbe,
  0xc3, 0x48, 0x5c, 0xbe, 0x22, 0x53, 0x1b, 0x3e, 0x54, 0x0f, 0x99, 0xbe,
  0xaa, 0x12, 0x60, 0x3e, 0xc9, 0x78, 0xf7, 0x3c, 0xf8, 0xf4, 0x64, 0xbc,
  0x14, 0x66, 0x9c, 0xbd, 0xe3, 0x23, 0x16, 0x3d, 0x28, 0x50, 0xa3, 0x3e,
  0x01, 0x42, 0x37, 0xbe, 0x31, 0x7c, 0xc4, 0xbd, 0xc2, 0x01, 0xcb, 0x3d,
  0x4e, 0x47, 0xf1, 0x3e, 0xb2, 0x21, 0xee, 0x3d, 0xbd, 0x27, 0x01, 0xbe,
  0x38, 0x47, 0x19, 0x3e, 0x5e, 0xf2, 0xc0, 0x3d, 0x65, 0xe0, 0x86, 0xbc,
  0x3a, 0xa8, 0x0d, 0x3e, 0x92, 0x51, 0xbb, 0xbe, 0x57, 0xca, 0x5e, 0xbd,
  0xef, 0x67, 0x57, 0xbe, 0xb8, 0x24, 0x18, 0x3d, 0xb3, 0x95, 0x4c, 0xbe,
  0xb7, 0xf0, 0xaf, 0x3d, 0x6e, 0xab, 0x8d, 0xbe, 0x8f, 0x32, 0x65, 0x3e,
  0x5a, 0xc0, 0x11, 0xbd, 0xda, 0xbc, 0x37, 0xbd, 0x25, 0x4a, 0x4b, 0x3d,
  0x7b, 0xba, 0x30, 0x3e, 0x95, 0xcc, 0x6a, 0x3d, 0x9c, 0xc9, 0x76, 0xbe,
  0xfc, 0xbd, 0x32, 0x3d, 0x74, 0x4c, 0xfc, 0xbc, 0xca, 0xd1, 0x7f, 0xbd,
  0xe5, 0x36, 0xe3, 0xbb, 0x73, 0x9f, 0x67, 0x3d, 0x37, 0xfd, 0x04, 0xbc,
  0x54, 0x0c, 0xf0, 0xbd, 0x8a, 0xe4, 0x06, 0x3e, 0x62, 0x6c, 0xb3, 0xbe,
  0xcb, 0xb1, 0x06, 0x3e, 0x2b, 0xfe, 0x46, 0xbe, 0xef, 0xe7, 0x35, 0x3e,
  0x7c, 0xae, 0x9a, 0x3d, 0x4a, 0x48, 0xb3, 0x3d, 0x9f, 0x9e, 0x75, 0x3d,
  0xd9, 0xfd, 0x22, 0x3e, 0x1d, 0xc2, 0x86, 0x3c, 0x6b, 0x24, 0x09, 0xbd,
  0x68, 0x60, 0x91, 0xbe, 0x30, 0xde, 0x16, 0x3e, 0x34, 0x73, 0xc0, 0x3c,
  0xb8, 0x74, 0x66, 0xbd, 0x25, 0x60, 0x2a, 0xbf, 0x86, 0xca, 0xfa, 0x3c,
  0xa2, 0x18, 0x9c, 0xbe, 0xd5, 0x6c, 0x2f, 0x3e, 0x0f, 0x72, 0x26, 0xbf,
  0xd4, 0xce, 0xd0, 0xbe, 0xc1, 0x1e, 0x15, 0x3d, 0x0b, 0xcc, 0xfa, 0x3d,
  0xc8, 0x18, 0x05, 0x3e, 0x19, 0x54, 0x01, 0xbf, 0x1c, 0x85, 0x20, 0xbe,
  0x79, 0x86, 0xb7, 0xbd, 0x15, 0x71, 0x3b, 0xbf, 0x64, 0x22, 0x19, 0x3e,
  0x2a, 0xf0, 0xb0, 0xbe, 0xf5, 0xf4, 0xad, 0x3d, 0xbc, 0x60, 0x5a, 0xbf,
  0x9b, 0xb1, 0x03, 0x3e, 0xb4, 0x43, 0x6e, 0x3e, 0xa6, 0xec, 0x60, 0xbd,
  0x3d, 0x6d, 0xd6, 0xbe, 0xce, 0x22, 0x89, 0x3e, 0xe8, 0x0b, 0xdc, 0xbd,
  0xbe, 0x8a, 0x1e, 0xbe, 0x47, 0x70, 0x5d, 0x3e, 0xb8, 0x37, 0x03, 0xbe,
  0xf9, 0x63, 0xc8, 0xbe, 0xd0, 0xc9, 0x13, 0xbe, 0xd0, 0xb0, 0x39, 0xbe,
  0x16, 0x45, 0x89, 0xbe, 0x39, 0x64, 0x37, 0xbe, 0x04, 0xf2, 0xa7, 0x3d,
  0x47, 0x9e, 0x32, 0xbe, 0xe2, 0x94, 0xc4, 0xbd, 0xe0, 0x7f, 0xc0, 0xbe,
  0xdb, 0x04, 0x1a, 0x3e, 0x03, 0x9b, 0x80, 0xbe, 0x70, 0x38, 0x07, 0xbf,
  0x17, 0xfa, 0xe3, 0xbd, 0x48, 0x02, 0xaa, 0x3d, 0x3d, 0xfe, 0xb4, 0xbe,
  0x90, 0x05, 0x84, 0x3e, 0x7d, 0xdf, 0x2f, 0x3d, 0xe4, 0x67, 0x90, 0xbc,
  0x89, 0xa1, 0x70, 0x3f, 0xe3, 0xf8, 0x71, 0xbe, 0x8f, 0xd2, 0xd4, 0xbd,
  0x89, 0xf4, 0x03, 0x3d, 0x0e, 0xdf, 0x12, 0xbe, 0xd0, 0x3c, 0xd8, 0xbe,
  0x7b, 0xe4, 0xa8, 0x3e, 0x4b, 0xa0, 0x85, 0xbd, 0xe9, 0x25, 0x52, 0xbf,
  0x06, 0x0a, 0x5c, 0x3e, 0x02, 0x3c, 0xc2, 0xbc, 0xcd, 0x3d, 0x00, 0xbf,
  0xe6, 0x91, 0x8d, 0xbe, 0x00, 0x57, 0x56, 0xbe, 0x6a, 0x0b, 0x89, 0x3b,
  0xc0, 0x1f, 0x15, 0xbf, 0xb0, 0x37, 0x2a, 0x3e, 0x84, 0x3b, 0xe0, 0x3d,
  0x56, 0xf1, 0x0e, 0xbf, 0x25, 0x9e, 0x6d, 0xbe, 0x90, 0xe8, 0x4c, 0xbe,
  0x70, 0xbd, 0x71, 0xbf, 0x4f, 0x83, 0x08, 0xbe, 0xbd, 0xf2, 0x14, 0x3e,
  0xaa, 0xde, 0xca, 0xbe, 0x5a, 0x91, 0x47, 0x3e, 0xe3, 0xa5, 0x1a, 0xbd,
  0xcc, 0x6c, 0xc9, 0xbe, 0xb8, 0xb5, 0xf8, 0xbe, 0x23, 0x68, 0x84, 0x3b,
  0xd2, 0x36, 0x6d, 0x3d, 0x44, 0x51, 0x6c, 0xbd, 0xe3, 0x61, 0x11, 0xbd,
  0x80, 0x28, 0x07, 0xbd, 0xab, 0x28, 0x95, 0x3e, 0x35, 0xd3, 0xab, 0x3e,
  0x1e, 0xc9, 0x78, 0x3e, 0x79, 0x24, 0x85, 0xbe, 0x9c, 0xdf, 0x2f, 0x3e,
  0xa2, 0x6e, 0xd6, 0x3e, 0x60, 0x79, 0x45, 0x3f, 0x65, 0x5f, 0x7a, 0x3e,
  0x20, 0xb6, 0x60, 0xbe, 0xc9, 0x2a, 0x61, 0xbe, 0xf8, 0xc3, 0xa8, 0xbe,
  0xfe, 0xf4, 0xbf, 0xbd, 0xdc, 0x07, 0xf3, 0x3d, 0xc8, 0xc4, 0x21, 0x3f,
  0x08, 0x8d, 0x96, 0x3c, 0x9c, 0x86, 0x84, 0x3a, 0x62, 0x01, 0x95, 0x3e,
  0xad, 0xa3, 0x55, 0x3f, 0x4e, 0x52, 0x2b, 0x3e, 0x9d, 0x05, 0x1f, 0xbf,
  0x08, 0x46, 0x94, 0x3d, 0x37, 0x50, 0x54, 0x3e, 0xff, 0xab, 0x34, 0xbe,
  0x75, 0x81, 0xbc, 0xbd, 0x32, 0x9b, 0x4b, 0xbd, 0xf2, 0x9b, 0x0c, 0x3d,
  0x84, 0xf6, 0x03, 0xbe, 0xe0, 0x8f, 0x0c, 0xbe, 0x88, 0xb7, 0xb2, 0xbe,
  0x9b, 0x52, 0x8f, 0x3e, 0x63, 0x81, 0x9b, 0x3d, 0x98, 0xde, 0x38, 0xbe,
  0xbb, 0xce, 0x76, 0xbe, 0xcc, 0xbb, 0xf9, 0x3e, 0xcf, 0xaa, 0x7e, 0x3c,
  0xb2, 0x65, 0x9a, 0xbe, 0x62, 0x28, 0x2c, 0x3e, 0x23, 0x6d, 0x5c, 0x3e,
  0x38, 0xd2, 0xfd, 0xbd, 0x9a, 0x01, 0x98, 0x3e, 0xfc, 0x5a, 0x4f, 0xbe,
  0x72, 0xce, 0x9a, 0xbe, 0x47, 0xee, 0x7e, 0x3d, 0x5d, 0xaf, 0xc8, 0xbd,
  0xd7, 0x24, 0x6a, 0x3e, 0xff, 0x14, 0x66, 0x3e, 0x60, 0x1d, 0xf5, 0xbc,
  0xaa, 0xbb, 0xcb, 0xbd, 0x3f, 0xf2, 0x00, 0x3e, 0x89, 0xb0, 0x44, 0xbe,
  0xa8, 0x84, 0xb1, 0x3e, 0x29, 0x20, 0x02, 0xbe, 0x1a, 0xa8, 0x5f, 0xbc,
  0xd1, 0xbd, 0x6b, 0x3e, 0xae, 0x51, 0x9f, 0xbd, 0x8a, 0xb2, 0x30, 0x3f,
  0x47, 0xd1, 0x7f, 0xbd, 0x39, 0xcb, 0x42, 0x3e, 0x1d, 0xab, 0xbe, 0x3e,
  0x48, 0x99, 0xdb, 0xbb, 0x88, 0x0b, 0x4a, 0xbd, 0x38, 0x08, 0x94, 0x3e,
  0x95, 0x52, 0x0f, 0x3e, 0x3e, 0x2c, 0x81, 0x3e, 0xb4, 0xad, 0x4f, 0x3e,
  0xfc, 0xe7, 0x0f, 0xbe, 0x60, 0x9c, 0x8c, 0x3e, 0x18, 0x55, 0x31, 0xbe,
  0xbe, 0x31, 0x8f, 0x3d, 0x83, 0xb2, 0x02, 0x3e, 0x49, 0xd7, 0x4b, 0xbe,
  0xc7, 0x26, 0x39, 0x3f, 0xd4, 0xd7, 0xb3, 0xbe, 0x8b, 0xbc, 0x63, 0xbe,
  0xb4, 0xf3, 0x29, 0xbd, 0xcd, 0xd7, 0x43, 0xbd, 0x38, 0x09, 0xc6, 0xbd,
  0xd7, 0xde, 0x9d, 0x3d, 0xfd, 0xfd, 0x06, 0xbd, 0xb1, 0x5a, 0x0b, 0x3f,
  0x0a, 0x54, 0xb2, 0x3d, 0x3e, 0xc9, 0x77, 0x3e, 0x66, 0xe1, 0x34, 0x3e,
  0xdf, 0x52, 0x32, 0xbf, 0x51, 0xf8, 0x9a, 0x3d, 0x9f, 0x1c, 0xca, 0x3e,
  0xc3, 0x2a, 0x4a, 0xbd, 0x98, 0xd2, 0x8d, 0x3e, 0x37, 0x7c, 0x39, 0xbe,
  0xeb, 0xef, 0x9d, 0x3e, 0x7c, 0xe2, 0x64, 0x3d, 0xbe, 0xc0, 0xf9, 0xbd,
  0x79, 0x29, 0x10, 0xbe, 0x67, 0x0a, 0x3b, 0x3d, 0xfc, 0xaa, 0x2a, 0x3c,
  0x2a, 0xe2, 0x1b, 0x3d, 0xd4, 0xaf, 0x3c, 0x3e, 0x1c, 0xcb, 0x2b, 0xbd,
  0x14, 0x66, 0x2c, 0x3f, 0x8b, 0xb7, 0x1b, 0xbf, 0x0e, 0x16, 0x2a, 0x3e,
  0xf1, 0x7a, 0xc8, 0x3e, 0x5a, 0x5f, 0x98, 0x3d, 0xb2, 0xd6, 0xe5, 0x3e,
  0xba, 0x8d, 0xfb, 0xbe, 0x09, 0x97, 0x74, 0xbd, 0xc5, 0x7b, 0x5d, 0xbc,
  0x91, 0x61, 0x2f, 0x3d, 0x43, 0x8a, 0x2c, 0xbc, 0x1a, 0xa5, 0x43, 0x3e,
  0x3b, 0x03, 0xf0, 0x3e, 0xf0, 0xd6, 0xb8, 0x3c, 0x50, 0x98, 0x02, 0x3f,
  0xec, 0x61, 0x0d, 0x3e, 0xaa, 0x37, 0x8d, 0x3e, 0x8e, 0x46, 0x55, 0xbf,
  0x7d, 0xcb, 0x9a, 0x3e, 0xfd, 0xeb, 0xbe, 0x3d, 0x67, 0x24, 0xbe, 0x3c,
  0x8e, 0x6d, 0xff, 0x3e, 0x78, 0xd9, 0x04, 0xbf, 0x4a, 0xd3, 0x8b, 0x3c,
  0x96, 0xd2, 0x42, 0xbe, 0x25, 0x39, 0x59, 0x3e, 0xa6, 0x4a, 0xf4, 0x3d,
  0x87, 0xca, 0xab, 0x3d, 0xfd, 0xd4, 0xf4, 0x3e, 0xa1, 0xdc, 0x88, 0x3e,
  0x23, 0xe7, 0x98, 0x3e, 0xf5, 0x28, 0x7c, 0xbd, 0xb9, 0x34, 0xdf, 0x3c,
  0x0b, 0xe8, 0x33, 0xbf, 0x1a, 0x54, 0x0c, 0x3e, 0x43, 0xf4, 0x16, 0xbe,
  0x58, 0x8b, 0xef, 0xbb, 0x74, 0xa2, 0x85, 0xbe, 0xe7, 0x12, 0x87, 0xbb,
  0x9d, 0x57, 0xb2, 0xbd, 0x65, 0xe4, 0xd0, 0xbe, 0x90, 0x2d, 0x88, 0x3e,
  0x6c, 0x74, 0xd0, 0x3d, 0x5b, 0xea, 0xd2, 0xbd, 0x5a, 0xe0, 0xe3, 0x3e,
  0x1d, 0xea, 0x85, 0xbe, 0x84, 0x4d, 0x91, 0x3e, 0x18, 0xd0, 0x97, 0xbe,
  0x7e, 0x9d, 0x6d, 0x3e, 0xde, 0x5c, 0x70, 0xbf, 0x1b, 0x7f, 0xdb, 0xbd,
  0x24, 0x49, 0x87, 0x3d, 0x2f, 0xae, 0x65, 0xbe, 0x9c, 0xc4, 0x49, 0xbe,
  0x34, 0x10, 0x81, 0xbb, 0xe5, 0x14, 0xfa, 0xbc, 0x8e, 0x82, 0x30, 0xbf,
  0xd7, 0x80, 0x91, 0x3e, 0xae, 0x91, 0x7a, 0x3c, 0x1b, 0x38, 0xdf, 0xbc,
  0x09, 0x97, 0xb0, 0x3e, 0x3c, 0xab, 0xb5, 0xbe, 0x15, 0x47, 0x0e, 0x3f,
  0x3c, 0xf0, 0x2b, 0xbe, 0x42, 0x5b, 0x3d, 0x3d, 0x72, 0x4e, 0x0b, 0xbf,
  0xcc, 0xbc, 0x8b, 0x38, 0x59, 0xd9, 0x86, 0x3d, 0xf8, 0xe2, 0xc7, 0xbd,
  0xb6, 0x76, 0xe0, 0xbe, 0xd4, 0xef, 0xc4, 0x3d, 0xef, 0x0a, 0x35, 0xbe,
  0x89, 0x99, 0x08, 0xbe, 0xb3, 0xbd, 0x36, 0x3e, 0xb8, 0xaf, 0xaf, 0x3d,
  0x51, 0xfa, 0xac, 0xbd, 0xac, 0xd1, 0x4e, 0x3e, 0xf6, 0x6c, 0xcf, 0xbd,
  0xa9, 0x60, 0x4c, 0x3f, 0xcd, 0x1e, 0x2e, 0xbd, 0xf5, 0x7e, 0x15, 0x3e,
  0x02, 0x01, 0xd2, 0x3d, 0x84, 0x2e, 0xea, 0x3d, 0xcf, 0x0e, 0x9f, 0x3e,
  0x92, 0xa0, 0xbd, 0xbd, 0x30, 0x82, 0x56, 0x3e, 0xcf, 0xdb, 0x64, 0xbf,
  0x7f, 0xd3, 0x0f, 0xbe, 0x47, 0xb8, 0xf0, 0xbe, 0x20, 0x17, 0x96, 0xbc,
  0x19, 0x83, 0x52, 0xbf, 0x9c, 0x37, 0x54, 0xbf, 0x13, 0xdc, 0x89, 0xbf,
  0x5c, 0x04, 0xa2, 0xbe, 0x18, 0xfd, 0xd6, 0x3e, 0x44, 0x44, 0xff, 0x3e,
  0xac, 0x8f, 0x0c, 0xbe, 0xdf, 0x43, 0x53, 0xbd, 0x1a, 0xd2, 0x4a, 0xbd,
  0x55, 0x8e, 0x8c, 0x3e, 0x96, 0x0f, 0x6c, 0x3e, 0xa8, 0xaa, 0x12, 0x3f,
  0x96, 0x6c, 0x28, 0xbf, 0x5f, 0x00, 0xe9, 0xbe, 0x9f, 0x1a, 0xbf, 0xbe,
  0x42, 0x4c, 0x16, 0x3e, 0xbf, 0x26, 0x19, 0xbf, 0xa0, 0x3b, 0x51, 0xbd,
  0xcd, 0xb5, 0xf8, 0x3e, 0xbb, 0xfc, 0x8b, 0xbf, 0xb8, 0x23, 0xe2, 0x3e,
  0xd8, 0x4b, 0x09, 0xbe, 0x24, 0x7a, 0x18, 0x3e, 0x73, 0xa2, 0x41, 0xbf,
  0x7a, 0xc7, 0x34, 0x3d, 0xe5, 0xb0, 0x23, 0x3e, 0x1f, 0x95, 0x58, 0x3a,
  0x21, 0xc2, 0x90, 0xbc, 0x7a, 0x5b, 0x3e, 0x3d, 0x08, 0xe0, 0xff, 0x3d,
  0xa3, 0x0b, 0xf6, 0xbe, 0x56, 0x0b, 0x23, 0x3e, 0x13, 0xda, 0xd3, 0xbe,
  0x8e, 0xd5, 0x85, 0x3d, 0x35, 0x61, 0xd8, 0x3e, 0x5d, 0xc2, 0x35, 0xbf,
  0x75, 0x81, 0x69, 0x3e, 0x6a, 0xa7, 0x26, 0xbe, 0x35, 0x63, 0xd1, 0xbd,
  0xd1, 0x91, 0x10, 0xbf, 0x61, 0x01, 0xf3, 0x3d, 0x2d, 0xe0, 0x80, 0x3e,
  0xc5, 0x88, 0x3d, 0xbd, 0x63, 0x8b, 0xd3, 0xbc, 0xe7, 0xa7, 0x72, 0xbd,
  0x0f, 0x4b, 0x23, 0xbe, 0xa8, 0x2a, 0x30, 0xbe, 0x07, 0xd1, 0x86, 0x3c,
  0x5f, 0xef, 0x1a, 0xbe, 0x23, 0x8e, 0x9a, 0x3e, 0x51, 0x2e, 0x04, 0x3f,
  0x24, 0x3f, 0xc6, 0xbe, 0x48, 0x4e, 0x95, 0xbe, 0x07, 0x80, 0x1c, 0xbe,
  0x60, 0xba, 0x9d, 0x3e, 0xa0, 0x0f, 0x26, 0xbe, 0x19, 0x50, 0x31, 0x3e,
  0xf9, 0x21, 0x25, 0x3c, 0xc5, 0x26, 0x69, 0xbe, 0xf2, 0xdb, 0x62, 0xbe,
  0xc8, 0x89, 0xee, 0x3b, 0xa8, 0xe4, 0x75, 0x3e, 0x03, 0x6e, 0x17, 0xbd,
  0x3f, 0x68, 0x54, 0xbc, 0xcf, 0x0b, 0x3c, 0xbe, 0x2e, 0xb2, 0x8e, 0x3e,
  0x00, 0xcc, 0xf1, 0x3e, 0x5b, 0x7d, 0x91, 0xbe, 0xc8, 0x91, 0x45, 0xbe,
  0x5e, 0x09, 0x30, 0xbe, 0xe2, 0x55, 0x8a, 0x3e, 0x21, 0xd7, 0xb8, 0xbe,
  0x02, 0xe1, 0xcd, 0xbc, 0x64, 0x60, 0x17, 0x3e, 0x49, 0xde, 0xa1, 0xbe,
  0x3f, 0x7a, 0x9f, 0x3e, 0x37, 0xa1, 0xb6, 0xba, 0x95, 0xc5, 0xae, 0xbc,
  0xf0, 0xb6, 0x8a, 0xbe, 0x46, 0xd3, 0x6b, 0xbe, 0xe3, 0x7b, 0x3a, 0xbd,
  0x7c, 0xb2, 0x9d, 0x3e, 0xa1, 0x80, 0x5c, 0xbe, 0xac, 0x2e, 0x05, 0x3e,
  0x11, 0x84, 0x1d, 0xbe, 0x02, 0xfa, 0xba, 0x3d, 0x90, 0x24, 0x40, 0xbe,
  0x9a, 0x93, 0xe5, 0xbe, 0xbc, 0x82, 0xd3, 0x3d, 0x90, 0xd2, 0x7d, 0x3d,
  0x18, 0x5a, 0xbb, 0xbe, 0x24, 0x12, 0x83, 0x3e, 0x23, 0x6d, 0xb1, 0x3c,
  0x27, 0xdb, 0xab, 0xbd, 0x82, 0x69, 0x60, 0xbe, 0x32, 0x35, 0x8d, 0x3d,
  0x8f, 0xcc, 0xce, 0x3e, 0xd7, 0xc9, 0xd9, 0xbc, 0x0c, 0x33, 0x13, 0xbe,
  0x44, 0xb6, 0x84, 0x3e, 0x9f, 0x55, 0xd6, 0xbe, 0x3d, 0x3e, 0x11, 0x3e,
  0x6b, 0x31, 0xe3, 0xbe, 0x38, 0x17, 0xff, 0xbe, 0xda, 0x29, 0x9e, 0xbc,
  0x26, 0x79, 0x37, 0xbd, 0xc7, 0x28, 0xe2, 0xbe, 0x77, 0xc3, 0x90, 0x3e,
  0x83, 0x31, 0xf5, 0x3d, 0x3b, 0xbc, 0x0f, 0x3e, 0x4a, 0xd7, 0xbe, 0x3d,
  0x1d, 0xbc, 0x8d, 0xbc, 0x2c, 0xc7, 0xe8, 0x3c, 0x3a, 0xd2, 0x1a, 0xbd,
  0x6b, 0x48, 0x8d, 0xbf, 0x62, 0xeb, 0x10, 0xbe, 0xd4, 0xf7, 0x36, 0x3c,
  0xf3, 0x2d, 0xa4, 0x3e, 0x29, 0xd1, 0x9e, 0x3c, 0x76, 0xfc, 0x9d, 0xbd,
  0x24, 0x77, 0xd3, 0x3c, 0x91, 0x1a, 0x45, 0x3d, 0xd3, 0xea, 0x8d, 0x3d,
  0xdb, 0x3f, 0x51, 0x3f, 0x42, 0x17, 0x9d, 0x3d, 0xd6, 0x4c, 0x27, 0xbe,
  0x84, 0xa9, 0x8b, 0x3d, 0xa0, 0xd1, 0x19, 0x3d, 0x50, 0x1a, 0x08, 0xbe,
  0xaa, 0x18, 0x17, 0x3e, 0x4b, 0xec, 0xa2, 0xbf, 0x8c, 0x58, 0x78, 0xbf,
  0x24, 0x70, 0x0d, 0x3f, 0xa3, 0xf7, 0x15, 0x3e, 0xf3, 0xa2, 0x35, 0x3b,
  0x0e, 0xc4, 0x8e, 0x3d, 0xb4, 0x7c, 0xc4, 0xbc, 0x22, 0xe7, 0x80, 0x3e,
  0xb4, 0x1e, 0x2b, 0x3d, 0x12, 0xb0, 0xfb, 0x3e, 0xf2, 0xc1, 0xad, 0xba,
  0x15, 0x6b, 0x91, 0xbe, 0x46, 0xcd, 0xaf, 0xbe, 0xe3, 0x49, 0x3f, 0xbe,
  0x78, 0x79, 0x91, 0xbe, 0xe7, 0xd2, 0x00, 0x3e, 0x4e, 0x7a, 0x78, 0x3e,
  0x79, 0xcd, 0x74, 0xbf, 0xad, 0x46, 0xd6, 0x3e, 0x9f, 0xe3, 0x27, 0x3d,
  0xef, 0xde, 0xb3, 0x3d, 0x51, 0xe3, 0x5f, 0xbf, 0x25, 0x37, 0xee, 0x3d,
  0x44, 0xa2, 0xd5, 0x3c, 0x55, 0x3d, 0x7d, 0x3d, 0x81, 0xd1, 0x3f, 0x3f,
  0xae, 0xe1, 0x38, 0x3d, 0x20, 0x8e, 0x16, 0xbf, 0x40, 0x1e, 0x90, 0xbe,
  0x24, 0x7e, 0x74, 0x3d, 0xd3, 0xef, 0xaf, 0xbe, 0x25, 0xa2, 0x98, 0xbd,
  0xd4, 0x18, 0xb0, 0x3c, 0xc0, 0xb7, 0x94, 0xbb, 0x80, 0x9d, 0xd0, 0x3e,
  0x93, 0xd7, 0xa4, 0x3e, 0xbe, 0x31, 0x83, 0x3d, 0xc4, 0x75, 0xeb, 0xbe,
  0x45, 0x71, 0xe9, 0xbc, 0xcf, 0x93, 0xdf, 0xbc, 0xb3, 0x44, 0x26, 0x3e,
  0x85, 0x07, 0xf9, 0xbc, 0x76, 0xfe, 0x0b, 0x3e, 0xf1, 0x5e, 0xc8, 0xbe,
  0x53, 0xa5, 0x12, 0xbf, 0x54, 0x42, 0x49, 0xbe, 0x5e, 0xf1, 0xc3, 0xbe,
  0x18, 0x83, 0x3b, 0x3d, 0xec, 0x9f, 0xf8, 0x3e, 0x3a, 0x7f, 0x61, 0xbe,
  0xc4, 0x08, 0x9d, 0x3e, 0x25, 0x63, 0x15, 0x3e, 0x3f, 0x52, 0x97, 0x3d,
  0x63, 0x7c, 0xcf, 0xbe, 0xc9, 0xa2, 0x3b, 0x3e, 0x09, 0x44, 0x0f, 0xbb,
  0x7a, 0xb5, 0x5b, 0xbd, 0xbc, 0x92, 0x54, 0xbd, 0xfb, 0x89, 0x09, 0x3e,
  0xc2, 0x8d, 0xac, 0xbe, 0xee, 0xe3, 0x6f, 0xbf, 0xbe, 0xd3, 0xcd, 0x3e,
  0xa1, 0x87, 0xdc, 0xbe, 0xd6, 0xdb, 0x4c, 0xbd, 0xdc, 0xcb, 0x53, 0x3e,
  0xaa, 0xba, 0x99, 0xbe, 0x26, 0x15, 0xb9, 0x3e, 0x93, 0x26, 0x2a, 0xbe,
  0x33, 0xff, 0x04, 0x3e, 0xd4, 0x8b, 0xef, 0xbe, 0xc3, 0xb0, 0xc2, 0xbe,
  0xe6, 0xdf, 0x26, 0xbd, 0x39, 0x1d, 0x1a, 0xbe, 0x82, 0x75, 0x07, 0xbf,
  0x23, 0x82, 0x2f, 0x3e, 0xf1, 0xec, 0xf8, 0xbe, 0x79, 0xce, 0x5e, 0xbe,
  0x0f, 0x2e, 0x16, 0x3e, 0x2a, 0xe2, 0xbc, 0xbe, 0x2c, 0x5a, 0x67, 0xbd,
  0x13, 0xc9, 0x56, 0x3e, 0x0d, 0xc8, 0x5a, 0xbe, 0x15, 0xd8, 0x04, 0x3f,
  0xa2, 0xed, 0x2e, 0xbe, 0xe4, 0xaa, 0x01, 0x3e, 0xfe, 0xe5, 0x3a, 0xbd,
  0xcd, 0x74, 0x26, 0xbe, 0x10, 0x0b, 0x84, 0x3e, 0x60, 0x87, 0xf5, 0xbe,
  0x99, 0xef, 0x24, 0xbf, 0xbb, 0xcd, 0xa3, 0xbe, 0xfb, 0x6c, 0x0e, 0x3b,
  0xba, 0x40, 0xfe, 0xbe, 0x98, 0x90, 0x8d, 0x3e, 0x7c, 0x78, 0xbf, 0xbe,
  0xce, 0x99, 0x6c, 0xbe, 0x9e, 0x1d, 0xd3, 0xbe, 0x91, 0x95, 0xdc, 0xbe,
  0x61, 0xb4, 0x8e, 0x3e, 0xa8, 0xef, 0x08, 0xbe, 0xd2, 0x48, 0x68, 0xbe,
  0x3c, 0xee, 0x05, 0xbf, 0xf4, 0x1f, 0x6b, 0x3d, 0x7e, 0xbe, 0xf4, 0x3c,
  0xfb, 0xee, 0x23, 0xbe, 0x20, 0x80, 0x22, 0xbe, 0x23, 0x7d, 0xd6, 0xbd,
  0xff, 0x53, 0xe2, 0xbd, 0x15, 0x24, 0x7b, 0xbe, 0x73, 0xbc, 0xda, 0x3e,
  0x22, 0x85, 0xe8, 0xbe, 0x4a, 0x12, 0x19, 0xbf, 0x76, 0xd0, 0x03, 0xbf,
