/* Copyright 2019 The TensorFlow Authors. All Rights Reserved.

Licensed under the Apache License, Version 2.0 (the "License");
you may not use this file except in compliance with the License.
You may obtain a copy of the License at

    http://www.apache.org/licenses/LICENSE-2.0

Unless required by applicable law or agreed to in writing, software
distributed under the License is distributed on an "AS IS" BASIS,
WITHOUT WARRANTIES OR CONDITIONS OF ANY KIND, either express or implied.
See the License for the specific language governing permissions and
limitations under the License.
==============================================================================*/

// Automatically created from a TensorFlow Lite flatbuffer using the command:
// xxd -i magic_wand_model.tflite > magic_wand_model_data.cc
// See the README for a full description of the creation process.

#include "magic_wand_model_data.h"

// We need to keep the data array aligned on some architectures.
#ifdef __has_attribute
#define HAVE_ATTRIBUTE(x) __has_attribute(x)
#else
#define HAVE_ATTRIBUTE(x) 0
#endif
#if HAVE_ATTRIBUTE(aligned) || (defined(__GNUC__) && !defined(__clang__))
#define DATA_ALIGN_ATTRIBUTE __attribute__((aligned(4)))
#else
#define DATA_ALIGN_ATTRIBUTE
#endif

// CNN
const unsigned char g_magic_wand_model_data[] DATA_ALIGN_ATTRIBUTE = {
  0x1c, 0x00, 0x00, 0x00, 0x54, 0x46, 0x4c, 0x33, 0x14, 0x00, 0x20, 0x00,
  0x1c, 0x00, 0x18, 0x00, 0x14, 0x00, 0x10, 0x00, 0x0c, 0x00, 0x00, 0x00,
  0x08, 0x00, 0x04, 0x00, 0x14, 0x00, 0x00, 0x00, 0x1c, 0x00, 0x00, 0x00,
  0x88, 0x00, 0x00, 0x00, 0xe0, 0x00, 0x00, 0x00, 0x7c, 0x45, 0x00, 0x00,
  0x8c, 0x45, 0x00, 0x00, 0xe8, 0x4f, 0x00, 0x00, 0x03, 0x00, 0x00, 0x00,
  0x01, 0x00, 0x00, 0x00, 0x04, 0x00, 0x00, 0x00, 0x7a, 0xb9, 0xff, 0xff,
  0x0c, 0x00, 0x00, 0x00, 0x1c, 0x00, 0x00, 0x00, 0x38, 0x00, 0x00, 0x00,
  0x0f, 0x00, 0x00, 0x00, 0x73, 0x65, 0x72, 0x76, 0x69, 0x6e, 0x67, 0x5f,
  0x64, 0x65, 0x66, 0x61, 0x75, 0x6c, 0x74, 0x00, 0x01, 0x00, 0x00, 0x00,
  0x04, 0x00, 0x00, 0x00, 0x94, 0xff, 0xff, 0xff, 0x11, 0x00, 0x00, 0x00,
  0x04, 0x00, 0x00, 0x00, 0x07, 0x00, 0x00, 0x00, 0x64, 0x65, 0x6e, 0x73,
  0x65, 0x5f, 0x31, 0x00, 0x01, 0x00, 0x00, 0x00, 0x04, 0x00, 0x00, 0x00,
  0x5a, 0xba, 0xff, 0xff, 0x04, 0x00, 0x00, 0x00, 0x0c, 0x00, 0x00, 0x00,
  0x63, 0x6f, 0x6e, 0x76, 0x32, 0x64, 0x5f, 0x69, 0x6e, 0x70, 0x75, 0x74,
  0x00, 0x00, 0x00, 0x00, 0x02, 0x00, 0x00, 0x00, 0x34, 0x00, 0x00, 0x00,
  0x04, 0x00, 0x00, 0x00, 0xdc, 0xff, 0xff, 0xff, 0x14, 0x00, 0x00, 0x00,
  0x04, 0x00, 0x00, 0x00, 0x13, 0x00, 0x00, 0x00, 0x43, 0x4f, 0x4e, 0x56,
  0x45, 0x52, 0x53, 0x49, 0x4f, 0x4e, 0x5f, 0x4d, 0x45, 0x54, 0x41, 0x44,
  0x41, 0x54, 0x41, 0x00, 0x08, 0x00, 0x0c, 0x00, 0x08, 0x00, 0x04, 0x00,
  0x08, 0x00, 0x00, 0x00, 0x13, 0x00, 0x00, 0x00, 0x04, 0x00, 0x00, 0x00,
  0x13, 0x00, 0x00, 0x00, 0x6d, 0x69, 0x6e, 0x5f, 0x72, 0x75, 0x6e, 0x74,
  0x69, 0x6d, 0x65, 0x5f, 0x76, 0x65, 0x72, 0x73, 0x69, 0x6f, 0x6e, 0x00,
  0x15, 0x00, 0x00, 0x00, 0x98, 0x44, 0x00, 0x00, 0x90, 0x44, 0x00, 0x00,
  0x60, 0x44, 0x00, 0x00, 0x10, 0x44, 0x00, 0x00, 0x80, 0x42, 0x00, 0x00,
  0x70, 0x3a, 0x00, 0x00, 0x20, 0x3a, 0x00, 0x00, 0x00, 0x3a, 0x00, 0x00,
  0xe8, 0x39, 0x00, 0x00, 0xd8, 0x01, 0x00, 0x00, 0xc8, 0x00, 0x00, 0x00,
  0xc0, 0x00, 0x00, 0x00, 0xb8, 0x00, 0x00, 0x00, 0xb0, 0x00, 0x00, 0x00,
  0xa8, 0x00, 0x00, 0x00, 0xa0, 0x00, 0x00, 0x00, 0x98, 0x00, 0x00, 0x00,
  0x90, 0x00, 0x00, 0x00, 0x88, 0x00, 0x00, 0x00, 0x68, 0x00, 0x00, 0x00,
  0x04, 0x00, 0x00, 0x00, 0x2a, 0xbb, 0xff, 0xff, 0x04, 0x00, 0x00, 0x00,
  0x54, 0x00, 0x00, 0x00, 0x0c, 0x00, 0x00, 0x00, 0x08, 0x00, 0x0e, 0x00,
  0x08, 0x00, 0x04, 0x00, 0x08, 0x00, 0x00, 0x00, 0x10, 0x00, 0x00, 0x00,
  0x24, 0x00, 0x00, 0x00, 0x00, 0x00, 0x06, 0x00, 0x08, 0x00, 0x04, 0x00,
  0x06, 0x00, 0x00, 0x00, 0x04, 0x00, 0x00, 0x00, 0x00, 0x00, 0x00, 0x00,
  0x00, 0x00, 0x0a, 0x00, 0x10, 0x00, 0x0c, 0x00, 0x08, 0x00, 0x04, 0x00,
  0x0a, 0x00, 0x00, 0x00, 0x02, 0x00, 0x00, 0x00, 0x02, 0x00, 0x00, 0x00,
  0x04, 0x00, 0x00, 0x00, 0x06, 0x00, 0x00, 0x00, 0x32, 0x2e, 0x31, 0x33,
  0x2e, 0x30, 0x00, 0x00, 0x8a, 0xbb, 0xff, 0xff, 0x04, 0x00, 0x00, 0x00,
  0x10, 0x00, 0x00, 0x00, 0x31, 0x2e, 0x35, 0x2e, 0x30, 0x00, 0x00, 0x00,
  0x00, 0x00, 0x00, 0x00, 0x00, 0x00, 0x00, 0x00, 0x00, 0xb2, 0xff, 0xff,
  0x04, 0xb2, 0xff, 0xff, 0x08, 0xb2, 0xff, 0xff, 0x0c, 0xb2, 0xff, 0xff,
  0x10, 0xb2, 0xff, 0xff, 0x14, 0xb2, 0xff, 0xff, 0x18, 0xb2, 0xff, 0xff,
  0x1c, 0xb2, 0xff, 0xff, 0xc6, 0xbb, 0xff, 0xff, 0x04, 0x00, 0x00, 0x00,
  0x00, 0x01, 0x00, 0x00, 0x17, 0xed, 0xf2, 0xbe, 0x97, 0x3e, 0xf5, 0x3e,
  0x45, 0x96, 0xe3, 0xbc, 0x43, 0xa1, 0x81, 0xbe, 0x6a, 0xb2, 0x03, 0xbf,
  0x71, 0x0f, 0xf6, 0xbe, 0x05, 0xd8, 0x28, 0xbf, 0xe4, 0xb6, 0xe5, 0xbe,
  0xda, 0x06, 0xda, 0x3e, 0xa8, 0x31, 0x5a, 0x3f, 0x27, 0x84, 0xcc, 0x3e,
  0x65, 0xef, 0x1b, 0xbf, 0xec, 0x86, 0x1d, 0xbf, 0xd0, 0xfe, 0x13, 0xbf,
  0x4c, 0x85, 0x35, 0xbf, 0x99, 0xd7, 0xbe, 0x3e, 0x73, 0xfc, 0x02, 0xbf,
  0xc9, 0xc3, 0x8f, 0x3e, 0x02, 0x90, 0x91, 0xbe, 0x31, 0x13, 0x72, 0x3f,
  0xbf, 0xfd, 0x3b, 0xbe, 0x0b, 0xa1, 0xc8, 0xbe, 0xf5, 0x4f, 0xdf, 0x3e,
  0x31, 0x43, 0x2d, 0x3f, 0xee, 0x57, 0x20, 0x3e, 0x62, 0xcf, 0xeb, 0xbe,
  0x86, 0x7c, 0x4b, 0xbe, 0x1c, 0x52, 0xcf, 0x3e, 0x67, 0x00, 0x1f, 0xbf,
  0x58, 0x4d, 0x0d, 0x3f, 0x6a, 0xeb, 0xc9, 0xbe, 0x89, 0x8a, 0x0e, 0xbf,
  0x7c, 0x35, 0x08, 0xbf, 0x0f, 0xb3, 0xac, 0xbe, 0x5b, 0x67, 0x37, 0x3f,
  0x4f, 0x41, 0xa8, 0xbe, 0x7e, 0xdf, 0x4e, 0x3e, 0x82, 0x99, 0xc9, 0xbe,
  0x70, 0xc1, 0x19, 0xbf, 0x3a, 0x55, 0x9f, 0x3d, 0x75, 0x9e, 0x8e, 0x3e,
  0xf0, 0x49, 0x71, 0x3e, 0xf0, 0x0f, 0x5e, 0xbf, 0x83, 0x17, 0x09, 0x3f,
  0x4b, 0x46, 0x05, 0x3e, 0x4c, 0x25, 0x39, 0xbf, 0xd4, 0xc1, 0x82, 0x3e,
  0xc7, 0x84, 0x32, 0xbf, 0x70, 0x4b, 0x35, 0x3f, 0xdc, 0xd6, 0x09, 0x3f,
  0x40, 0x8f, 0x28, 0xbf, 0x29, 0x0d, 0x40, 0x3d, 0x92, 0xd4, 0xe3, 0x3e,
  0x12, 0x31, 0xb9, 0x3e, 0x57, 0x67, 0x23, 0x3e, 0xb8, 0x86, 0x4f, 0xbd,
  0x6f, 0x78, 0xad, 0xbe, 0x0c, 0xde, 0x9f, 0xbe, 0x40, 0xb2, 0x07, 0xbe,
  0xa6, 0x77, 0xfa, 0xbe, 0x01, 0x89, 0xf0, 0xbe, 0x20, 0xde, 0xaa, 0xbe,
  0x62, 0x1d, 0xcc, 0x3d, 0xc6, 0x8a, 0xc4, 0xbe, 0xd2, 0xbc, 0xff, 0xff,
  0x04, 0x00, 0x00, 0x00, 0x00, 0x38, 0x00, 0x00, 0x12, 0xc2, 0x36, 0xbc,
  0x4d, 0x00, 0xbf, 0x3c, 0xef, 0xa3, 0x84, 0x3e, 0xb9, 0x9a, 0xce, 0xbe,
  0xf9, 0x35, 0xab, 0x3e, 0x12, 0x39, 0x3e, 0xbc, 0x69, 0x2e, 0x68, 0xbd,
  0xbf, 0xa5, 0x26, 0x3e, 0x86, 0x4c, 0xf6, 0x3e, 0xf4, 0xbd, 0x6c, 0x3e,
  0x4e, 0x1c, 0xb2, 0xbc, 0xd4, 0x2a, 0x00, 0xbc, 0x3b, 0xd5, 0xf3, 0x3d,
  0xf4, 0xd3, 0xa8, 0xbd, 0x26, 0x3c, 0xc3, 0x3d, 0x59, 0xd9, 0x26, 0xbd,
  0xc8, 0x40, 0x8b, 0x3b, 0x99, 0x0b, 0x4f, 0xbe, 0x49, 0x5a, 0x24, 0x3e,
  0x6b, 0x94, 0x5f, 0xbe, 0x33, 0x70, 0x6d, 0x3d, 0xb3, 0x31, 0x7b, 0x3d,
  0xad, 0x38, 0xa8, 0xbe, 0xda, 0x62, 0x11, 0xbe, 0x2a, 0x8f, 0xa2, 0xbe,
  0xed, 0x5e, 0x4d, 0xbe, 0xa0, 0xe3, 0xa6, 0xbe, 0xbd, 0x01, 0x30, 0xbc,
  0x11, 0x4b, 0x1d, 0xbe, 0x41, 0xc8, 0xcf, 0xbc, 0x66, 0xa0, 0x55, 0xbd,
  0xec, 0x38, 0x78, 0xbd, 0x4e, 0x96, 0xda, 0xbe, 0x9c, 0x00, 0x30, 0xbe,
  0x11, 0x12, 0xe6, 0x3d, 0x7c, 0x5a, 0xc9, 0xbd, 0xb9, 0x72, 0xe5, 0x3d,
  0x7a, 0x86, 0x1b, 0x3e, 0xed, 0x84, 0x4d, 0xbd, 0xa7, 0x1a, 0x47, 0xbe,
  0xcb, 0x84, 0x59, 0xbf, 0x0b, 0x00, 0xc8, 0xbe, 0x6c, 0x64, 0x3e, 0x3d,
  0x59, 0xc4, 0x7d, 0xbe, 0xe3, 0xa7, 0x8a, 0xbc, 0x86, 0x79, 0x30, 0xbc,
  0x8f, 0xd0, 0xfb, 0xbd, 0x3c, 0xad, 0x28, 0x3d, 0xb1, 0xc6, 0x40, 0x3d,
  0xb5, 0x82, 0xab, 0x3d, 0xf5, 0x74, 0x8b, 0xbd, 0x03, 0xb8, 0x82, 0x3e,
  0x20, 0x83, 0x2d, 0x3e, 0xa3, 0x90, 0x80, 0x3e, 0xab, 0x9e, 0x94, 0xbe,
  0x8a, 0x97, 0xa7, 0xbe, 0x15, 0x75, 0xe3, 0xbd, 0xf1, 0x0d, 0xe4, 0xbe,
  0x20, 0x6e, 0x2b, 0x3e, 0xfd, 0x73, 0xc0, 0xbc, 0xfd, 0x68, 0x8b, 0xbe,
  0x71, 0x9d, 0x21, 0x3d, 0xd8, 0xa8, 0x98, 0xbe, 0xff, 0x3d, 0x5e, 0x3e,
  0x76, 0x26, 0x72, 0xbe, 0x66, 0xaf, 0x3b, 0x3d, 0x3c, 0xbc, 0x7f, 0xbc,
  0xcc, 0x44, 0x6c, 0x3e, 0xe1, 0xd5, 0x4b, 0x3e, 0x93, 0xf4, 0x06, 0x3e,
  0xc0, 0x79, 0x68, 0xbe, 0x54, 0xbd, 0xac, 0xbc, 0x87, 0x66, 0xc3, 0xbd,
  0x6e, 0x7a, 0xe1, 0xbe, 0x94, 0xaf, 0xa6, 0x3d, 0xef, 0x35, 0xcd, 0xbd,
  0x04, 0xc0, 0xb4, 0xbe, 0xbf, 0x06, 0x1c, 0x3e, 0x4d, 0xa9, 0x83, 0xbe,
  0x37, 0xec, 0x19, 0x3e, 0x78, 0x7c, 0x29, 0x3e, 0x76, 0x74, 0x61, 0x3d,
  0xf0, 0x10, 0x31, 0xbe, 0x92, 0x8e, 0xa6, 0x3d, 0x9a, 0x8a, 0xdc, 0x3c,
  0xc2, 0x79, 0x05, 0xbc, 0xd7, 0x9f, 0x18, 0xbe, 0xec, 0xdb, 0x5a, 0x39,
  0xfe, 0x49, 0xff, 0x3d, 0xb2, 0xfb, 0xa7, 0xbd, 0x68, 0xf1, 0x51, 0x3d,
  0xf2, 0x91, 0xe4, 0xbd, 0x6f, 0x5e, 0x9a, 0xbe, 0xa1, 0x9c, 0x97, 0x3d,
  0x7d, 0xf6, 0x01, 0xbf, 0x23, 0x79, 0x08, 0x3e, 0x41, 0xd5, 0xe6, 0xbe,
  0x45, 0x6c, 0x8d, 0x3e, 0xbf, 0xa7, 0xaf, 0xbd, 0xc7, 0xed, 0xe0, 0x3d,
  0x0e, 0x5f, 0x10, 0x3f, 0xd9, 0x64, 0xbc, 0xbd, 0xa5, 0x7a, 0x4f, 0x3e,
  0x1d, 0x56, 0xa2, 0x3e, 0x73, 0x4a, 0xa6, 0x3d, 0x7e, 0x9a, 0x99, 0xbe,
  0x95, 0xfc, 0x85, 0x3d, 0xc4, 0xec, 0x31, 0x3e, 0xe1, 0x09, 0x90, 0xbe,
  0x81, 0x24, 0xcd, 0x3c, 0x9d, 0x9c, 0xaf, 0xbe, 0xf1, 0x47, 0x8b, 0x3e,
  0x79, 0x6a, 0x4f, 0x3e, 0x72, 0xa8, 0xa5, 0xbd, 0xf6, 0x5c, 0xc2, 0xbc,
  0x57, 0x26, 0x33, 0x3d, 0x91, 0x56, 0xf2, 0x3e, 0xd1, 0xeb, 0x88, 0xbc,
  0x95, 0x47, 0x35, 0x3e, 0x93, 0x49, 0xae, 0x3e, 0x56, 0x00, 0x48, 0x3d,
  0x18, 0xfc, 0x11, 0xbe, 0xe8, 0x11, 0x5b, 0x3d, 0xc3, 0x8d, 0x8e, 0x3e,
  0xc3, 0x8c, 0xcb, 0xbd, 0x6e, 0x02, 0x25, 0xbd, 0x92, 0x70, 0x71, 0xbd,
  0xec, 0x74, 0x93, 0x3e, 0xe5, 0xf3, 0x3d, 0xbd, 0xa7, 0x87, 0x50, 0xbe,
  0x65, 0xee, 0x16, 0xbd, 0xb9, 0x57, 0xc0, 0xbd, 0x9e, 0x5b, 0xac, 0x3e,
  0x3c, 0x76, 0xd9, 0x3c, 0x8f, 0xf2, 0x01, 0xbd, 0x6f, 0xd0, 0xbb, 0xbd,
  0x8b, 0xf2, 0x3a, 0xbe, 0x24, 0xd9, 0x0c, 0xbe, 0x0b, 0xeb, 0x96, 0xbd,
  0x74, 0x5b, 0x92, 0x3d, 0x81, 0x44, 0xdb, 0xbe, 0x45, 0xdb, 0x1b, 0x3e,
  0xfc, 0x4e, 0x9a, 0xbe, 0x8f, 0x09, 0x8c, 0x3e, 0x6d, 0x35, 0x91, 0x3d,
  0xcd, 0x7a, 0xe0, 0xbc, 0x74, 0xc5, 0x76, 0xbd, 0x2d, 0x09, 0x1a, 0xbe,
  0xe9, 0x29, 0x5e, 0x3c, 0x87, 0x2f, 0x51, 0xbe, 0x15, 0x10, 0xc5, 0xbc,
  0xef, 0x16, 0x6d, 0xbe, 0x76, 0x38, 0x42, 0xbe, 0xd9, 0xd9, 0x9c, 0xbe,
  0x02, 0x7d, 0xea, 0xbd, 0x25, 0xb7, 0xd9, 0xbe, 0x03, 0x04, 0x46, 0xbe,
  0x2c, 0x23, 0x75, 0x3c, 0xbc, 0xd0, 0xa4, 0xbe, 0xc0, 0x20, 0xd8, 0x3d,
  0x20, 0x96, 0xe4, 0xbe, 0xd3, 0x1d, 0x10, 0x3e, 0x37, 0xf4, 0xa2, 0x3c,
  0x38, 0xc4, 0x17, 0x3e, 0xa7, 0x28, 0x93, 0xbe, 0x36, 0x27, 0xc7, 0x3c,
  0x34, 0x8a, 0x3a, 0x3e, 0x45, 0xdf, 0x64, 0xbe, 0xf8, 0x28, 0xfd, 0xbd,
  0x7d, 0x98, 0xa4, 0xbe, 0x90, 0xfc, 0xca, 0xbc, 0x6e, 0xd5, 0x5d, 0xbe,
  0xa9, 0x1b, 0x8f, 0xbe, 0x4b, 0xbc, 0xc3, 0x3c, 0x64, 0xd8, 0x3b, 0xbf,
  0x7c, 0x93, 0x19, 0xbd, 0x05, 0xda, 0xfd, 0xbd, 0xfa, 0x98, 0x75, 0x3d,
  0xf2, 0x97, 0xc3, 0xbe, 0xf2, 0xac, 0x18, 0x3e, 0x1b, 0xe9, 0x2d, 0x3e,
  0x88, 0x3e, 0xba, 0xbe, 0x83, 0x6f, 0xa5, 0xbe, 0x15, 0x28, 0x10, 0xbe,
  0xcf, 0x60, 0x85, 0x3e, 0x5e, 0xfe, 0xc5, 0xbe, 0x56, 0xbe, 0xbc, 0x3c,
  0x64, 0x0b, 0x17, 0xbd, 0x97, 0x3c, 0x96, 0xbe, 0x6a, 0x3d, 0xfe, 0x3c,
  0xa3, 0x49, 0xa0, 0xbe, 0xf2, 0x40, 0x33, 0xbe, 0x62, 0xca, 0xac, 0x3d,
  0x3d, 0xdf, 0x3e, 0x3e, 0x71, 0x24, 0x9f, 0xbe, 0xf9, 0x1d, 0x1a, 0xbf,
  0x60, 0xd0, 0x43, 0x3e, 0xdc, 0x78, 0xb9, 0xbe, 0x26, 0x09, 0x6e, 0x3d,
  0xa8, 0x3b, 0x38, 0x3d, 0xe5, 0x61, 0x49, 0x3e, 0xb0, 0x6a, 0x6c, 0x3e,
  0x71, 0x16, 0x26, 0xbe, 0xec, 0x01, 0xd9, 0xbd, 0x13, 0xbc, 0x58, 0x3d,
  0xa4, 0x3d, 0xd0, 0x3c, 0xca, 0xac, 0x86, 0x3d, 0x90, 0x22, 0x87, 0xbd,
  0xa4, 0x3f, 0x9c, 0xbe, 0x15, 0xb6, 0xb2, 0xbc, 0xb6, 0xf3, 0x13, 0xbe,
  0x0c, 0xa0, 0x31, 0xbe, 0x9e, 0xe2, 0xac, 0x3d, 0xc9, 0x27, 0x5a, 0xbe,
  0x37, 0xd1, 0x07, 0xbe, 0xd6, 0x5a, 0xd3, 0xbc, 0xe9, 0x0d, 0x6b, 0xbe,
  0x3a, 0x4e, 0xa8, 0xbd, 0x8a, 0x34, 0x5f, 0xbe, 0x0c, 0x1b, 0xa1, 0x3d,
  0xa2, 0x43, 0x18, 0xbe, 0x65, 0xf9, 0xc4, 0xbd, 0xed, 0xb9, 0xdb, 0xbd,
  0x7b, 0xb2, 0x8b, 0x3c, 0xeb, 0x7a, 0x24, 0xbe, 0x2e, 0x41, 0xa8, 0xbc,
  0x1d, 0xc3, 0x6e, 0x3e, 0x33, 0xd9, 0x01, 0xbe, 0xae, 0x2d, 0xac, 0xbd,
  0x92, 0x46, 0x19, 0x3e, 0xa3, 0x6b, 0xd1, 0x3c, 0x50, 0x3b, 0xc7, 0xbe,
  0xf9, 0xf0, 0x9b, 0xbd, 0x49, 0x27, 0x05, 0x3d, 0xe6, 0x36, 0xb2, 0xbe,
  0x88, 0x6c, 0xdb, 0x3e, 0x0d, 0x0b, 0x29, 0x3f, 0x2b, 0x91, 0x10, 0xbe,
  0xf2, 0x59, 0x13, 0x3e, 0x9e, 0x2c, 0x4b, 0xbe, 0x15, 0x06, 0xc4, 0x3d,
  0xaf, 0x45, 0x81, 0x3e, 0xcc, 0x7c, 0x1b, 0x3c, 0xf1, 0xf5, 0x5b, 0x3d,
  0x99, 0x8c, 0x5a, 0x3d, 0xa0, 0x93, 0x88, 0x3e, 0x0f, 0xbc, 0x9b, 0xbb,
  0xb9, 0xec, 0xed, 0xbe, 0xa6, 0x9d, 0xde, 0xbd, 0xf1, 0x74, 0x20, 0xbc,
  0xd2, 0xc4, 0xb3, 0xbd, 0xf3, 0x2e, 0x95, 0x3e, 0x7b, 0x30, 0x33, 0x3c,
  0xaa, 0x50, 0x34, 0x3e, 0x12, 0x77, 0x3e, 0x3d, 0x4e, 0xde, 0xe3, 0xbd,
  0xb4, 0x26, 0x49, 0x3c, 0x64, 0xe9, 0x86, 0x3e, 0xd0, 0xb7, 0xa7, 0x39,
  0x05, 0x98, 0xcd, 0xbc, 0x10, 0x64, 0x3f, 0x3e, 0x5a, 0xff, 0x50, 0x3d,
  0x41, 0xa6, 0x50, 0xbd, 0x9d, 0x26, 0x2d, 0x3d, 0x17, 0x58, 0x3e, 0x3e,
  0x62, 0x14, 0x55, 0xbe, 0xec, 0x89, 0xc4, 0x3d, 0x3d, 0x00, 0x42, 0x3e,
  0xde, 0xea, 0xf5, 0xbd, 0xc8, 0xd2, 0x01, 0x3e, 0xd6, 0x9e, 0x2a, 0x3e,
  0x7b, 0x07, 0x27, 0xbd, 0x21, 0xd2, 0x20, 0x3c, 0x85, 0xf3, 0x95, 0x3e,
  0x5f, 0xd5, 0xf2, 0xbd, 0x58, 0xc7, 0xfb, 0xbc, 0xa2, 0x92, 0xac, 0x3e,
  0x36, 0xf3, 0x3a, 0x3e, 0x1f, 0x0c, 0xef, 0xbc, 0xfd, 0x5e, 0x7c, 0x3d,
  0xaa, 0x7c, 0x43, 0x3e, 0x49, 0x66, 0xc4, 0xbe, 0xc0, 0xaf, 0x45, 0x3e,
  0xf3, 0x99, 0xd4, 0x3e, 0xf1, 0x94, 0xca, 0xbd, 0x5b, 0xf9, 0xa2, 0xbd,
  0x38, 0xe2, 0x13, 0x3e, 0x58, 0x0b, 0x66, 0xbd, 0xb0, 0xd0, 0xd3, 0x3e,
  0xd5, 0xf8, 0x72, 0x3e, 0xcc, 0x02, 0x94, 0x3d, 0x74, 0x9c, 0xb2, 0xbc,
  0x8a, 0x28, 0xfb, 0x3e, 0xbf, 0x32, 0x0a, 0x3e, 0x58, 0xb0, 0x1d, 0xbe,
  0x26, 0xac, 0xb9, 0xbc, 0x16, 0xee, 0xac, 0x3e, 0x9f, 0xb6, 0x62, 0xbe,
  0x3a, 0xba, 0xe4, 0x3d, 0x9a, 0x28, 0x2a, 0x3e, 0xa1, 0x84, 0x0c, 0xbd,
  0x56, 0xd1, 0x15, 0xbe, 0xbf, 0xb0, 0xd3, 0x3d, 0x5c, 0xb3, 0x4e, 0x3e,
  0x12, 0x52, 0xaa, 0x3e, 0x8d, 0x80, 0xa5, 0x3e, 0x47, 0x83, 0xc0, 0x3d,
  0x4b, 0xef, 0x0c, 0x3e, 0x0b, 0xda, 0xff, 0x3e, 0x25, 0x18, 0x1f, 0x3d,
  0x3d, 0xf9, 0x0a, 0xbe, 0x02, 0x80, 0x21, 0x3e, 0x04, 0xd1, 0x15, 0xbd,
  0x56, 0x2e, 0x78, 0xbd, 0x52, 0xf4, 0xe5, 0xbd, 0x32, 0x22, 0x95, 0x3e,
  0xfc, 0xa8, 0x5a, 0x3d, 0x31, 0x82, 0x3e, 0xbe, 0xe3, 0x25, 0xcc, 0x3d,
  0xc6, 0xee, 0x2f, 0x3e, 0xfe, 0x31, 0xb9, 0xbd, 0xc3, 0xc5, 0x3c, 0x3e,
  0x87, 0x42, 0x77, 0x3e, 0xb3, 0xfa, 0x29, 0x3e, 0x5c, 0x5f, 0x87, 0x3e,
  0x16, 0x7e, 0x27, 0xbd, 0xd2, 0x27, 0xc5, 0x3d, 0xa9, 0xbf, 0x0a, 0x3e,
  0x2d, 0x58, 0xd1, 0x3e, 0xb4, 0x7c, 0x11, 0xbd, 0x2c, 0xa2, 0x09, 0xbd,
  0x55, 0x16, 0x8b, 0x3d, 0xf8, 0x61, 0x3d, 0x3c, 0x3e, 0x6d, 0x6e, 0xbe,
  0xea, 0xc6, 0x17, 0xbc, 0x0b, 0x1d, 0x31, 0x3e, 0x98, 0xd2, 0x01, 0xbd,
  0xc6, 0x2d, 0x36, 0x3e, 0x8a, 0x7e, 0x39, 0x3e, 0x67, 0xf9, 0xd8, 0x3d,
  0x41, 0x0a, 0xca, 0x3e, 0xae, 0x69, 0x48, 0xbc, 0xed, 0x37, 0xaa, 0x3d,
  0xdd, 0xd9, 0xe8, 0x3d, 0xe0, 0xdf, 0x42, 0x3a, 0x71, 0xb9, 0xbe, 0xbd,
  0x53, 0xe0, 0x89, 0x3d, 0x4c, 0x4c, 0xcd, 0x3e, 0x6b, 0x56, 0x8f, 0x3d,
  0x68, 0x4f, 0x48, 0xbe, 0x44, 0x64, 0x02, 0xbe, 0x5a, 0xa3, 0x22, 0xbd,
  0x53, 0x98, 0xb8, 0x3d, 0xc9, 0xd3, 0xdf, 0x3d, 0x36, 0x01, 0xa5, 0x3d,
  0xed, 0xe0, 0x16, 0xbe, 0x06, 0xf7, 0x8e, 0x3e, 0x02, 0x07, 0xa9, 0x3c,
  0xc5, 0x7f, 0xe7, 0x3c, 0xa5, 0xdc, 0x4e, 0x3d, 0xd4, 0x74, 0x9e, 0x3d,
  0x05, 0x9d, 0x94, 0x3d, 0xe1, 0xa3, 0x51, 0xbd, 0x21, 0xea, 0x4c, 0x3e,
  0xcf, 0xa7, 0x55, 0xbd, 0x33, 0xa4, 0xc4, 0xbd, 0x66, 0x2b, 0x19, 0x3e,
  0x75, 0x2a, 0xe4, 0x3d, 0x3c, 0xcc, 0xcf, 0x3d, 0x1d, 0xd4, 0x9b, 0x3e,
  0x28, 0x26, 0x1f, 0xbe, 0xed, 0x2e, 0x7b, 0xbd, 0x59, 0x59, 0x96, 0x3e,
  0x42, 0xb7, 0xb9, 0xbc, 0xbe, 0x4a, 0xc2, 0xbc, 0xb3, 0x6d, 0x1c, 0xbe,
  0x57, 0x37, 0xd9, 0x3c, 0xed, 0xec, 0x83, 0xbe, 0x9a, 0xd2, 0x9d, 0x3e,
  0x70, 0x2a, 0xe5, 0x3e, 0xca, 0x28, 0x4a, 0xbd, 0x96, 0x91, 0xe0, 0x3d,
  0xba, 0xc8, 0xb8, 0x3d, 0xe5, 0xd3, 0x49, 0xbe, 0x92, 0x9d, 0x5c, 0x3e,
  0x6b, 0x5c, 0xc1, 0xbd, 0x92, 0x65, 0xa3, 0xbc, 0x10, 0x08, 0xab, 0x3d,
  0x4a, 0xbb, 0x31, 0x3e, 0x6f, 0x32, 0xe4, 0x3d, 0x51, 0x69, 0x04, 0xbe,
  0x43, 0x93, 0xca, 0xbe, 0x78, 0xb8, 0x82, 0x3e, 0xd9, 0xd8, 0x40, 0xbe,
  0x8c, 0x4e, 0x8c, 0x3d, 0x29, 0xd7, 0xb4, 0x3d, 0x6e, 0xba, 0xce, 0xbd,
  0xa8, 0x4e, 0x44, 0x3c, 0xdd, 0x32, 0x2a, 0x3e, 0x50, 0x9e, 0x8a, 0xbc,
  0x6b, 0xcb, 0x0a, 0x3e, 0xdb, 0x6d, 0xb3, 0x3e, 0x7a, 0x8a, 0xe0, 0xbd,
  0x6e, 0xe5, 0xdb, 0xbd, 0x2c, 0xb2, 0x2e, 0x3e, 0x1f, 0x10, 0x50, 0x3d,
  0xc6, 0xd6, 0x40, 0xbe, 0x1d, 0xcd, 0xb5, 0x3e, 0x78, 0xff, 0x9c, 0x3e,
  0x6a, 0xdf, 0xf4, 0x3c, 0x3d, 0x2c, 0x22, 0x3e, 0x13, 0x82, 0x48, 0x3e,
  0x8e, 0x9e, 0x0f, 0xbe, 0x82, 0x3c, 0x3e, 0x3e, 0xfa, 0x92, 0xdf, 0x3d,
  0x38, 0x3c, 0x8f, 0xbe, 0xef, 0x57, 0xff, 0x3d, 0xaf, 0xd2, 0x91, 0x3e,
  0x02, 0xcb, 0x98, 0xbd, 0xb2, 0x2f, 0x18, 0xbe, 0x6c, 0xc6, 0xcf, 0x3e,
  0xbb, 0xc5, 0x38, 0xbd, 0x23, 0x5c, 0x1b, 0xbe, 0x9e, 0x72, 0x4b, 0xbe,
  0x61, 0x13, 0x8a, 0x3e, 0x79, 0x0d, 0xee, 0x3d, 0xb7, 0x98, 0x52, 0xbe,
  0x48, 0x58, 0x97, 0x3d, 0xb7, 0x02, 0x8c, 0xbd, 0x1f, 0xdc, 0x26, 0x3e,
  0xd4, 0xd6, 0x51, 0x3d, 0xd9, 0x71, 0x50, 0xbe, 0x06, 0xbc, 0x8a, 0xbd,
  0x29, 0x57, 0xb6, 0xbd, 0xaa, 0x53, 0x2b, 0xbe, 0x2b, 0x32, 0x31, 0xbe,
  0xf3, 0xc1, 0xdf, 0x3e, 0xc4, 0x75, 0xab, 0x3d, 0x17, 0x9d, 0x52, 0xbd,
  0xaf, 0x4c, 0xa0, 0x3d, 0x1a, 0x2f, 0x88, 0x3d, 0x54, 0xfb, 0x98, 0xbe,
  0xd8, 0xd2, 0xc8, 0xbd, 0x7d, 0x2f, 0x3a, 0x3c, 0x13, 0x80, 0xc8, 0xbd,
  0xac, 0xd3, 0x2b, 0x3e, 0x21, 0x97, 0x17, 0xbe, 0x5c, 0xec, 0x64, 0xbd,
  0x10, 0xa2, 0xbe, 0xbe, 0xc5, 0x19, 0x4a, 0x3e, 0xf0, 0x01, 0x3b, 0xbe,
  0x81, 0x90, 0xf3, 0xbd, 0xb9, 0x08, 0x23, 0xbb, 0xd7, 0x93, 0x95, 0xbc,
  0xbb, 0x30, 0x6e, 0xbe, 0xf3, 0xd2, 0x85, 0xbe, 0xac, 0x7a, 0x7e, 0xbe,
  0x3e, 0xa5, 0xc1, 0x3c, 0x4b, 0x96, 0x4d, 0xbe, 0x88, 0x86, 0x8b, 0x3d,
  0x22, 0x30, 0x96, 0x3e, 0x07, 0x18, 0x83, 0x3c, 0x04, 0x0e, 0xba, 0x3d,
  0x36, 0xb7, 0xa8, 0xbe, 0xba, 0x39, 0xbc, 0xbd, 0x30, 0xa1, 0x80, 0x3d,
  0x85, 0x7a, 0xaa, 0xbe, 0x4b, 0x1b, 0xc3, 0xbe, 0xcb, 0x7f, 0xb4, 0xbd,
  0xd9, 0xc3, 0x20, 0xbe, 0xf6, 0x69, 0xb9, 0xbd, 0x60, 0x5f, 0x8f, 0xbe,
  0xec, 0xf1, 0x15, 0xbd, 0xca, 0x6d, 0xd4, 0xbd, 0x05, 0xd8, 0xf5, 0x3c,
  0x89, 0x52, 0x2e, 0x3c, 0x20, 0x0e, 0xa1, 0x3c, 0x84, 0x77, 0xd3, 0x3d,
  0x39, 0xcb, 0x0b, 0xbe, 0x6e, 0xba, 0xa8, 0xbe, 0xb5, 0x8d, 0xec, 0xbd,
  0xba, 0x6e, 0x01, 0x3e, 0xfd, 0x9b, 0xba, 0xbe, 0x57, 0x53, 0xea, 0xbe,
  0xd2, 0xe9, 0xf8, 0xbc, 0x51, 0x6c, 0x45, 0xbe, 0xf2, 0x41, 0x20, 0xbe,
  0x23, 0x25, 0x18, 0x3c, 0x51, 0xf0, 0xdd, 0x3d, 0x96, 0xe0, 0x8f, 0xbd,
  0x4c, 0x83, 0xae, 0x3c, 0x82, 0xb7, 0x9a, 0x3e, 0xfb, 0x4a, 0x4f, 0xbe,
  0xf3, 0xe4, 0x44, 0x3e, 0xd2, 0x56, 0x37, 0x39, 0xb6, 0x0f, 0x95, 0xbe,
  0x17, 0xb9, 0x91, 0xbe, 0xa7, 0xa3, 0x5a, 0xbd, 0x86, 0x70, 0x27, 0xbe,
  0x5a, 0x76, 0x50, 0xbe, 0xda, 0xe3, 0x26, 0x3e, 0x79, 0x04, 0xc7, 0xbd,
  0xa5, 0xa7, 0x0c, 0xbe, 0x9c, 0xe9, 0x2a, 0xbe, 0x6f, 0x18, 0xac, 0x3b,
  0xc6, 0x05, 0xbf, 0xbc, 0xf5, 0xb6, 0xd2, 0x3d, 0xef, 0xe6, 0x2f, 0x3d,
  0xca, 0x6e, 0x8a, 0xbe, 0x45, 0x54, 0xae, 0x3d, 0x51, 0x7d, 0xe4, 0xbc,
  0xb1, 0x73, 0xd9, 0xbd, 0x37, 0x89, 0xa1, 0x3d, 0x03, 0x18, 0x62, 0x3e,
  0x26, 0xab, 0x57, 0xbe, 0x44, 0x7c, 0xa8, 0xbd, 0xfd, 0xc7, 0x97, 0xbc,
  0xda, 0xc9, 0x8a, 0x3c, 0x41, 0x98, 0x32, 0xbe, 0x59, 0x0f, 0x59, 0xbd,
  0x1f, 0xc1, 0xf5, 0x3d, 0x59, 0x83, 0xe2, 0xbd, 0xca, 0x8d, 0x17, 0x3e,
  0xd6, 0xab, 0xf6, 0x3d, 0x85, 0x57, 0x1c, 0xbd, 0x3a, 0xd0, 0xa4, 0x3d,
  0x96, 0x2b, 0xc2, 0xbd, 0xcb, 0xfe, 0x93, 0xbd, 0x7a, 0x68, 0x92, 0xbd,
  0x5a, 0x01, 0xd4, 0xbd, 0x02, 0x89, 0xbe, 0xbe, 0xf5, 0xb3, 0xc4, 0xbb,
  0xd0, 0x4b, 0x9b, 0x3e, 0xbc, 0xbd, 0x46, 0x3d, 0x94, 0x84, 0x63, 0x3d,
  0x65, 0xdd, 0x2e, 0x3e, 0x93, 0x4b, 0xf1, 0xbd, 0x17, 0xaf, 0x43, 0xbe,
  0xf8, 0xe9, 0x65, 0x3e, 0x5a, 0xf9, 0xf2, 0x3d, 0xfc, 0x30, 0x45, 0xbe,
  0x4f, 0x85, 0x66, 0xbd, 0x0d, 0x49, 0xdf, 0xbc, 0xc9, 0x96, 0x41, 0xbe,
  0x36, 0x50, 0x3b, 0xbe, 0xdb, 0xdb, 0x57, 0xbd, 0x49, 0x36, 0xba, 0xbe,
  0x78, 0x6a, 0x48, 0xbd, 0x35, 0x43, 0x23, 0x3c, 0x27, 0xc9, 0x76, 0xbc,
  0x8d, 0x1f, 0x9f, 0xbd, 0x95, 0xd8, 0x08, 0x3e, 0x95, 0x2d, 0x8e, 0xbe,
  0x3c, 0x7f, 0x55, 0xbd, 0x77, 0x1f, 0xe6, 0x3d, 0xfb, 0x2f, 0xff, 0x3c,
  0x55, 0x03, 0x96, 0xbe, 0x25, 0x44, 0x42, 0xbc, 0x16, 0x8b, 0xa7, 0xbc,
  0x66, 0x44, 0x6b, 0xbe, 0x7b, 0xf0, 0x3f, 0xbe, 0x15, 0xbe, 0x0c, 0xbe,
  0xb2, 0xd5, 0xa8, 0xbe, 0x35, 0xc6, 0xd1, 0xbd, 0xfc, 0x3b, 0x15, 0xbe,
  0x5d, 0x86, 0xa1, 0xbd, 0xeb, 0x04, 0x8b, 0xbd, 0x97, 0x9e, 0xb9, 0x3d,
  0xff, 0x73, 0x9a, 0xbd, 0x21, 0xeb, 0x87, 0xbe, 0xc8, 0xcd, 0x24, 0x3e,
  0x14, 0x76, 0x1b, 0x3e, 0x7b, 0xc7, 0x79, 0xbe, 0x58, 0x4b, 0x3c, 0x3e,
  0xb3, 0xd2, 0x82, 0xbe, 0x03, 0x0b, 0xa1, 0xbd, 0x0e, 0x0d, 0xff, 0xbd,
  0xce, 0x35, 0x92, 0x3d, 0x31, 0xb4, 0x3c, 0xbe, 0x85, 0x06, 0x30, 0xbd,
  0x79, 0x6e, 0x25, 0xbd, 0xc8, 0xfd, 0x1c, 0xbe, 0xc3, 0x8a, 0x2a, 0x3d,
  0x27, 0xea, 0xc0, 0xbd, 0x88, 0x38, 0x6c, 0x3e, 0xaf, 0x28, 0xc2, 0xbd,
  0xac, 0xbe, 0x46, 0x3d, 0x19, 0x48, 0x56, 0xbe, 0x60, 0xf0, 0x7c, 0xbe,
  0x80, 0x71, 0xa3, 0xbd, 0x1b, 0x42, 0x21, 0xbe, 0x4b, 0x4c, 0xc7, 0xbe,
  0xcd, 0x84, 0xc3, 0x3d, 0x41, 0x35, 0x16, 0xbe, 0x80, 0xf7, 0x19, 0x3c,
  0xf7, 0x7d, 0x5d, 0xbe, 0x81, 0x61, 0x02, 0xbe, 0x4b, 0xf6, 0x7b, 0x3c,
  0x50, 0x0c, 0xca, 0xbe, 0x9d, 0x77, 0x86, 0xbc, 0xf3, 0xf8, 0xc9, 0x3e,
  0xce, 0x63, 0x9c, 0x3e, 0x8c, 0xc9, 0xa7, 0xbd, 0xc9, 0x95, 0xb7, 0xbe,
  0x31, 0x84, 0xe9, 0xbe, 0xe6, 0x5b, 0xb7, 0xbb, 0x52, 0x11, 0x9c, 0x3e,
  0xd7, 0xbc, 0x92, 0xbc, 0x36, 0x6e, 0x96, 0x3e, 0xd4, 0x6c, 0x04, 0xbc,
  0x16, 0x5c, 0xcf, 0x3e, 0x45, 0x58, 0xa2, 0xbe, 0x39, 0xc6, 0xbe, 0x3c,
  0x81, 0x9e, 0xb7, 0xbe, 0xf7, 0x14, 0xd1, 0xbe, 0x3e, 0xf5, 0xf6, 0x3c,
  0x42, 0x25, 0x6c, 0x3e, 0x12, 0x54, 0xb5, 0xbe, 0x47, 0xf2, 0x01, 0x3e,
  0x1b, 0x91, 0x66, 0xbd, 0x3e, 0x74, 0xf2, 0xbe, 0x61, 0xbd, 0x5b, 0xbd,
  0xe8, 0x9c, 0xa3, 0xbe, 0x96, 0x75, 0x57, 0x3d, 0x63, 0x22, 0xc1, 0x3e,
  0x2c, 0xec, 0x84, 0xbe, 0x1e, 0x0d, 0x89, 0x3e, 0x0d, 0x8d, 0x46, 0x3e,
  0xcb, 0x0a, 0xac, 0xbe, 0xd3, 0x79, 0x46, 0xbe, 0x3d, 0x7f, 0xa0, 0x3d,
  0x87, 0x60, 0x2f, 0xbd, 0x66, 0xbd, 0x62, 0x3e, 0x55, 0xa7, 0x53, 0xbe,
  0xb8, 0x42, 0xa5, 0x3b, 0x64, 0xcb, 0x1d, 0xbe, 0x6d, 0xd4, 0x8d, 0x3e,
  0xe1, 0xc7, 0x7b, 0xbe, 0x6a, 0x05, 0x70, 0xbd, 0xf4, 0xe6, 0xb9, 0x3c,
  0x99, 0xa9, 0x5e, 0x3e, 0x31, 0xeb, 0xe4, 0xbe, 0xf5, 0x5a, 0xc4, 0x3d,
  0x37, 0x50, 0x71, 0x3d, 0x8f, 0xeb, 0x5b, 0xbe, 0xdc, 0xa5, 0x12, 0xbe,
  0x36, 0x3d, 0xcd, 0x3b, 0x7d, 0xd5, 0x2f, 0x3e, 0x1c, 0x6d, 0x0e, 0xbd,
  0xbc, 0x99, 0x01, 0xbe, 0x37, 0x35, 0x8c, 0x3e, 0x77, 0x83, 0xb8, 0xbe,
  0xe2, 0x54, 0x9a, 0xbb, 0x44, 0x00, 0x8b, 0xbe, 0x44, 0x75, 0xa2, 0xbe,
  0xd9, 0x2b, 0x03, 0x3e, 0x8b, 0xf9, 0x1e, 0x3e, 0xc8, 0x8f, 0x5a, 0xbc,
  0xf0, 0xcb, 0xaf, 0x3e, 0x68, 0xad, 0x66, 0x3c, 0xb1, 0x1a, 0xd0, 0xbd,
  0x21, 0xcf, 0x9c, 0xbe, 0x9b, 0x02, 0x42, 0xbc, 0xe2, 0xc1, 0x64, 0xbd,
  0x4e, 0x51, 0xab, 0xbe, 0x1b, 0x79, 0x85, 0xbd, 0x2f, 0x9c, 0xcc, 0x3d,
  0xbc, 0x9c, 0x12, 0xbe, 0xe6, 0x6d, 0x62, 0x3e, 0xcf, 0xc9, 0xb5, 0xbe,
  0x0b, 0xa0, 0xed, 0xbd, 0x91, 0x3a, 0x64, 0x3e, 0x02, 0x71, 0xd5, 0xbe,
  0xb5, 0xe3, 0x2d, 0x3e, 0xf4, 0xfa, 0xbb, 0x3d, 0x26, 0xb8, 0xa2, 0x3d,
  0xc1, 0x31, 0x72, 0xbd, 0x0b, 0x7c, 0xbc, 0xbc, 0xa2, 0x54, 0x3e, 0x3e,
  0x0c, 0x9a, 0xae, 0xbd, 0x49, 0xf7, 0x91, 0xbe, 0xa4, 0xa5, 0x04, 0xbe,
  0xf0, 0x62, 0xc5, 0x3d, 0x52, 0x3b, 0x2d, 0xbe, 0x5f, 0xe9, 0x1f, 0x3e,
  0x4b, 0xa2, 0x6e, 0xbe, 0xdc, 0x85, 0x1f, 0xbe, 0x54, 0x86, 0x2b, 0xbe,
  0x3a, 0x80, 0x64, 0xbd, 0x73, 0x67, 0x83, 0x3d, 0x9f, 0x93, 0x0d, 0x3e,
  0x5c, 0x77, 0xb2, 0x3d, 0xcf, 0xe6, 0x9a, 0xbe, 0xf8, 0x0f, 0x16, 0xbd,
  0x1e, 0x9c, 0x57, 0x3e, 0xa7, 0xd6, 0x88, 0x3e, 0x49, 0x9b, 0x26, 0xbf,
  0x37, 0x57, 0x81, 0x3e, 0xb5, 0xf9, 0x2e, 0xbc, 0x07, 0x97, 0x75, 0xbe,
  0x4a, 0xbc, 0xe0, 0x3c, 0x62, 0x1a, 0x1c, 0x3d, 0xa0, 0x99, 0xa4, 0xbc,
  0x6b, 0x92, 0x94, 0x3e, 0x8f, 0x0d, 0x90, 0xbe, 0x42, 0xc7, 0x1e, 0x3e,
  0xf5, 0x23, 0x43, 0xbe, 0xf5, 0x3d, 0x6a, 0x3d, 0x6b, 0xa2, 0x06, 0xbe,
  0xb9, 0x4f, 0x2b, 0x3e, 0xe7, 0xf0, 0x0a, 0x3f, 0x73, 0x55, 0x37, 0x3d,
  0xf8, 0x09, 0x76, 0xbe, 0x11, 0x6c, 0x91, 0x3e, 0xea, 0xf7, 0x14, 0xbe,
  0x64, 0xbd, 0x60, 0x3e, 0x16, 0x6c, 0xc2, 0x3d, 0xe2, 0x50, 0xed, 0x3d,
  0x6a, 0x8a, 0x3a, 0xbe, 0x46, 0xd0, 0x8f, 0xbd, 0xb3, 0x4e, 0x4e, 0xbe,
  0x58, 0xba, 0x2f, 0xbe, 0x3c, 0xd8, 0xdd, 0xbd, 0x85, 0x0e, 0xbd, 0x3d,
  0xa4, 0xac, 0x8b, 0x3e, 0xa7, 0xa0, 0xb5, 0xbd, 0x36, 0xd4, 0x33, 0x3e,
  0x89, 0xb4, 0xfd, 0xbd, 0xe8, 0x5e, 0xfe, 0xbd, 0x8a, 0x43, 0xa2, 0x3d,
  0x81, 0xd3, 0x5e, 0x3e, 0xb3, 0x0b, 0xdb, 0x3c, 0xa5, 0xac, 0x63, 0xbe,
  0x5b, 0x79, 0xd5, 0xbd, 0x56, 0x6f, 0xa7, 0xbe, 0xdb, 0x46, 0x07, 0xbd,
  0x41, 0xb1, 0x0a, 0xbc, 0x98, 0x54, 0x44, 0xbe, 0xb1, 0x35, 0x48, 0xbe,
  0x5b, 0x11, 0x2b, 0x3e, 0x57, 0x47, 0xb5, 0x3e, 0xb2, 0x23, 0x39, 0xbe,
  0x0a, 0x37, 0x81, 0xbe, 0xcb, 0xc0, 0x67, 0xbb, 0x13, 0xd2, 0xc2, 0xbe,
  0x54, 0xe2, 0xbe, 0xbe, 0x4c, 0xd6, 0x87, 0x3d, 0x1a, 0xb4, 0xa0, 0xbe,
  0xa4, 0x13, 0xa7, 0xbe, 0x35, 0x74, 0x64, 0xbd, 0xde, 0xe1, 0xa6, 0xbe,
  0xf8, 0x64, 0xe2, 0x3d, 0x53, 0xaf, 0x97, 0xbc, 0x28, 0x65, 0x3b, 0xbd,
  0x55, 0x71, 0x48, 0xbd, 0x38, 0x48, 0xcf, 0xbd, 0xe7, 0x6b, 0x61, 0xbe,
  0x61, 0x73, 0x43, 0xbe, 0x6a, 0x05, 0x06, 0xbe, 0x11, 0x72, 0x4b, 0x3d,
  0xea, 0x11, 0x0a, 0xbe, 0x63, 0xb6, 0xf7, 0xbd, 0x68, 0x99, 0x71, 0x3d,
  0x88, 0x3f, 0xb1, 0xbe, 0xc7, 0xad, 0x44, 0xbd, 0x3e, 0x2d, 0xdb, 0x3c,
  0x67, 0xfb, 0xdc, 0x3d, 0x58, 0xc3, 0x10, 0x3e, 0x46, 0x65, 0xa4, 0x3d,
  0x53, 0xb3, 0x1b, 0xbe, 0x20, 0xff, 0xea, 0xbd, 0xa4, 0x25, 0xe2, 0xbd,
  0xa9, 0x70, 0x88, 0xbe, 0xb0, 0x76, 0x00, 0xbe, 0x0e, 0xde, 0x58, 0xbd,
  0x8b, 0x5c, 0xd3, 0xbd, 0xe2, 0x74, 0x08, 0xbd, 0x79, 0x14, 0x62, 0xbe,
  0xd3, 0xd9, 0x1d, 0x3e, 0xe0, 0xa6, 0x25, 0xbe, 0x96, 0x99, 0x9a, 0x3c,
  0x6b, 0xab, 0xa8, 0x3d, 0xe4, 0x23, 0x27, 0xbd, 0x42, 0xc8, 0x9a, 0xbd,
  0x89, 0x4a, 0xc2, 0xbe, 0x8a, 0x02, 0x09, 0x3d, 0xd6, 0x16, 0x76, 0xbd,
  0x76, 0x8a, 0x9f, 0x3c, 0xaf, 0xe2, 0x96, 0xbe, 0xad, 0xce, 0xb2, 0xbd,
  0xee, 0x73, 0x63, 0xbe, 0x2e, 0x9c, 0x47, 0xbe, 0x2f, 0x68, 0x55, 0xbe,
  0x66, 0xd4, 0x2f, 0xbd, 0x54, 0x61, 0x99, 0xbd, 0xd6, 0xe2, 0x30, 0x3c,
  0xb9, 0x3a, 0x72, 0x3d, 0xe1, 0xbc, 0x88, 0x3d, 0x48, 0x0d, 0x32, 0xbd,
  0x3c, 0x3f, 0x33, 0xbe, 0xb3, 0xdf, 0x33, 0xbe, 0x8c, 0x24, 0xf2, 0xbd,
  0xb3, 0x5f, 0xba, 0xbd, 0x30, 0x00, 0x6c, 0xbd, 0x16, 0xdb, 0x25, 0xbe,
  0x5c, 0x7b, 0x15, 0xbe, 0xd3, 0xc5, 0x34, 0x3d, 0xaf, 0x3b, 0x57, 0xbe,
  0xa3, 0x34, 0x00, 0xbe, 0x50, 0x60, 0x1e, 0xbd, 0xf7, 0xa3, 0x16, 0x3d,
  0x6d, 0x1f, 0x5d, 0x3c, 0xbf, 0xe4, 0x83, 0xbe, 0x0a, 0x35, 0x61, 0x3d,
  0x1b, 0x53, 0xd5, 0xbe, 0x1c, 0xa6, 0x0f, 0xbf, 0xe3, 0x93, 0x99, 0xbe,
  0x64, 0x49, 0x1d, 0xbe, 0x67, 0xaf, 0x54, 0xbe, 0x1f, 0xfc, 0xb8, 0xbd,
  0x81, 0x9c, 0x0c, 0xbe, 0x7d, 0xde, 0xbb, 0xbe, 0xb6, 0x82, 0xb8, 0x3d,
  0x20, 0x4b, 0x2a, 0xbe, 0xc3, 0x49, 0x72, 0xbe, 0x53, 0xe5, 0xe5, 0xbd,
  0x2c, 0xf5, 0x8d, 0x3d, 0x50, 0x14, 0x1d, 0x3e, 0xd3, 0x01, 0xc7, 0xbd,
  0xbc, 0x18, 0x1a, 0xbd, 0x57, 0xc3, 0x86, 0xbd, 0x78, 0x17, 0xbd, 0xbe,
  0xcf, 0x17, 0xef, 0xbd, 0xa2, 0x63, 0x86, 0xbe, 0x5f, 0x65, 0x2d, 0x3d,
  0x41, 0x46, 0x20, 0x3e, 0x60, 0xec, 0x88, 0xbd, 0x3e, 0x9a, 0xb6, 0x3d,
  0x0e, 0xa4, 0x98, 0x3e, 0x88, 0x36, 0x9f, 0x3d, 0xc3, 0x65, 0xec, 0xbe,
  0xf7, 0x48, 0xd4, 0x3e, 0xb8, 0xfc, 0xfe, 0xbb, 0xf8, 0xf3, 0x99, 0xbe,
  0x07, 0x0f, 0x4b, 0x3d, 0xc7, 0xf3, 0x96, 0xbe, 0x59, 0x65, 0xa9, 0xbe,
  0xe6, 0xbb, 0x9a, 0xbd, 0x9d, 0x28, 0x0b, 0xbe, 0xb3, 0x9b, 0xd5, 0x3d,
  0x33, 0x2a, 0xd4, 0x3d, 0x9f, 0xb0, 0x57, 0x3e, 0xa4, 0x53, 0xa6, 0xbe,
  0xa4, 0x19, 0x3b, 0x3c, 0xce, 0xba, 0xb4, 0x3e, 0xef, 0x3d, 0xee, 0x3e,
  0x72, 0x1e, 0x78, 0xbe, 0xb9, 0xb3, 0xdb, 0x3e, 0x12, 0x7f, 0x23, 0xbd,
  0x87, 0x73, 0x08, 0x3e, 0x51, 0x80, 0x1f, 0x3e, 0x91, 0x56, 0xc3, 0xbb,
  0x64, 0x10, 0xc3, 0x3d, 0xa9, 0xdc, 0x57, 0x3e, 0xb0, 0xba, 0xac, 0xbe,
  0x91, 0x8b, 0x4d, 0x3e, 0x06, 0xe8, 0x85, 0xbe, 0x49, 0x62, 0x27, 0xbe,
  0x0e, 0x78, 0xba, 0x3d, 0xf2, 0x62, 0x24, 0x3d, 0x07, 0xea, 0xbd, 0x3e,
  0x8d, 0xf4, 0xa9, 0xbe, 0xb3, 0xf5, 0xd8, 0xbc, 0x82, 0x0b, 0xa9, 0x3e,
  0x81, 0x7e, 0x23, 0xbe, 0x85, 0x37, 0x4f, 0x3e, 0x46, 0x1e, 0x02, 0x3e,
  0x8e, 0x4d, 0x61, 0x3d, 0x7e, 0xd7, 0x69, 0x3c, 0x04, 0x8c, 0x09, 0xbe,
  0xd9, 0x5c, 0x80, 0xbe, 0xaf, 0x91, 0xe6, 0xbe, 0xd1, 0xa0, 0xab, 0xbe,
  0x12, 0x4a, 0x7b, 0xbd, 0x27, 0xde, 0xc8, 0x3e, 0xf7, 0xaa, 0x1b, 0xbe,
  0x32, 0x38, 0x9c, 0xbe, 0x90, 0x90, 0x3d, 0xbe, 0x41, 0xd4, 0x38, 0xbe,
  0x35, 0xdd, 0x42, 0xbe, 0xa8, 0x18, 0x59, 0x3e, 0x42, 0x13, 0x02, 0xbe,
  0x9e, 0xbe, 0x60, 0xbf, 0x38, 0xc6, 0x5b, 0xbe, 0x6a, 0xbe, 0x3b, 0x3d,
  0x51, 0xec, 0x27, 0xbf, 0x97, 0x8d, 0x0b, 0x3c, 0xc5, 0x4a, 0x1d, 0xbe,
  0xcb, 0xe3, 0x48, 0x3c, 0xfb, 0x85, 0xeb, 0xbd, 0xf4, 0x46, 0x8b, 0x3e,
  0xda, 0x18, 0xc6, 0xbc, 0xcc, 0x21, 0x6f, 0x3e, 0xbb, 0x63, 0x55, 0x3d,
  0x90, 0x09, 0x6b, 0xbe, 0xdc, 0x1d, 0x2d, 0x3e, 0x20, 0x77, 0xaf, 0xbe,
  0x1d, 0x1c, 0x12, 0xbe, 0x5f, 0xee, 0x2c, 0xbd, 0xc0, 0xcc, 0xba, 0xbc,
  0x70, 0x51, 0xa4, 0xb8, 0x4d, 0x82, 0x17, 0xbe, 0xeb, 0xe3, 0x65, 0xbe,
  0xf2, 0x30, 0x94, 0xbe, 0x2b, 0xf5, 0x34, 0xbe, 0x82, 0x5c, 0xad, 0x3e,
  0x94, 0x82, 0x03, 0x3f, 0x84, 0xf7, 0x39, 0x3d, 0x8b, 0xec, 0x82, 0xbc,
  0x20, 0x5d, 0x9a, 0xbd, 0x39, 0x57, 0xa8, 0xbe, 0x1e, 0xf1, 0xbf, 0x3e,
  0xe8, 0x68, 0x7d, 0x3e, 0xc0, 0x45, 0x82, 0xbe, 0x95, 0xb4, 0x15, 0xbe,
  0xac, 0x94, 0x1c, 0x3e, 0xd2, 0x6e, 0xde, 0xbe, 0x60, 0x06, 0x3e, 0x3a,
  0xc9, 0xf8, 0x37, 0x3e, 0xa5, 0x48, 0x8b, 0xbd, 0xd9, 0xae, 0x7a, 0xbd,
  0xa0, 0xdb, 0x0e, 0xbe, 0xca, 0xa4, 0xba, 0x3d, 0x8e, 0xc9, 0x56, 0xbc,
  0xd4, 0xe4, 0x5c, 0xbe, 0xf4, 0xe4, 0x98, 0xbd, 0xb0, 0xcf, 0x73, 0xbe,
  0x06, 0x37, 0x9d, 0x3c, 0xe7, 0x3b, 0x32, 0x3e, 0xb1, 0x82, 0x1b, 0xbf,
  0xb6, 0x54, 0x5c, 0xbe, 0x2b, 0x3a, 0xb6, 0x3e, 0x7b, 0xac, 0x21, 0xbd,
  0x8a, 0x1b, 0x5b, 0x3e, 0xef, 0xcf, 0x61, 0x3e, 0xf7, 0x73, 0x92, 0xbc,
  0xb2, 0x4c, 0xc1, 0xbb, 0x05, 0x8d, 0x5d, 0x3d, 0x1f, 0xb7, 0x3b, 0xbc,
  0x34, 0x62, 0x13, 0xbd, 0x59, 0x19, 0x81, 0x3d, 0x1e, 0x4a, 0x28, 0x3d,
  0x22, 0x04, 0x0e, 0xbe, 0x93, 0x45, 0x87, 0xbe, 0xdd, 0x1f, 0xfc, 0x3d,
  0x74, 0x8c, 0x4f, 0xbe, 0xbc, 0x5e, 0x31, 0xbd, 0x45, 0xee, 0xa8, 0x3e,
  0x46, 0x03, 0x24, 0xbe, 0x02, 0x43, 0xc4, 0x3d, 0x11, 0x42, 0x32, 0xbe,
  0x0b, 0x66, 0x3a, 0x3d, 0x86, 0xac, 0xd7, 0xbb, 0x81, 0x31, 0x65, 0x3e,
  0xcf, 0x70, 0x88, 0x3e, 0x17, 0x8f, 0xa7, 0xbc, 0x97, 0x4f, 0x84, 0x3d,
  0xeb, 0x5d, 0x10, 0x3d, 0x0d, 0x00, 0x83, 0xbd, 0x82, 0xb5, 0x5a, 0xbe,
  0x13, 0x0f, 0x55, 0x3c, 0xc2, 0xea, 0xbb, 0xbd, 0xf0, 0x22, 0xae, 0xbd,
  0x44, 0x51, 0x0c, 0x3e, 0xe9, 0x5f, 0x00, 0xbe, 0x3a, 0x5d, 0x84, 0x3c,
  0x47, 0x9b, 0xe6, 0x3d, 0xbb, 0x1d, 0x3f, 0xbd, 0x3b, 0x32, 0xf3, 0xbd,
  0x41, 0x83, 0xd2, 0x3d, 0xe6, 0x0e, 0x63, 0x3e, 0xd5, 0x28, 0xfc, 0xbc,
  0x6a, 0x76, 0xa6, 0xbb, 0xf9, 0x8b, 0x25, 0x3e, 0xe2, 0xe4, 0x55, 0x3e,
  0xd3, 0x0f, 0xfa, 0x3d, 0xf0, 0xef, 0x06, 0xbd, 0x07, 0x2f, 0xaa, 0x3d,
  0xfa, 0xd6, 0x22, 0xbd, 0x08, 0x40, 0x10, 0x3e, 0x5c, 0xb3, 0xf0, 0xbd,
  0xf2, 0xa2, 0xa3, 0x3d, 0x6b, 0x1d, 0x66, 0xbd, 0x1d, 0x7f, 0xa2, 0x3c,
  0x06, 0xb6, 0xc8, 0xbd, 0xb6, 0x11, 0x28, 0xba, 0x90, 0xf8, 0x9c, 0x3e,
  0xfc, 0x85, 0xe6, 0x3c, 0x61, 0x2e, 0x5b, 0x3d, 0xe2, 0x89, 0x91, 0x3d,
  0xb5, 0xca, 0x8f, 0xbe, 0x7e, 0x0f, 0x3d, 0xbe, 0x49, 0x8a, 0x01, 0x3e,
  0x80, 0x85, 0x67, 0xbd, 0xe0, 0xf7, 0x12, 0xbe, 0x8b, 0xcd, 0x15, 0x3e,
  0xc9, 0xd7, 0x22, 0xbe, 0x1d, 0x07, 0x1f, 0xbe, 0xe1, 0x59, 0x6f, 0xbd,
  0xbd, 0x44, 0x04, 0x3c, 0x93, 0x68, 0x5f, 0xbe, 0xf1, 0x61, 0x9f, 0x3c,
  0xdf, 0x8c, 0x03, 0x3f, 0x16, 0xa0, 0x10, 0xbe, 0x3e, 0x91, 0x31, 0xbe,
  0x97, 0x59, 0xde, 0x3d, 0x96, 0xe2, 0x73, 0xbe, 0x76, 0x88, 0x5d, 0xbe,
  0x68, 0x48, 0x1d, 0xbe, 0x7d, 0x80, 0xa1, 0xbc, 0xb2, 0x66, 0x0b, 0x3e,
  0xf5, 0x46, 0x45, 0x3e, 0xc5, 0xa6, 0x61, 0xbe, 0xa2, 0xc6, 0xda, 0x3d,
  0x14, 0xd8, 0xe3, 0x3d, 0xd4, 0x63, 0x16, 0xbe, 0x5f, 0xce, 0xb3, 0xbc,
  0xaf, 0xf9, 0x68, 0x3e, 0x87, 0x87, 0xa1, 0x3e, 0x32, 0x76, 0x1f, 0xbc,
  0xb9, 0xfb, 0xa0, 0xbd, 0xad, 0x57, 0xc4, 0xbc, 0x04, 0xc3, 0x49, 0x3e,
  0x2b, 0xea, 0x9c, 0x3d, 0x37, 0x0f, 0xe0, 0xbd, 0x21, 0xaa, 0x63, 0xbd,
  0x46, 0x34, 0x04, 0xbe, 0x83, 0x67, 0x22, 0x3e, 0x94, 0x3e, 0x8e, 0xbe,
  0xc5, 0x9a, 0xa1, 0xbd, 0x51, 0xac, 0x89, 0xbc, 0xa4, 0x87, 0x47, 0xbe,
  0xb4, 0xdc, 0x91, 0x3d, 0x40, 0xd7, 0xc4, 0x3d, 0x3d, 0xff, 0xa8, 0x3e,
  0xdf, 0x3e, 0x3e, 0xbd, 0xb4, 0x20, 0x5b, 0x3d, 0x98, 0x1f, 0x25, 0x3e,
  0x6c, 0x89, 0x92, 0xbe, 0x79, 0x46, 0x9c, 0xbd, 0x8f, 0x57, 0xa4, 0x3d,
  0x7a, 0xc8, 0xc6, 0xbe, 0xd6, 0xf7, 0xca, 0xbd, 0xaf, 0xc4, 0x58, 0x3e,
  0x44, 0xcd, 0xa1, 0xbe, 0x4e, 0x80, 0x88, 0x3d, 0x8a, 0x36, 0xff, 0x3c,
  0x87, 0x90, 0xc0, 0xbe, 0x18, 0x8e, 0x47, 0x3d, 0x4c, 0x36, 0x2a, 0x3e,
  0x96, 0x39, 0x97, 0x3e, 0xe8, 0x14, 0xd6, 0x3d, 0xa4, 0xbd, 0x21, 0x3e,
  0x26, 0x3d, 0x7f, 0x3e, 0x02, 0x49, 0xa3, 0xbc, 0xc4, 0x33, 0x8a, 0x3d,
  0x35, 0x82, 0xf7, 0x3c, 0x60, 0x8b, 0xdc, 0xbe, 0xd8, 0x8a, 0xfc, 0xbd,
  0x7c, 0xd0, 0x0e, 0x3e, 0x52, 0xd3, 0x3d, 0xbe, 0xcb, 0xb9, 0x94, 0x3d,
  0xd8, 0x7a, 0x21, 0xbd, 0xf7, 0xa0, 0x10, 0xbf, 0x7b, 0xe2, 0xa3, 0x3e,
  0xa1, 0x2e, 0x24, 0x3d, 0xb6, 0xdb, 0xc2, 0x3d, 0xf9, 0x9a, 0x4b, 0x3d,
  0xd4, 0x13, 0xbf, 0xbd, 0xdc, 0x05, 0x3e, 0x3e, 0x06, 0x8e, 0xe0, 0xbc,
  0x17, 0x94, 0xe4, 0xbc, 0xae, 0x61, 0x8a, 0x3d, 0x68, 0xe2, 0x29, 0xbf,
  0x5e, 0xc1, 0x0f, 0xbe, 0x96, 0x8b, 0x9a, 0x3d, 0xf5, 0xa6, 0x0a, 0xbf,
  0xc9, 0x74, 0x35, 0xbd, 0x8b, 0x28, 0x99, 0x3d, 0x45, 0x26, 0x35, 0xbc,
  0x2a, 0x1f, 0x70, 0x3e, 0x82, 0x69, 0x32, 0x3d, 0x1b, 0x80, 0x8c, 0xbd,
  0xf7, 0x2a, 0xb9, 0x3c, 0x13, 0xce, 0x58, 0x3d, 0x0c, 0x5d, 0xcd, 0x3e,
  0xe2, 0x7d, 0xb4, 0x3d, 0x50, 0x09, 0xcc, 0x3b, 0x97, 0x05, 0x2a, 0xbd,
  0x45, 0x63, 0xb9, 0xbe, 0x79, 0x6b, 0x68, 0xbd, 0x4a, 0xb3, 0x7e, 0xbd,
  0xfd, 0xbf, 0x4f, 0xbe, 0x7e, 0x92, 0xc2, 0xbd, 0x3c, 0xc2, 0x1c, 0x3e,
  0x12, 0xdb, 0x79, 0x3c, 0xfe, 0x6c, 0x97, 0x3e, 0xd6, 0x86, 0x38, 0x3e,
  0xdc, 0x4d, 0x2b, 0xbe, 0x32, 0xc3, 0xf7, 0xba, 0x0d, 0x12, 0x60, 0x3d,
  0xea, 0xb4, 0xc7, 0x3e, 0x97, 0x07, 0x67, 0x3c, 0xc1, 0xcf, 0x4b, 0xbe,
  0x67, 0x29, 0x81, 0x3e, 0xb4, 0x47, 0x99, 0x3c, 0x31, 0x89, 0x44, 0xbe,
  0xcb, 0xf6, 0x1d, 0xbd, 0x66, 0xc9, 0x89, 0xbe, 0xf3, 0x57, 0xf1, 0xbd,
  0x55, 0x01, 0x07, 0xbf, 0x3b, 0x74, 0xab, 0xbd, 0xd0, 0x0d, 0x1c, 0x3e,
  0x64, 0xd7, 0x68, 0xbe, 0x7c, 0x33, 0x10, 0x3f, 0xfb, 0x5c, 0x86, 0xbe,
  0x3b, 0xa8, 0xfc, 0xbc, 0x3a, 0x49, 0x82, 0x3e, 0xb5, 0x26, 0x11, 0x3e,
  0x24, 0x80, 0x76, 0x3e, 0x29, 0x3e, 0x66, 0xbe, 0x31, 0xcc, 0xb2, 0xbe,
  0x0b, 0x39, 0x1d, 0x3e, 0xed, 0xea, 0x6b, 0x3d, 0x3b, 0x24, 0x8f, 0xbc,
  0x83, 0x61, 0x06, 0xbf, 0x4a, 0x82, 0x28, 0xbe, 0xc4, 0xa8, 0xb4, 0x3b,
  0xe5, 0xba, 0x64, 0xbe, 0xe5, 0xd8, 0x88, 0xbe, 0xf9, 0xbf, 0x11, 0x3f,
  0x1e, 0x8a, 0xa2, 0xbd, 0xf6, 0x0f, 0x82, 0x3e, 0x87, 0x9a, 0xe7, 0x3e,
  0x86, 0x6d, 0xfc, 0xbd, 0x5d, 0x24, 0x1c, 0x3e, 0x5a, 0xeb, 0x61, 0xbe,
  0xa4, 0x8b, 0xdd, 0xbe, 0x65, 0x0a, 0xbb, 0xbc, 0x87, 0xc8, 0x5f, 0x3e,
  0x05, 0xf0, 0x17, 0xbe, 0x82, 0xf7, 0x45, 0xbd, 0x87, 0xe3, 0xff, 0x3c,
  0x58, 0xe8, 0x03, 0xbc, 0x43, 0x7b, 0xae, 0xbd, 0x04, 0x02, 0x19, 0xbf,
  0x28, 0x47, 0x57, 0x3d, 0x65, 0x99, 0x83, 0xbe, 0xda, 0xc6, 0x81, 0xbd,
  0x67, 0x26, 0x92, 0x3e, 0xf3, 0x4f, 0x97, 0xbd, 0x3d, 0x53, 0x06, 0x3e,
  0x2d, 0x53, 0x0f, 0xbe, 0x75, 0x36, 0x01, 0xbf, 0xe1, 0x9c, 0x76, 0xbe,
  0x32, 0xe8, 0xcd, 0x3d, 0xcb, 0xf5, 0xac, 0xbd, 0x3e, 0xe6, 0x59, 0xbd,
  0x2b, 0xb0, 0x46, 0xbe, 0x8d, 0xd8, 0xfc, 0xbd, 0xa3, 0x9a, 0xac, 0xbd,
  0x33, 0x9b, 0x3d, 0xbe, 0x01, 0xee, 0x85, 0xbb, 0x80, 0x80, 0x3c, 0xbe,
  0x37, 0xfa, 0x80, 0xbd, 0x53, 0x56, 0x5b, 0x3e, 0x83, 0xcc, 0x26, 0x3d,
  0x96, 0x47, 0xad, 0xbc, 0xaa, 0x58, 0x7f, 0xbe, 0x5d, 0x30, 0x0d, 0xbf,
  0x61, 0xee, 0xc4, 0xbd, 0xdf, 0x66, 0x96, 0x3d, 0x88, 0xff, 0xb4, 0xbe,
  0xe1, 0x6c, 0xcb, 0x3d, 0xc9, 0x79, 0xd9, 0xbd, 0x0c, 0x4c, 0xca, 0xbd,
  0xce, 0x21, 0xf1, 0xbc, 0x07, 0x65, 0xba, 0xbe, 0x06, 0x7b, 0x35, 0xbe,
  0x9c, 0xa1, 0x00, 0xbe, 0x4b, 0x58, 0x34, 0x3e, 0xc2, 0x74, 0x16, 0x3d,
  0x00, 0x21, 0xb3, 0x3e, 0x1d, 0x69, 0x99, 0x3e, 0xd6, 0x7c, 0xa7, 0xbe,
  0xd6, 0x63, 0x9c, 0xbe, 0xa7, 0x97, 0x22, 0xbe, 0xab, 0xad, 0xba, 0x3d,
  0x8b, 0x4e, 0x4e, 0x3c, 0xa3, 0xe8, 0xea, 0xbd, 0x69, 0x57, 0x02, 0x3d,
  0x53, 0xd9, 0xa7, 0xbe, 0x5a, 0xfe, 0xee, 0xbd, 0x53, 0xb4, 0xbc, 0xbe,
  0xfe, 0xfc, 0xf5, 0xbd, 0x8b, 0x09, 0x21, 0x3d, 0x6f, 0x53, 0x8d, 0xbd,
  0xad, 0x40, 0x74, 0xbd, 0x21, 0xf2, 0x60, 0xbe, 0x5e, 0x6d, 0xec, 0xbc,
  0xa9, 0x4c, 0x7b, 0xbd, 0x1b, 0x53, 0x3b, 0xbd, 0x5e, 0xa2, 0x5a, 0xbd,
  0x74, 0x7f, 0xa7, 0x3d, 0xe1, 0x8b, 0xad, 0x3d, 0xdd, 0x91, 0xbf, 0xbd,
  0xe0, 0x11, 0x0b, 0x3d, 0x82, 0x3a, 0x33, 0x3d, 0x0b, 0x17, 0x4b, 0xbd,
  0x95, 0x15, 0x62, 0xbe, 0x6e, 0x7b, 0xae, 0x3e, 0x09, 0x72, 0x01, 0x3e,
  0xcf, 0x82, 0x5f, 0x3e, 0x32, 0xf0, 0xc5, 0xb9, 0x4f, 0x60, 0x01, 0x3d,
  0xff, 0xcc, 0x45, 0x3d, 0xe2, 0x6b, 0x0f, 0xbe, 0x1a, 0x2e, 0xc1, 0xbe,
  0xe5, 0x17, 0xef, 0x3d, 0x52, 0x6d, 0x33, 0x3e, 0xb9, 0xc3, 0x03, 0xbe,
  0xba, 0xb3, 0x45, 0x3d, 0x6b, 0xea, 0xdb, 0x3c, 0x86, 0x8e, 0xa7, 0x3c,
  0xb0, 0xc3, 0x42, 0xbb, 0x1b, 0x1b, 0x35, 0xbe, 0x3a, 0x48, 0x99, 0x3e,
  0xf2, 0x36, 0x3f, 0x3c, 0x57, 0x25, 0x2a, 0x3e, 0x2e, 0x0e, 0x0f, 0xbe,
  0xe6, 0x1f, 0x87, 0xbd, 0x3c, 0x91, 0x22, 0x3e, 0xc7, 0x2f, 0x50, 0xbe,
  0x99, 0x5f, 0xf0, 0xbd, 0x72, 0xfc, 0x09, 0xbe, 0xb8, 0x2c, 0x0c, 0x3d,
  0x5c, 0x46, 0xc0, 0xbd, 0xe5, 0x1b, 0xb1, 0x3d, 0xfe, 0xa2, 0x89, 0x3e,
  0x86, 0x03, 0x87, 0xbe, 0x23, 0xfb, 0xf4, 0xbd, 0x18, 0x89, 0x0d, 0x3e,
  0x0e, 0x74, 0x6a, 0x3e, 0xbc, 0xba, 0xf9, 0x3b, 0x37, 0x9c, 0x86, 0x3d,
  0x14, 0xaa, 0x86, 0x3d, 0x00, 0x2a, 0xec, 0x3d, 0xb2, 0xf3, 0x9f, 0x3d,
  0x49, 0x78, 0x3d, 0xbd, 0xd3, 0x9e, 0xa8, 0xbd, 0x1b, 0xcb, 0x42, 0xbd,
  0xf9, 0xef, 0xc3, 0x3d, 0x4a, 0x1c, 0x1d, 0xbe, 0xec, 0x9c, 0xe6, 0x3d,
  0xb1, 0xad, 0x16, 0x3e, 0xdb, 0x37, 0xa2, 0xbe, 0x5d, 0x38, 0x44, 0xbe,
  0x04, 0x7f, 0xff, 0x3d, 0xa6, 0xd8, 0x13, 0x3f, 0x59, 0xb9, 0x15, 0x3d,
  0xcc, 0x5b, 0x56, 0xbe, 0xf3, 0x86, 0xc2, 0xbd, 0xef, 0xb0, 0x91, 0xbe,
  0x88, 0xf1, 0x78, 0x3d, 0x1f, 0x1c, 0x9e, 0xbc, 0x55, 0x2b, 0x5c, 0x3b,
  0xbc, 0x17, 0x06, 0xbe, 0xb3, 0xe9, 0xcf, 0x3d, 0x40, 0x17, 0x37, 0x3d,
  0x50, 0xdb, 0x71, 0x3d, 0xcd, 0x96, 0x15, 0x3e, 0x51, 0xfb, 0xde, 0xbe,
  0x4a, 0x5a, 0x7f, 0xbe, 0xb3, 0x66, 0x90, 0xbe, 0xd6, 0x14, 0x15, 0x3e,
  0x16, 0x09, 0x82, 0x3c, 0x0e, 0xd0, 0xc9, 0xbe, 0xcf, 0x97, 0xe8, 0xbd,
  0x2c, 0x71, 0x8c, 0xbc, 0x87, 0xe5, 0x5e, 0xbe, 0x46, 0x61, 0x70, 0xbc,
  0x48, 0x76, 0xa6, 0xbd, 0x63, 0x9f, 0x07, 0xbb, 0xbc, 0x7a, 0xd6, 0x3d,
  0x9c, 0x39, 0x12, 0xbd, 0x19, 0x92, 0x81, 0x3d, 0xe1, 0x87, 0xab, 0xbe,
  0x5d, 0x82, 0x05, 0x3c, 0xe8, 0x92, 0x9d, 0xbe, 0x9a, 0x02, 0x13, 0xbe,
  0x6c, 0x95, 0x81, 0x3e, 0x1a, 0x89, 0x17, 0x3e, 0xa8, 0x19, 0x1f, 0x39,
  0x1e, 0x55, 0x7e, 0xbe, 0x41, 0xd8, 0x54, 0xbd, 0xdf, 0xbd, 0x8d, 0x3e,
  0x1b, 0xd6, 0xc0, 0xbe, 0x67, 0x94, 0xc0, 0x3c, 0x79, 0x29, 0xc6, 0xbd,
  0x6a, 0xa4, 0xaa, 0x3d, 0x5b, 0xf7, 0xb2, 0x3d, 0xf5, 0x57, 0xf7, 0x3d,
  0xe7, 0x1c, 0x88, 0xbe, 0x30, 0x7a, 0x20, 0xbe, 0x3b, 0x7f, 0x04, 0xbe,
  0xf4, 0x00, 0x6a, 0x3d, 0xa5, 0xd8, 0x0f, 0x3f, 0x01, 0xd2, 0xcc, 0x3d,
  0xc2, 0x5f, 0x6b, 0x3d, 0x4c, 0x3c, 0xb9, 0xbe, 0xdc, 0x33, 0x50, 0xbe,
  0x1a, 0x14, 0x49, 0xbe, 0x7b, 0x28, 0x1e, 0xbd, 0x81, 0xea, 0x2f, 0xbe,
  0x72, 0x9a, 0x2c, 0xbe, 0x01, 0x2b, 0xf4, 0x3c, 0x16, 0xcf, 0xfc, 0xbd,
  0xf0, 0x0f, 0x3f, 0x3c, 0x4c, 0xe8, 0xb1, 0xbd, 0x8d, 0xfa, 0xb7, 0xbc,
  0xaa, 0xca, 0x77, 0x3d, 0xa8, 0x1b, 0x09, 0x3e, 0x0d, 0x96, 0x61, 0x3e,
  0xfa, 0xf8, 0xa0, 0x3d, 0xfb, 0x27, 0xbd, 0xbc, 0x6a, 0x81, 0xe5, 0x3d,
  0x41, 0xb9, 0x1a, 0xbf, 0xeb, 0x04, 0x43, 0xbd, 0xa6, 0x70, 0x04, 0x3e,
  0x04, 0xe7, 0x69, 0xbd, 0x27, 0x0f, 0x46, 0xbd, 0x6f, 0x91, 0xdc, 0x3d,
  0x16, 0xc6, 0x05, 0xbe, 0xb1, 0xe4, 0x43, 0xbe, 0xf6, 0x6d, 0xfc, 0xbe,
  0x96, 0xcd, 0x4b, 0x3e, 0x17, 0x43, 0x94, 0x3e, 0x40, 0x17, 0x28, 0x3e,
  0x39, 0x58, 0x8c, 0x3e, 0x62, 0x06, 0xb2, 0x3d, 0x41, 0x0c, 0xed, 0x3e,
  0xf7, 0x5e, 0x80, 0x3e, 0x7a, 0xb9, 0x26, 0xbe, 0x31, 0x1d, 0x43, 0x3e,
  0x4f, 0x01, 0x9c, 0xbe, 0xfa, 0x89, 0xa0, 0xbc, 0xf2, 0x8b, 0x44, 0xbe,
  0x92, 0xfa, 0x9a, 0x3d, 0xcc, 0x47, 0x23, 0x3e, 0x2e, 0x81, 0xbf, 0x3c,
  0xc8, 0xbd, 0xfe, 0xbe, 0xe4, 0xb2, 0x7c, 0xbd, 0xa1, 0xb8, 0x4d, 0xbe,
  0x72, 0x2a, 0x88, 0xbb, 0xb9, 0xbe, 0x82, 0x3e, 0x3b, 0x91, 0x5c, 0x3d,
  0x29, 0xe2, 0x8c, 0x3e, 0x2b, 0xa0, 0x45, 0x3e, 0x78, 0x1a, 0x9e, 0xbe,
  0x2a, 0x72, 0x6f, 0x3e, 0x0c, 0x0f, 0x06, 0xbe, 0x4c, 0x90, 0x7a, 0x3e,
  0x0b, 0xba, 0x7a, 0xbd, 0xd2, 0x38, 0x1f, 0xbc, 0xaf, 0x33, 0xac, 0x3b,
  0x40, 0xe3, 0x0b, 0xbd, 0x6d, 0xb0, 0xb7, 0xbe, 0x53, 0x1e, 0x69, 0xbe,
  0x50, 0x4e, 0xc4, 0x3d, 0xa7, 0x90, 0x7b, 0xbc, 0x4f, 0x6a, 0x6a, 0x3e,
  0x8f, 0xde, 0x59, 0xbe, 0x8c, 0x5f, 0xa6, 0xbd, 0xc6, 0xa0, 0xc6, 0x3d,
  0x47, 0x7f, 0xd0, 0xbe, 0xc6, 0x62, 0x83, 0x3e, 0xfd, 0xd0, 0x55, 0x3d,
  0x09, 0x36, 0xfa, 0xbd, 0xe6, 0x0a, 0xad, 0x3d, 0x38, 0xde, 0xf3, 0xbd,
  0xbf, 0x47, 0xe1, 0x3c, 0x92, 0x5f, 0x03, 0xbe, 0x79, 0xfa, 0xa5, 0xbd,
  0x7c, 0xd4, 0xd0, 0x3d, 0x1b, 0x4d, 0x94, 0xbd, 0x8d, 0x17, 0x91, 0x3d,
  0xe1, 0x82, 0xeb, 0x3e, 0xbe, 0x96, 0x59, 0xbe, 0x53, 0x98, 0x40, 0x3e,
  0xce, 0xea, 0x9a, 0xbb, 0x77, 0x90, 0xee, 0xbe, 0xc1, 0x91, 0x92, 0x3e,
  0x7c, 0xdf, 0xa9, 0x3c, 0xe0, 0xf0, 0x1e, 0x3c, 0x41, 0xe8, 0x33, 0x3e,
  0x71, 0xdf, 0x9a, 0xbd, 0xaf, 0x65, 0x3d, 0x3d, 0x53, 0xb9, 0xcf, 0xbd,
  0x69, 0x3e, 0x60, 0xbe, 0x26, 0xe3, 0xc6, 0xbc, 0x79, 0x87, 0x69, 0x3b,
  0xcc, 0x25, 0xa5, 0x3d, 0x33, 0x80, 0x06, 0x3f, 0x31, 0x70, 0xfd, 0xbd,
  0xa1, 0x0d, 0xdc, 0x3c, 0x96, 0x9f, 0xcb, 0x3c, 0xba, 0x63, 0xdb, 0xbe,
  0x8a, 0x87, 0x8c, 0x3e, 0xa2, 0xba, 0x5d, 0x3c, 0x42, 0x33, 0x91, 0xbb,
  0x83, 0xd5, 0x54, 0x3d, 0xb9, 0xa7, 0xc1, 0xbb, 0xef, 0xc6, 0x42, 0x3d,
  0xc9, 0xa7, 0x1b, 0x3d, 0x8a, 0x09, 0xe9, 0x3c, 0xef, 0xd5, 0x58, 0x3d,
  0xb6, 0x79, 0x83, 0xbd, 0x2f, 0xed, 0xe9, 0xbb, 0xdc, 0xf0, 0xb6, 0x3e,
  0x71, 0xdc, 0x46, 0xbe, 0xa2, 0x2c, 0x6f, 0xbc, 0xb5, 0x57, 0xf5, 0x3d,
  0x2b, 0xe5, 0xc7, 0xbd, 0x37, 0xf1, 0xe7, 0x3d, 0xfd, 0x74, 0x97, 0xbd,
  0x7b, 0x26, 0x0a, 0x3e, 0xcf, 0x0a, 0x31, 0xbd, 0xf0, 0x81, 0x14, 0xbd,
  0x66, 0x80, 0x3d, 0xbe, 0xe6, 0xeb, 0x7a, 0x3e, 0x7c, 0x38, 0x2e, 0xbe,
  0xff, 0xe5, 0xe3, 0xbb, 0xbf, 0x37, 0x85, 0xbd, 0xdf, 0x93, 0x40, 0x3d,
  0x81, 0xb0, 0x75, 0x3e, 0xa2, 0xcf, 0x7c, 0x3d, 0xc8, 0xb9, 0x22, 0x3e,
  0x4c, 0xf6, 0xb4, 0x3d, 0x2e, 0xef, 0xe0, 0xba, 0x58, 0x02, 0x23, 0xbe,
  0xd1, 0x06, 0x82, 0x3d, 0x67, 0x98, 0x97, 0x3d, 0x12, 0xf7, 0x1d, 0xbe,
  0x22, 0x2c, 0x4c, 0x3d, 0x72, 0x3a, 0x74, 0xbe, 0x24, 0xc3, 0x96, 0x3c,
  0xb9, 0x36, 0x37, 0xbe, 0x40, 0x10, 0xa6, 0x3d, 0xce, 0x82, 0xa9, 0xbd,
  0x98, 0x90, 0x41, 0x3e, 0xca, 0x11, 0x55, 0x3d, 0x8e, 0x47, 0xa7, 0x3d,
  0x35, 0x5d, 0x3a, 0x3e, 0xfd, 0xb7, 0xc7, 0xbc, 0xe0, 0xb3, 0xb2, 0xbe,
  0x6a, 0xf5, 0x96, 0xbd, 0xf8, 0xd1, 0x04, 0x3c, 0x07, 0x8e, 0x5d, 0x3d,
  0xc9, 0x9a, 0x2d, 0xbe, 0x4b, 0xe9, 0x9d, 0x3d, 0xd6, 0x11, 0xeb, 0xbe,
  0x58, 0x39, 0x2b, 0x3e, 0xd3, 0xef, 0x93, 0xbe, 0x1d, 0x24, 0x61, 0x3b,
  0x0d, 0x7a, 0x9a, 0x3d, 0xc3, 0xe0, 0x62, 0x3d, 0x4b, 0x6b, 0xcf, 0xbc,
  0x15, 0x99, 0xc9, 0xbd, 0x4f, 0xd9, 0x14, 0x3d, 0x28, 0x0e, 0x04, 0x3d,
  0xf6, 0xaf, 0xa7, 0xbe, 0x19, 0x33, 0x75, 0x3c, 0x47, 0x3c, 0xa0, 0xbd,
  0x6c, 0xe8, 0xc9, 0xbd, 0xce, 0xe0, 0x67, 0xbc, 0xb6, 0x25, 0x06, 0x3d,
  0x9f, 0x11, 0x63, 0xbe, 0x5c, 0xb7, 0x10, 0x3d, 0x33, 0xeb, 0x0a, 0xbe,
  0x3f, 0x0f, 0x85, 0xba, 0x04, 0x5f, 0x25, 0xbd, 0x02, 0xc2, 0xcb, 0xbd,
  0x00, 0x43, 0x91, 0x3e, 0xad, 0x6c, 0x94, 0xbc, 0x02, 0x79, 0xd4, 0x3e,
  0x67, 0xfc, 0x80, 0x3e, 0xe8, 0x62, 0xaa, 0xbe, 0x14, 0x30, 0x92, 0x3e,
  0x6b, 0x87, 0x3f, 0x3e, 0xb6, 0x8c, 0x2e, 0xbe, 0x7a, 0x5b, 0xfe, 0x3d,
  0xfd, 0xd7, 0x17, 0xbd, 0x7a, 0xa9, 0x9c, 0xbd, 0x33, 0x4f, 0x87, 0x3c,
  0x2b, 0xdf, 0x8e, 0xbe, 0x0a, 0x38, 0xaf, 0x3d, 0xf8, 0x49, 0xb0, 0x3d,
  0x43, 0x63, 0x23, 0x3e, 0xc1, 0x14, 0x55, 0x3d, 0x9e, 0x4e, 0x19, 0x3d,
  0x5e, 0xdd, 0xd0, 0x3e, 0xce, 0x16, 0xca, 0x3d, 0xef, 0x30, 0x8d, 0xbe,
  0x8b, 0x84, 0xc8, 0x3e, 0x12, 0x87, 0x8d, 0xbc, 0x8c, 0xfc, 0xfc, 0x3c,
  0x33, 0xbf, 0x18, 0x3e, 0x9a, 0xff, 0x3f, 0xbe, 0xf4, 0xe9, 0x71, 0xbd,
  0x9b, 0xfc, 0xbc, 0x3d, 0xac, 0xda, 0xe2, 0xbe, 0xb7, 0x56, 0x01, 0x3e,
  0x8b, 0x46, 0xd1, 0x3d, 0x6e, 0x86, 0x13, 0x3e, 0xe1, 0x18, 0x93, 0x3e,
  0x42, 0xf3, 0xaa, 0x3d, 0xf4, 0x23, 0x83, 0x3e, 0xeb, 0x39, 0x22, 0x3e,
  0x53, 0xc2, 0xb7, 0xbe, 0xd7, 0x02, 0x1b, 0x3e, 0x23, 0xb7, 0x91, 0x3d,
  0xbb, 0x5b, 0x6a, 0x3e, 0x51, 0x97, 0xac, 0xbc, 0x2a, 0x68, 0x07, 0x3e,
  0x71, 0x33, 0x8e, 0x3d, 0x12, 0x33, 0x7c, 0x3e, 0xf3, 0x95, 0xcf, 0xbe,
  0x2a, 0xf8, 0xa2, 0x3d, 0xc1, 0x13, 0x61, 0xbd, 0x4f, 0x10, 0x87, 0xbc,
  0xc9, 0x27, 0xf4, 0x3e, 0x11, 0x39, 0x44, 0x3d, 0x13, 0x8b, 0x16, 0xbd,
  0x66, 0xfd, 0x02, 0xbe, 0x68, 0xc4, 0x8d, 0xbe, 0xb2, 0x54, 0x13, 0xbc,
  0xe0, 0x89, 0xa9, 0xbc, 0x25, 0x85, 0x59, 0x3e, 0xb8, 0x02, 0xb8, 0xbe,
  0xdb, 0xcf, 0x81, 0xbc, 0x30, 0xf5, 0xce, 0xbd, 0xbf, 0x45, 0xa9, 0xbe,
  0x5e, 0x16, 0xe4, 0xbe, 0x6b, 0x17, 0x2a, 0xbe, 0xed, 0xdd, 0x81, 0xbe,
  0x56, 0x12, 0xa8, 0x3d, 0x5a, 0xfd, 0x82, 0x3e, 0x10, 0x39, 0x87, 0xbe,
  0x90, 0x02, 0x54, 0xbe, 0x5c, 0x71, 0xcc, 0x3d, 0xef, 0x26, 0xc2, 0xbe,
  0xd6, 0xbd, 0x0b, 0xbf, 0x5a, 0x82, 0x56, 0x3e, 0xa2, 0xde, 0xa2, 0xbe,
  0x07, 0x18, 0x1c, 0xbf, 0x89, 0x7d, 0x7c, 0xbe, 0xd4, 0x3b, 0xa5, 0xbe,
  0x55, 0xa7, 0x50, 0xbe, 0x68, 0xc1, 0x0d, 0xbe, 0x4f, 0xd8, 0xa5, 0x3c,
  0xf6, 0x17, 0x37, 0x3c, 0xfc, 0x41, 0xc8, 0xbc, 0xb8, 0xa3, 0x17, 0xbd,
  0x2c, 0x09, 0xba, 0x3c, 0xd4, 0xca, 0x05, 0x3e, 0xfd, 0x6f, 0x8f, 0xbd,
  0x2a, 0x8c, 0xe3, 0xbd, 0x5e, 0xbc, 0x25, 0xbc, 0x63, 0xba, 0xb8, 0x3e,
  0x63, 0x78, 0x75, 0xbe, 0xc9, 0x8f, 0x25, 0xbe, 0xbc, 0x4a, 0x4c, 0x3d,
  0x2a, 0x7d, 0x9c, 0xbd, 0x36, 0x3e, 0x48, 0x3e, 0x14, 0x45, 0xca, 0xbe,
  0x64, 0x90, 0x9e, 0x3e, 0x1e, 0x95, 0xb7, 0xbd, 0xb9, 0x11, 0xa2, 0x3d,
  0xf4, 0x15, 0x13, 0xbf, 0x1f, 0xe5, 0x8a, 0xbd, 0x3d, 0x60, 0xbc, 0x3e,
  0x1c, 0xc7, 0xd0, 0x3c, 0x5e, 0xae, 0xe0, 0xbd, 0x2c, 0x7e, 0xae, 0xbe,
  0x69, 0xc9, 0x63, 0xbd, 0xa8, 0x48, 0x9c, 0x3e, 0x9b, 0xaf, 0xa6, 0x3d,
  0x2e, 0x6f, 0xd4, 0xbd, 0xf4, 0x3a, 0x1e, 0x3e, 0xf7, 0x86, 0x13, 0x3e,
  0xd8, 0x08, 0x7c, 0xbe, 0xbe, 0x8e, 0x11, 0xbe, 0x61, 0x85, 0x1e, 0xbe,
  0x6b, 0x84, 0x29, 0xbe, 0x1b, 0x84, 0x8b, 0x3e, 0x06, 0x38, 0x4c, 0xbe,
  0x43, 0x9e, 0x4a, 0x3e, 0xce, 0xa2, 0x93, 0xbe, 0xd8, 0x2f, 0xa4, 0xbe,
  0x5a, 0x71, 0x18, 0xbe, 0x04, 0x72, 0x95, 0x3e, 0x36, 0xd0, 0x8b, 0x3c,
  0x3f, 0x80, 0x8c, 0xbe, 0x82, 0x37, 0x51, 0x3d, 0xa4, 0x19, 0x8c, 0xbe,
  0x2c, 0xc0, 0x44, 0xbe, 0x1b, 0x39, 0xd6, 0xbd, 0x3d, 0x7e, 0xaf, 0xbd,
  0xfc, 0xa7, 0xc3, 0xbd, 0x77, 0x76, 0xb4, 0xbd, 0x35, 0xc6, 0x44, 0x3e,
  0x42, 0x53, 0x90, 0xbe, 0x1c, 0xdb, 0xe4, 0xbe, 0xd6, 0x16, 0x61, 0x3e,
  0x1f, 0x54, 0x38, 0xbe, 0x86, 0x28, 0x91, 0xbe, 0xd7, 0x12, 0x34, 0x3e,
  0x95, 0x1c, 0xfd, 0xbe, 0x3e, 0x63, 0x4f, 0xbe, 0xb3, 0x26, 0x9f, 0x3d,
  0x6c, 0x9d, 0xe6, 0xbd, 0x61, 0xff, 0x6a, 0xbb, 0xc6, 0x0c, 0x5c, 0x3e,
  0xef, 0xc6, 0x60, 0x3d, 0x9f, 0xf5, 0x73, 0xbd, 0x8d, 0x1d, 0x45, 0xbe,
  0x80, 0xa0, 0xc9, 0xbe, 0x7d, 0x86, 0x3d, 0xbe, 0xed, 0xa8, 0x47, 0xbe,
  0xd7, 0x6f, 0xfa, 0x3d, 0x13, 0x14, 0x4e, 0x3d, 0x85, 0x52, 0x94, 0xbe,
  0x03, 0x2b, 0x95, 0x3d, 0xc2, 0xb3, 0xc0, 0xbe, 0x2d, 0x43, 0xa0, 0xbd,
  0xd5, 0xdc, 0x46, 0x3e, 0xda, 0x3d, 0x8b, 0xbe, 0xf4, 0x58, 0xde, 0xbc,
  0xde, 0xf1, 0x40, 0xbd, 0x13, 0x0d, 0x0c, 0xbe, 0x3a, 0x06, 0xbf, 0xbd,
  0xd0, 0x0b, 0xb0, 0x3c, 0xe1, 0x92, 0x44, 0xbf, 0x9b, 0x2a, 0x5f, 0xbe,
  0x40, 0xad, 0x1f, 0xbe, 0x92, 0xf9, 0x60, 0x3c, 0x00, 0x8d, 0x36, 0x3d,
  0xca, 0xb0, 0x94, 0xbe, 0x5d, 0x9f, 0x2e, 0x3e, 0x48, 0x20, 0x7c, 0xbe,
  0x3d, 0xd4, 0x3c, 0xbc, 0xc9, 0xc9, 0x13, 0x3e, 0x9c, 0xb4, 0xc9, 0xbe,
  0xb3, 0x23, 0x20, 0xbd, 0x84, 0xa5, 0x2e, 0x3e, 0x32, 0x2c, 0x34, 0x3e,
  0x38, 0xc1, 0xc9, 0xbd, 0x5c, 0x14, 0x0c, 0x39, 0xb4, 0x59, 0x91, 0xbe,
  0x2b, 0xd5, 0xfe, 0xbd, 0xed, 0xb2, 0x57, 0xbc, 0x78, 0x50, 0xb7, 0xbd,
  0x2b, 0xc3, 0x86, 0x3e, 0xae, 0x4c, 0x2d, 0xbd, 0x62, 0x90, 0x8f, 0x3d,
  0x40, 0x4c, 0x5d, 0xbe, 0xfe, 0x12, 0x4f, 0x3d, 0x87, 0xa1, 0x04, 0x3d,
  0xeb, 0x10, 0x04, 0xbe, 0x37, 0x8f, 0x68, 0xbe, 0xcb, 0x5f, 0x0e, 0xbe,
  0x41, 0x6b, 0x22, 0x3d, 0xac, 0xfa, 0x5e, 0x3d, 0x79, 0x51, 0xb7, 0x3d,
  0xac, 0x8a, 0x2a, 0xbf, 0xee, 0x74, 0x1e, 0xbe, 0x70, 0x11, 0x39, 0x3e,
  0xc6, 0x01, 0xc2, 0x3d, 0xf9, 0x99, 0x64, 0xbe, 0xb5, 0x0d, 0x96, 0xbd,
  0x87, 0x8f, 0xd7, 0x3d, 0x51, 0x4f, 0x2c, 0xbe, 0x68, 0x56, 0xeb, 0xbc,
  0x02, 0x43, 0xfd, 0x3d, 0xd1, 0x44, 0xcd, 0xbe, 0x5b, 0x2f, 0xbe, 0xbd,
  0x9d, 0x37, 0x78, 0xbe, 0x5e, 0xfb, 0x9b, 0x3c, 0xb3, 0x76, 0xd2, 0xbd,
  0x91, 0xe7, 0x70, 0x3c, 0x56, 0xbe, 0x4f, 0xbe, 0x77, 0xdd, 0x58, 0x3d,
  0x16, 0x49, 0x8c, 0x3e, 0x04, 0x83, 0xc3, 0x3e, 0xbe, 0xb4, 0x04, 0xbf,
  0x96, 0x70, 0x76, 0x3d, 0x41, 0xa3, 0x91, 0x3d, 0xb9, 0xf7, 0x6e, 0xbd,
  0xa1, 0xd0, 0x2b, 0x3d, 0x85, 0xd3, 0x29, 0xbc, 0x77, 0x6a, 0xea, 0xbc,
  0x1e, 0xb1, 0x9c, 0xbc, 0xc2, 0xee, 0x5e, 0xbe, 0x42, 0x6e, 0xc0, 0x3d,
  0xe4, 0x55, 0xe3, 0x3b, 0xa9, 0xca, 0xaa, 0x3d, 0x37, 0x58, 0x24, 0xbe,
  0x79, 0x52, 0x12, 0x3e, 0x4f, 0x3c, 0xc9, 0x3e, 0x39, 0xfc, 0x59, 0x3e,
  0xe1, 0xa0, 0xb8, 0xbe, 0x1d, 0x46, 0x97, 0x3e, 0x28, 0x00, 0x46, 0xbd,
  0xfa, 0xa1, 0x63, 0xbe, 0x70, 0xf7, 0x16, 0x3e, 0x20, 0x27, 0x2e, 0x3d,
  0x1a, 0x32, 0x96, 0x3c, 0xad, 0xe6, 0x68, 0x3e, 0x70, 0x6f, 0xe1, 0xbe,
  0x4e, 0x88, 0xb7, 0x3d, 0xdd, 0x9e, 0xbf, 0x3a, 0xdf, 0x6a, 0xb2, 0x3d,
  0xfe, 0xe3, 0x06, 0x3e, 0xc9, 0xd0, 0xad, 0xbd, 0x86, 0xb0, 0xd7, 0x3d,
  0xa2, 0x3d, 0xb2, 0xbe, 0xa4, 0x94, 0xc4, 0xbe, 0x54, 0xc4, 0x05, 0x3e,
  0x7d, 0x62, 0x65, 0xbe, 0x98, 0xf6, 0xc1, 0x3e, 0x7d, 0xfa, 0x80, 0x3e,
  0x40, 0xd7, 0x51, 0xb6, 0xbc, 0xba, 0xc5, 0x3a, 0xc9, 0x18, 0xd4, 0x3d,
  0xde, 0xce, 0xcb, 0xbe, 0x1b, 0x3c, 0xcf, 0x3c, 0xf1, 0xeb, 0x92, 0x3d,
  0xe5, 0x73, 0x42, 0xbd, 0x98, 0x6d, 0x49, 0x3e, 0xfb, 0x98, 0xc9, 0xbd,
  0xdd, 0x6e, 0x83, 0x3e, 0xac, 0xb3, 0x85, 0x3d, 0xec, 0x07, 0x3a, 0xbe,
  0x45, 0xad, 0x84, 0x3e, 0xf0, 0x01, 0x3c, 0xbd, 0xa6, 0xf0, 0x65, 0x3e,
  0x4c, 0x91, 0x51, 0x3e, 0x7c, 0x27, 0xe7, 0xbe, 0xaa, 0xc1, 0xab, 0xbd,
  0x92, 0x89, 0xd1, 0xbe, 0xdb, 0x94, 0xd8, 0xbe, 0x35, 0xb7, 0x06, 0xbe,
  0x43, 0x90, 0xf3, 0x3d, 0xfc, 0x0c, 0x16, 0xbe, 0xac, 0x01, 0xa3, 0x3e,
  0x71, 0x8c, 0x95, 0xbe, 0x9d, 0x13, 0x00, 0x3d, 0x18, 0x57, 0x00, 0xbe,
  0xe5, 0x4a, 0x3f, 0xbf, 0x04, 0xb8, 0xdc, 0x3e, 0x5d, 0x4d, 0x17, 0x3e,
  0xe5, 0x6d, 0x74, 0xbd, 0x83, 0x83, 0x39, 0x3d, 0xe2, 0x10, 0xd0, 0xbe,
  0x27, 0x0a, 0x8e, 0x3d, 0x34, 0xf5, 0xbc, 0xbd, 0x17, 0xe7, 0x16, 0xbf,
  0xb6, 0xcc, 0x8f, 0x3b, 0x44, 0x2d, 0x65, 0x3b, 0xc3, 0x2d, 0x3d, 0x3d,
  0x7d, 0x17, 0xb3, 0x3e, 0xa7, 0x8c, 0x39, 0xbd, 0x95, 0x7c, 0x38, 0x3d,
  0xac, 0xe8, 0x49, 0xbe, 0x2a, 0x56, 0x11, 0xbf, 0xb3, 0x03, 0x34, 0xbd,
  0xd6, 0x14, 0x9e, 0xbd, 0x1e, 0x9f, 0x63, 0xbb, 0x17, 0xb4, 0x08, 0xbe,
  0x94, 0x93, 0x9b, 0x3d, 0x80, 0x66, 0x8a, 0x3e, 0xb1, 0x8d, 0xaf, 0x3e,
  0xa9, 0x0c, 0xee, 0x3e, 0xf4, 0x17, 0x35, 0x3b, 0xba, 0x47, 0x8a, 0xbe,
  0x04, 0x6b, 0x12, 0xbf, 0x8d, 0xdb, 0x10, 0x3e, 0xa1, 0x56, 0x0d, 0xbe,
  0x32, 0x14, 0xa1, 0xbe, 0x3b, 0x8b, 0xd6, 0xbd, 0x50, 0xf1, 0x0c, 0xbc,
  0x65, 0xb4, 0x7b, 0xbe, 0xb6, 0x8a, 0xb2, 0x3e, 0x7f, 0x62, 0xd5, 0xbe,
  0x33, 0x72, 0x80, 0xbe, 0xda, 0xe2, 0x1d, 0x3e, 0x7d, 0xc6, 0x08, 0xbe,
  0x20, 0x64, 0x35, 0x3e, 0x3f, 0x78, 0x6b, 0x3d, 0x83, 0x9a, 0x32, 0x3e,
  0xb3, 0xe3, 0x7f, 0x3e, 0xea, 0x70, 0xff, 0x3c, 0x2d, 0x59, 0x23, 0xbe,
  0x3f, 0x0c, 0x9c, 0xbd, 0xf2, 0xef, 0x64, 0xbd, 0xc2, 0x7d, 0x48, 0xbe,
  0x57, 0x08, 0x63, 0x3e, 0x8c, 0x2b, 0x98, 0xbe, 0xf6, 0x35, 0x72, 0xbc,
  0x95, 0x90, 0xfb, 0x3d, 0x80, 0x2f, 0x05, 0x3d, 0xcc, 0x03, 0x9f, 0x3b,
  0xf6, 0xd1, 0x65, 0x3e, 0xd1, 0x58, 0x86, 0x3e, 0x54, 0x23, 0x23, 0x3e,
  0x91, 0x93, 0x55, 0x3c, 0xc3, 0xf1, 0x6f, 0x3e, 0xc4, 0x43, 0x17, 0x3e,
  0x8f, 0x3a, 0xee, 0xbd, 0xe0, 0x6b, 0xa0, 0xbd, 0xad, 0x36, 0xd4, 0x3d,
  0x33, 0x9c, 0x13, 0x3e, 0x4c, 0x5a, 0xd3, 0x3d, 0x1d, 0xa0, 0xc4, 0x3d,
  0x70, 0x58, 0xcc, 0xbe, 0x8e, 0x6f, 0x15, 0xbb, 0xb5, 0x94, 0x31, 0x3e,
  0xec, 0xa9, 0x37, 0xbe, 0x25, 0x94, 0x92, 0x3c, 0xc5, 0xb8, 0x38, 0x3e,
  0x81, 0xa2, 0x3c, 0x3c, 0xf3, 0xda, 0x09, 0xbd, 0x2a, 0xe2, 0x2e, 0x3e,
  0x50, 0x71, 0xe9, 0x3c, 0xd2, 0x67, 0xc7, 0x3e, 0x05, 0xcc, 0x11, 0xbe,
  0xdc, 0xa8, 0x28, 0x3e, 0x6a, 0x89, 0x22, 0xbd, 0xc2, 0xef, 0xbe, 0x3e,
  0xd5, 0x09, 0x38, 0x3e, 0xc0, 0xd6, 0x98, 0xbe, 0xac, 0xb2, 0x6c, 0x3d,
  0x11, 0xa8, 0x25, 0x3e, 0x19, 0x39, 0xaa, 0xbd, 0x1a, 0x9e, 0x92, 0xbd,
  0xd3, 0x8f, 0xaf, 0xbe, 0x71, 0x9e, 0xb2, 0xbd, 0xed, 0x1c, 0x60, 0x3e,
  0x24, 0x0b, 0x33, 0x3e, 0xd1, 0xea, 0xf4, 0x3c, 0xa1, 0xd6, 0x04, 0xbe,
  0xea, 0x7a, 0xf9, 0xbd, 0x61, 0x18, 0xbf, 0x3d, 0xa8, 0x54, 0x34, 0x3d,
  0xf5, 0x4e, 0x06, 0x3e, 0x33, 0xc7, 0x95, 0x3e, 0x1f, 0xcf, 0x81, 0xbe,
  0xb8, 0x2f, 0x3c, 0x3e, 0xa7, 0xf8, 0x7c, 0x3c, 0xf0, 0x18, 0xd6, 0xbd,
  0x1e, 0x95, 0x5e, 0xbd, 0xef, 0x42, 0x4c, 0xbd, 0xc2, 0x18, 0xa5, 0x3d,
  0xc2, 0x67, 0xd4, 0x3d, 0xcf, 0x7c, 0x96, 0x3e, 0x32, 0x55, 0x98, 0xbd,
  0x17, 0x8b, 0x0e, 0xbe, 0x72, 0x59, 0x82, 0xbd, 0xff, 0x50, 0xfb, 0x3d,
  0x4d, 0x1b, 0x89, 0x3e, 0x8c, 0x17, 0x9d, 0x3d, 0x46, 0x08, 0xc2, 0xbd,
  0x63, 0xfc, 0xc6, 0xbd, 0xcd, 0x48, 0xae, 0xbc, 0x1e, 0x54, 0x99, 0xbc,
  0xdd, 0x08, 0x59, 0xbd, 0x77, 0xec, 0x72, 0xbe, 0x2f, 0xbd, 0x0b, 0xbe,
  0xf5, 0x82, 0x3a, 0xbd, 0x3f, 0x96, 0xac, 0x3e, 0xde, 0xa7, 0x33, 0x3e,
  0xbe, 0x23, 0x18, 0x3e, 0x6d, 0xad, 0x69, 0xbe, 0xa4, 0x8f, 0x01, 0xbd,
  0x73, 0x26, 0x9e, 0x3d, 0x1c, 0xeb, 0x3e, 0x3e, 0xb3, 0xbe, 0x89, 0xbd,
  0x4d, 0x97, 0xca, 0xbb, 0xaa, 0x75, 0x9e, 0x3d, 0x5b, 0x73, 0x5c, 0xbd,
  0xae, 0x28, 0x95, 0xbd, 0x47, 0x00, 0xd8, 0x3d, 0x2a, 0x56, 0xa9, 0xbe,
  0x20, 0x9b, 0xc9, 0xbd, 0xc8, 0xc3, 0xc3, 0xbd, 0xba, 0x17, 0x9e, 0xbd,
  0xdc, 0x7f, 0x79, 0x3d, 0xc4, 0xff, 0x9d, 0x3d, 0xe3, 0x5a, 0xd2, 0xbe,
  0xc3, 0x40, 0x02, 0xbe, 0x09, 0x04, 0xa2, 0xbd, 0xa6, 0xed, 0x61, 0x3e,
  0xd7, 0xaf, 0xc4, 0x3c, 0x18, 0x8a, 0xe5, 0xbd, 0x03, 0x2b, 0x9d, 0xbe,
  0x38, 0x86, 0xad, 0xbd, 0x3d, 0x46, 0x3e, 0xbd, 0xad, 0x99, 0x26, 0x3d,
  0xa5, 0x7c, 0x23, 0xbe, 0xb5, 0xfb, 0x3f, 0xbe, 0x67, 0x61, 0x3a, 0x3e,
  0xc2, 0xdf, 0x26, 0xbe, 0xad, 0x90, 0x31, 0x3d, 0x6a, 0x0c, 0xe5, 0xbb,
  0x87, 0x83, 0xf9, 0xbd, 0x02, 0xe6, 0xb6, 0xbd, 0x6b, 0x9c, 0x27, 0xbe,
  0x0a, 0xf2, 0x6b, 0x3e, 0x58, 0xdc, 0x00, 0x3e, 0x17, 0x19, 0x8c, 0xbe,
  0xcb, 0x8b, 0x54, 0x3e, 0x56, 0x80, 0xc5, 0xbe, 0x30, 0x13, 0xfd, 0xbd,
  0x4e, 0x35, 0x94, 0x3d, 0xc0, 0x96, 0xa3, 0xbe, 0xbc, 0x9a, 0x93, 0x3d,
  0xf1, 0xe7, 0x0d, 0xbe, 0xbe, 0x19, 0xf1, 0xbd, 0xc6, 0xf2, 0x25, 0x3e,
  0x79, 0x3e, 0x02, 0x3e, 0xb6, 0xe8, 0xe9, 0xbe, 0xd0, 0x1c, 0xa7, 0xbe,
  0xa1, 0xbc, 0x25, 0xbe, 0x29, 0xe4, 0x03, 0xbd, 0x89, 0xa6, 0x0e, 0x3d,
  0x32, 0x0d, 0x9e, 0xbd, 0x62, 0xd2, 0x4a, 0xbd, 0xc6, 0xd4, 0x01, 0xbf,
  0xe1, 0x68, 0x83, 0x3d, 0x80, 0xa6, 0x81, 0xbc, 0x5a, 0xec, 0x5b, 0xbd,
  0x3f, 0x0e, 0xc2, 0xbb, 0x28, 0x66, 0xab, 0xbd, 0x70, 0x1f, 0xc2, 0x3d,
  0xa0, 0x1a, 0x39, 0x3d, 0x47, 0xc2, 0x01, 0xbb, 0xaf, 0xed, 0x97, 0xbe,
  0x08, 0x93, 0x24, 0x3d, 0xeb, 0x99, 0x89, 0x3c, 0x7a, 0x1a, 0xca, 0xbd,
  0xf7, 0x79, 0xdd, 0x3c, 0xf5, 0xdd, 0xaf, 0xbd, 0xc6, 0x29, 0x15, 0xbe,
  0xcb, 0x21, 0x87, 0x3d, 0x6c, 0x83, 0xd5, 0xbc, 0x8a, 0x9c, 0x7f, 0x3d,
  0x32, 0x25, 0x87, 0x3d, 0xae, 0x88, 0xec, 0x3c, 0x31, 0x71, 0xc9, 0x3e,
  0x50, 0x21, 0x2d, 0x3d, 0xd6, 0x28, 0xaf, 0x3c, 0x9d, 0x24, 0x0f, 0xbe,
  0xf9, 0x8c, 0x77, 0xbe, 0xb7, 0x9b, 0x8b, 0xbd, 0x91, 0x17, 0xf9, 0xbd,
  0xb9, 0x4d, 0x03, 0x3d, 0xa3, 0xae, 0x07, 0x3e, 0x66, 0xde, 0x11, 0xbe,
  0xd7, 0x4c, 0x27, 0xbc, 0x4c, 0x66, 0x21, 0xbe, 0x59, 0xdf, 0x20, 0xbd,
  0x62, 0x33, 0x7f, 0xbc, 0xa1, 0x3b, 0x3a, 0x3e, 0x00, 0x8d, 0x47, 0x3e,
  0x48, 0x65, 0xab, 0x3e, 0x96, 0x76, 0x60, 0x3e, 0xb6, 0xdc, 0xb2, 0x3c,
  0x5b, 0x27, 0xb2, 0xbd, 0x58, 0x93, 0xbd, 0xbe, 0xa7, 0xb8, 0x07, 0xbe,
  0x3a, 0xa8, 0x81, 0xbd, 0xea, 0xf8, 0xdd, 0xbd, 0x57, 0x35, 0x8a, 0xbb,
  0x57, 0xcd, 0x21, 0xbe, 0xe1, 0xac, 0x64, 0x38, 0x32, 0x64, 0x97, 0x3d,
  0x98, 0x34, 0x17, 0xbd, 0xeb, 0xdf, 0x8a, 0x3d, 0x12, 0x06, 0xc9, 0xbd,
  0x88, 0x4d, 0x1c, 0xbe, 0xc5, 0x08, 0x8e, 0x3e, 0x55, 0xf9, 0x8e, 0xbc,
  0xfc, 0xe4, 0xc3, 0xbc, 0xc1, 0x0a, 0xad, 0x3d, 0xa6, 0x7c, 0xac, 0xbe,
  0xd9, 0x85, 0x2d, 0xbe, 0x9d, 0x84, 0x84, 0xbd, 0x73, 0xf3, 0xc2, 0xbe,
  0xef, 0x2f, 0x09, 0x3e, 0x77, 0xe3, 0x2e, 0xbe, 0x18, 0xbe, 0x25, 0x3e,
  0x77, 0xdf, 0x39, 0xbd, 0xab, 0x60, 0x0d, 0xbe, 0x63, 0x8e, 0x06, 0xbe,
  0x6d, 0x26, 0xbb, 0x3d, 0x5b, 0xb3, 0x51, 0x3c, 0x23, 0x28, 0x93, 0xbc,
  0x5d, 0x3b, 0x11, 0x3d, 0x90, 0x00, 0x11, 0xbd, 0xd3, 0x22, 0x04, 0x3e,
  0xe7, 0x48, 0xf6, 0x3d, 0x4e, 0x50, 0xb5, 0xbd, 0x08, 0x14, 0xa8, 0xbe,
  0xfc, 0x27, 0x1d, 0x3d, 0x5a, 0x43, 0x67, 0xbd, 0xf9, 0x87, 0x06, 0x3d,
  0x4b, 0x53, 0x81, 0x3e, 0xab, 0xb4, 0xf6, 0xbc, 0x6f, 0x37, 0x9c, 0xbe,
  0x09, 0xb4, 0x48, 0xbd, 0x78, 0x96, 0x9e, 0xbe, 0xfc, 0xf0, 0xb4, 0xbd,
  0x8d, 0xc9, 0x01, 0x3d, 0xf8, 0x76, 0x61, 0xbe, 0x91, 0xdd, 0x35, 0xbe,
  0xbc, 0xba, 0x28, 0x3e, 0xf6, 0x19, 0xf7, 0xbe, 0x10, 0xf4, 0xc4, 0xbd,
  0xf9, 0x21, 0x38, 0xbe, 0xf4, 0x61, 0x83, 0xbd, 0x1b, 0xea, 0xbe, 0xbd,
  0x1e, 0xdb, 0x67, 0x3d, 0x95, 0x05, 0x1d, 0x3e, 0xc5, 0x78, 0x7f, 0xbe,
  0x3f, 0xdb, 0xb8, 0xbe, 0xd2, 0x4d, 0xd8, 0xbc, 0x14, 0x71, 0x1f, 0xbf,
  0xce, 0x94, 0xbc, 0x3c, 0x2f, 0x8f, 0x46, 0xbe, 0xe5, 0xe8, 0x88, 0xbd,
  0x25, 0xd4, 0x41, 0xbe, 0x67, 0x96, 0x12, 0x3e, 0x5b, 0x57, 0xab, 0xbe,
  0x54, 0x66, 0x35, 0x3d, 0x6c, 0x27, 0x18, 0xbe, 0xde, 0x5a, 0xd9, 0x3d,
  0x0d, 0xa2, 0x80, 0xbe, 0xf6, 0x2a, 0x41, 0xbd, 0x54, 0x98, 0xdd, 0x3d,
  0x4c, 0x78, 0x88, 0xbe, 0xe1, 0xdb, 0xc6, 0xbe, 0x07, 0x40, 0x3b, 0xbe,
  0x8d, 0x62, 0x14, 0xbf, 0x30, 0x4d, 0xce, 0x3d, 0xe6, 0x71, 0x11, 0x3d,
  0x0f, 0xf9, 0x87, 0xbd, 0x76, 0xc7, 0x0a, 0xbe, 0x15, 0xd7, 0xf5, 0x3d,
  0x49, 0x6b, 0xa8, 0x3d, 0x95, 0x1f, 0xc0, 0xbd, 0x2a, 0x11, 0x5e, 0xbe,
  0x05, 0x73, 0x87, 0x3e, 0x70, 0xb4, 0xe0, 0xbd, 0x1a, 0x6c, 0xaf, 0xbc,
  0xdf, 0x58, 0x3e, 0x3e, 0xe6, 0xa5, 0x70, 0xbe, 0xbc, 0xb4, 0xb3, 0xbe,
  0xd2, 0x29, 0x1d, 0xbd, 0x91, 0xdc, 0x07, 0xbf, 0x25, 0x2b, 0x7b, 0x3e,
  0x4c, 0x5c, 0x0e, 0x3d, 0x12, 0x4c, 0xe8, 0xbd, 0x1e, 0x8a, 0xf4, 0xbd,
  0x51, 0xeb, 0xa9, 0x3d, 0x45, 0x9f, 0xe1, 0xbe, 0x69, 0x16, 0x29, 0xbd,
  0x22, 0xfb, 0xa2, 0xbe, 0x20, 0xa5, 0xee, 0x3a, 0x64, 0xe5, 0x5e, 0xbc,
  0x83, 0xae, 0x39, 0x3d, 0xa0, 0xfc, 0x37, 0x3e, 0xef, 0x1b, 0xf3, 0xbd,
  0x67, 0x69, 0x84, 0xbe, 0x71, 0xb7, 0xc0, 0xbd, 0xea, 0x68, 0xa5, 0xbe,
  0x9e, 0x08, 0x24, 0x3d, 0xd4, 0x6f, 0x36, 0x3c, 0x46, 0xfd, 0x0c, 0xbe,
  0xfd, 0xd3, 0xc5, 0xbd, 0x16, 0x15, 0x2e, 0x3e, 0xe3, 0xd7, 0xc4, 0x3c,
  0x42, 0x1c, 0x38, 0x3d, 0x12, 0xed, 0xa7, 0xbd, 0x90, 0x1c, 0x16, 0xbe,
  0x7c, 0x31, 0x26, 0xbe, 0xa6, 0x89, 0xf6, 0x3d, 0xaa, 0x53, 0xa3, 0x3d,
  0x13, 0x9b, 0xc2, 0x3d, 0xf5, 0x98, 0x68, 0xbe, 0x61, 0x05, 0x3f, 0xbd,
  0x5e, 0xf5, 0x35, 0xbd, 0xe9, 0x64, 0x87, 0x3e, 0xcd, 0xec, 0x88, 0xbb,
  0xa9, 0x88, 0x30, 0x3e, 0xe0, 0xc8, 0x64, 0x3d, 0xcf, 0x87, 0xb6, 0x3d,
  0x2e, 0x88, 0x32, 0xbd, 0xe4, 0x3d, 0xcd, 0xbd, 0x19, 0xc8, 0x27, 0xbd,
  0xf9, 0x9d, 0x89, 0x3e, 0x55, 0xb5, 0x8f, 0x3b, 0xd0, 0x32, 0xc2, 0xbb,
  0x4e, 0xa3, 0x06, 0x3d, 0xfa, 0x43, 0xa4, 0xbd, 0xb1, 0xf3, 0x5e, 0xbe,
  0xe2, 0x55, 0xe5, 0xbc, 0x28, 0x83, 0x5d, 0x3e, 0x15, 0x35, 0xca, 0x3e,
  0xca, 0xfd, 0x8a, 0x3e, 0x21, 0x2c, 0x68, 0xbd, 0x0c, 0xbe, 0xdc, 0x3d,
  0xaa, 0x68, 0xa6, 0x3d, 0x40, 0x9a, 0x5e, 0x3d, 0xa0, 0x9d, 0x34, 0xbe,
  0xb9, 0xc9, 0x42, 0xbe, 0x37, 0xf9, 0x1e, 0xbc, 0x9b, 0xa5, 0x71, 0x3e,
  0xed, 0x38, 0xa9, 0x3d, 0xa4, 0x1a, 0xaf, 0x3d, 0x50, 0x00, 0xf4, 0xbd,
  0x15, 0x88, 0x2c, 0x3b, 0x55, 0xd0, 0x56, 0x3e, 0x88, 0x3e, 0xb8, 0x3e,
  0x89, 0x50, 0x9d, 0x3d, 0x28, 0xea, 0x98, 0x3e, 0x19, 0xc0, 0x68, 0x3e,
  0x62, 0xe1, 0x36, 0x3e, 0xb9, 0xec, 0x1d, 0x3d, 0x39, 0x4e, 0x99, 0x3e,
  0x8c, 0x47, 0x95, 0xbe, 0x34, 0xd4, 0x00, 0xbd, 0x99, 0x55, 0x02, 0x3e,
  0x01, 0xa4, 0x1e, 0x3e, 0x00, 0xaa, 0x8d, 0x3c, 0x69, 0xf9, 0x0d, 0xbd,
  0x9f, 0x21, 0x81, 0x3c, 0xaa, 0xbd, 0x54, 0xbc, 0xfe, 0xba, 0x18, 0xbe,
  0x76, 0xed, 0xee, 0x3d, 0xfb, 0x66, 0x17, 0x3e, 0x28, 0x15, 0xd0, 0x3d,
  0x1b, 0x7f, 0x9d, 0xbd, 0x28, 0x62, 0xfd, 0x3d, 0x20, 0x79, 0x4d, 0x3b,
  0xea, 0x5e, 0x38, 0x3e, 0x79, 0x18, 0x35, 0xbe, 0xb7, 0xdb, 0x63, 0xbe,
  0x0c, 0xa5, 0x16, 0x3e, 0xb3, 0xf9, 0xc0, 0x3d, 0x55, 0x83, 0xad, 0xbd,
  0xd8, 0xb4, 0xaa, 0xbd, 0x6e, 0x2e, 0xbd, 0xbd, 0x74, 0x1d, 0x32, 0xbd,
  0x06, 0xc3, 0x26, 0xbe, 0x9b, 0xc8, 0x48, 0x3e, 0x4a, 0x0b, 0x9f, 0x3d,
  0x5b, 0x32, 0x86, 0x3d, 0xcc, 0x99, 0x5a, 0x3e, 0xc0, 0x69, 0x7e, 0x3e,
  0xba, 0x05, 0xd4, 0xbd, 0x9e, 0x84, 0x46, 0xbe, 0x31, 0x03, 0x3b, 0xbd,
  0x94, 0x45, 0x8a, 0xbd, 0x56, 0xe1, 0xa8, 0x3c, 0x47, 0xf2, 0x5d, 0x3e,
  0xd5, 0x45, 0xc8, 0xbd, 0xcf, 0x86, 0x41, 0xbe, 0xd1, 0x6b, 0xaa, 0x3d,
  0xe0, 0x44, 0x1d, 0x3c, 0x39, 0x66, 0x4d, 0xbd, 0xa4, 0x9e, 0x3e, 0x3d,
  0xce, 0x8b, 0xb0, 0x3d, 0xf2, 0x20, 0x1a, 0x3d, 0x15, 0xba, 0xe0, 0x3d,
  0x87, 0x76, 0xb5, 0x3e, 0x4d, 0x07, 0x3e, 0x3d, 0xa4, 0x1c, 0xec, 0xbe,
  0xaf, 0x1a, 0xa0, 0xbd, 0x6a, 0x26, 0x25, 0xbc, 0x6d, 0xd2, 0x10, 0x3e,
  0xcc, 0xe5, 0x1e, 0x3d, 0x3e, 0x0e, 0x36, 0xbd, 0xe6, 0x8e, 0xf8, 0xbd,
  0x53, 0x1a, 0xf8, 0x3a, 0x05, 0x6b, 0xd0, 0x3b, 0xa5, 0xc8, 0xbe, 0xbd,
  0x7b, 0x03, 0x15, 0x3d, 0x70, 0xdc, 0x72, 0xbd, 0x1b, 0x7c, 0x5f, 0x3e,
  0x67, 0x31, 0x32, 0x3d, 0x2a, 0x6d, 0x45, 0xbe, 0x2e, 0x76, 0x9b, 0xbe,
  0x25, 0x70, 0x1d, 0xbf, 0x26, 0x1f, 0xa0, 0xbd, 0xef, 0x14, 0x03, 0xbe,
  0x90, 0xd9, 0x66, 0xbe, 0x1b, 0x5f, 0x15, 0x3e, 0x89, 0x4c, 0x7e, 0xbe,
  0xa8, 0x43, 0xb4, 0xbe, 0x91, 0x85, 0xbc, 0x3c, 0x12, 0xcd, 0xfa, 0x3d,
  0xd1, 0x36, 0x83, 0x3d, 0x1c, 0x71, 0xc3, 0x3d, 0x13, 0x57, 0xda, 0xbd,
  0x6b, 0x6f, 0x87, 0x3e, 0x8e, 0x5b, 0x19, 0x3e, 0xfa, 0x96, 0x5d, 0x3d,
  0x6b, 0x99, 0xe8, 0xbe, 0xd9, 0xba, 0x6b, 0xbe, 0x93, 0x8f, 0x73, 0xbd,
  0x12, 0xa5, 0x95, 0x3c, 0x9f, 0x76, 0xb7, 0x3e, 0x07, 0xf9, 0x87, 0x3e,
  0x4b, 0xf1, 0xf1, 0xbd, 0xd8, 0xe0, 0x82, 0xbf, 0x2d, 0xf5, 0xc7, 0xbc,
  0x65, 0xb5, 0x93, 0x3d, 0x1b, 0x10, 0x1b, 0x3c, 0x24, 0xc2, 0x06, 0x3d,
  0x7f, 0x35, 0x73, 0xbe, 0x87, 0x5f, 0xc9, 0xbe, 0xb3, 0xc9, 0x91, 0xbc,
  0xb0, 0xfc, 0x02, 0x3e, 0xbc, 0x9f, 0xb2, 0x3e, 0x08, 0x7a, 0x93, 0x3c,
  0xc9, 0xe0, 0xe9, 0xbe, 0x3c, 0xf4, 0x0e, 0x3e, 0xa3, 0x91, 0x63, 0xbe,
  0x2d, 0x99, 0x8f, 0xbe, 0xc1, 0xb6, 0x57, 0xbe, 0x9a, 0x8d, 0x33, 0xbe,
  0x66, 0x29, 0xe5, 0x3d, 0x8e, 0xdc, 0x90, 0xbe, 0x7f, 0x70, 0x7d, 0x3c,
  0x84, 0x56, 0x31, 0xbe, 0xe5, 0xfc, 0x82, 0xbe, 0x1a, 0x78, 0x30, 0xbe,
  0x1f, 0x66, 0xf7, 0xbd, 0x39, 0x1f, 0x96, 0xbd, 0x7f, 0xc9, 0x49, 0x3e,
  0x2d, 0xe9, 0x40, 0xbe, 0x8a, 0x18, 0x05, 0xbe, 0x8c, 0x75, 0x83, 0x3d,
  0x9f, 0x92, 0xec, 0xbd, 0x34, 0x14, 0x0b, 0x3e, 0xa0, 0xc5, 0x6b, 0x3e,
  0xa5, 0x72, 0x63, 0x3d, 0xc6, 0xed, 0x09, 0xbe, 0xfc, 0x6c, 0xd2, 0xbc,
  0x38, 0x21, 0xd0, 0xbe, 0x21, 0xa0, 0xb0, 0xbe, 0xe9, 0x45, 0x80, 0xbe,
  0x74, 0xa5, 0x5a, 0x3d, 0xb0, 0x88, 0xb1, 0xbe, 0x2c, 0xa9, 0x22, 0xbb,
  0x11, 0xfd, 0xf1, 0xbd, 0xfd, 0xcc, 0x99, 0x3c, 0x35, 0xc9, 0x97, 0xbe,
  0x26, 0x5f, 0xee, 0xbd, 0x66, 0xf9, 0x95, 0xbe, 0x4f, 0x07, 0xba, 0xbe,
  0x12, 0xbb, 0x4d, 0x3e, 0x70, 0x1c, 0xa2, 0xbd, 0xa8, 0x85, 0x2b, 0xbe,
  0x13, 0x5e, 0x02, 0xbe, 0x32, 0x73, 0x4d, 0xbe, 0x05, 0x8b, 0xcc, 0xbe,
  0xe6, 0xf5, 0x89, 0x3d, 0x71, 0x13, 0x1b, 0xbc, 0x25, 0x0e, 0xf5, 0xbc,
  0x2b, 0x1e, 0xfd, 0x3d, 0xb0, 0x1a, 0x1a, 0x3e, 0xe3, 0x06, 0xee, 0xbd,
  0x0e, 0x88, 0xf0, 0xbd, 0x00, 0xea, 0xbf, 0xbd, 0xe8, 0x7f, 0xdb, 0xbc,
  0x6d, 0x0d, 0xdf, 0xbc, 0x9b, 0x9e, 0xc7, 0xbe, 0x4c, 0x6a, 0xc5, 0xbd,
  0xc2, 0xe3, 0x8b, 0xbd, 0xd8, 0x0f, 0x18, 0xbe, 0x92, 0x6d, 0x33, 0xbe,
  0x68, 0xce, 0x1b, 0xbe, 0x21, 0x57, 0xcb, 0x3d, 0xf8, 0x45, 0xfa, 0xbd,
  0xe9, 0x67, 0xbc, 0xbd, 0x35, 0x90, 0x1b, 0x3c, 0x6a, 0xa6, 0x0d, 0x3d,
  0x96, 0x41, 0x94, 0xbe, 0x13, 0xfe, 0xaf, 0xbd, 0x25, 0x34, 0xa2, 0x3d,
  0xa9, 0xc1, 0x15, 0x3e, 0xdb, 0xfd, 0xa0, 0xbc, 0xb3, 0x83, 0x00, 0xbe,
  0x0b, 0x4a, 0x17, 0x3d, 0x1a, 0x54, 0x13, 0xbe, 0xcb, 0xac, 0xa1, 0xbd,
  0x83, 0x3a, 0xbd, 0xbd, 0x7b, 0xcb, 0xdc, 0xbe, 0x34, 0x63, 0xa9, 0x3a,
  0x96, 0xd8, 0x36, 0x3d, 0x0f, 0x4d, 0x5e, 0xbe, 0xb9, 0x12, 0x88, 0xbd,
  0x0a, 0x07, 0xa8, 0xbd, 0xaa, 0x07, 0x31, 0x3e, 0xd2, 0xb7, 0xe2, 0xbd,
  0x4a, 0xba, 0x0c, 0xbe, 0x7e, 0xbd, 0xaa, 0xbe, 0x36, 0xfb, 0xa3, 0xbe,
  0x1c, 0x0d, 0x77, 0xbe, 0x0c, 0x78, 0xb5, 0x3b, 0x78, 0x6e, 0x55, 0x3d,
  0xc5, 0xe6, 0x8f, 0xbe, 0x5f, 0x24, 0x22, 0x3e, 0xce, 0xf8, 0xfe, 0xbe,
  0x0f, 0xdf, 0xbf, 0xbd, 0xf2, 0xa7, 0xf9, 0xbd, 0xfe, 0x9a, 0x88, 0xbe,
  0xde, 0xca, 0x13, 0xbe, 0x81, 0x78, 0x74, 0x3d, 0x5e, 0x29, 0xd6, 0xbe,
  0x54, 0x8e, 0x2a, 0xbd, 0x7f, 0x68, 0x37, 0xbe, 0xea, 0x63, 0xca, 0xbe,
  0xf4, 0x65, 0x0a, 0xbf, 0xde, 0x98, 0x6c, 0x3e, 0xc1, 0x24, 0x3e, 0xbe,
  0xe8, 0x91, 0xd3, 0xbe, 0x9f, 0x09, 0x07, 0xbe, 0x07, 0x41, 0x96, 0xbc,
  0xe6, 0xab, 0x17, 0xbf, 0xda, 0xfb, 0x0d, 0xbd, 0xc5, 0xf6, 0xa6, 0xbe,
  0x88, 0xc5, 0xf6, 0xbd, 0x89, 0xbb, 0x13, 0xbe, 0x0f, 0xfc, 0x72, 0x3e,
  0x1c, 0xef, 0xa3, 0xbe, 0x72, 0xae, 0xf3, 0x3c, 0x26, 0xa0, 0x46, 0xbe,
  0xdd, 0x03, 0x0c, 0xbf, 0x7c, 0x47, 0x13, 0xbf, 0x66, 0x91, 0xd7, 0xbc,
  0xd8, 0x3d, 0xc7, 0x3d, 0x13, 0x70, 0xa1, 0xbe, 0x3e, 0xd6, 0x8a, 0xbd,
  0xa6, 0x69, 0x02, 0x3e, 0x63, 0x1d, 0x30, 0xbe, 0x8f, 0x7f, 0xb1, 0x3e,
  0xa1, 0xac, 0xdb, 0xbd, 0x09, 0xa7, 0x11, 0xbe, 0x6d, 0x8f, 0x1a, 0xbd,
  0x82, 0x4a, 0x4d, 0xbd, 0xbe, 0x3a, 0xc3, 0xbe, 0x04, 0x93, 0xa5, 0xbd,
  0x0b, 0x70, 0x87, 0xbe, 0x1b, 0xa9, 0x9e, 0xbe, 0x0d, 0xb7, 0xf3, 0xbc,
  0xeb, 0xa7, 0x2c, 0x3d, 0xaf, 0x18, 0x20, 0xbe, 0x5b, 0x14, 0x15, 0xbf,
  0xb9, 0x94, 0xd2, 0x3c, 0x83, 0x18, 0x32, 0x3c, 0xf5, 0x2d, 0x28, 0xbe,
  0x13, 0x77, 0x80, 0x3e, 0x04, 0x73, 0xc7, 0xbd, 0xdb, 0x74, 0x27, 0x3e,
  0xd9, 0xa1, 0x65, 0x3b, 0xa1, 0x6c, 0x2a, 0xbd, 0xe6, 0x01, 0xf8, 0xbe,
  0xd5, 0x88, 0xda, 0xbd, 0x80, 0x79, 0x17, 0xbe, 0x69, 0x86, 0x8b, 0xbe,
  0x39, 0x86, 0x20, 0x3e, 0x52, 0x49, 0x4f, 0x3e, 0xed, 0x3c, 0x07, 0xbe,
  0xfd, 0xb7, 0xa2, 0xbe, 0x18, 0xd2, 0xc4, 0x3d, 0xcb, 0x14, 0x12, 0xbe,
  0x96, 0x13, 0x87, 0x3e, 0x21, 0x5b, 0xb8, 0xbc, 0xcf, 0xf7, 0x01, 0x3e,
  0x96, 0xa2, 0x38, 0x3e, 0x3d, 0xbf, 0x81, 0xbd, 0x34, 0xc3, 0xb5, 0xbd,
  0x57, 0x0e, 0xff, 0xbe, 0x48, 0x3a, 0x5e, 0xbc, 0xfb, 0xf8, 0x2a, 0xbd,
  0x4b, 0x5c, 0x2f, 0xbf, 0x80, 0xcd, 0x0d, 0x3e, 0x1f, 0xe1, 0xd2, 0xbd,
  0xd8, 0x0a, 0x00, 0xbe, 0x2e, 0x2d, 0xad, 0x3e, 0xb8, 0xc0, 0x17, 0x3d,
  0x01, 0x50, 0xe0, 0xbc, 0x15, 0x7f, 0x83, 0xbc, 0x49, 0xe6, 0x9f, 0xbc,
  0x7e, 0x6c, 0x48, 0x3e, 0x68, 0xe8, 0x0f, 0x3e, 0xc5, 0x69, 0x06, 0x3e,
  0x82, 0x89, 0x52, 0xbe, 0x1a, 0x8c, 0x5d, 0x3e, 0x08, 0xa6, 0xcf, 0xbd,
  0x8a, 0xf2, 0x86, 0xbe, 0x5f, 0x01, 0xfb, 0xbe, 0xd0, 0x8b, 0x3c, 0x3e,
  0xae, 0xf1, 0xd8, 0x3d, 0x9f, 0x1f, 0x78, 0xbe, 0x1a, 0x50, 0x93, 0x3e,
  0x2e, 0x87, 0x0e, 0x3e, 0xa8, 0xc2, 0xef, 0xbc, 0xa4, 0x26, 0xbc, 0x3d,
  0x96, 0x85, 0x05, 0xbe, 0x0f, 0x52, 0xc0, 0x3d, 0xa8, 0x34, 0x48, 0x3e,
  0xe9, 0x7b, 0x1c, 0x3d, 0xe3, 0x49, 0x85, 0xbe, 0x7d, 0x9b, 0xed, 0xbd,
  0x44, 0x19, 0x28, 0xbd, 0xc7, 0x24, 0x8c, 0xbe, 0x7b, 0x80, 0x21, 0xbf,
  0x34, 0x06, 0x27, 0x3e, 0xa9, 0xd0, 0x91, 0x3c, 0x34, 0x0a, 0x47, 0xbe,
  0xd1, 0x3d, 0x67, 0x3e, 0x3e, 0x77, 0x38, 0x3e, 0xab, 0x91, 0xa6, 0x3d,
  0xd8, 0xcc, 0xee, 0x3d, 0x35, 0xab, 0x3d, 0xbc, 0xb9, 0xa3, 0x74, 0x3d,
  0x2a, 0xcc, 0x41, 0x3e, 0xbb, 0x86, 0x61, 0x3c, 0xca, 0x00, 0xe6, 0xbd,
  0xba, 0x5f, 0x76, 0x3d, 0xd4, 0x17, 0x25, 0x3e, 0x43, 0x1f, 0x10, 0xbe,
  0xae, 0xb5, 0xb7, 0x3e, 0xdf, 0xb2, 0x5e, 0x3e, 0x51, 0x0b, 0xc3, 0xbd,
  0x1b, 0x90, 0x07, 0xbf, 0x13, 0x58, 0x0e, 0x3e, 0xe3, 0x10, 0xba, 0x3d,
  0x31, 0x80, 0x9a, 0x3d, 0x2a, 0x44, 0x2f, 0x3c, 0xda, 0x04, 0x03, 0x3e,
  0x66, 0x31, 0x48, 0xbe, 0x13, 0x68, 0x81, 0x3e, 0x5e, 0x01, 0x65, 0x3d,
  0x26, 0x22, 0xc2, 0x3e, 0x03, 0xcf, 0xf2, 0xbd, 0xf7, 0x89, 0x04, 0xbd,
  0xb0, 0x2d, 0x4b, 0x3e, 0x5b, 0x70, 0x1e, 0x3e, 0x80, 0xe7, 0x93, 0xbe,
  0x46, 0xed, 0x89, 0xbe, 0xba, 0x89, 0x33, 0x3d, 0xd4, 0x54, 0x1d, 0xbe,
  0xb1, 0x55, 0x18, 0xbd, 0x60, 0x86, 0x69, 0xbc, 0x4b, 0xb1, 0x9e, 0x3c,
  0x71, 0xb2, 0xf2, 0x3d, 0x5c, 0x13, 0xba, 0xbe, 0xe2, 0xf7, 0x66, 0x3d,
  0x74, 0xeb, 0x83, 0xbc, 0x6e, 0x11, 0x44, 0x39, 0x06, 0x19, 0x3e, 0xbe,
  0x87, 0x6d, 0x90, 0xbc, 0x6f, 0xfd, 0xce, 0xbd, 0xde, 0xf8, 0x80, 0xbe,
  0x02, 0xc1, 0x0a, 0xbe, 0xa7, 0xf3, 0xae, 0x3d, 0x78, 0xc5, 0x8b, 0xbe,
  0x96, 0x8e, 0x2e, 0x3e, 0x3f, 0xee, 0x58, 0x3e, 0x50, 0x97, 0x4d, 0xbd,
  0x87, 0x1a, 0x1a, 0x3e, 0x92, 0xfc, 0xab, 0x3d, 0x5c, 0xa5, 0x92, 0xbe,
  0x11, 0x9f, 0x5d, 0xbe, 0xbb, 0x0f, 0xc6, 0xbd, 0x17, 0x80, 0x1c, 0xbd,
  0x4d, 0x21, 0x84, 0x3e, 0xd5, 0x7f, 0x04, 0xbe, 0x52, 0x39, 0x3a, 0x3e,
  0x56, 0x9b, 0x38, 0x3e, 0x28, 0x66, 0xc4, 0xbd, 0x2e, 0x30, 0x29, 0xbd,
  0x2d, 0x00, 0x39, 0x3e, 0xf3, 0x34, 0x03, 0x3c, 0x2c, 0x5e, 0x7a, 0x3d,
  0xe7, 0x07, 0x19, 0x3d, 0x1a, 0x19, 0x75, 0xbe, 0x29, 0x83, 0x3f, 0xbe,
  0x00, 0x8d, 0x8b, 0xbe, 0x9c, 0x09, 0xd9, 0xbc, 0x8f, 0x20, 0x51, 0xbe,
  0x09, 0x11, 0x60, 0xbe, 0x2d, 0xcd, 0xa1, 0x3e, 0x1d, 0x48, 0x48, 0xbe,
  0xbf, 0x39, 0x3f, 0x3e, 0xce, 0x32, 0x18, 0x3d, 0x47, 0xfa, 0xe4, 0xbb,
  0x07, 0xce, 0x15, 0x3e, 0x3d, 0xab, 0xb8, 0x3d, 0xfa, 0xd6, 0xb0, 0xbc,
  0x23, 0x19, 0x11, 0xbe, 0xeb, 0x0c, 0x00, 0x3d, 0x8f, 0x33, 0x10, 0xbe,
  0x38, 0x83, 0x24, 0xbe, 0x87, 0x78, 0xe1, 0xbd, 0x93, 0x8f, 0x5d, 0x3d,
  0x2b, 0xce, 0x17, 0xbe, 0xbf, 0x94, 0xfe, 0xbd, 0xf3, 0x3b, 0xac, 0x3e,
  0xc3, 0x31, 0x08, 0xbe, 0xab, 0x8c, 0x2b, 0xbc, 0xc8, 0xcf, 0xbe, 0x3d,
  0x70, 0xab, 0x1b, 0x3e, 0x6d, 0xf2, 0xb7, 0x3d, 0x87, 0xbc, 0x57, 0x3e,
  0x30, 0x67, 0xd7, 0x3c, 0xed, 0x45, 0x50, 0xbe, 0xe4, 0x97, 0x68, 0x3d,
  0x64, 0x57, 0x3d, 0x3d, 0x63, 0x57, 0xbe, 0xbd, 0x45, 0xc7, 0xdc, 0x3d,
  0xa8, 0x2e, 0xbb, 0xbd, 0xf4, 0x75, 0x2e, 0xbe, 0xb5, 0x79, 0xd6, 0xbc,
  0x84, 0x7e, 0xa4, 0x3d, 0xfe, 0x16, 0xc2, 0xbd, 0x5f, 0xa1, 0x14, 0xbe,
  0x14, 0x5e, 0x19, 0x3d, 0xec, 0x4d, 0xef, 0xbd, 0xca, 0x06, 0x79, 0x3d,
  0x82, 0xab, 0x30, 0x3e, 0xb1, 0xe3, 0x44, 0x3c, 0x58, 0xe8, 0x32, 0x39,
  0xbd, 0x6f, 0x08, 0xbc, 0x0c, 0x20, 0x9e, 0x3c, 0x1e, 0xc7, 0x6d, 0x3d,
  0x92, 0x1c, 0xa2, 0xbc, 0x39, 0x02, 0x1d, 0x3e, 0x34, 0xa9, 0x53, 0xbe,
  0x00, 0x73, 0xe8, 0xbd, 0x02, 0x4b, 0x82, 0x3b, 0x1f, 0x28, 0x1b, 0xbe,
  0x1b, 0x6f, 0xad, 0xbc, 0x53, 0x00, 0xc8, 0x3c, 0xa3, 0xa8, 0x68, 0xbe,
  0x8c, 0x23, 0x3a, 0x3c, 0x5f, 0xb2, 0x1f, 0x3e, 0xfb, 0xe8, 0x4b, 0xbe,
  0xd3, 0x37, 0xb8, 0xbd, 0xf4, 0x52, 0x83, 0x3d, 0x09, 0xf9, 0x26, 0x3d,
  0x69, 0xec, 0x54, 0xbe, 0xe1, 0x81, 0x2a, 0xbe, 0xdf, 0xfe, 0x01, 0xbd,
  0x58, 0x95, 0x32, 0xbe, 0x3f, 0x2a, 0x3d, 0xbd, 0x2c, 0x1f, 0x3f, 0xbd,
  0x20, 0xae, 0x16, 0xbe, 0xe6, 0x75, 0x64, 0xbe, 0x15, 0xb4, 0x86, 0x3d,
  0x0e, 0xf7, 0x83, 0x3d, 0x46, 0x23, 0xe0, 0xbd, 0x4d, 0x4f, 0x07, 0x3e,
  0xb7, 0xbf, 0x1b, 0xbe, 0xd0, 0x58, 0x64, 0x3b, 0xaf, 0x4b, 0x66, 0x3d,
  0xc0, 0x06, 0xae, 0xbd, 0x9d, 0x14, 0x35, 0xbe, 0xb2, 0x5e, 0xa0, 0xbd,
  0xa9, 0xea, 0x13, 0xbe, 0xb1, 0xf7, 0x79, 0xbe, 0x68, 0x5b, 0x38, 0xbd,
  0x4b, 0xef, 0x2b, 0x3b, 0x4d, 0x1b, 0x62, 0xbe, 0x50, 0xc8, 0xeb, 0xbd,
  0x75, 0x11, 0x82, 0x3d, 0xc8, 0x2b, 0x5d, 0x3e, 0x21, 0xd9, 0x3b, 0xbd,
  0x05, 0x89, 0xfc, 0x3c, 0xf4, 0xe4, 0xcc, 0xbd, 0x14, 0x66, 0x4b, 0xbe,
  0xba, 0xc7, 0xaa, 0x3d, 0x5f, 0x03, 0xcf, 0xbd, 0x48, 0xd2, 0x98, 0xbe,
  0x93, 0x10, 0x85, 0x3d, 0x62, 0x77, 0x48, 0xbe, 0x73, 0xdb, 0xb5, 0xbd,
  0xc6, 0xd6, 0x4a, 0xbe, 0x1d, 0x94, 0x32, 0xbe, 0xa5, 0x10, 0xb6, 0xbc,
  0xf0, 0xa3, 0xc7, 0xbe, 0xcf, 0xcd, 0x3a, 0xbd, 0x11, 0x55, 0x8b, 0xbc,
  0x68, 0xb8, 0x12, 0x3d, 0xd3, 0xfd, 0x69, 0x3d, 0x59, 0x76, 0x34, 0xbe,
  0x0c, 0x51, 0x5b, 0xbe, 0x47, 0xeb, 0x14, 0x3e, 0xf3, 0x59, 0xf0, 0x3c,
  0x0d, 0x58, 0xfb, 0xbd, 0x77, 0x78, 0x9d, 0x3c, 0x83, 0xad, 0xec, 0xbd,
  0x71, 0xd0, 0x8f, 0x3d, 0xa8, 0x6a, 0x55, 0xbe, 0x94, 0xb3, 0x18, 0xbe,
  0x6c, 0x5c, 0xde, 0xbd, 0x69, 0xd8, 0x19, 0xbe, 0xa5, 0xf7, 0x2b, 0xbd,
  0x5c, 0xf2, 0xc4, 0x3c, 0xcc, 0x49, 0x8c, 0xbc, 0x58, 0x54, 0x31, 0x3e,
  0x58, 0x6d, 0xac, 0xbd, 0x48, 0xe6, 0xa4, 0xbe, 0xff, 0x65, 0xbf, 0xbd,
  0x82, 0x84, 0x97, 0xbe, 0xb8, 0x82, 0x83, 0x3e, 0x70, 0x75, 0xe5, 0x3d,
  0x53, 0xf3, 0x69, 0x3d, 0xed, 0x9a, 0x65, 0x3d, 0x32, 0x9c, 0x75, 0x3e,
  0xa7, 0x3c, 0xa1, 0xbe, 0xb3, 0x94, 0xac, 0xbd, 0x9a, 0x7d, 0x76, 0x3e,
  0xdb, 0x7b, 0x35, 0x3e, 0x91, 0x8a, 0x9b, 0xbd, 0x31, 0x67, 0x41, 0x3e,
  0xdd, 0x55, 0x1a, 0xbc, 0x76, 0xef, 0x2d, 0xbc, 0x16, 0xab, 0x29, 0x3e,
  0xd6, 0xb5, 0x22, 0xbe, 0x46, 0x07, 0x2d, 0x3e, 0xac, 0x2c, 0xf4, 0x3d,
  0x60, 0x5c, 0xa1, 0xbe, 0x34, 0x02, 0x86, 0xbd, 0x2f, 0xdc, 0x1a, 0x3d,
  0x68, 0x97, 0x0b, 0x3e, 0x5d, 0x95, 0xc9, 0xbd, 0x73, 0x09, 0x1c, 0xbe,
  0x9c, 0xcc, 0x8d, 0x3e, 0xd8, 0xf2, 0xd4, 0xbc, 0x8e, 0xa0, 0xb8, 0xbe,
  0x1e, 0x70, 0x89, 0x3d, 0x0c, 0x53, 0x52, 0xbd, 0xce, 0x2f, 0xd8, 0xbd,
  0x3c, 0xef, 0x88, 0x3e, 0xa8, 0x88, 0x5f, 0xbe, 0xe2, 0xfc, 0x22, 0xbe,
  0x25, 0xd1, 0xf1, 0x3b, 0xf4, 0x02, 0x1f, 0xbe, 0xed, 0x26, 0xc6, 0xbc,
  0x2c, 0x15, 0x6d, 0x3e, 0xa1, 0x72, 0x56, 0x3c, 0xff, 0xc9, 0xca, 0xbb,
  0xde, 0x6e, 0x6f, 0xbe, 0xbd, 0x54, 0xd5, 0x3d, 0xa6, 0xc0, 0xd9, 0xbd,
  0x3e, 0x37, 0x6f, 0xbe, 0x7d, 0xf8, 0x4a, 0x3e, 0x62, 0x95, 0xbf, 0xbd,
  0xc0, 0x17, 0x58, 0xbd, 0x4d, 0x49, 0x49, 0x3e, 0x06, 0xc5, 0x96, 0xbe,
  0x68, 0xa3, 0x40, 0xbe, 0xe1, 0x03, 0x76, 0x3d, 0x62, 0x29, 0xfb, 0x3e,
  0x70, 0x0d, 0x7c, 0xbe, 0xc4, 0x26, 0xe8, 0xbc, 0x58, 0x0d, 0x68, 0xbe,
  0x82, 0x6c, 0x91, 0x3e, 0x95, 0x8f, 0xc6, 0xbe, 0x4c, 0x83, 0xba, 0xbe,
  0x63, 0x25, 0x0f, 0x3f, 0xac, 0xd6, 0xe5, 0x3d, 0xad, 0x52, 0x4f, 0x3e,
  0xb2, 0xac, 0x42, 0x3f, 0x05, 0x17, 0x37, 0xbf, 0xa6, 0x0a, 0x10, 0xbf,
  0x86, 0x92, 0xbf, 0x3b, 0x6a, 0x85, 0x9b, 0xbe, 0x50, 0x61, 0x79, 0xbc,
  0x76, 0xe4, 0x12, 0x3e, 0x14, 0x30, 0xa7, 0xbe, 0x53, 0x95, 0x8a, 0x3e,
  0x04, 0x7b, 0xab, 0x3e, 0x90, 0x45, 0x78, 0xbe, 0x4c, 0xdf, 0xb9, 0xbe,
  0x06, 0x2b, 0xb2, 0xbc, 0xef, 0xef, 0x1a, 0xbc, 0x33, 0x04, 0xb1, 0xbd,
  0x74, 0xe9, 0xd6, 0xbe, 0x86, 0x86, 0x3a, 0x3e, 0x9e, 0x73, 0x4d, 0xbf,
  0x0a, 0x22, 0xd7, 0x3c, 0xb7, 0xc9, 0x7e, 0xbe, 0xee, 0x7f, 0x80, 0xbe,
  0xfb, 0x12, 0x29, 0x3e, 0xb8, 0xf2, 0x86, 0xbe, 0xb0, 0x5e, 0xff, 0xbe,
  0x3e, 0x8e, 0x9d, 0xbd, 0x6c, 0x48, 0xb1, 0x3e, 0xff, 0x53, 0xc5, 0xbe,
  0xd9, 0x22, 0x1b, 0x3e, 0x8b, 0xf9, 0x29, 0x3e, 0x27, 0x54, 0xdf, 0x3d,
  0xaa, 0x77, 0x22, 0xbe, 0x99, 0x8e, 0xad, 0xbd, 0x26, 0x0e, 0x13, 0x3c,
  0x8a, 0xdc, 0x1f, 0xbf, 0xd7, 0x2d, 0x29, 0x3e, 0x38, 0x2a, 0x7c, 0xbe,
  0x6e, 0x12, 0xf5, 0xbe, 0xbf, 0xd4, 0x9e, 0xbd, 0x9e, 0x08, 0x2c, 0xbe,
  0xfc, 0xb8, 0x93, 0xbe, 0x41, 0x78, 0x7c, 0xbd, 0x95, 0xd3, 0xbe, 0x3e,
  0xba, 0x1f, 0xa0, 0xbe, 0x64, 0xf8, 0x13, 0xbe, 0x60, 0xef, 0xe0, 0x3d,
  0x56, 0x30, 0xad, 0x3e, 0x64, 0xf2, 0x28, 0xbd, 0x1d, 0x17, 0x84, 0x3e,
  0x3e, 0x8a, 0x93, 0xbe, 0x3d, 0x32, 0x4a, 0xbf, 0x66, 0x11, 0xb6, 0x3d,
  0x93, 0xd7, 0x9c, 0x3d, 0x08, 0x63, 0x2e, 0xbe, 0x24, 0x70, 0x9d, 0xbd,
  0x5e, 0xbc, 0x37, 0x3e, 0xea, 0x2b, 0xdb, 0xbe, 0x5f, 0x23, 0xa3, 0xbd,
  0x42, 0x28, 0x1d, 0xbe, 0x65, 0xe7, 0x03, 0xbf, 0xd5, 0x03, 0x14, 0xbe,
  0x6d, 0x02, 0xe8, 0x3c, 0x59, 0x54, 0x00, 0x3e, 0xf4, 0xe6, 0x68, 0x3d,
  0x34, 0x87, 0xe4, 0xbd, 0x6a, 0x00, 0xbd, 0xbd, 0xa1, 0x8e, 0xd8, 0xbe,
  0x8f, 0xbb, 0x13, 0x3d, 0xcf, 0x8f, 0x54, 0x3d, 0x5d, 0x9c, 0xb1, 0xbc,
  0x7c, 0x74, 0xa8, 0xbd, 0xae, 0x60, 0x64, 0xbc, 0x6c, 0x48, 0x81, 0xbe,
  0xe0, 0xff, 0x23, 0xbe, 0x7f, 0xa8, 0xfc, 0xbd, 0x63, 0xb4, 0x2e, 0xbf,
  0xde, 0x81, 0xf4, 0x3d, 0x87, 0xe1, 0xae, 0x3c, 0x80, 0xc2, 0xd4, 0xbc,
  0xc6, 0x31, 0xb0, 0x3d, 0x24, 0xf0, 0x0a, 0x3e, 0x0d, 0xfb, 0xdb, 0xbd,
  0xf9, 0xea, 0xb9, 0xbe, 0x76, 0x94, 0x5e, 0x3d, 0x00, 0x86, 0x9a, 0x3d,
  0x86, 0xe4, 0x3d, 0x3e, 0x37, 0x87, 0xce, 0xbd, 0x96, 0x76, 0x78, 0x3d,
  0x4f, 0xf3, 0xfe, 0x3c, 0xe8, 0x68, 0xe5, 0xbd, 0xd0, 0x77, 0x34, 0xbd,
  0x69, 0xfe, 0x9e, 0xbe, 0xc6, 0x99, 0x39, 0x3c, 0xc0, 0xfc, 0x0a, 0xbd,
  0x10, 0x4b, 0x16, 0xbe, 0x55, 0xa8, 0x83, 0x3d, 0xac, 0xf5, 0x18, 0xbd,
  0xc2, 0x9e, 0x81, 0xbd, 0x40, 0xa0, 0x9e, 0xbc, 0x43, 0xe4, 0x68, 0xbd,
  0x36, 0xdf, 0xcd, 0x3d, 0x8d, 0xc9, 0xfa, 0xbd, 0x6a, 0x1e, 0x43, 0xbe,
  0xc6, 0x80, 0xa2, 0xbd, 0x12, 0x42, 0xe4, 0x3d, 0x15, 0x91, 0x0d, 0xbd,
  0x66, 0xf0, 0xb1, 0xbd, 0x67, 0x4e, 0xa4, 0xbd, 0xf9, 0x26, 0x35, 0x3e,
  0xce, 0x9a, 0xc8, 0xbd, 0x96, 0x97, 0x0c, 0xbe, 0xa6, 0x5b, 0x67, 0xbd,
  0x8f, 0x1d, 0x3d, 0xbc, 0x01, 0xfc, 0xf5, 0xbc, 0x6c, 0x58, 0x9b, 0xbd,
  0x15, 0x95, 0x73, 0x3d, 0x95, 0x1a, 0x49, 0x3d, 0x07, 0xe7, 0x41, 0xbe,
  0xfb, 0x2f, 0xcd, 0xbe, 0xb0, 0x4b, 0xa9, 0xbe, 0xea, 0xa6, 0x52, 0xbd,
  0x9e, 0x07, 0x43, 0xbe, 0xed, 0xe3, 0x84, 0xbd, 0x02, 0x07, 0xe7, 0xbd,
  0x17, 0x96, 0x5a, 0x3d, 0x22, 0x7c, 0x11, 0x3e, 0xae, 0x94, 0xc0, 0x3d,
  0xa3, 0xd5, 0xd4, 0xbd, 0x79, 0xf4, 0x7e, 0x3d, 0x72, 0xf6, 0x1a, 0xbe,
  0x69, 0x41, 0x20, 0xbe, 0x87, 0xd3, 0x17, 0x3e, 0x60, 0xd1, 0x1a, 0x3e,
  0xd0, 0x10, 0x53, 0xbd, 0x47, 0x08, 0xa4, 0xbe, 0xdb, 0x91, 0x20, 0x3d,
  0x27, 0xfd, 0x0b, 0x3e, 0x0f, 0xfa, 0x41, 0xbe, 0xbd, 0x9c, 0x54, 0xbd,
  0x57, 0x9b, 0xbd, 0xbe, 0x90, 0x02, 0x19, 0x3c, 0xf6, 0x5b, 0x18, 0xbe,
  0xab, 0xdb, 0x17, 0xbd, 0xb8, 0x8c, 0x25, 0x3d, 0x22, 0x10, 0xf4, 0x3d,
  0x57, 0x75, 0x76, 0xbd, 0x5f, 0xe0, 0x15, 0xbc, 0x56, 0xe7, 0x13, 0x3d,
  0x5d, 0x45, 0x6f, 0x3d, 0xd9, 0x75, 0x3d, 0xbd, 0x96, 0x70, 0x62, 0xbe,
  0xc9, 0x0a, 0x4d, 0x3e, 0x44, 0xe3, 0x42, 0x3d, 0x81, 0xed, 0xd5, 0xbb,
  0x41, 0x59, 0xa9, 0xbe, 0xee, 0x35, 0xbb, 0x3d, 0x51, 0xf5, 0x8b, 0xbd,
  0xed, 0xf4, 0x51, 0xbd, 0x87, 0x49, 0x9b, 0x3d, 0x80, 0xd1, 0x98, 0x3e,
  0xd4, 0x8e, 0x21, 0xba, 0xa6, 0x04, 0xd9, 0x3d, 0x1a, 0x84, 0x89, 0xbe,
  0xf0, 0x4f, 0x0d, 0x3d, 0x16, 0x98, 0xca, 0xbc, 0xb6, 0xd9, 0xd5, 0xbd,
  0x35, 0xfe, 0xaa, 0xbc, 0xcb, 0x08, 0x73, 0x3e, 0x4c, 0xdb, 0x28, 0xbe,
  0xf9, 0xd6, 0x59, 0xbd, 0x27, 0x38, 0x18, 0xbc, 0x41, 0xd2, 0x8d, 0xbe,
  0x65, 0x3d, 0xd3, 0xbd, 0x04, 0x0a, 0xa9, 0x3d, 0x0f, 0x32, 0xdf, 0xbd,
  0xaa, 0x53, 0x07, 0x3d, 0x66, 0xf2, 0xbc, 0xbd, 0x4b, 0x40, 0x5f, 0xbd,
  0x9d, 0xa9, 0xb4, 0xbe, 0xf9, 0x56, 0xa8, 0xbb, 0x60, 0xdb, 0xcf, 0xbd,
  0x53, 0x1c, 0x45, 0xbd, 0x5b, 0x5f, 0x02, 0xbe, 0xcb, 0x97, 0xbb, 0x3e,
  0x71, 0x65, 0x11, 0xbe, 0x21, 0x82, 0xd8, 0xbd, 0x83, 0xe6, 0x9e, 0x3e,
  0xb3, 0xc3, 0x10, 0xbf, 0x8b, 0x1b, 0xc9, 0xbd, 0xb4, 0xc4, 0x30, 0x3c,
  0x5b, 0xed, 0x8b, 0xbd, 0x64, 0x47, 0xbb, 0x3d, 0xfd, 0x6a, 0x6f, 0xbd,
  0xf6, 0xf2, 0x5e, 0x3e, 0xc3, 0x65, 0x9f, 0xbe, 0x4a, 0x25, 0xf5, 0x3d,
  0x24, 0x4e, 0xed, 0xbd, 0xd9, 0x83, 0x9f, 0xbe, 0xa6, 0x53, 0x69, 0x3d,
  0x8d, 0xb0, 0x94, 0x3d, 0x47, 0xc2, 0x4f, 0x3d, 0x9d, 0xcf, 0xaf, 0x3d,
  0x60, 0xc5, 0x8c, 0x3d, 0x88, 0x9d, 0xec, 0xbe, 0x2a, 0x09, 0x56, 0xbe,
  0x86, 0x94, 0x08, 0xbe, 0x82, 0x1c, 0x11, 0xbf, 0x55, 0x08, 0xe3, 0xbe,
  0x41, 0x40, 0xf6, 0x3b, 0x09, 0x9a, 0x1c, 0x3e, 0xf4, 0xae, 0x46, 0xbc,
  0x5d, 0xac, 0x63, 0xbc, 0x4e, 0xf8, 0x90, 0xbd, 0x23, 0xee, 0x63, 0xbe,
  0xdf, 0xd7, 0x36, 0x3d, 0xa1, 0xa2, 0x0c, 0xbf, 0x77, 0xe8, 0xaa, 0x3e,
  0x3b, 0x2b, 0x3d, 0x3d, 0xa2, 0x0b, 0x9d, 0x3d, 0x3b, 0x5d, 0xdd, 0xbd,
  0xca, 0x40, 0x3a, 0xbe, 0x97, 0xe5, 0xc3, 0x3e, 0x3b, 0x88, 0x37, 0xbc,
  0xee, 0x99, 0x68, 0xbf, 0xf5, 0x79, 0x95, 0x3d, 0x92, 0x5a, 0x39, 0xbe,
  0xea, 0x34, 0x38, 0x3c, 0x3a, 0x8f, 0x55, 0xbd, 0x8b, 0xb5, 0x78, 0xbe,
  0x3c, 0x21, 0x7f, 0xbd, 0x6c, 0x0c, 0x7d, 0xbe, 0x90, 0x42, 0x9d, 0xbe,
  0xb2, 0x4c, 0x12, 0x3d, 0x42, 0x13, 0x62, 0xbd, 0x4f, 0x4b, 0x15, 0x3e,
  0x39, 0xbe, 0xfe, 0xbd, 0xd6, 0xe4, 0xd5, 0xbd, 0xa5, 0x4c, 0x81, 0x3e,
  0xe4, 0xf8, 0x0a, 0x3c, 0x9d, 0x0b, 0x2e, 0xbf, 0xb3, 0x2e, 0x6b, 0x3c,
  0x69, 0xd3, 0x3d, 0xbc, 0x76, 0xf8, 0x1f, 0xbe, 0xa7, 0x0f, 0x67, 0x3d,
  0x77, 0x1d, 0x0a, 0xbe, 0xef, 0xd6, 0xb1, 0xbd, 0xac, 0x76, 0x02, 0x3e,
  0xe2, 0x22, 0xb6, 0xbe, 0x13, 0x6b, 0x0f, 0x3e, 0x19, 0xda, 0xee, 0xbd,
  0x30, 0x53, 0x99, 0x3d, 0xe0, 0xe3, 0x25, 0x3e, 0xf1, 0xdb, 0xd3, 0x3d,
  0xee, 0x0c, 0xb2, 0x3e, 0x19, 0x0c, 0xd7, 0x3c, 0x8f, 0x06, 0x82, 0xbe,
  0x04, 0x1e, 0xa8, 0x3e, 0x54, 0x50, 0x90, 0xbe, 0x6d, 0xae, 0x98, 0x3e,
  0x12, 0xed, 0x43, 0x3e, 0x29, 0xa2, 0x9b, 0xbc, 0xd4, 0x19, 0x05, 0x3e,
  0x1b, 0x4f, 0xb8, 0x3d, 0x28, 0xde, 0x69, 0xbe, 0x71, 0x2d, 0xb7, 0x3c,
  0x6a, 0xd8, 0x0f, 0x3d, 0xe9, 0x8f, 0xd3, 0x3d, 0xe3, 0xca, 0x93, 0x3e,
  0xb9, 0x15, 0xcb, 0xbd, 0x0e, 0xea, 0xbe, 0x3e, 0x92, 0xb7, 0x30, 0xbe,
  0xb1, 0xe8, 0x31, 0xbe, 0x2c, 0x6f, 0xe5, 0x3e, 0x4d, 0x65, 0x8f, 0x3c,
  0xd7, 0xf7, 0xe8, 0x3c, 0xff, 0x07, 0x21, 0x3e, 0x18, 0xf3, 0x85, 0xbd,
  0x63, 0x54, 0x81, 0x3c, 0x3a, 0xb6, 0xc9, 0xbe, 0x00, 0xd5, 0x06, 0xbe,
  0x05, 0x69, 0x2e, 0xbe, 0xfc, 0x81, 0x49, 0xbd, 0x2b, 0x14, 0xc5, 0xbc,
  0x23, 0xf4, 0xa4, 0x3e, 0x9a, 0x97, 0x8b, 0xbe, 0x52, 0x3f, 0x2a, 0xbe,
  0x35, 0xe3, 0x0f, 0x3e, 0x5f, 0xcd, 0x9c, 0xbe, 0xa6, 0xc0, 0xc3, 0x3e,
  0xf2, 0x16, 0x0f, 0x3e, 0xfa, 0x65, 0x78, 0x3d, 0x6d, 0x97, 0x64, 0x3d,
  0xe3, 0x4d, 0x2e, 0xbe, 0x4c, 0x01, 0x9e, 0xbe, 0xd6, 0x0a, 0x68, 0x3d,
  0x79, 0x3f, 0x22, 0x3d, 0x60, 0x2a, 0x1a, 0xbe, 0x2c, 0x38, 0x96, 0x3d,
  0x7b, 0x60, 0x75, 0x3c, 0x38, 0x0f, 0xb3, 0x3e, 0x29, 0x8f, 0xd8, 0xbe,
  0x2a, 0xf1, 0x8b, 0xbe, 0xeb, 0x7e, 0x17, 0xbd, 0x89, 0xf6, 0x13, 0xbe,
  0x92, 0x87, 0xdc, 0xbd, 0xc7, 0x96, 0xea, 0x3d, 0x66, 0x1f, 0xb1, 0xbd,
  0xc0, 0xce, 0x80, 0xbe, 0xa0, 0xe9, 0x65, 0x3d, 0x3b, 0x46, 0x85, 0xbd,
  0x7f, 0x07, 0x63, 0x3e, 0xd4, 0xc4, 0x1a, 0x3d, 0xd0, 0xf5, 0x8e, 0xbd,
  0x45, 0xf9, 0x27, 0xbd, 0xd3, 0x8c, 0xca, 0xbb, 0x0f, 0x07, 0x2b, 0xbc,
  0xc5, 0xa0, 0x13, 0xbe, 0xe3, 0xe9, 0xf0, 0xbd, 0x45, 0x01, 0x7a, 0x3d,
  0xce, 0xd0, 0xa6, 0xbc, 0xe5, 0xae, 0xfe, 0xbd, 0x17, 0xd7, 0x59, 0x3d,
  0x39, 0x80, 0xfd, 0xbd, 0x9e, 0x57, 0x99, 0xbd, 0x03, 0x5a, 0xe4, 0x3c,
  0x84, 0x64, 0x41, 0xbd, 0x20, 0xd8, 0x90, 0x3e, 0xfa, 0x92, 0x45, 0x3c,
  0xee, 0x94, 0xf7, 0xbd, 0xb0, 0x1d, 0x55, 0xbe, 0x78, 0x95, 0x9e, 0xbc,
  0x6f, 0x28, 0x88, 0xbe, 0xa8, 0x0f, 0x73, 0xbd, 0x18, 0xe4, 0x95, 0xbe,
  0x04, 0xbd, 0x6e, 0xbd, 0xd3, 0x08, 0x73, 0x3e, 0xb3, 0xc5, 0xe6, 0xbd,
  0xef, 0x37, 0x10, 0x3e, 0xa5, 0x8d, 0x82, 0xbd, 0x6e, 0x9a, 0xbc, 0xbd,
  0x2f, 0xba, 0x2f, 0x3c, 0xa7, 0x3f, 0x1f, 0x3e, 0xed, 0x69, 0xf1, 0xbd,
  0x2a, 0xb1, 0x96, 0x3e, 0xfc, 0x82, 0x7e, 0xbd, 0xad, 0x8f, 0xbf, 0xbd,
  0xa4, 0x72, 0x8a, 0xbd, 0x03, 0x10, 0x1b, 0xbe, 0x8e, 0x5b, 0x16, 0xbc,
  0x64, 0x7f, 0x75, 0xbe, 0x65, 0xea, 0x8e, 0xbe, 0x52, 0xf6, 0x5f, 0x3c,
  0x13, 0x62, 0x00, 0xbc, 0x81, 0x39, 0x92, 0x3e, 0x7f, 0x2b, 0xb6, 0xbe,
  0xc0, 0x81, 0x0c, 0xbd, 0x52, 0x12, 0x82, 0x3d, 0x5b, 0x07, 0x4b, 0x3d,
  0xba, 0x19, 0xa3, 0xbd, 0x1d, 0xb2, 0xac, 0x3d, 0x29, 0x81, 0xd2, 0xbd,
  0x41, 0x54, 0x53, 0xbe, 0x3a, 0x07, 0x39, 0xbe, 0x5a, 0x60, 0x02, 0xbf,
  0xd2, 0xe8, 0xfb, 0xbd, 0xcd, 0x46, 0x9d, 0xbe, 0x4a, 0xcb, 0xa6, 0xbe,
  0xc2, 0x17, 0x2d, 0x3d, 0x5f, 0x31, 0x0b, 0xbe, 0xcf, 0x98, 0x89, 0x3d,
  0xf0, 0xf5, 0x91, 0xbe, 0xe6, 0x14, 0x8e, 0xbe, 0x16, 0x10, 0xf3, 0xbc,
  0x5f, 0x05, 0x87, 0x3d, 0x1a, 0x06, 0x31, 0xbe, 0xf2, 0xb1, 0x41, 0xbe,
  0x0b, 0x06, 0x0a, 0xbd, 0x5e, 0x9e, 0x21, 0xbe, 0xef, 0x0b, 0x19, 0x3c,
  0xe9, 0x8e, 0x16, 0xbf, 0xf4, 0xb1, 0x89, 0xbe, 0xee, 0xfa, 0x84, 0xbe,
  0x00, 0xf3, 0x58, 0xbe, 0x19, 0xb8, 0x6e, 0x3d, 0xa4, 0xa6, 0xa4, 0xbc,
  0x09, 0x3a, 0x13, 0x3e, 0x11, 0x65, 0x2b, 0xbd, 0x23, 0xc0, 0x9f, 0xbe,
  0xa7, 0x9a, 0x0e, 0x3e, 0xee, 0x49, 0xcf, 0xbe, 0x9e, 0x08, 0x09, 0xbf,
  0x21, 0x95, 0x39, 0xbe, 0x3d, 0x7d, 0xb6, 0xbe, 0xf8, 0x7f, 0x94, 0xbd,
  0x06, 0x34, 0x01, 0x3e, 0x53, 0xe8, 0x30, 0xbe, 0x89, 0x59, 0x4c, 0xbd,
  0x16, 0xcf, 0x15, 0x3e, 0xe0, 0xbc, 0x63, 0xbd, 0x47, 0xe4, 0xbe, 0xbe,
  0x39, 0x63, 0xc0, 0x3b, 0xf2, 0x01, 0xc2, 0x3d, 0x05, 0x93, 0x00, 0xbe,
  0x7c, 0x44, 0xcb, 0xbe, 0xcf, 0x51, 0x08, 0x3c, 0xc7, 0xc7, 0xb6, 0xbe,
  0x8d, 0x5d, 0x01, 0xbe, 0xb6, 0xfe, 0xc9, 0xbe, 0x6a, 0x1f, 0x8a, 0x3e,
  0xa5, 0xd9, 0xd8, 0x3d, 0x0e, 0x39, 0x1b, 0x3d, 0x56, 0x65, 0xac, 0xbd,
  0x84, 0x71, 0xe9, 0xbb, 0x28, 0xbe, 0xc6, 0x3d, 0x8a, 0x42, 0x04, 0xbd,
  0x5b, 0xaa, 0xa2, 0xbe, 0x1a, 0x26, 0x0f, 0x3c, 0xe9, 0xb5, 0x8f, 0xbd,
  0xfd, 0xd2, 0xf0, 0x3d, 0x0a, 0x7e, 0x0b, 0x3d, 0xa8, 0xc5, 0x02, 0x3e,
  0x63, 0x2b, 0x11, 0x3d, 0x5b, 0x2d, 0x76, 0x3e, 0x73, 0x5d, 0xc3, 0xbe,
  0xa1, 0x40, 0xaa, 0x3d, 0xb3, 0x90, 0xd1, 0xbd, 0x5f, 0x1c, 0x48, 0xbd,
  0xf2, 0xa8, 0x36, 0x3d, 0xa4, 0xe0, 0x33, 0xbe, 0x48, 0x56, 0xd8, 0x3e,
  0x94, 0x81, 0x3c, 0xbe, 0xd3, 0x66, 0x85, 0x3e, 0x7b, 0xe8, 0x23, 0x3d,
  0xd1, 0xc6, 0x33, 0xbe, 0x7d, 0x44, 0x25, 0x3e, 0x9b, 0x02, 0x12, 0xbe,
  0x62, 0xc9, 0xc0, 0xbd, 0x4a, 0xf5, 0x05, 0xbe, 0x7e, 0xa0, 0x1c, 0xbe,
  0x43, 0x09, 0x04, 0x3e, 0x99, 0x67, 0xf6, 0xbd, 0xb7, 0xcf, 0x08, 0x3e,
  0x28, 0xb9, 0xf7, 0xbd, 0xdd, 0x7b, 0x3a, 0x3f, 0x50, 0x13, 0xae, 0xbe,
  0x15, 0x9d, 0x89, 0xba, 0xce, 0xc4, 0x2e, 0x3f, 0x0b, 0x52, 0xaa, 0x3e,
  0xd3, 0x5e, 0xd5, 0x3e, 0xb5, 0x6e, 0x08, 0x3f, 0xf7, 0xcc, 0xb1, 0xbe,
  0xdf, 0xa9, 0x09, 0xbf, 0xb9, 0xf2, 0xf1, 0x3b, 0xfb, 0x77, 0x14, 0xbe,
  0x21, 0x14, 0x51, 0xbe, 0xc4, 0x51, 0x5f, 0xbd, 0x51, 0x4d, 0xd4, 0xbe,
  0x73, 0x51, 0x28, 0x3e, 0x26, 0x6d, 0x8b, 0x3e, 0xe5, 0x40, 0xaf, 0x3e,
  0x74, 0x2e, 0x41, 0x3c, 0x7b, 0xd4, 0xa7, 0x3d, 0x45, 0x5d, 0xcd, 0x3e,
  0x79, 0x90, 0xa6, 0xbd, 0x31, 0x80, 0x56, 0xbe, 0x9b, 0x95, 0x7a, 0x3e,
  0x36, 0x63, 0x21, 0xbf, 0x09, 0x6d, 0x98, 0x3b, 0x4e, 0x42, 0x1f, 0xbd,
  0x2c, 0xfa, 0x10, 0xbe, 0x77, 0xfa, 0x45, 0x3e, 0x3b, 0xa6, 0xc3, 0x3b,
  0xfc, 0x9a, 0x69, 0xbe, 0xcf, 0x96, 0x1a, 0x3d, 0x50, 0x4f, 0xae, 0x3e,
  0x6b, 0xf3, 0x07, 0xbd, 0xb3, 0x2b, 0x9c, 0x3c, 0xba, 0x26, 0xcb, 0xbd,
  0x5d, 0x01, 0xec, 0x3d, 0x9c, 0xa6, 0x24, 0xbe, 0xe1, 0xf3, 0xff, 0xbc,
  0xc8, 0xc0, 0xd3, 0x3d, 0x8f, 0x2f, 0x37, 0xbf, 0x11, 0x93, 0xe8, 0x3c,
  0x1e, 0x86, 0xcd, 0x3d, 0xf3, 0xc0, 0x8c, 0xbe, 0x35, 0x28, 0x1a, 0x3e,
  0x39, 0xfa, 0x5e, 0xbe, 0xd1, 0x93, 0x82, 0xbe, 0x55, 0x83, 0xe5, 0x3d,
  0xca, 0xa8, 0xa2, 0x3e, 0x3a, 0xda, 0x9c, 0xbe, 0xf0, 0x15, 0x88, 0x3d,
  0xc4, 0x13, 0x8a, 0xbd, 0xaa, 0x5b, 0x96, 0x3e, 0xfa, 0x4e, 0xbb, 0xbe,
  0x6f, 0xbf, 0xb7, 0xbc, 0x4c, 0xdc, 0x00, 0x3e, 0x58, 0xa3, 0xde, 0xbe,
  0xdd, 0x37, 0x5e, 0xbb, 0xf9, 0xfe, 0xcc, 0x3d, 0xf3, 0x25, 0x68, 0xbe,
  0x81, 0x9e, 0x88, 0x3e, 0xa8, 0x78, 0x27, 0xbe, 0x7d, 0xf8, 0xbd, 0xbe,
  0x1e, 0x1a, 0xb3, 0xbc, 0x84, 0x2c, 0x46, 0x3e, 0xf2, 0x80, 0x24, 0xbe,
  0x06, 0xbb, 0xfb, 0x3c, 0x2f, 0x49, 0x83, 0x3e, 0xf9, 0x17, 0x8d, 0x3d,
  0x7d, 0x4b, 0x4f, 0xbe, 0x96, 0xb5, 0x5e, 0xbe, 0xfc, 0x9b, 0x05, 0xbc,
  0x8d, 0x58, 0x22, 0xbf, 0x40, 0x63, 0x92, 0x3d, 0xd4, 0xec, 0xe0, 0x3d,
  0xc8, 0xad, 0x29, 0xbe, 0xac, 0xa1, 0x2a, 0x3e, 0xcc, 0x05, 0x49, 0x3d,
  0x25, 0xb4, 0x0f, 0xbe, 0xc8, 0x99, 0x66, 0xbe, 0x5a, 0x59, 0xc8, 0xbd,
  0x8f, 0x44, 0x2b, 0xbe, 0x40, 0xa1, 0xe6, 0xbb, 0xf8, 0xf8, 0x29, 0x3d,
  0xcf, 0x4f, 0x2d, 0x3d, 0xa9, 0x35, 0x6f, 0x3d, 0x1b, 0x01, 0xc6, 0x3c,
  0xa3, 0xed, 0x1f, 0xbe, 0x11, 0xbc, 0xaf, 0xbe, 0x61, 0x6d, 0xa7, 0xbd,
  0x22, 0xe8, 0xdb, 0x3d, 0x7c, 0x42, 0x31, 0x3a, 0xbb, 0x53, 0xac, 0x3d,
  0xff, 0x68, 0xa2, 0xbd, 0x8f, 0x1c, 0x31, 0xbe, 0x26, 0x70, 0x10, 0xbe,
  0x38, 0xd8, 0x31, 0x3d, 0x08, 0x04, 0x57, 0x3e, 0x9a, 0x70, 0xc9, 0x3d,
  0xda, 0x92, 0x89, 0x3d, 0xb6, 0x68, 0x55, 0xbe, 0xb5, 0xd0, 0x6e, 0x3d,
  0x5a, 0x7b, 0x09, 0xbd, 0xd2, 0xe4, 0x0c, 0xbe, 0xe5, 0xd0, 0x4a, 0xbe,
  0x1b, 0xb9, 0xb5, 0x3d, 0xe8, 0xae, 0x30, 0x3e, 0xce, 0xc3, 0x69, 0xbd,
  0xe1, 0x81, 0x9d, 0xbd, 0x2a, 0xa6, 0x1f, 0x3d, 0xd2, 0x1e, 0x6b, 0xbd,
  0xb7, 0x0b, 0x64, 0xbe, 0x3b, 0x7d, 0x1b, 0xbd, 0xd0, 0xcd, 0x8b, 0x3e,
  0xb1, 0x36, 0x98, 0x3c, 0x61, 0x9b, 0x1e, 0x3e, 0xa0, 0xe4, 0x45, 0xbe,
  0x30, 0xea, 0x42, 0xbd, 0xcd, 0xde, 0x00, 0x3e, 0x4a, 0xe4, 0x86, 0xbe,
  0x6a, 0xb5, 0x01, 0xbe, 0xdf, 0x82, 0x06, 0x3d, 0xc1, 0xb5, 0x67, 0x3e,
  0x10, 0x79, 0x92, 0x3a, 0xb7, 0x7f, 0x54, 0xbd, 0xc9, 0xce, 0x08, 0x3e,
  0x36, 0x6f, 0x7e, 0xbe, 0xc1, 0x18, 0xdf, 0xbd, 0x13, 0xe2, 0xac, 0xbd,
  0xf7, 0xe6, 0xde, 0x3e, 0xdf, 0xa3, 0xe2, 0xbc, 0xb8, 0x5c, 0x39, 0x3d,
  0xad, 0x4e, 0xcb, 0x3d, 0xad, 0x4f, 0xe4, 0xbc, 0x71, 0x2f, 0xff, 0x3d,
  0xd5, 0xd5, 0x1e, 0x3e, 0xc5, 0xbb, 0xf3, 0xbd, 0x75, 0xed, 0x0e, 0x3d,
  0xb8, 0x44, 0xc7, 0x3d, 0xd0, 0x67, 0x9f, 0xbc, 0x21, 0xf4, 0xe3, 0xbc,
  0x1d, 0x1d, 0x59, 0x3e, 0x7e, 0xb7, 0x0f, 0xbe, 0x1f, 0x14, 0xaa, 0x3d,
  0x4a, 0xd6, 0x15, 0x3e, 0xd6, 0xc4, 0xb9, 0x3e, 0x6b, 0x17, 0x09, 0x3d,
  0x94, 0xd6, 0xf4, 0xbd, 0x99, 0xdf, 0x6c, 0xbe, 0x11, 0x6a, 0x07, 0xbe,
  0xd6, 0x45, 0x7a, 0xbd, 0xa9, 0x4c, 0x2e, 0x3d, 0x1c, 0xbf, 0x61, 0xbe,
  0x5f, 0x83, 0xcf, 0xbc, 0xc7, 0xb5, 0xd8, 0x3d, 0x4c, 0xd6, 0xb6, 0xbd,
  0x26, 0xd8, 0x1a, 0x3c, 0xe7, 0x0a, 0x98, 0xbc, 0xe6, 0xee, 0x91, 0xbe,
  0x69, 0xc2, 0x5a, 0xbd, 0x79, 0xe5, 0x17, 0x3e, 0xf0, 0x65, 0xa4, 0x3e,
  0xfa, 0x1b, 0x99, 0xbc, 0x2f, 0xe5, 0xf7, 0xbc, 0x9f, 0x52, 0x19, 0x3b,
  0xad, 0xd2, 0x9b, 0xbd, 0xf8, 0x4f, 0x0d, 0x3d, 0xc6, 0xf9, 0x2a, 0xbb,
  0x4d, 0x22, 0xe8, 0xbe, 0x4e, 0x0a, 0xa5, 0xba, 0xd3, 0xc6, 0xfa, 0x3c,
  0x89, 0xaf, 0xb0, 0xbd, 0x78, 0xfe, 0xe7, 0x3c, 0x87, 0x1d, 0xd9, 0x3d,
  0x5a, 0x4d, 0xbb, 0xbe, 0x8a, 0xf6, 0x53, 0xbb, 0x3b, 0x5e, 0xa5, 0x3e,
  0xea, 0x93, 0x84, 0x3d, 0x10, 0x89, 0x47, 0x3d, 0x38, 0xba, 0x62, 0x3d,
  0xb1, 0x7b, 0x56, 0x3d, 0xf4, 0x85, 0x29, 0x3e, 0xfe, 0x92, 0x9e, 0xbb,
  0x74, 0xf1, 0xa0, 0x3d, 0x14, 0xcb, 0x10, 0xbf, 0x57, 0xc4, 0x99, 0x3d,
  0xd7, 0x82, 0xbe, 0x3d, 0xcd, 0x9d, 0x03, 0xbe, 0x95, 0x8f, 0xd3, 0x3d,
  0x36, 0x52, 0xe2, 0x3d, 0x8a, 0x71, 0xc2, 0xbe, 0x00, 0x4e, 0x6a, 0x3d,
  0xab, 0x59, 0x39, 0x3e, 0x15, 0x6c, 0x2a, 0xbe, 0x41, 0x5a, 0x63, 0x3c,
  0x71, 0x89, 0xc4, 0x3c, 0xf2, 0x89, 0xd3, 0x3d, 0xe2, 0xb0, 0x1e, 0xbd,
  0xc1, 0xa0, 0x1e, 0xbe, 0x96, 0x16, 0xbb, 0xbd, 0x2e, 0xd1, 0x11, 0xbf,
  0x8a, 0x08, 0x6d, 0xbd, 0xa1, 0xbf, 0x27, 0xbd, 0x26, 0xac, 0xbe, 0xbe,
  0xf5, 0x24, 0x2b, 0xbe, 0x10, 0x59, 0x85, 0xbe, 0xd3, 0xf9, 0xdf, 0x3c,
  0x1c, 0xea, 0xbe, 0xbc, 0x8a, 0x84, 0x7f, 0x3d, 0xe3, 0x3b, 0xbd, 0xbe,
  0xdd, 0xdc, 0x23, 0xbe, 0x63, 0x1e, 0x64, 0xbe, 0x45, 0x5d, 0x2d, 0xbd,
  0x83, 0x4f, 0x5a, 0xbe, 0xf3, 0x94, 0x1e, 0x3d, 0xea, 0xe3, 0x7f, 0xbe,
  0x04, 0x07, 0x48, 0x3d, 0x6e, 0x88, 0x56, 0x3e, 0x69, 0xe9, 0x4f, 0xbe,
  0x07, 0x7e, 0x02, 0xbf, 0xb9, 0xe9, 0xcf, 0xbe, 0x01, 0x94, 0x0e, 0x3e,
  0x67, 0x5a, 0x51, 0x3d, 0x5c, 0xec, 0x2a, 0xbd, 0x11, 0xfa, 0xc1, 0xbd,
  0xaf, 0xfb, 0x6c, 0xbe, 0x56, 0xd0, 0x0b, 0xbe, 0x06, 0xff, 0xa9, 0xbe,
  0x28, 0x93, 0xbf, 0xbe, 0xb5, 0x55, 0x54, 0x3e, 0xef, 0xaa, 0x75, 0xbe,
  0x2c, 0x5e, 0xc0, 0xbe, 0x61, 0x5c, 0xc7, 0xbd, 0xd8, 0xe1, 0x2e, 0x3e,
  0x10, 0x68, 0x6c, 0x3d, 0xe2, 0x7f, 0x13, 0x3d, 0xdb, 0x6a, 0x13, 0xbc,
  0xa9, 0x3c, 0x34, 0x3e, 0xc7, 0xea, 0x85, 0x3d, 0x8e, 0x27, 0x8f, 0x3e,
  0xcd, 0x33, 0xf2, 0xbe, 0x75, 0x58, 0x1f, 0xbf, 0xde, 0x12, 0x59, 0x3d,
  0xd4, 0x83, 0x20, 0xbe, 0x71, 0xab, 0x02, 0x3e, 0x7d, 0xac, 0xa5, 0x3d,
  0xf7, 0x50, 0xbf, 0x3d, 0x22, 0x88, 0x1b, 0xbf, 0xda, 0x41, 0x44, 0x3d,
  0x3b, 0x64, 0x92, 0x3d, 0x4e, 0xdf, 0x23, 0x3e, 0xa2, 0xef, 0xcb, 0x3d,
  0xd3, 0x04, 0x22, 0xbd, 0x8a, 0xe9, 0x66, 0x3e, 0x54, 0x8b, 0x1a, 0x3e,
  0xba, 0x16, 0x1a, 0x3e, 0x5e, 0x97, 0x8e, 0xbe, 0xb7, 0xa3, 0x75, 0xbd,
  0xa3, 0xee, 0x93, 0x3a, 0xa9, 0x73, 0x7f, 0xbd, 0xf7, 0x96, 0x8e, 0xbb,
  0x30, 0x0e, 0x44, 0x3e, 0x72, 0xef, 0x70, 0xbe, 0x93, 0x4e, 0x3a, 0xbf,
  0x1f, 0xe1, 0xa0, 0x3d, 0xe0, 0xc5, 0x78, 0x3d, 0x28, 0x27, 0x4b, 0xbd,
  0x54, 0xa2, 0x55, 0x3e, 0x74, 0x05, 0x11, 0xbd, 0xa7, 0x07, 0x42, 0x3e,
  0xd9, 0x57, 0x84, 0x3d, 0xb0, 0x93, 0x41, 0x3e, 0x3f, 0xa4, 0xc5, 0xbe,
  0x2d, 0xca, 0x4d, 0x3e, 0xc2, 0x35, 0x16, 0x3d, 0xa0, 0x64, 0xdb, 0xbd,
  0xa2, 0xf6, 0x19, 0xbf, 0x7e, 0x33, 0xbc, 0x3e, 0x2c, 0x6a, 0x4f, 0xbe,
  0xcc, 0xcc, 0x30, 0xbe, 0xac, 0x2d, 0xad, 0x3d, 0xa1, 0x8d, 0x58, 0x3c,
  0x19, 0xd7, 0x15, 0xbe, 0x27, 0xbe, 0x72, 0x3d, 0xd6, 0x31, 0x5b, 0xbe,
  0x80, 0x69, 0x47, 0xbe, 0xa5, 0xa9, 0x9d, 0x3e, 0x73, 0x13, 0xd1, 0x3e,
  0x03, 0x21, 0x89, 0xbe, 0x26, 0xab, 0x88, 0xbe, 0x9a, 0x62, 0xd9, 0x3d,
  0x3c, 0xe8, 0xcd, 0x3c, 0x15, 0x76, 0x44, 0x3d, 0x45, 0xa7, 0x8e, 0x3d,
  0xbf, 0xd2, 0x33, 0x3e, 0x36, 0x22, 0xcd, 0xbd, 0xdb, 0xd9, 0xf9, 0x3d,
  0x37, 0x63, 0x90, 0x3d, 0xd8, 0xe0, 0x0d, 0x3d, 0x85, 0x55, 0x89, 0x3d,
  0xc7, 0x27, 0x23, 0xbe, 0xfb, 0xc7, 0xe8, 0xbd, 0xd5, 0x8c, 0xb3, 0x3e,
  0x82, 0xa5, 0x8b, 0x3c, 0x03, 0x6f, 0x95, 0x3d, 0x4e, 0xf5, 0xca, 0x3d,
  0x5e, 0x07, 0x3d, 0xbe, 0x86, 0x75, 0x1c, 0x3e, 0x80, 0x05, 0x8d, 0x3d,
  0xaa, 0x90, 0x1d, 0x3e, 0xaa, 0x9b, 0xcd, 0xbe, 0xbb, 0x64, 0xd9, 0x3d,
  0x29, 0x7f, 0xb5, 0xbd, 0xf5, 0xd0, 0x6c, 0xbe, 0x3e, 0x41, 0x0b, 0x3d,
  0x6c, 0x8b, 0xdd, 0xbd, 0xfa, 0x5a, 0x6b, 0xbe, 0x4d, 0xa2, 0xba, 0xbd,
  0xc2, 0xb5, 0xef, 0x3e, 0x32, 0xc2, 0x8e, 0xbc, 0x3e, 0x6f, 0x8f, 0x3d,
  0xca, 0xb0, 0x48, 0x3d, 0x40, 0xc7, 0x30, 0xbd, 0x00, 0x07, 0xac, 0xbc,
  0xd8, 0x15, 0x9d, 0x3e, 0x40, 0x79, 0xad, 0x3d, 0x56, 0xe1, 0xb5, 0xbe,
  0x1b, 0xf3, 0x88, 0xbd, 0x7a, 0x03, 0x70, 0x3d, 0xba, 0x2f, 0x74, 0xbe,
  0x32, 0x87, 0xfc, 0x3d, 0xb9, 0x3a, 0xbb, 0xbe, 0xaf, 0xa4, 0x9c, 0xbe,
  0x35, 0x20, 0xd7, 0x3e, 0x22, 0x9a, 0xd5, 0xbc, 0x90, 0x05, 0xcb, 0xbd,
  0x6d, 0xb6, 0x19, 0xbe, 0x1b, 0x51, 0xc0, 0xba, 0x6a, 0x2e, 0x12, 0xbd,
  0x6a, 0x76, 0x1e, 0xbe, 0x2e, 0x5d, 0x09, 0x3f, 0x26, 0xd1, 0x99, 0x3e,
  0x1b, 0xba, 0x48, 0xbe, 0xc2, 0x0e, 0xe1, 0x3d, 0x97, 0xde, 0x33, 0xbd,
  0xf3, 0xe5, 0x9e, 0xbe, 0x8c, 0x07, 0x76, 0x3e, 0x51, 0x9f, 0x39, 0x3e,
  0x57, 0x3a, 0x2f, 0x3e, 0x46, 0x0b, 0x23, 0x3e, 0xad, 0x65, 0x5b, 0x3e,
  0x43, 0x34, 0x0d, 0x3e, 0x4f, 0xd9, 0x14, 0xbe, 0x8d, 0xb4, 0x74, 0xbd,
  0x28, 0x94, 0x3c, 0xbe, 0x59, 0x56, 0x91, 0xbd, 0xea, 0xe9, 0x65, 0x3e,
  0x9f, 0x35, 0x38, 0x3e, 0x71, 0x16, 0xeb, 0xbd, 0xf5, 0xbb, 0xbd, 0x3d,
  0xcd, 0xd1, 0xa7, 0xbd, 0x50, 0xb0, 0x6f, 0xbe, 0x51, 0x1d, 0x76, 0x3e,
  0xa9, 0xa9, 0x18, 0x3e, 0xd3, 0xf9, 0x85, 0x3e, 0x2f, 0x1f, 0x21, 0x3d,
  0xde, 0xee, 0xd8, 0x3d, 0x5f, 0x81, 0xdf, 0x3c, 0xd0, 0x56, 0x6f, 0xbe,
  0x30, 0x94, 0xbc, 0xbe, 0x68, 0xa8, 0x9f, 0xbd, 0x9a, 0x1a, 0x30, 0x3c,
  0xe9, 0x19, 0xd8, 0x3d, 0x06, 0xa0, 0xb6, 0x3e, 0xd6, 0xf9, 0x22, 0xbd,
  0xe3, 0xab, 0x53, 0xbe, 0x86, 0xe3, 0x10, 0x3e, 0xcc, 0x74, 0x4c, 0xbe,
  0xad, 0x84, 0xba, 0x3d, 0xfe, 0x97, 0x47, 0x3d, 0x4f, 0x69, 0x1c, 0x3e,
  0xd2, 0x91, 0xe8, 0x3d, 0x90, 0xec, 0xb4, 0x3c, 0xa9, 0xe6, 0xfa, 0xbd,
  0x13, 0x81, 0xc3, 0xbe, 0xff, 0xcd, 0x89, 0xbe, 0xff, 0x9a, 0xb5, 0xbd,
  0x11, 0x71, 0xde, 0xbd, 0xbc, 0x25, 0x96, 0x3e, 0xa2, 0x34, 0xb4, 0x3d,
  0xca, 0x19, 0xd2, 0x3d, 0x30, 0xa8, 0x62, 0xbe, 0x4f, 0x06, 0x95, 0x3c,
  0x5f, 0x5b, 0x32, 0xbe, 0x88, 0x20, 0x3a, 0xbd, 0xe1, 0x46, 0x9f, 0xbc,
  0x71, 0xa7, 0x97, 0xbd, 0x17, 0x33, 0xcd, 0x3d, 0xef, 0x8c, 0x4c, 0x3e,
  0x54, 0xc1, 0x56, 0x3e, 0x86, 0x1d, 0xad, 0xbd, 0x72, 0xa7, 0xcf, 0xbe,
  0x84, 0xc4, 0x52, 0xbd, 0xbd, 0xe5, 0x26, 0x3d, 0x0c, 0x1a, 0xd9, 0x3d,
  0x29, 0xc1, 0x15, 0xbe, 0x3b, 0xe9, 0x95, 0xbd, 0xfc, 0x99, 0x26, 0x3c,
  0xb0, 0x3c, 0x78, 0x3d, 0xd0, 0xd0, 0x1d, 0xbe, 0xfe, 0x93, 0xa8, 0xbd,
  0x17, 0x0b, 0xad, 0x3d, 0xb2, 0x31, 0xc7, 0xbe, 0x4d, 0x1f, 0xac, 0xbd,
  0x7d, 0x67, 0x2b, 0x3d, 0x11, 0x1e, 0x1f, 0xbe, 0x1a, 0xcc, 0xbb, 0xbe,
  0x03, 0x5f, 0x02, 0xbe, 0x61, 0x28, 0x12, 0xbe, 0x10, 0x0c, 0xa8, 0x3d,
  0x48, 0xac, 0x3d, 0xbe, 0xd1, 0x4c, 0x19, 0x3e, 0x45, 0x2e, 0x92, 0xbe,
  0xf4, 0xb0, 0xf8, 0xbd, 0x7e, 0x26, 0xf7, 0xbc, 0xb5, 0x05, 0x92, 0xbe,
  0xa9, 0x61, 0x81, 0x3d, 0xc1, 0xc4, 0xdf, 0xbe, 0xc1, 0x03, 0x3f, 0xbd,
  0x81, 0x48, 0x02, 0x3d, 0xc2, 0x7b, 0x5b, 0xbe, 0xd4, 0x52, 0xf1, 0xbd,
  0x65, 0x6e, 0xaf, 0xbd, 0x1e, 0xb1, 0x88, 0x3e, 0x9b, 0x68, 0x0d, 0xbd,
  0x9a, 0xb0, 0x64, 0xbe, 0x1a, 0xc8, 0xc7, 0x3d, 0x27, 0x10, 0x33, 0xbe,
  0xf2, 0x1b, 0xb6, 0xbe, 0x31, 0x0d, 0x03, 0xbe, 0x60, 0xf7, 0x36, 0xbe,
  0x97, 0xe6, 0xa2, 0xbe, 0xd0, 0x3d, 0xf4, 0xbc, 0x0c, 0x0f, 0x28, 0xbe,
  0xde, 0xe9, 0x54, 0xbe, 0xde, 0xf4, 0xff, 0xff, 0x04, 0x00, 0x00, 0x00,
  0x08, 0x00, 0x00, 0x00, 0xff, 0xff, 0xff, 0xff, 0xe0, 0x00, 0x00, 0x00,
  0xf2, 0xf4, 0xff, 0xff, 0x04, 0x00, 0x00, 0x00, 0x10, 0x00, 0x00, 0x00,
  0xb5, 0x23, 0xd8, 0xbe, 0x40, 0xe0, 0x74, 0x3d, 0x15, 0xe6, 0x5c, 0x3e,
  0x63, 0xfd, 0x1b, 0xbd, 0x0e, 0xf5, 0xff, 0xff, 0x04, 0x00, 0x00, 0x00,
  0x40, 0x00, 0x00, 0x00, 0x56, 0x44, 0x0c, 0x3f, 0x41, 0x7e, 0xc8, 0xbd,
  0x73, 0xcf, 0x02, 0x3d, 0xa0, 0xe7, 0x5d, 0x3e, 0xde, 0xcd, 0x8b, 0x3e,
  0x2f, 0x57, 0xa2, 0x3e, 0x0f, 0x18, 0xd5, 0x3e, 0x64, 0xb4, 0xbc, 0x3e,
  0x01, 0xef, 0x49, 0x3e, 0xee, 0x03, 0x4c, 0x3e, 0xfb, 0xad, 0x88, 0x3d,
  0xdd, 0x62, 0x1c, 0x3d, 0x82, 0x19, 0xc9, 0x3e, 0x05, 0x33, 0xa6, 0x3e,
  0x4a, 0x6a, 0x0b, 0x3f, 0xce, 0x57, 0x37, 0x3c, 0x5a, 0xf5, 0xff, 0xff,
  0x04, 0x00, 0x00, 0x00, 0x00, 0x08, 0x00, 0x00, 0x29, 0x0b, 0x47, 0xbe,
  0x58, 0x3a, 0xd1, 0xbd, 0x14, 0x5d, 0x1c, 0xbe, 0x38, 0x23, 0x08, 0xbe,
  0x1e, 0x83, 0x26, 0x3e, 0xa4, 0x96, 0x88, 0xbe, 0x82, 0xa6, 0xb1, 0x3e,
  0x02, 0x61, 0xc3, 0x3d, 0x78, 0xbe, 0xe2, 0xbd, 0x81, 0x8a, 0x9a, 0xbd,
  0x04, 0xea, 0x86, 0xbe, 0xef, 0x13, 0x85, 0xbe, 0x66, 0x0b, 0x0a, 0xbe,
  0x43, 0x54, 0xca, 0xbe, 0xd1, 0x5e, 0x25, 0x3e, 0xb9, 0x5f, 0x6c, 0xbe,
  0xe7, 0xc9, 0xa5, 0x3e, 0xa6, 0xeb, 0xfd, 0x3e, 0xa7, 0x36, 0x58, 0xbe,
  0xa6, 0x85, 0xc9, 0xbe, 0x5a, 0xc6, 0x19, 0xbf, 0xa7, 0xdb, 0x98, 0xbb,
  0xe2, 0x28, 0xc2, 0xbe, 0x33, 0x56, 0x0d, 0xbd, 0x4b, 0x9a, 0xa4, 0x3d,
  0xca, 0x36, 0x42, 0xbd, 0x88, 0x43, 0x38, 0x3e, 0xd0, 0xe1, 0x91, 0xbd,
  0x9b, 0x37, 0x02, 0xbe, 0xbb, 0x5a, 0x86, 0x3e, 0xf8, 0x18, 0x13, 0xbd,
  0x26, 0x01, 0x41, 0x3e, 0x95, 0x63, 0x21, 0x3e, 0x0d, 0x50, 0x1a, 0x3e,
  0x46, 0x15, 0x4f, 0xbd, 0x06, 0x6f, 0x0f, 0xbe, 0xe3, 0x06, 0xc0, 0xbe,
  0x5d, 0xa2, 0x46, 0xbd, 0xe9, 0x87, 0x56, 0x3e, 0xb1, 0xca, 0x19, 0x3e,
  0xeb, 0x62, 0xb9, 0x3c, 0x75, 0xfb, 0x2d, 0x3e, 0xf7, 0xdf, 0x1d, 0xbd,
  0xe5, 0x68, 0x68, 0xbe, 0xd5, 0x15, 0x8c, 0xbe, 0xa6, 0xb8, 0xb9, 0x3e,
  0xc3, 0x82, 0x2f, 0xbd, 0xe5, 0x75, 0x45, 0x3e, 0x76, 0xde, 0xb4, 0xbe,
  0x2f, 0x0c, 0xcf, 0xbe, 0x53, 0xcc, 0x7f, 0xbe, 0x98, 0x32, 0x8c, 0xbe,
  0x4a, 0x27, 0xb5, 0x3e, 0x19, 0xf7, 0x97, 0x3c, 0xa1, 0x16, 0x0e, 0x3e,
  0x86, 0xde, 0x0c, 0x3d, 0x28, 0x49, 0x47, 0xbf, 0x1b, 0x5d, 0x1c, 0xbf,
  0x64, 0xca, 0xdb, 0xbd, 0x7d, 0x6d, 0x3d, 0x3d, 0xda, 0x92, 0xba, 0x3e,
  0x1d, 0x3f, 0x49, 0xbe, 0x4e, 0x49, 0x46, 0x3e, 0x60, 0x9f, 0x80, 0xbe,
  0x7c, 0x8d, 0xc9, 0x3d, 0x23, 0x33, 0x91, 0x3e, 0xb9, 0x04, 0x84, 0xbd,
  0xab, 0x47, 0x1e, 0xbe, 0x89, 0x45, 0x92, 0xbe, 0xfd, 0x7b, 0x04, 0x3e,
  0xe8, 0xe7, 0x06, 0xbe, 0x1f, 0x09, 0x80, 0xbe, 0xae, 0xae, 0xf4, 0xbd,
  0x39, 0xf4, 0x4a, 0x3e, 0xe9, 0x81, 0x03, 0x3c, 0xf0, 0xfd, 0xdd, 0x3d,
  0x92, 0xf4, 0x5e, 0xbe, 0xc4, 0x05, 0x0a, 0x3e, 0x70, 0xef, 0xb2, 0xbd,
  0x7e, 0xce, 0x7f, 0x3e, 0xb2, 0x13, 0xa0, 0xbe, 0x27, 0xda, 0xa6, 0xbd,
  0x51, 0x67, 0x6e, 0xbb, 0x31, 0xe9, 0x4f, 0xbe, 0xef, 0xae, 0x41, 0xbe,
  0x0d, 0x5e, 0x86, 0xbc, 0x09, 0xaf, 0xf6, 0xbe, 0x6a, 0x99, 0x4c, 0x3e,
  0x99, 0x1d, 0x0c, 0xbf, 0x3f, 0x76, 0x84, 0xbe, 0x85, 0x98, 0x10, 0x3c,
  0x65, 0x6e, 0x51, 0xbe, 0x26, 0x5d, 0x87, 0xbe, 0x2f, 0x18, 0x56, 0x3e,
  0x32, 0xcc, 0xe8, 0xbe, 0x4a, 0xd1, 0x9d, 0x3e, 0xe2, 0x93, 0x56, 0xbe,
  0x8a, 0x4b, 0xbd, 0xbd, 0x21, 0xfc, 0x05, 0x3e, 0x40, 0x24, 0x9b, 0x3e,
  0xf0, 0x50, 0xca, 0xbd, 0x7b, 0xf3, 0x80, 0xbc, 0x6f, 0x39, 0x91, 0xbd,
  0x1f, 0x5c, 0xbb, 0x3e, 0xed, 0xc8, 0xe4, 0xbd, 0xb8, 0x06, 0x61, 0x3d,
  0x8b, 0x40, 0x5b, 0x3e, 0x28, 0xd3, 0x32, 0x3e, 0x7c, 0x77, 0x50, 0xbe,
  0xd2, 0x9b, 0xe3, 0x3c, 0x57, 0x7d, 0x7b, 0x3c, 0xef, 0x8d, 0xd6, 0x3d,
  0x63, 0x6d, 0x57, 0xbb, 0xc4, 0xcd, 0x3b, 0x3d, 0x16, 0x9c, 0x4f, 0xbe,
  0x83, 0xae, 0xb4, 0xbe, 0x63, 0x01, 0x77, 0xbe, 0x9a, 0x83, 0x05, 0x3e,
  0x96, 0xfe, 0x9a, 0xbe, 0x1e, 0xc0, 0x25, 0x3c, 0xea, 0x36, 0x16, 0xbe,
  0x66, 0xbb, 0xd2, 0xbd, 0xd4, 0x7d, 0xb7, 0xbe, 0x03, 0xff, 0x34, 0xbf,
  0xfa, 0xa0, 0x51, 0xbe, 0x41, 0x60, 0x8d, 0x3d, 0x61, 0xf3, 0xaa, 0xbd,
  0x79, 0xd6, 0x81, 0xbe, 0x22, 0x5e, 0xc7, 0xbe, 0xcf, 0x9f, 0x2c, 0xbe,
  0x5d, 0x96, 0x40, 0xbd, 0xfa, 0xe5, 0x70, 0xbe, 0x34, 0x08, 0x09, 0xbd,
  0x08, 0x0c, 0x99, 0x3c, 0xbb, 0xb9, 0x59, 0xbd, 0xf0, 0x85, 0x0d, 0xbd,
  0x21, 0x1e, 0xa8, 0xbe, 0x73, 0xd0, 0x67, 0xbd, 0x78, 0xbd, 0x4a, 0x3e,
  0xf4, 0x83, 0xb9, 0x3d, 0xef, 0xe0, 0x9b, 0xbe, 0x86, 0x3c, 0x43, 0xbe,
  0xb9, 0xb8, 0x94, 0x3e, 0x00, 0xac, 0xac, 0xbc, 0xff, 0x9b, 0x1f, 0xbe,
  0x97, 0x1b, 0xbf, 0xbc, 0x04, 0x51, 0x07, 0x3d, 0x50, 0xae, 0x08, 0x3d,
  0xa1, 0xba, 0xf1, 0xbe, 0x7f, 0x04, 0xf1, 0xbd, 0xc4, 0xd4, 0x8a, 0x3e,
  0x6b, 0xc4, 0x36, 0xbc, 0x6a, 0x58, 0xa1, 0xbe, 0x08, 0x10, 0xbe, 0xbc,
  0xff, 0x8c, 0x44, 0xbd, 0x03, 0x80, 0x87, 0x3c, 0x52, 0x6e, 0x95, 0xbe,
  0x2b, 0x26, 0x99, 0x3d, 0x60, 0xf0, 0x8c, 0x3d, 0x02, 0x96, 0x9f, 0xbd,
  0x0f, 0x32, 0x31, 0xbd, 0xb7, 0x5b, 0x2c, 0x3e, 0xdb, 0x6f, 0x0d, 0xbd,
  0xc0, 0x37, 0x5e, 0xbd, 0x27, 0x27, 0x75, 0x3e, 0x55, 0xce, 0xb9, 0x3d,
  0xce, 0xb1, 0x31, 0xbc, 0xff, 0xf5, 0xfe, 0x3d, 0x66, 0x6e, 0xad, 0xbc,
  0x52, 0x7e, 0xb4, 0xbc, 0x44, 0x7e, 0x86, 0xbd, 0x47, 0x69, 0x91, 0x3d,
  0xb8, 0x35, 0x0d, 0xbe, 0x90, 0x35, 0x13, 0xbe, 0x98, 0xf6, 0xf1, 0xbd,
  0xc9, 0x7e, 0x89, 0xbd, 0xe5, 0x1e, 0x67, 0xbd, 0x9f, 0x11, 0x8f, 0x3c,
  0xfe, 0xca, 0xa2, 0x3d, 0x31, 0x38, 0x2f, 0xbd, 0xff, 0x9b, 0x25, 0x3e,
  0x49, 0x95, 0xd1, 0xbd, 0x47, 0x75, 0x8c, 0x3e, 0x9f, 0x31, 0x10, 0xbc,
