/* Copyright 2019 The TensorFlow Authors. All Rights Reserved.

Licensed under the Apache License, Version 2.0 (the "License");
you may not use this file except in compliance with the License.
You may obtain a copy of the License at

    http://www.apache.org/licenses/LICENSE-2.0

Unless required by applicable law or agreed to in writing, software
distributed under the License is distributed on an "AS IS" BASIS,
WITHOUT WARRANTIES OR CONDITIONS OF ANY KIND, either express or implied.
See the License for the specific language governing permissions and
limitations under the License.
==============================================================================*/

// Automatically created from a TensorFlow Lite flatbuffer using the command:
// xxd -i magic_wand_model.tflite > magic_wand_model_data.cc
// See the README for a full description of the creation process.

#include "magic_wand_model_data.h"

// We need to keep the data array aligned on some architectures.
#ifdef __has_attribute
#define HAVE_ATTRIBUTE(x) __has_attribute(x)
#else
#define HAVE_ATTRIBUTE(x) 0
#endif
#if HAVE_ATTRIBUTE(aligned) || (defined(__GNUC__) && !defined(__clang__))
#define DATA_ALIGN_ATTRIBUTE __attribute__((aligned(4)))
#else
#define DATA_ALIGN_ATTRIBUTE
#endif

// CNN
const unsigned char g_magic_wand_model_data[] DATA_ALIGN_ATTRIBUTE = {
  0x1c, 0x00, 0x00, 0x00, 0x54, 0x46, 0x4c, 0x33, 0x14, 0x00, 0x20, 0x00,
  0x1c, 0x00, 0x18, 0x00, 0x14, 0x00, 0x10, 0x00, 0x0c, 0x00, 0x00, 0x00,
  0x08, 0x00, 0x04, 0x00, 0x14, 0x00, 0x00, 0x00, 0x1c, 0x00, 0x00, 0x00,
  0x88, 0x00, 0x00, 0x00, 0xe0, 0x00, 0x00, 0x00, 0x7c, 0x45, 0x00, 0x00,
  0x8c, 0x45, 0x00, 0x00, 0x8c, 0x4f, 0x00, 0x00, 0x03, 0x00, 0x00, 0x00,
  0x01, 0x00, 0x00, 0x00, 0x04, 0x00, 0x00, 0x00, 0x7a, 0xb9, 0xff, 0xff,
  0x0c, 0x00, 0x00, 0x00, 0x1c, 0x00, 0x00, 0x00, 0x38, 0x00, 0x00, 0x00,
  0x0f, 0x00, 0x00, 0x00, 0x73, 0x65, 0x72, 0x76, 0x69, 0x6e, 0x67, 0x5f,
  0x64, 0x65, 0x66, 0x61, 0x75, 0x6c, 0x74, 0x00, 0x01, 0x00, 0x00, 0x00,
  0x04, 0x00, 0x00, 0x00, 0x94, 0xff, 0xff, 0xff, 0x11, 0x00, 0x00, 0x00,
  0x04, 0x00, 0x00, 0x00, 0x07, 0x00, 0x00, 0x00, 0x64, 0x65, 0x6e, 0x73,
  0x65, 0x5f, 0x31, 0x00, 0x01, 0x00, 0x00, 0x00, 0x04, 0x00, 0x00, 0x00,
  0x5a, 0xba, 0xff, 0xff, 0x04, 0x00, 0x00, 0x00, 0x0c, 0x00, 0x00, 0x00,
  0x63, 0x6f, 0x6e, 0x76, 0x32, 0x64, 0x5f, 0x69, 0x6e, 0x70, 0x75, 0x74,
  0x00, 0x00, 0x00, 0x00, 0x02, 0x00, 0x00, 0x00, 0x34, 0x00, 0x00, 0x00,
  0x04, 0x00, 0x00, 0x00, 0xdc, 0xff, 0xff, 0xff, 0x14, 0x00, 0x00, 0x00,
  0x04, 0x00, 0x00, 0x00, 0x13, 0x00, 0x00, 0x00, 0x43, 0x4f, 0x4e, 0x56,
  0x45, 0x52, 0x53, 0x49, 0x4f, 0x4e, 0x5f, 0x4d, 0x45, 0x54, 0x41, 0x44,
  0x41, 0x54, 0x41, 0x00, 0x08, 0x00, 0x0c, 0x00, 0x08, 0x00, 0x04, 0x00,
  0x08, 0x00, 0x00, 0x00, 0x13, 0x00, 0x00, 0x00, 0x04, 0x00, 0x00, 0x00,
  0x13, 0x00, 0x00, 0x00, 0x6d, 0x69, 0x6e, 0x5f, 0x72, 0x75, 0x6e, 0x74,
  0x69, 0x6d, 0x65, 0x5f, 0x76, 0x65, 0x72, 0x73, 0x69, 0x6f, 0x6e, 0x00,
  0x15, 0x00, 0x00, 0x00, 0x98, 0x44, 0x00, 0x00, 0x90, 0x44, 0x00, 0x00,
  0x40, 0x44, 0x00, 0x00, 0x20, 0x44, 0x00, 0x00, 0xf0, 0x43, 0x00, 0x00,
  0xa0, 0x43, 0x00, 0x00, 0x88, 0x43, 0x00, 0x00, 0x78, 0x0b, 0x00, 0x00,
  0x68, 0x0a, 0x00, 0x00, 0xd8, 0x08, 0x00, 0x00, 0xc8, 0x00, 0x00, 0x00,
  0xc0, 0x00, 0x00, 0x00, 0xb8, 0x00, 0x00, 0x00, 0xb0, 0x00, 0x00, 0x00,
  0xa8, 0x00, 0x00, 0x00, 0xa0, 0x00, 0x00, 0x00, 0x98, 0x00, 0x00, 0x00,
  0x90, 0x00, 0x00, 0x00, 0x88, 0x00, 0x00, 0x00, 0x68, 0x00, 0x00, 0x00,
  0x04, 0x00, 0x00, 0x00, 0x2a, 0xbb, 0xff, 0xff, 0x04, 0x00, 0x00, 0x00,
  0x54, 0x00, 0x00, 0x00, 0x0c, 0x00, 0x00, 0x00, 0x08, 0x00, 0x0e, 0x00,
  0x08, 0x00, 0x04, 0x00, 0x08, 0x00, 0x00, 0x00, 0x10, 0x00, 0x00, 0x00,
  0x24, 0x00, 0x00, 0x00, 0x00, 0x00, 0x06, 0x00, 0x08, 0x00, 0x04, 0x00,
  0x06, 0x00, 0x00, 0x00, 0x04, 0x00, 0x00, 0x00, 0x00, 0x00, 0x00, 0x00,
  0x00, 0x00, 0x0a, 0x00, 0x10, 0x00, 0x0c, 0x00, 0x08, 0x00, 0x04, 0x00,
  0x0a, 0x00, 0x00, 0x00, 0x02, 0x00, 0x00, 0x00, 0x02, 0x00, 0x00, 0x00,
  0x04, 0x00, 0x00, 0x00, 0x05, 0x00, 0x00, 0x00, 0x32, 0x2e, 0x39, 0x2e,
  0x32, 0x00, 0x00, 0x00, 0x8a, 0xbb, 0xff, 0xff, 0x04, 0x00, 0x00, 0x00,
  0x10, 0x00, 0x00, 0x00, 0x31, 0x2e, 0x35, 0x2e, 0x30, 0x00, 0x00, 0x00,
  0x00, 0x00, 0x00, 0x00, 0x00, 0x00, 0x00, 0x00, 0x5c, 0xb2, 0xff, 0xff,
  0x60, 0xb2, 0xff, 0xff, 0x64, 0xb2, 0xff, 0xff, 0x68, 0xb2, 0xff, 0xff,
  0x6c, 0xb2, 0xff, 0xff, 0x70, 0xb2, 0xff, 0xff, 0x74, 0xb2, 0xff, 0xff,
  0x78, 0xb2, 0xff, 0xff, 0xc6, 0xbb, 0xff, 0xff, 0x04, 0x00, 0x00, 0x00,
  0x00, 0x08, 0x00, 0x00, 0xba, 0xff, 0x8a, 0xbe, 0x43, 0xcd, 0x96, 0xbf,
  0x7c, 0x65, 0x70, 0x3e, 0x94, 0x8c, 0x7d, 0xbf, 0xe2, 0xeb, 0x45, 0x3e,
  0x91, 0xb2, 0xcd, 0x3c, 0x06, 0xc3, 0xf9, 0x3e, 0x8a, 0xe6, 0x24, 0x3e,
  0xde, 0xb1, 0xd8, 0xbf, 0xb5, 0x1d, 0xde, 0xbe, 0x18, 0x67, 0xc9, 0xbd,
  0x5f, 0x32, 0x2a, 0xbf, 0x06, 0x0e, 0xc5, 0x3e, 0x07, 0x8b, 0x9f, 0x3e,
  0x00, 0x93, 0x56, 0x3e, 0xd3, 0xdd, 0x84, 0xbc, 0x2e, 0xed, 0xa9, 0xbf,
  0xec, 0xe2, 0x8f, 0xbe, 0x45, 0x75, 0x9c, 0xbf, 0x24, 0x84, 0x03, 0xbf,
  0xc6, 0xb6, 0xae, 0xbe, 0x03, 0x46, 0x41, 0xbd, 0xd9, 0x65, 0x63, 0xbd,
  0xa2, 0x1a, 0x6a, 0xbf, 0xee, 0xcc, 0xcc, 0xbe, 0x75, 0x9f, 0xcd, 0x3e,
  0x2a, 0x27, 0x60, 0xbe, 0xcd, 0x1d, 0xe3, 0x3d, 0x1b, 0xf8, 0x06, 0xbf,
  0xb1, 0xee, 0x54, 0xbe, 0x15, 0x26, 0x29, 0xbf, 0x2a, 0x39, 0xc3, 0xbe,
  0x7a, 0xc3, 0x18, 0x3e, 0x9b, 0x45, 0x53, 0x3e, 0x0d, 0x72, 0x11, 0x3d,
  0x48, 0xc1, 0x01, 0xbd, 0xf0, 0x61, 0xa0, 0x3c, 0x9b, 0x40, 0x16, 0x3b,
  0xb0, 0xaf, 0x8a, 0x3e, 0x2a, 0xab, 0x2c, 0x3e, 0x91, 0xd6, 0x18, 0xbe,
  0x0c, 0xe7, 0x8f, 0x3d, 0x73, 0x20, 0x12, 0xbe, 0xb4, 0x0b, 0x8c, 0x3c,
  0x49, 0x45, 0x05, 0x3f, 0x5f, 0x24, 0xfd, 0xbb, 0x27, 0x1a, 0x57, 0x3d,
  0x0d, 0x67, 0xf0, 0xbd, 0xf4, 0x19, 0x99, 0xbe, 0x33, 0x17, 0x8e, 0x3e,
  0x36, 0x32, 0xae, 0xbe, 0xfd, 0xa2, 0x22, 0x3d, 0x39, 0x58, 0xf4, 0xbe,
  0xc0, 0x5e, 0xea, 0xbc, 0xac, 0xc7, 0x21, 0xbd, 0xad, 0xf8, 0x3c, 0xbe,
  0x59, 0x34, 0x8e, 0xbd, 0xe7, 0x22, 0x47, 0xbd, 0x89, 0x0a, 0x8a, 0xbe,
  0x34, 0x97, 0xd8, 0xbc, 0x32, 0x7f, 0x45, 0xbf, 0x04, 0x62, 0x25, 0xbd,
  0xd2, 0xe0, 0x2d, 0xbf, 0xc1, 0x1c, 0x8a, 0x3d, 0xda, 0x75, 0xcc, 0xbe,
  0xc8, 0xa0, 0xe1, 0xbf, 0x8a, 0xd5, 0x61, 0xbe, 0x18, 0x2b, 0x61, 0xbf,
  0x88, 0xc7, 0x72, 0xbf, 0xf5, 0xfa, 0xef, 0xbe, 0xdc, 0x42, 0x90, 0xbe,
  0xc6, 0x9d, 0x81, 0x3e, 0x78, 0x27, 0xc5, 0x3d, 0xdf, 0x1a, 0x08, 0xbc,
  0x6a, 0xc2, 0xee, 0xbd, 0x97, 0x43, 0x33, 0xbf, 0xdc, 0x32, 0xc7, 0xbe,
  0x75, 0xa2, 0xb1, 0xbf, 0x94, 0x15, 0x09, 0xbf, 0x84, 0x3f, 0xb1, 0xbe,
  0xd8, 0x47, 0x88, 0x3d, 0xfb, 0x22, 0xf5, 0xbd, 0x1c, 0x1e, 0x7b, 0x3e,
  0x5b, 0xd8, 0x0e, 0xbf, 0x8f, 0xff, 0x5b, 0x3e, 0xea, 0x34, 0xb2, 0xbe,
  0x9b, 0x3e, 0x1c, 0x3e, 0xe9, 0x0c, 0x94, 0x3d, 0xf8, 0xf9, 0x3d, 0xbe,
  0xcf, 0x1c, 0xea, 0x3c, 0x60, 0xaf, 0xeb, 0x3c, 0x63, 0x1b, 0xb5, 0xbe,
  0x48, 0xa1, 0x52, 0x3e, 0xa5, 0x6e, 0xa6, 0x3e, 0x16, 0x13, 0x06, 0x3f,
  0x96, 0x5e, 0x26, 0x3e, 0x7f, 0xc3, 0xc5, 0xbe, 0xa3, 0xf0, 0x73, 0xbe,
  0x6b, 0xfd, 0xab, 0xbe, 0x9a, 0x12, 0xc5, 0xbe, 0x1f, 0xf4, 0x9e, 0x3e,
  0x9b, 0xa2, 0x31, 0x3d, 0x27, 0xa5, 0xaa, 0x3d, 0xa6, 0x7e, 0x04, 0xbd,
  0x30, 0x9b, 0x1d, 0x3e, 0x35, 0xca, 0xa4, 0x3e, 0xe8, 0x5c, 0xd5, 0xbe,
  0xd4, 0xda, 0x4b, 0xbe, 0x71, 0xb1, 0xb5, 0x3d, 0xe2, 0xcb, 0x19, 0x3f,
  0xa4, 0x6d, 0xfa, 0xbd, 0x25, 0xc5, 0x2e, 0xbe, 0xf1, 0x9c, 0x3c, 0x3e,
  0x24, 0x57, 0x4d, 0x3e, 0x09, 0x67, 0xa1, 0xbe, 0x11, 0x5c, 0xbb, 0xbe,
  0x87, 0xb2, 0x37, 0xbe, 0x65, 0xec, 0xcc, 0xbd, 0x54, 0x19, 0xc1, 0xbe,
  0xe0, 0x21, 0x18, 0xbe, 0x4b, 0x75, 0x80, 0x3e, 0xf1, 0x49, 0xb3, 0xbe,
  0x28, 0xf3, 0x1d, 0xbe, 0x55, 0xec, 0xb1, 0xbe, 0xbc, 0xdf, 0x1b, 0x3c,
  0xc4, 0x37, 0x39, 0xbe, 0x29, 0x2d, 0xc7, 0xbe, 0x1c, 0x74, 0x4d, 0xbe,
  0xe9, 0x00, 0x0d, 0x3e, 0x30, 0x29, 0xb2, 0xbd, 0x04, 0xac, 0x0d, 0x3d,
  0x62, 0xbd, 0x16, 0x3c, 0x41, 0x59, 0x3c, 0x3e, 0xcb, 0xbf, 0x7e, 0x3e,
  0xa1, 0x47, 0x72, 0x3d, 0xbc, 0xe2, 0x59, 0xbd, 0xea, 0x0e, 0x50, 0x3d,
  0xd1, 0x9a, 0x42, 0xbe, 0xef, 0x5f, 0xc5, 0xbc, 0x25, 0x9a, 0x16, 0xbe,
  0xf1, 0xc3, 0x5f, 0x3d, 0x50, 0x65, 0x8e, 0xbe, 0xb7, 0xaf, 0x83, 0x3a,
  0x19, 0x33, 0x8d, 0xbe, 0x84, 0xd2, 0x09, 0x3d, 0x9d, 0x3c, 0xd9, 0xbe,
  0x94, 0x98, 0xa1, 0xbc, 0xaf, 0x82, 0x53, 0xbd, 0xbc, 0xc5, 0xfd, 0x3d,
  0x2b, 0x92, 0x64, 0xbe, 0xa5, 0x0e, 0x8c, 0x3c, 0xa5, 0xc9, 0x8e, 0xbe,
  0x66, 0x8e, 0x85, 0x3d, 0xb8, 0x4e, 0x2a, 0xbd, 0x42, 0x91, 0x9f, 0x3d,
  0xa5, 0x72, 0x21, 0x3e, 0xa7, 0xae, 0x79, 0x3e, 0x2d, 0xc2, 0x0c, 0xbe,
  0xc7, 0xdd, 0x83, 0x3e, 0xf8, 0xa0, 0x66, 0xbe, 0x39, 0x0f, 0xd9, 0x3d,
  0x13, 0xd5, 0xae, 0xbd, 0xd9, 0x6b, 0x0e, 0xbd, 0x78, 0xb6, 0xce, 0xbe,
  0x21, 0xfb, 0x45, 0xbd, 0xd4, 0xab, 0xc4, 0xbd, 0x79, 0x83, 0x84, 0xbe,
  0xe5, 0x59, 0x4a, 0x3e, 0x2a, 0x9c, 0x14, 0x3e, 0xc8, 0x2d, 0x6e, 0xbe,
  0x32, 0x2e, 0xf1, 0x3d, 0x04, 0xa3, 0x02, 0xbf, 0xbd, 0x4b, 0xb2, 0x3e,
  0xce, 0x68, 0x17, 0xbe, 0x4a, 0xa2, 0x6f, 0xbd, 0xa0, 0xe0, 0x03, 0x3f,
  0x9e, 0x77, 0x15, 0xbf, 0x89, 0x5c, 0xd6, 0x3e, 0x07, 0x9d, 0x10, 0xbe,
  0x4f, 0x67, 0xbd, 0xbe, 0xfc, 0x3b, 0x4c, 0x3d, 0x3c, 0x32, 0x0f, 0xbe,
  0x7b, 0xaa, 0x82, 0x3e, 0xcf, 0x4b, 0xa6, 0xbd, 0xe5, 0x4b, 0xb2, 0xbc,
  0x4c, 0x5f, 0x9b, 0xbd, 0x45, 0xb2, 0x31, 0xbe, 0x86, 0x48, 0x44, 0xbe,
  0x36, 0xbc, 0x2c, 0xbd, 0x8f, 0x9b, 0xd2, 0xbd, 0x54, 0xd3, 0x0c, 0xbd,
  0x72, 0x26, 0x35, 0xbd, 0x27, 0x62, 0xa9, 0xbd, 0xb3, 0x84, 0x5e, 0x3e,
  0x9f, 0x44, 0xc5, 0x3c, 0x5e, 0xa2, 0x6c, 0xbe, 0xab, 0xf1, 0x52, 0x3e,
  0x43, 0xff, 0xeb, 0xbd, 0x23, 0x7c, 0x34, 0x3f, 0x6c, 0x4b, 0x12, 0xbd,
  0x01, 0xaa, 0x61, 0xbe, 0x0e, 0xab, 0x7e, 0x3e, 0x0d, 0x69, 0xa1, 0xbe,
  0xdb, 0x73, 0x79, 0xbd, 0xe4, 0x97, 0xc7, 0x3c, 0x44, 0x3d, 0x72, 0xbe,
  0xf6, 0xc0, 0x95, 0x3d, 0x19, 0x8c, 0x9f, 0xbf, 0x74, 0xc2, 0x9b, 0xbc,
  0xbe, 0xe6, 0xc4, 0x3e, 0xee, 0x02, 0xb0, 0xbd, 0xb8, 0x2b, 0xcb, 0x3d,
  0xef, 0x63, 0xbc, 0xbe, 0x4e, 0x54, 0x17, 0xbe, 0xa7, 0xe4, 0x96, 0xbe,
  0xa0, 0xfd, 0xa4, 0xbd, 0xab, 0xe3, 0x9a, 0x3d, 0xbe, 0x75, 0x35, 0xbf,
  0x3e, 0x54, 0x27, 0xbe, 0x7f, 0xc7, 0x96, 0xbe, 0x39, 0x67, 0x4d, 0xbf,
  0x9b, 0x3c, 0xaa, 0x3e, 0xdc, 0xb9, 0x47, 0xbf, 0x94, 0x87, 0xce, 0x3d,
  0x5a, 0x26, 0xcf, 0xbd, 0x8c, 0xab, 0xb3, 0x3d, 0x8f, 0x2f, 0x37, 0xbe,
  0x86, 0x56, 0xa7, 0xbc, 0xd9, 0x80, 0x39, 0x3d, 0x79, 0xd4, 0x27, 0xbe,
  0x40, 0x30, 0x57, 0xbd, 0x72, 0x12, 0x9f, 0xbe, 0x72, 0x76, 0x98, 0xbc,
  0x3f, 0x8c, 0xf3, 0x3e, 0xef, 0x73, 0xf0, 0x3d, 0xc0, 0x16, 0x90, 0x3c,
  0x2e, 0x9a, 0x06, 0xbf, 0x9c, 0xda, 0x6e, 0x3e, 0xac, 0xaa, 0x21, 0xbf,
  0x47, 0x68, 0x96, 0x3e, 0x20, 0x14, 0x37, 0x3e, 0xc0, 0x20, 0x0a, 0x3e,
  0xef, 0x57, 0x08, 0xbd, 0x1b, 0xee, 0xa1, 0xbe, 0xcc, 0x5b, 0x1f, 0xbf,
  0xb3, 0xb1, 0x45, 0xbd, 0xd3, 0x13, 0xf4, 0xbe, 0x43, 0x82, 0xe1, 0x3d,
  0xfb, 0xc5, 0x0f, 0x3e, 0x78, 0xc0, 0x11, 0x3e, 0x27, 0xd2, 0x8a, 0xbd,
  0xb0, 0xd7, 0x53, 0xbe, 0x34, 0x12, 0x99, 0xbe, 0x90, 0xb9, 0x64, 0xbe,
  0x50, 0x20, 0x72, 0xbe, 0xd7, 0x50, 0xb1, 0xbc, 0x77, 0xba, 0xf5, 0xbe,
  0x43, 0x29, 0x3b, 0xbe, 0xbf, 0xa0, 0x71, 0xbe, 0x04, 0x7c, 0x19, 0xbf,
  0xb1, 0x8f, 0x78, 0x3e, 0xfc, 0x1f, 0xa6, 0xbe, 0x1b, 0x55, 0xb1, 0x3e,
  0x2d, 0x46, 0x9a, 0xbe, 0xf2, 0x66, 0xbf, 0xbe, 0xe1, 0x52, 0x83, 0xbd,
  0xe5, 0x9c, 0xa5, 0xbf, 0x6b, 0x3c, 0x75, 0x3d, 0x86, 0x0b, 0xe6, 0xbe,
  0xc8, 0x4b, 0x99, 0xbe, 0x25, 0x85, 0x1b, 0xbe, 0xc5, 0xda, 0x2f, 0xbf,
  0x0e, 0x5a, 0xc4, 0xbd, 0x7c, 0xd9, 0x52, 0x3f, 0x6d, 0xc4, 0x26, 0xbe,
  0x8a, 0x09, 0x7a, 0x3e, 0xf4, 0x84, 0xdf, 0xbd, 0x64, 0x91, 0xee, 0x3e,
  0x5e, 0x5f, 0x17, 0xbf, 0x98, 0x93, 0x9d, 0x3e, 0x1a, 0x66, 0x08, 0xbd,
  0x8d, 0x10, 0x85, 0x3d, 0xf8, 0xf9, 0x31, 0xbe, 0x16, 0xc9, 0x4a, 0xbe,
  0xba, 0x29, 0x85, 0x39, 0x9f, 0xfd, 0x0f, 0x3e, 0xce, 0xd3, 0x8c, 0xbd,
  0x5c, 0x7c, 0x6b, 0x3d, 0x03, 0x10, 0x92, 0xbf, 0x40, 0x50, 0xa3, 0x3c,
  0x51, 0xf4, 0x88, 0xbf, 0x1e, 0xa5, 0x05, 0xbe, 0x54, 0xa0, 0x1c, 0xbf,
  0x2c, 0xee, 0x19, 0x3a, 0x54, 0xe3, 0x3d, 0xbf, 0xbf, 0xec, 0x7d, 0xbd,
  0x53, 0x82, 0xed, 0xbc, 0xf5, 0xb7, 0x98, 0x3e, 0x49, 0x4d, 0x05, 0xbe,
  0xf7, 0xbb, 0x69, 0xbd, 0x73, 0x0b, 0x3f, 0x3e, 0xb9, 0xd1, 0x4c, 0x3e,
  0x88, 0xd3, 0x83, 0xbd, 0x70, 0xe8, 0xf9, 0x3d, 0x77, 0x2e, 0xa3, 0xbd,
  0x02, 0xc4, 0xaa, 0x3e, 0xf5, 0xe7, 0x15, 0xbe, 0x95, 0x17, 0xf7, 0xbd,
  0xe3, 0x4e, 0x94, 0x3e, 0x0d, 0xdb, 0xc2, 0xbc, 0xf7, 0x50, 0x90, 0x3e,
  0xe5, 0x24, 0x57, 0x3d, 0x1f, 0x93, 0x82, 0xbe, 0x40, 0xf7, 0x8f, 0x3e,
  0x9d, 0x52, 0xd0, 0xbd, 0x53, 0xfe, 0x6a, 0x3d, 0xd1, 0x4b, 0xa8, 0x3e,
  0x68, 0xba, 0x04, 0xbe, 0x6f, 0x05, 0x85, 0x3e, 0x2f, 0xe1, 0x1f, 0xbe,
  0x60, 0x78, 0x74, 0xbe, 0xa4, 0x38, 0xea, 0x3d, 0x83, 0x65, 0x1e, 0xbe,
  0xb1, 0xf4, 0x12, 0x3b, 0x43, 0xc3, 0xa0, 0x3d, 0x5a, 0xfa, 0x0f, 0xbd,
  0xa8, 0x7f, 0x4f, 0x3d, 0xd7, 0x3c, 0x20, 0xbe, 0xbf, 0xfd, 0x4a, 0xbe,
  0x01, 0x1b, 0x5d, 0x3d, 0xd4, 0xff, 0xe8, 0xbd, 0x61, 0x24, 0x20, 0xbe,
  0xd8, 0x92, 0x46, 0x3e, 0x15, 0x45, 0x26, 0x3f, 0xf5, 0x31, 0xd9, 0x3d,
  0x96, 0xbf, 0xe0, 0xbd, 0xca, 0x2b, 0x26, 0xbe, 0xa2, 0xfb, 0xc9, 0xbd,
  0x7f, 0x2e, 0x15, 0xbe, 0xb2, 0xf4, 0x19, 0xbf, 0x2b, 0x4d, 0x91, 0x3d,
  0xd5, 0x72, 0xb5, 0xbd, 0xf4, 0x2a, 0x0d, 0x3e, 0x2a, 0x01, 0x06, 0xbe,
  0x5e, 0xd8, 0x2b, 0xbf, 0xf7, 0x5a, 0x30, 0x3e, 0xc2, 0x2b, 0x78, 0xbe,
  0x7f, 0x28, 0x3d, 0xbf, 0xef, 0x87, 0xa7, 0x3d, 0x79, 0x10, 0xce, 0xbd,
  0xfd, 0x56, 0x4e, 0x3e, 0x8d, 0x1e, 0xfb, 0xbd, 0x6e, 0x24, 0x99, 0x3e,
  0xfc, 0x23, 0x4d, 0xbe, 0xf3, 0xc1, 0xab, 0x3c, 0x92, 0xbf, 0xb9, 0xbe,
  0x2c, 0x55, 0x38, 0xbe, 0x3e, 0xb2, 0x92, 0xbe, 0xcc, 0x7f, 0xb7, 0xbe,
  0x10, 0x4c, 0xd7, 0x3c, 0xa6, 0xd9, 0xa6, 0x3e, 0xed, 0x90, 0x08, 0xbe,
  0x13, 0xfa, 0xaf, 0x3d, 0xf5, 0x73, 0x0f, 0xbf, 0x9c, 0x1b, 0xaf, 0x3d,
  0xdb, 0x04, 0x52, 0xbe, 0xf0, 0x6d, 0x18, 0xbd, 0xa8, 0x1b, 0x58, 0x3d,
  0xfb, 0x70, 0x4a, 0xbf, 0xec, 0xad, 0x84, 0xbd, 0xa5, 0x83, 0x8e, 0xbd,
  0xdc, 0x27, 0xbb, 0xbe, 0x80, 0x7b, 0x31, 0x3e, 0x60, 0xef, 0x3e, 0x3e,
  0xcb, 0xa3, 0xf4, 0x3e, 0x86, 0x2e, 0x8a, 0x3d, 0xd9, 0x22, 0x5f, 0xbe,
  0xfd, 0xba, 0x23, 0x3e, 0xa7, 0x0c, 0x5c, 0xbf, 0xd0, 0x0f, 0xc6, 0xbe,
  0x5e, 0x35, 0xe2, 0xbd, 0xee, 0x2d, 0xc5, 0x3e, 0x30, 0x92, 0x04, 0x3e,
  0x5d, 0x98, 0x0d, 0xbf, 0x63, 0xc6, 0x86, 0x3d, 0xaa, 0x0b, 0x84, 0xbe,
  0xe6, 0x27, 0xc8, 0x3d, 0x7f, 0x9a, 0xad, 0xbd, 0x8f, 0x4a, 0xad, 0xbe,
  0x79, 0xd6, 0xd8, 0xbd, 0xb3, 0xce, 0x87, 0xbd, 0x5f, 0xbc, 0x3b, 0xbc,
  0x2d, 0xd2, 0xde, 0x3d, 0xbb, 0x94, 0xd3, 0xbf, 0x55, 0x74, 0x35, 0xbd,
  0xc4, 0x51, 0x53, 0xbe, 0xb2, 0xbb, 0x05, 0xbf, 0x05, 0x53, 0x87, 0xbe,
  0xb9, 0xdd, 0xbe, 0xbe, 0xbc, 0xc7, 0x45, 0xbe, 0x60, 0x47, 0xce, 0x3d,
  0x5f, 0x1f, 0x0f, 0xbf, 0x0f, 0x20, 0xe2, 0xbd, 0xdc, 0x48, 0x54, 0xbd,
  0xa0, 0xb5, 0x5f, 0xbc, 0x49, 0x48, 0x21, 0xbf, 0x66, 0xbc, 0x04, 0xbe,
  0x75, 0xc5, 0x5a, 0xbe, 0x7a, 0xe6, 0xd1, 0xbd, 0x01, 0x48, 0x02, 0x3e,
  0x74, 0xe2, 0x08, 0xbe, 0x8b, 0x4a, 0xae, 0xbc, 0x45, 0x24, 0xd0, 0x3e,
  0x01, 0x96, 0x30, 0xbe, 0x22, 0xa2, 0xc8, 0x3e, 0xf9, 0x49, 0xd8, 0xbd,
  0x8b, 0xe9, 0x80, 0xbd, 0x8c, 0x00, 0x18, 0xbd, 0x57, 0xa7, 0x4b, 0xbc,
  0x63, 0xf8, 0x07, 0xbe, 0x91, 0xa9, 0xc0, 0x3d, 0x8c, 0x73, 0x1e, 0xbd,
  0x1c, 0x98, 0xa4, 0x3d, 0x85, 0x0a, 0x35, 0x3d, 0x83, 0x5b, 0xfe, 0xbd,
  0x91, 0xea, 0x17, 0x3f, 0x7a, 0xb5, 0xa8, 0x3d, 0xc7, 0xfc, 0x03, 0xbd,
  0x0b, 0x1f, 0x07, 0x3d, 0x3c, 0xc3, 0xf4, 0x3d, 0x2d, 0xc0, 0x1a, 0x3e,
  0x6f, 0xa3, 0x6f, 0x3d, 0xb3, 0x38, 0x9c, 0x3d, 0xdb, 0xd6, 0x31, 0x3e,
  0x7e, 0xf2, 0x5f, 0xbd, 0x5a, 0x4e, 0x33, 0xbd, 0x78, 0xbf, 0xbf, 0xbe,
  0x61, 0x93, 0x4d, 0xbd, 0x35, 0x9d, 0x9c, 0xbe, 0x50, 0x7a, 0xbb, 0x3c,
  0xe2, 0xee, 0xa0, 0x3e, 0x67, 0x3e, 0x44, 0xbe, 0xdb, 0x07, 0x8a, 0x3e,
  0x6b, 0x33, 0xfa, 0xbd, 0x17, 0x09, 0xb6, 0xbd, 0x21, 0xd5, 0x35, 0xbe,
  0x89, 0x44, 0x67, 0xbe, 0xd8, 0x3e, 0xf9, 0x3c, 0x16, 0xcc, 0x22, 0xbd,
  0x66, 0xe9, 0xe6, 0xbc, 0x74, 0x9e, 0x8f, 0xbd, 0xd3, 0x9b, 0x09, 0x3d,
  0x8e, 0x98, 0x00, 0xbe, 0x81, 0x5d, 0x25, 0x3f, 0xc9, 0x17, 0x33, 0xbe,
  0x86, 0x6d, 0x57, 0x3e, 0xf0, 0x83, 0xb5, 0xbd, 0x53, 0x1a, 0x38, 0xbe,
  0xdf, 0xfa, 0x14, 0xbe, 0xb2, 0x74, 0x6a, 0xbe, 0x06, 0x56, 0xb1, 0x3c,
  0x3a, 0x32, 0x08, 0xbe, 0x5c, 0xc8, 0x7f, 0xbc, 0xfd, 0x03, 0x61, 0x3c,
  0xa5, 0x3e, 0x7d, 0x3d, 0xfe, 0x08, 0x8c, 0xbe, 0x7b, 0xdf, 0x9f, 0xbd,
  0xdf, 0x66, 0x71, 0xbe, 0x24, 0x5a, 0xc9, 0x3c, 0xce, 0x27, 0x86, 0xbe,
  0x76, 0xfa, 0x40, 0x3e, 0x0c, 0x63, 0xec, 0xbd, 0x76, 0x6b, 0x8a, 0xbd,
  0x57, 0x94, 0x4b, 0xbe, 0x32, 0x91, 0x6c, 0xbe, 0xbf, 0x31, 0x72, 0xbe,
  0xf8, 0xea, 0x28, 0x3b, 0x68, 0x4c, 0xa7, 0xbe, 0x4e, 0xd6, 0x28, 0x3e,
  0xa1, 0x0b, 0xf8, 0xbe, 0x4c, 0x20, 0x1d, 0xbd, 0xed, 0x36, 0x91, 0x3e,
  0x82, 0x8a, 0x02, 0x3e, 0xe3, 0x74, 0xfb, 0xbd, 0x2f, 0xad, 0x19, 0x3e,
  0x6a, 0x94, 0xad, 0x3d, 0x80, 0x77, 0x9c, 0x3c, 0xb8, 0xd7, 0x2e, 0x3e,
  0x28, 0xba, 0x95, 0xbe, 0xb5, 0x8f, 0x3a, 0x3e, 0xd2, 0x29, 0x89, 0xbd,
  0x09, 0x57, 0x21, 0xbf, 0x2a, 0xfa, 0xaf, 0x3d, 0xf7, 0xbe, 0xf5, 0xbd,
  0xea, 0xfb, 0x8d, 0x3c, 0x85, 0x84, 0xd7, 0xbe, 0x21, 0xd3, 0xb1, 0xbe,
  0x8e, 0x6a, 0x3a, 0x3e, 0xb9, 0xa8, 0x4c, 0xbc, 0xa9, 0x12, 0x78, 0xbe,
  0x7d, 0xb6, 0x61, 0x3f, 0x0b, 0xff, 0xb8, 0xbe, 0xa3, 0xc9, 0x15, 0xbd,
  0xc8, 0x7c, 0x53, 0xbf, 0x46, 0xfd, 0xff, 0xbd, 0x3d, 0xf6, 0x6e, 0x3b,
  0xc9, 0x77, 0x81, 0xbd, 0x7f, 0x51, 0x41, 0x3d, 0xef, 0x3a, 0x01, 0xbe,
  0x3d, 0x76, 0xbf, 0xbe, 0x41, 0xb7, 0x5f, 0xbc, 0xc1, 0x80, 0xc7, 0xbe,
  0xd2, 0xc3, 0xff, 0xff, 0x04, 0x00, 0x00, 0x00, 0x80, 0x01, 0x00, 0x00,
  0xaf, 0xd7, 0x4f, 0xbe, 0x9c, 0x68, 0x78, 0xbe, 0x60, 0x00, 0x61, 0x3d,
  0xd5, 0xdb, 0x74, 0xbd, 0xed, 0x2b, 0xcc, 0xbe, 0x8d, 0xb5, 0x8f, 0xbd,
  0xa4, 0x5b, 0x02, 0x3e, 0xe3, 0xe2, 0x0d, 0x3d, 0x33, 0xf7, 0xf2, 0xbd,
  0x99, 0x10, 0x7c, 0x3d, 0x5d, 0x27, 0x0b, 0x3f, 0x09, 0x75, 0xac, 0x3c,
  0x30, 0x6d, 0xb5, 0x3e, 0x53, 0x7a, 0x20, 0xbd, 0x6f, 0x5e, 0x81, 0xbe,
  0xcc, 0xed, 0xe1, 0x3d, 0xdc, 0xea, 0x7c, 0xbe, 0x1a, 0x0a, 0x01, 0xbe,
  0x88, 0x57, 0xa5, 0xbe, 0xe2, 0xf0, 0x41, 0xbe, 0x4e, 0x83, 0x78, 0x3e,
  0x68, 0xb1, 0xbf, 0xbe, 0x14, 0x96, 0x94, 0x3c, 0x58, 0x89, 0xe0, 0xbd,
  0xeb, 0x2d, 0x9f, 0xbe, 0x72, 0x7d, 0x91, 0xbd, 0xe0, 0x82, 0x60, 0xbd,
  0x76, 0x37, 0xc8, 0x3d, 0x97, 0x89, 0xa5, 0x3d, 0xe7, 0x98, 0x68, 0x3d,
  0x4e, 0xf0, 0x07, 0x3e, 0xf2, 0xf1, 0x97, 0xbe, 0x39, 0x5f, 0xa4, 0x3e,
  0xc9, 0x63, 0x24, 0x3e, 0x9e, 0x21, 0x26, 0x3e, 0x56, 0x8f, 0xd9, 0xbe,
  0x75, 0x0b, 0x41, 0x3d, 0xa0, 0x02, 0xbc, 0x3e, 0xfc, 0x29, 0xeb, 0x3e,
  0x21, 0x54, 0x96, 0x3d, 0x78, 0xfa, 0xc0, 0xbd, 0x90, 0x47, 0xf7, 0xbe,
  0xf5, 0x1c, 0x49, 0xbd, 0x1f, 0x18, 0x30, 0xbe, 0xcf, 0xcc, 0x17, 0x3d,
  0x21, 0xeb, 0xc5, 0xbd, 0x3c, 0xfe, 0x40, 0xbe, 0xbd, 0x67, 0xcc, 0xbd,
  0x15, 0x7b, 0x56, 0xbb, 0xb2, 0xde, 0xb8, 0xbd, 0x28, 0x38, 0xc2, 0xbc,
  0x28, 0x1b, 0x8b, 0x3d, 0x93, 0x82, 0xd3, 0xbd, 0x08, 0x05, 0xdb, 0xbd,
  0x85, 0x7d, 0xe9, 0x3d, 0xda, 0xfa, 0x55, 0xbe, 0x89, 0xba, 0x65, 0xbe,
  0x23, 0xca, 0xa4, 0x3d, 0xb8, 0xa3, 0x84, 0xbe, 0xc2, 0x67, 0x90, 0xbd,
  0x3f, 0xc8, 0xfa, 0xbe, 0xf2, 0x34, 0x24, 0xbe, 0x9e, 0x8b, 0x5b, 0x3e,
  0x78, 0x18, 0x27, 0xbe, 0xa5, 0xdb, 0x2c, 0xbe, 0x32, 0xd2, 0x2c, 0x3d,
  0x1e, 0xb0, 0x6f, 0xbe, 0x28, 0x8b, 0x91, 0xbe, 0xc2, 0xeb, 0x0a, 0xbd,
  0x0a, 0xb9, 0xde, 0xbe, 0x75, 0x91, 0xc7, 0xbe, 0xdd, 0x58, 0xaa, 0x3c,
  0x72, 0x17, 0x08, 0x3e, 0xcb, 0x4e, 0xc7, 0xbd, 0xff, 0x1d, 0x25, 0x3e,
  0x9d, 0x28, 0xce, 0x3d, 0x52, 0x17, 0x05, 0xbe, 0x30, 0x89, 0xed, 0xbd,
  0x45, 0x5d, 0x66, 0x3d, 0x18, 0x23, 0xc9, 0xbd, 0x1f, 0xa5, 0x48, 0xbe,
  0xca, 0xa0, 0xd9, 0x3b, 0x13, 0x47, 0x27, 0xbc, 0xda, 0xee, 0xfd, 0xbd,
  0x81, 0x6a, 0xaf, 0xbe, 0x30, 0xb3, 0x12, 0xbe, 0xb3, 0x88, 0xd3, 0xbe,
  0x26, 0xd8, 0xdf, 0xbd, 0x97, 0x89, 0xd0, 0xbd, 0x28, 0x27, 0x8c, 0xbb,
  0x79, 0xdc, 0x08, 0xbd, 0x66, 0xc8, 0xba, 0xbc, 0x8b, 0xd7, 0x7a, 0x3e,
  0xdc, 0x8a, 0x60, 0xbc, 0x97, 0xf1, 0xe2, 0xbd, 0xb1, 0xaa, 0x91, 0x3e,
  0x5e, 0xc5, 0xff, 0xff, 0x04, 0x00, 0x00, 0x00, 0x00, 0x01, 0x00, 0x00,
  0x23, 0x99, 0x22, 0xbf, 0x49, 0xcc, 0xb7, 0x3e, 0x92, 0xa8, 0x85, 0x3e,
  0x29, 0x33, 0xa8, 0x3e, 0x8d, 0x5e, 0xdb, 0x3e, 0x1d, 0xdf, 0x1d, 0x3e,
  0x7c, 0x80, 0x28, 0x3e, 0x9a, 0x88, 0x95, 0xbe, 0x1e, 0xb4, 0x51, 0x3e,
  0x3e, 0xd6, 0x98, 0xbe, 0x10, 0x18, 0xdb, 0xbe, 0xd2, 0x9c, 0x8e, 0xbf,
  0xc4, 0x1d, 0x64, 0x3d, 0x86, 0x62, 0xd4, 0xbe, 0x89, 0xb2, 0x02, 0xbd,
  0xc0, 0x3c, 0x0f, 0xbf, 0x28, 0xe5, 0xf3, 0x3d, 0x2b, 0x2d, 0x25, 0xbf,
  0xc2, 0x09, 0x4a, 0xbf, 0xd7, 0x00, 0x2c, 0x3f, 0x5b, 0xae, 0xf7, 0x3e,
  0xf4, 0x8a, 0xf3, 0xbc, 0x5d, 0xf3, 0xd0, 0xbe, 0x75, 0xe8, 0x4e, 0xbe,
  0x6e, 0xac, 0x1c, 0xbf, 0xf6, 0xc4, 0x2b, 0xbf, 0x4d, 0x37, 0x35, 0xbf,
  0x48, 0x24, 0xf0, 0x3e, 0x66, 0x68, 0x41, 0x3c, 0xb0, 0xb8, 0x6e, 0xbf,
  0x2c, 0x6d, 0x9b, 0xbf, 0xf8, 0xcf, 0xc7, 0x3e, 0x63, 0x81, 0x2e, 0xbf,
  0xe6, 0x57, 0x4e, 0xbf, 0xe4, 0x28, 0x5b, 0xbf, 0x6b, 0x48, 0xa7, 0xbe,
  0x4a, 0x80, 0x5b, 0xbf, 0x9e, 0xa7, 0x15, 0xbf, 0x63, 0x6a, 0x8d, 0xbe,
  0x61, 0xba, 0x8c, 0x3e, 0x9c, 0x15, 0x0b, 0xbf, 0x59, 0x61, 0x75, 0x3e,
  0x63, 0xfd, 0x4f, 0x3f, 0x2c, 0xf2, 0x09, 0x3f, 0xa3, 0x56, 0x70, 0xbf,
  0xfa, 0x07, 0x40, 0xbe, 0x87, 0xf5, 0x09, 0xbd, 0x4b, 0xe7, 0x8f, 0x3e,
  0xf7, 0x93, 0x41, 0xbe, 0x1d, 0x81, 0x89, 0x3e, 0x4d, 0xa1, 0x1e, 0xbe,
  0xee, 0x2d, 0x2a, 0xbe, 0x43, 0xe5, 0x86, 0xbe, 0x1d, 0xe2, 0x46, 0x3e,
  0x65, 0x0a, 0x02, 0x3f, 0x1b, 0x61, 0x1f, 0xbf, 0x95, 0x67, 0xe5, 0xbe,
  0x00, 0x65, 0xa1, 0x3e, 0xd0, 0x13, 0x3b, 0xbe, 0x27, 0x0d, 0xc9, 0x3e,
  0x30, 0x91, 0xef, 0xbe, 0x64, 0xf8, 0x53, 0x3e, 0xa7, 0xe3, 0xaf, 0xbe,
  0x9f, 0x3f, 0x0a, 0x3f, 0x6a, 0xc6, 0xff, 0xff, 0x04, 0x00, 0x00, 0x00,
  0x00, 0x38, 0x00, 0x00, 0x1c, 0xd8, 0xd0, 0x3d, 0x72, 0xfe, 0xe2, 0x3d,
  0xf9, 0x94, 0x1d, 0xbf, 0x62, 0x15, 0xc8, 0xbe, 0x39, 0x38, 0x4b, 0x3e,
  0x45, 0xcd, 0x34, 0xbd, 0x75, 0xf6, 0x93, 0x3d, 0xa5, 0xae, 0xb3, 0xbd,
  0xeb, 0x5e, 0xff, 0x3e, 0x44, 0x89, 0x3e, 0x3e, 0x87, 0xcb, 0xb7, 0x3e,
  0xf0, 0x75, 0x9f, 0xbd, 0x57, 0x95, 0xe2, 0x3d, 0x96, 0xc5, 0x00, 0x3e,
  0x26, 0xd5, 0x78, 0xbc, 0xb4, 0xe1, 0x03, 0x3f, 0xf4, 0x9c, 0x66, 0x3e,
  0x15, 0xe3, 0x30, 0xbd, 0x9d, 0xfc, 0x89, 0xbe, 0xad, 0x1d, 0xfc, 0xbe,
  0xe7, 0xf0, 0xb2, 0xbd, 0x06, 0xc7, 0x30, 0xbf, 0xea, 0xe6, 0xbc, 0x3e,
  0x29, 0xae, 0x14, 0x3e, 0xd8, 0x7c, 0x0d, 0x3f, 0x03, 0x34, 0x91, 0x3c,
  0x2b, 0x06, 0xb4, 0xbd, 0x81, 0x2e, 0x48, 0xbf, 0x3b, 0x20, 0x89, 0x3a,
  0xd5, 0xf7, 0xd6, 0xbd, 0x8b, 0x26, 0x13, 0xbe, 0xd2, 0x61, 0xda, 0x3c,
  0x29, 0x72, 0x14, 0x3e, 0x6b, 0x60, 0x10, 0x3d, 0x8b, 0x06, 0xcf, 0xbd,
  0x5f, 0xa4, 0x36, 0xbf, 0x40, 0xa4, 0x1b, 0x3e, 0xd6, 0x57, 0xa4, 0xbe,
  0x41, 0x6c, 0x0d, 0xbd, 0x32, 0x70, 0x3a, 0x3e, 0x61, 0x59, 0xa6, 0xbd,
  0x0d, 0xbe, 0xb6, 0x3c, 0xc4, 0x31, 0xdf, 0x3d, 0xd1, 0x95, 0x0b, 0xbf,
  0xc5, 0x25, 0x32, 0x3e, 0xa7, 0x91, 0x0b, 0xbe, 0xb9, 0x8f, 0x03, 0x3e,
  0xda, 0x8c, 0x44, 0x3e, 0xa5, 0x8b, 0x93, 0x3e, 0x94, 0xb5, 0x92, 0x3d,
  0x49, 0xcf, 0x06, 0x3e, 0x4a, 0xb9, 0x43, 0xbf, 0x3b, 0xf3, 0xa9, 0x3e,
  0x2d, 0xd8, 0xb5, 0xbe, 0xf7, 0xb5, 0xcd, 0x3e, 0x3e, 0x37, 0x78, 0xbd,
  0xc7, 0xa6, 0x51, 0x3e, 0xb1, 0xa1, 0x08, 0xbe, 0xc2, 0xd1, 0x55, 0x3e,
  0x3b, 0x8e, 0x48, 0xbe, 0x12, 0x4a, 0x94, 0x3d, 0xd0, 0xd6, 0x29, 0xbf,
  0x93, 0x67, 0x58, 0xbe, 0x38, 0xd2, 0x9b, 0x3e, 0x66, 0x3f, 0xc7, 0x3e,
  0x69, 0x54, 0x55, 0xbf, 0x40, 0xe9, 0x2f, 0x3e, 0x44, 0xf5, 0x63, 0xbe,
  0xcc, 0x00, 0x85, 0x3e, 0xf8, 0x23, 0x3e, 0xbe, 0xff, 0xa7, 0xc9, 0x3e,
  0x21, 0x80, 0xe2, 0x3d, 0x49, 0xe8, 0x5f, 0x3f, 0xc6, 0x0e, 0x98, 0xbe,
  0xf2, 0xef, 0x4a, 0xbe, 0x74, 0x96, 0x56, 0xbf, 0x6e, 0x67, 0x8a, 0xbc,
  0x12, 0x87, 0x17, 0xbf, 0x80, 0x9e, 0x3d, 0xbc, 0x38, 0xf5, 0x23, 0x3e,
  0xd5, 0x4e, 0xdc, 0x3d, 0xc0, 0x9a, 0x99, 0xbe, 0x03, 0x33, 0xa9, 0x3e,
  0x01, 0x41, 0xda, 0x3d, 0x22, 0xbb, 0x83, 0xbe, 0xf5, 0x06, 0x68, 0x3e,
  0x16, 0x2a, 0x8f, 0x3d, 0x02, 0x49, 0x4e, 0x3e, 0x76, 0x92, 0xd1, 0x3e,
  0xe6, 0x65, 0x16, 0xbf, 0xca, 0xbb, 0x44, 0xbc, 0xa9, 0xb3, 0x73, 0xbe,
  0xd2, 0x98, 0x1e, 0x3e, 0x82, 0xde, 0xcb, 0xbe, 0x88, 0xf7, 0xd1, 0xbd,
  0xf4, 0x17, 0xcc, 0x3c, 0x6f, 0x4e, 0x1e, 0x3d, 0x5f, 0x5c, 0x4e, 0xbf,
  0x88, 0xd4, 0xbb, 0x3e, 0x68, 0x10, 0x03, 0xbe, 0xfa, 0xee, 0x4e, 0xbd,
  0x3e, 0x39, 0xd0, 0x3d, 0xd4, 0x6e, 0x3d, 0xbe, 0x1b, 0x50, 0x23, 0xbd,
  0x2d, 0xe8, 0xdd, 0x3d, 0x5e, 0x12, 0x7d, 0x3a, 0xa0, 0xd8, 0x18, 0x3c,
  0x5f, 0xf7, 0x9b, 0xbd, 0xfc, 0x71, 0x4d, 0x3e, 0x23, 0xa7, 0xac, 0xbe,
  0x09, 0xd6, 0x0f, 0xbe, 0x04, 0x6f, 0xa6, 0xbe, 0xc2, 0xde, 0xc8, 0xbd,
  0xaf, 0xae, 0x07, 0xbe, 0xf4, 0x99, 0xe9, 0x3c, 0xe3, 0x85, 0x38, 0xbd,
  0xab, 0x74, 0x3b, 0xbd, 0x61, 0x41, 0x82, 0x3c, 0xc0, 0x7c, 0x94, 0x3d,
  0x95, 0xb5, 0x89, 0x3d, 0x4b, 0xce, 0x3e, 0xbd, 0xe0, 0x8b, 0x26, 0xbf,
  0xe6, 0xe8, 0xae, 0xbe, 0xe8, 0xbb, 0x12, 0xbc, 0x89, 0x27, 0x0e, 0x3e,
  0x37, 0x9f, 0x41, 0xbe, 0xb4, 0x47, 0xbd, 0xbc, 0x7c, 0x0a, 0x35, 0xbe,
  0x69, 0xec, 0x18, 0xbe, 0x4b, 0x3d, 0x54, 0xbf, 0x77, 0xde, 0xe8, 0xbd,
  0x02, 0x7b, 0x82, 0x3e, 0x9d, 0x60, 0x88, 0xbd, 0x60, 0x95, 0x48, 0xbd,
  0xa3, 0xad, 0x33, 0xbe, 0xde, 0xad, 0xd6, 0x3c, 0x90, 0xf3, 0xd8, 0x3d,
  0xde, 0xcf, 0xc0, 0xbd, 0x51, 0x4c, 0xc9, 0xbe, 0xe6, 0xd2, 0x19, 0x3d,
  0x19, 0xb0, 0x1c, 0xbe, 0x20, 0x05, 0x6c, 0x3e, 0x22, 0x53, 0x49, 0x3d,
  0xa7, 0xc9, 0xc2, 0xbe, 0xf1, 0xc4, 0xab, 0xbe, 0xd1, 0x89, 0xa9, 0xbe,
  0x39, 0x48, 0x1d, 0xbf, 0xd6, 0x21, 0x68, 0x3e, 0xae, 0x07, 0x84, 0xbd,
  0xe3, 0x11, 0x95, 0xbc, 0x6a, 0xd7, 0xaa, 0xbe, 0xfc, 0xe8, 0x1f, 0x3e,
  0x73, 0x56, 0x07, 0x3e, 0xc8, 0x89, 0x04, 0xbf, 0xea, 0x99, 0x2d, 0xbe,
  0xf3, 0x1a, 0x5b, 0xbe, 0xa3, 0x54, 0x9d, 0x3c, 0x4b, 0x06, 0x81, 0x3d,
  0xf1, 0xa3, 0xa2, 0x3e, 0x27, 0x61, 0x1e, 0xbe, 0xbb, 0x31, 0x31, 0x3e,
  0xa6, 0x89, 0x09, 0xbf, 0xf9, 0x9b, 0x06, 0xbf, 0x28, 0xee, 0x03, 0xbf,
  0x86, 0xaa, 0x67, 0xbe, 0xc5, 0x53, 0x55, 0xbf, 0x88, 0xfa, 0xa5, 0x3e,
  0xdc, 0x94, 0x86, 0x3d, 0x74, 0x5c, 0xb1, 0x3c, 0x68, 0x8c, 0xc0, 0xbe,
  0x01, 0x5a, 0xa7, 0x3d, 0xd6, 0xc6, 0x03, 0xbe, 0x70, 0x2c, 0xc4, 0xbe,
  0x26, 0x36, 0x1c, 0xbf, 0xa1, 0x0b, 0x2d, 0x3e, 0x55, 0x97, 0xbe, 0xbe,
  0xa9, 0x24, 0xe5, 0x3d, 0x08, 0x6e, 0x12, 0x3e, 0xf0, 0x5c, 0xef, 0xbe,
  0x7f, 0x24, 0x1f, 0xbf, 0xc8, 0xe0, 0x88, 0xbe, 0x4d, 0xcd, 0x98, 0xbe,
  0xfe, 0xca, 0x15, 0x3f, 0x48, 0x47, 0xe5, 0x3d, 0x38, 0xbe, 0xab, 0x3d,
  0xc3, 0xbf, 0x48, 0x3e, 0x39, 0xfa, 0xa8, 0xbd, 0xff, 0x83, 0xc5, 0xbe,
  0x54, 0x72, 0x61, 0xbe, 0x26, 0x77, 0xc9, 0xbe, 0x28, 0xc3, 0x00, 0x3e,
  0x0a, 0x1e, 0xcc, 0x3d, 0x23, 0xee, 0x36, 0x3b, 0x27, 0x36, 0x87, 0x3e,
  0xff, 0x19, 0x2d, 0xbf, 0xa7, 0xb1, 0x37, 0xbf, 0x2f, 0xea, 0x28, 0xbe,
  0x06, 0x65, 0x0d, 0xbe, 0xa2, 0x5a, 0xc3, 0x3e, 0x10, 0xe6, 0x01, 0x3f,
  0x23, 0xc1, 0x94, 0x3e, 0x52, 0x3b, 0x5c, 0x3e, 0x5f, 0x55, 0xb3, 0x3e,
  0x6f, 0x64, 0x84, 0xbf, 0xa6, 0xc6, 0x71, 0xbd, 0x4c, 0x5e, 0x57, 0xbe,
  0xac, 0xfe, 0x8a, 0x3c, 0x70, 0x3f, 0xa6, 0x3e, 0xa4, 0xbb, 0x57, 0x3e,
  0x9d, 0xde, 0xb8, 0xbd, 0x85, 0x11, 0xfa, 0xbd, 0xe2, 0xb0, 0x91, 0xbe,
  0x90, 0x40, 0x8a, 0xbe, 0x9c, 0x51, 0x3d, 0xbe, 0x19, 0xd1, 0x80, 0x3e,
  0x3c, 0xc0, 0x26, 0x3d, 0x79, 0xcf, 0x3f, 0x3f, 0xf8, 0xcb, 0x3a, 0x3e,
  0x05, 0x0d, 0x95, 0x3a, 0xf6, 0x8c, 0x22, 0xbf, 0x2f, 0x5b, 0x84, 0x3e,
  0xf5, 0xaa, 0x96, 0xbe, 0x87, 0xe4, 0xa8, 0x3d, 0xa9, 0x5d, 0x8a, 0x3d,
  0xdf, 0x4a, 0x97, 0x3e, 0x56, 0x0b, 0xc6, 0xbd, 0xf7, 0x45, 0x11, 0xbe,
  0x4a, 0xfb, 0xf8, 0xbd, 0x52, 0x5b, 0xac, 0x3e, 0x02, 0xed, 0xc9, 0x3d,
  0x3b, 0x8d, 0x8e, 0x3e, 0x04, 0x47, 0xc9, 0xbe, 0x64, 0x0b, 0x25, 0x3c,
  0x75, 0x05, 0xa4, 0x3c, 0xf8, 0x7d, 0x19, 0xbd, 0xe0, 0xe3, 0x8a, 0x3c,
  0xe8, 0x84, 0x3f, 0xbe, 0xdb, 0x54, 0xf5, 0x3d, 0x83, 0x3c, 0xcb, 0xbd,
  0xda, 0x8f, 0xbe, 0x3b, 0x8f, 0xc5, 0xbb, 0x3e, 0x95, 0x52, 0xe9, 0x3c,
  0x16, 0x86, 0x82, 0xbe, 0xc1, 0x37, 0x83, 0x3e, 0xb4, 0x80, 0x86, 0xbc,
  0x66, 0x54, 0x22, 0x3e, 0x50, 0xe2, 0xde, 0xbd, 0xd4, 0x37, 0x84, 0x3e,
  0x64, 0x0e, 0x47, 0xbe, 0x49, 0xd5, 0xc9, 0xbc, 0x47, 0x5e, 0x6d, 0xbd,
  0x35, 0x1d, 0xbf, 0x3d, 0x23, 0xb4, 0x2d, 0x3d, 0xaf, 0xad, 0xab, 0x3d,
  0x60, 0x6a, 0xdd, 0xbd, 0x40, 0xe1, 0x0b, 0xbe, 0xd3, 0xbd, 0x39, 0x3f,
  0x38, 0x17, 0x95, 0x3d, 0x6c, 0x37, 0x84, 0xbe, 0x99, 0x0a, 0x5e, 0x3d,
  0xf2, 0x81, 0x95, 0xbe, 0xa9, 0xfd, 0x1f, 0x3e, 0xff, 0xb4, 0x9d, 0x3c,
  0x63, 0x8e, 0xe7, 0xbe, 0x14, 0x1b, 0x7d, 0xbf, 0xf9, 0x61, 0x68, 0x3e,
  0x0b, 0x15, 0x95, 0xbb, 0xb6, 0x63, 0xae, 0x3e, 0x62, 0x5e, 0x18, 0x3e,
  0x35, 0x70, 0x0b, 0x3e, 0x17, 0xef, 0x5d, 0xbf, 0x53, 0xc4, 0x0e, 0xbe,
  0xe3, 0xae, 0xc8, 0x3e, 0x42, 0x9c, 0x0d, 0x3f, 0x41, 0xfb, 0x15, 0xbe,
  0xff, 0x64, 0x88, 0x3e, 0xbe, 0x5c, 0x4e, 0xbe, 0xd7, 0x95, 0xa8, 0x3e,
  0xa2, 0x79, 0x13, 0x3e, 0x54, 0x78, 0x6c, 0xbe, 0xc0, 0xcb, 0x0c, 0xbf,
  0x98, 0x0e, 0x4c, 0xbc, 0x34, 0x12, 0x82, 0xbe, 0x02, 0x10, 0xef, 0x3e,
  0x8d, 0x6a, 0x9b, 0x3e, 0xd7, 0x2e, 0x15, 0x3e, 0xb4, 0xa9, 0xc7, 0xbe,
  0x77, 0xd5, 0xb2, 0xbe, 0xf0, 0xb3, 0x63, 0x3e, 0xc4, 0x04, 0xfa, 0x3e,
  0x8d, 0x71, 0x73, 0xbe, 0xa7, 0x25, 0xd4, 0xbd, 0xd5, 0xe6, 0x2b, 0xbe,
  0x96, 0x0b, 0x0e, 0x3f, 0x53, 0x68, 0x34, 0x3e, 0xf4, 0xee, 0xe5, 0x3c,
  0x74, 0xbd, 0xa7, 0xbc, 0xc4, 0xb4, 0xcd, 0x3d, 0x2b, 0xa7, 0x95, 0xbd,
  0x4e, 0x03, 0xa7, 0x3e, 0xa3, 0x64, 0x9c, 0x3e, 0xe8, 0x2a, 0x86, 0x3e,
  0xf7, 0x0c, 0xd6, 0xbe, 0x09, 0xfb, 0xc8, 0x3b, 0xb7, 0x59, 0xe9, 0x3e,
  0x09, 0xa5, 0x3a, 0x3f, 0xce, 0x35, 0x67, 0x3d, 0x3c, 0x5a, 0x84, 0xbd,
  0x84, 0x43, 0x0b, 0xbe, 0x46, 0x35, 0x9b, 0x3e, 0x4e, 0x14, 0xb5, 0x3d,
  0xe9, 0x65, 0x8f, 0xbe, 0xf9, 0xb6, 0x71, 0xbe, 0x79, 0x2b, 0x7e, 0xbe,
  0x99, 0x22, 0x00, 0x3e, 0xf1, 0x90, 0x49, 0x3e, 0x80, 0x75, 0xb8, 0x3e,
  0x48, 0xd9, 0x87, 0xbd, 0xfe, 0x08, 0x75, 0x3c, 0xe4, 0xff, 0xca, 0xbd,
  0xfd, 0xb3, 0xd6, 0x3e, 0x69, 0xd8, 0x12, 0x3e, 0xa0, 0x32, 0x58, 0x3d,
  0x3c, 0x65, 0x3d, 0x3e, 0x9f, 0xd5, 0x8f, 0xbc, 0x35, 0x5b, 0xed, 0x3d,
  0xf3, 0x7f, 0xcc, 0x3d, 0xdb, 0x3b, 0xe8, 0x3c, 0x28, 0x21, 0xd9, 0x3e,
  0x04, 0x8b, 0xa6, 0x3d, 0x58, 0x5b, 0x60, 0xbe, 0x40, 0x83, 0x6f, 0xbe,
  0x41, 0x56, 0x17, 0x3e, 0xfc, 0x02, 0x95, 0x3d, 0x10, 0x50, 0x80, 0x3c,
  0xfc, 0x76, 0xff, 0xbd, 0x18, 0x56, 0xf6, 0x3e, 0xd6, 0xe0, 0x8b, 0x3d,
  0x64, 0x18, 0x49, 0x3e, 0x79, 0xf5, 0x73, 0x3d, 0x75, 0x1f, 0x9b, 0xbd,
  0x5a, 0x52, 0x86, 0x3e, 0x55, 0xe6, 0xd3, 0x3d, 0x6d, 0x33, 0x92, 0xbd,
  0xae, 0xb3, 0x39, 0xbe, 0x02, 0x08, 0x3e, 0x3e, 0x4e, 0x30, 0x81, 0xbe,
  0xb8, 0xf8, 0x91, 0xbe, 0xd0, 0x0c, 0x8c, 0x3e, 0x8b, 0xf2, 0x39, 0xbe,
  0xbf, 0xac, 0x32, 0x3d, 0xb2, 0xc7, 0x95, 0x3e, 0xcf, 0x2f, 0x61, 0x3f,
  0x25, 0x64, 0xcf, 0x3e, 0x17, 0xf0, 0x07, 0xbe, 0xc7, 0x03, 0x23, 0x3e,
  0x9b, 0xc2, 0xab, 0xbe, 0xe9, 0xab, 0x1c, 0x3e, 0x42, 0x8a, 0x97, 0x3e,
  0xa8, 0x7c, 0xe1, 0x3d, 0x38, 0x7d, 0x07, 0x3e, 0xeb, 0x51, 0xce, 0xbe,
  0x4f, 0xbd, 0x7e, 0xbe, 0x9e, 0x93, 0x3b, 0x3e, 0x1a, 0x96, 0x48, 0x3e,
  0xd4, 0xc5, 0x30, 0x3c, 0x90, 0xcd, 0x9b, 0xbe, 0x1d, 0x82, 0xaf, 0x3c,
  0xd3, 0xb5, 0xb0, 0xbe, 0xee, 0xad, 0x9f, 0xbd, 0xcb, 0xe1, 0xc8, 0x3e,
  0x0f, 0xab, 0xbd, 0x3e, 0x9d, 0xdf, 0x47, 0xbe, 0x7f, 0x85, 0xd8, 0xbe,
  0x7c, 0x37, 0xad, 0x3e, 0x37, 0xeb, 0x5d, 0x3e, 0x0a, 0x4d, 0x48, 0x3c,
  0x19, 0x93, 0x25, 0xbf, 0x65, 0xb2, 0x00, 0xbf, 0x88, 0x43, 0x0e, 0xbf,
  0xc3, 0x16, 0xdb, 0x3d, 0x4d, 0x2b, 0xd9, 0xbd, 0x2f, 0x84, 0x1a, 0xbd,
  0xbc, 0xce, 0xe8, 0x3d, 0x52, 0x9d, 0xe8, 0xbe, 0xde, 0x8c, 0x97, 0xbe,
  0x2c, 0x55, 0x21, 0xbc, 0x79, 0x86, 0xc8, 0x3e, 0x20, 0xe5, 0xa6, 0x3e,
  0xa9, 0x18, 0x47, 0xbe, 0xc6, 0xab, 0x76, 0x3e, 0x78, 0x47, 0xbc, 0x3e,
  0x3e, 0x1a, 0x9d, 0x3d, 0xf4, 0x28, 0xde, 0xbc, 0x4b, 0xab, 0x14, 0xbe,
  0x55, 0x23, 0x56, 0x3e, 0x4d, 0xb5, 0xf5, 0x3e, 0xb7, 0xab, 0x54, 0x3d,
  0x7d, 0xa4, 0x14, 0x3e, 0x68, 0xd8, 0xfb, 0xbe, 0x8b, 0x34, 0x36, 0xbf,
  0x51, 0x97, 0xeb, 0xbe, 0xe6, 0x71, 0x5c, 0x3b, 0xc1, 0x78, 0x8c, 0x3e,
  0x85, 0xfd, 0x8a, 0x3e, 0x6f, 0x9d, 0x68, 0x3d, 0x2a, 0x13, 0x3d, 0xbd,
  0x9c, 0xcd, 0x56, 0x3e, 0xd7, 0x4e, 0x14, 0xbd, 0x98, 0x7f, 0x8e, 0xbe,
  0x6a, 0x8f, 0xb2, 0xbf, 0x84, 0x66, 0x29, 0xbd, 0xbf, 0x79, 0x9a, 0x3d,
  0xf8, 0xad, 0xa8, 0x3e, 0x48, 0xce, 0xa5, 0x3b, 0x5c, 0xf5, 0xff, 0xbe,
  0xfc, 0xf8, 0x0a, 0xbe, 0xf0, 0x8e, 0x8b, 0xbd, 0x3c, 0x4e, 0x2e, 0xbe,
  0x80, 0x74, 0x96, 0x3d, 0xd1, 0x40, 0xc0, 0x3d, 0x11, 0xa9, 0xff, 0x3d,
  0x02, 0xb7, 0x90, 0xbe, 0xae, 0xce, 0x14, 0x3c, 0xde, 0x08, 0xd3, 0xbe,
  0x44, 0xe4, 0x29, 0xbf, 0x75, 0xa4, 0x53, 0xbd, 0xca, 0x9f, 0x40, 0xbc,
  0xc8, 0x48, 0x69, 0x3c, 0x0b, 0xcf, 0x83, 0xbe, 0xec, 0xab, 0xec, 0x3d,
  0xf3, 0xe2, 0xc3, 0xbe, 0xa7, 0x2d, 0x7b, 0xbd, 0xf0, 0x58, 0xbb, 0xbd,
  0x75, 0x30, 0x73, 0xbf, 0x31, 0x85, 0x02, 0xbe, 0xdf, 0x39, 0xb0, 0x3d,
  0x18, 0xb6, 0xe3, 0xbe, 0xb0, 0x4f, 0x6e, 0x3d, 0xe8, 0x2e, 0x4e, 0xbe,
  0x16, 0x49, 0x51, 0x3e, 0x25, 0x10, 0x0b, 0xbe, 0x6f, 0x9a, 0xe7, 0x3d,
  0x78, 0x3c, 0x86, 0xbe, 0x5b, 0xea, 0xde, 0x3d, 0xf7, 0x96, 0xa1, 0x3d,
  0xfe, 0x11, 0x2c, 0x3b, 0x66, 0x59, 0x9d, 0xbe, 0x7b, 0x98, 0xaf, 0xbe,
  0x6a, 0xff, 0x48, 0x3c, 0x16, 0x1d, 0xc8, 0xbb, 0xa8, 0x8b, 0x05, 0xbe,
  0x65, 0x79, 0x00, 0xbf, 0x92, 0x07, 0xd6, 0x3e, 0xb0, 0xbf, 0x8a, 0xbe,
  0x16, 0xa0, 0xc0, 0xbd, 0xee, 0xee, 0x93, 0xbe, 0x92, 0x8f, 0xaf, 0x3c,
  0xa7, 0x0a, 0xcb, 0x3e, 0xce, 0x00, 0x66, 0x3e, 0xcb, 0xb1, 0x26, 0xbf,
  0x75, 0xf5, 0x17, 0x3e, 0xcc, 0x25, 0x58, 0x3e, 0x54, 0x09, 0x23, 0x3e,
  0xd8, 0xc6, 0x03, 0xbf, 0x9b, 0x0d, 0x1d, 0x3d, 0x58, 0x06, 0x80, 0xbf,
  0xcf, 0x08, 0x65, 0xbe, 0x1a, 0x3f, 0xa0, 0xbe, 0x1f, 0x23, 0x2d, 0x3e,
  0x5b, 0xe7, 0x89, 0xbe, 0x28, 0x0c, 0x50, 0xbe, 0xea, 0x88, 0x4c, 0xbf,
  0x4c, 0xf2, 0xc0, 0xbe, 0xf4, 0x5c, 0xee, 0xbd, 0x2d, 0xfb, 0xe2, 0x3c,
  0xf9, 0xf4, 0xf9, 0xbe, 0xd5, 0xa8, 0xcb, 0x3d, 0x79, 0x57, 0x2d, 0xbe,
  0x7a, 0xc0, 0x62, 0xbe, 0xb8, 0x21, 0xfd, 0x3e, 0x96, 0x98, 0x29, 0x3c,
  0x71, 0xc8, 0x42, 0xbf, 0x0c, 0xee, 0x8c, 0xbd, 0xe7, 0x06, 0x21, 0xbe,
  0x60, 0x12, 0x58, 0x3e, 0x4b, 0x76, 0x5a, 0x3e, 0x30, 0x78, 0x0a, 0x3d,
  0x16, 0x71, 0x48, 0xbf, 0x93, 0xc5, 0xca, 0x3d, 0xf6, 0x03, 0xaf, 0xbd,
  0xa3, 0x71, 0xce, 0x3e, 0x37, 0x6e, 0x5e, 0xbd, 0x04, 0xa1, 0x20, 0x3e,
  0x08, 0x83, 0x18, 0xbe, 0xb6, 0x8c, 0x2e, 0x3e, 0x5b, 0xc9, 0xf8, 0xbd,
  0x06, 0x47, 0x3e, 0xbf, 0x31, 0x08, 0x8b, 0x3e, 0x7a, 0xbb, 0x76, 0xbd,
  0x2e, 0x2b, 0x0b, 0xbf, 0xe6, 0x68, 0x77, 0xbf, 0x4e, 0xdc, 0x43, 0xbe,
  0xf1, 0xba, 0x16, 0xbe, 0xec, 0xed, 0xf2, 0xbe, 0x85, 0x02, 0x42, 0x3e,
  0x8d, 0xef, 0xae, 0x3e, 0xc2, 0xfa, 0xf8, 0xbe, 0xce, 0x41, 0x27, 0x3e,
  0xbd, 0xac, 0xeb, 0xbd, 0xe8, 0xee, 0xbe, 0xbd, 0xd9, 0x07, 0x61, 0xbf,
  0x4f, 0x47, 0x15, 0x3f, 0xe2, 0x7e, 0xea, 0xbe, 0x43, 0x59, 0xf8, 0xbd,
  0xb8, 0xa2, 0xbc, 0xbd, 0xc3, 0xab, 0xcf, 0xbd, 0xe5, 0xa7, 0xbe, 0xbe,
  0xde, 0x12, 0x52, 0xbe, 0x1f, 0x7c, 0x10, 0x3e, 0xc3, 0x7f, 0x22, 0xbd,
  0x01, 0x4d, 0x69, 0x3e, 0x82, 0xc9, 0xce, 0x3e, 0xf6, 0x2f, 0xaf, 0x3c,
  0xb6, 0x44, 0xd1, 0xbe, 0x74, 0x54, 0x93, 0xbe, 0xc4, 0xbc, 0x5d, 0x3e,
  0x73, 0x20, 0x67, 0xbf, 0xfa, 0xcf, 0x05, 0x3f, 0xd9, 0xfe, 0xe8, 0xbe,
  0xf7, 0x58, 0xd7, 0x3e, 0x85, 0x67, 0x26, 0x3d, 0x1a, 0x23, 0x67, 0xbe,
  0x4e, 0xfa, 0x4e, 0x3e, 0x7f, 0xa2, 0xd2, 0xbd, 0xfb, 0xef, 0xd3, 0x3d,
  0xce, 0x98, 0x89, 0xbe, 0xe3, 0xf1, 0x5d, 0x3e, 0x6c, 0xea, 0xad, 0xbe,
  0xaf, 0x90, 0x0f, 0x3e, 0x29, 0x96, 0x58, 0xbe, 0x45, 0x7b, 0x56, 0xbe,
  0xf3, 0x08, 0x32, 0xbe, 0xe9, 0xc1, 0x25, 0xbf, 0xf8, 0x28, 0xb9, 0x3e,
  0x80, 0xf0, 0xe6, 0x3c, 0x6a, 0x63, 0x85, 0xbe, 0xe9, 0xa1, 0x83, 0xbe,
  0xcd, 0xe6, 0xb1, 0xbe, 0x26, 0xe7, 0x41, 0x3e, 0x34, 0xaf, 0x37, 0xbe,
  0xc6, 0xb0, 0xa8, 0x3e, 0xcc, 0x4a, 0xdf, 0xbe, 0x05, 0xb9, 0xec, 0x3d,
  0xa8, 0x09, 0xaf, 0xbd, 0xf5, 0x74, 0x52, 0x3e, 0x73, 0xf3, 0x0a, 0xbf,
  0x66, 0xd6, 0x2b, 0xbe, 0x48, 0x7a, 0xc3, 0x3d, 0x48, 0xdc, 0xdf, 0xbe,
  0xee, 0x65, 0x16, 0x3f, 0x77, 0xf6, 0x08, 0x3e, 0x5a, 0x39, 0x9f, 0x3e,
  0xa9, 0x11, 0x4d, 0xbd, 0x5a, 0xf3, 0xa0, 0xbe, 0xa6, 0x27, 0x8b, 0x3e,
  0x3c, 0xf5, 0x94, 0xbd, 0xea, 0xe4, 0x99, 0x3e, 0x16, 0xd9, 0x24, 0x3e,
  0x4e, 0x2d, 0xda, 0x3e, 0x1c, 0xd0, 0x6f, 0x3d, 0xe4, 0x37, 0x9d, 0x3e,
  0xa2, 0x89, 0x9f, 0xbe, 0x48, 0xf5, 0xd8, 0xbd, 0x22, 0x12, 0x3f, 0x3e,
  0xf9, 0x42, 0xb1, 0xbd, 0xd0, 0xfd, 0x42, 0x3f, 0xb1, 0xd2, 0x71, 0x3d,
  0x82, 0x6e, 0x55, 0x3b, 0x54, 0xce, 0x25, 0x3d, 0x27, 0xd5, 0x98, 0xbb,
  0x69, 0x2e, 0xa6, 0x3e, 0x64, 0xef, 0xa9, 0x3e, 0xd8, 0x41, 0x47, 0x3d,
  0x72, 0x6e, 0x90, 0x3e, 0x84, 0x54, 0x91, 0x3d, 0x13, 0xdb, 0x4e, 0xbd,
  0xd2, 0x35, 0x2c, 0x3e, 0x18, 0x73, 0xaf, 0xbe, 0xcd, 0xba, 0x11, 0xbe,
  0x58, 0x63, 0x54, 0xbe, 0xf7, 0xb6, 0x6f, 0x3e, 0xe2, 0xfc, 0x48, 0x3f,
  0x6c, 0x97, 0x4a, 0x3c, 0xbc, 0xdf, 0x78, 0xbe, 0xe4, 0x5c, 0xa1, 0x3d,
  0x4d, 0x19, 0x06, 0xbb, 0x2e, 0x7f, 0x95, 0x3e, 0xd7, 0x2e, 0xba, 0x3d,
  0x20, 0xce, 0x62, 0xbd, 0x1e, 0x7d, 0xa7, 0xbd, 0x38, 0x3a, 0x70, 0x3e,
  0xf4, 0xc1, 0x19, 0xbe, 0x1a, 0x20, 0xc6, 0x3e, 0x86, 0x9a, 0xe3, 0xbe,
  0x5d, 0xf9, 0x4a, 0xbe, 0x76, 0x27, 0x3f, 0xbe, 0x61, 0x9e, 0xaa, 0x3d,
  0x12, 0x99, 0x3a, 0xbb, 0x12, 0x8d, 0x2c, 0x3e, 0xbf, 0x31, 0x98, 0xbd,
  0xb1, 0x9e, 0xae, 0x3d, 0xbe, 0x53, 0xb5, 0xbc, 0x83, 0xa1, 0x96, 0x3e,
  0x0d, 0x14, 0x64, 0x3e, 0xef, 0x0c, 0x71, 0x3e, 0xbe, 0x63, 0x2b, 0xbb,
  0xfc, 0x92, 0xd1, 0xbb, 0xd0, 0xc6, 0xd5, 0xbe, 0x46, 0x9d, 0x99, 0x3e,
  0xa4, 0xee, 0x99, 0xbe, 0x9a, 0xcb, 0x2e, 0xbe, 0x3a, 0xfa, 0xb6, 0xbe,
  0xf2, 0x17, 0xab, 0xbd, 0x0b, 0xb3, 0x10, 0x3e, 0x1c, 0x5e, 0xf4, 0x3d,
  0xcb, 0xa1, 0x89, 0xbe, 0x08, 0x14, 0xaa, 0x3e, 0x1a, 0xd4, 0xae, 0xbd,
  0xdb, 0xbc, 0x63, 0x3e, 0x29, 0xd6, 0xfc, 0x3d, 0x55, 0x65, 0x11, 0x3c,
  0xef, 0xb6, 0x79, 0xbe, 0x0f, 0x16, 0x06, 0x3d, 0x28, 0x77, 0x2b, 0xbe,
  0x52, 0xba, 0xbe, 0x3e, 0xef, 0xda, 0xba, 0x3d, 0x26, 0xaa, 0x01, 0xbd,
  0x9a, 0x66, 0x94, 0xbe, 0x1d, 0x72, 0x56, 0x3d, 0xca, 0x96, 0xcd, 0x3e,
  0x3a, 0x28, 0x6a, 0x3d, 0x3b, 0x90, 0x59, 0x3d, 0x15, 0x13, 0xe3, 0xbd,
  0x10, 0x73, 0x84, 0x3c, 0x15, 0xe2, 0x6b, 0x3e, 0xb5, 0x7a, 0xf0, 0x3d,
  0xb0, 0x3d, 0x5e, 0xbe, 0xce, 0x36, 0x8c, 0xbe, 0x79, 0x44, 0x6d, 0xbc,
  0x85, 0xcf, 0x72, 0xbf, 0x56, 0x6c, 0x9b, 0x3e, 0x90, 0x8f, 0xab, 0x3e,
  0xa6, 0xd7, 0xf3, 0x3d, 0xfd, 0x8a, 0x20, 0xbf, 0x3f, 0x03, 0xb1, 0x3d,
  0x72, 0x26, 0x1b, 0xbe, 0xdf, 0xeb, 0xab, 0x3d, 0x28, 0x13, 0x2f, 0xbe,
  0x9a, 0x1d, 0x61, 0xbd, 0xe1, 0x15, 0xdb, 0xbe, 0xa2, 0x8f, 0x92, 0x3e,
  0x54, 0xbe, 0x8f, 0x3c, 0x3f, 0x3e, 0xbb, 0xbd, 0x9c, 0xc2, 0xd2, 0xbe,
  0xf7, 0x2c, 0x52, 0xbe, 0xb2, 0xf9, 0x13, 0xbf, 0x73, 0x7d, 0xa1, 0x3e,
  0x8d, 0x47, 0x0c, 0x3f, 0x96, 0xa2, 0xbe, 0x3d, 0x36, 0xe0, 0xdb, 0xbe,
  0xb4, 0xa2, 0x19, 0x3d, 0x41, 0x9d, 0x9a, 0xbe, 0x75, 0x56, 0x55, 0xbd,
  0x59, 0x81, 0xb5, 0xbe, 0x8d, 0x89, 0x6b, 0xbf, 0x10, 0x6f, 0x4c, 0xbd,
  0x9b, 0x76, 0x18, 0x3e, 0xfc, 0x1e, 0x33, 0x3e, 0x6d, 0xe2, 0x99, 0xbc,
  0x08, 0x45, 0x0d, 0x3d, 0x1e, 0x2b, 0xa2, 0x3d, 0xb6, 0xed, 0xde, 0x3c,
  0xcc, 0x99, 0xc5, 0xbd, 0x03, 0xc9, 0x4d, 0xbf, 0x99, 0x6b, 0xd7, 0x3c,
  0x02, 0xaf, 0x1d, 0xbe, 0x4f, 0x07, 0x56, 0x3d, 0xf1, 0x52, 0xa8, 0x3e,
  0x16, 0x59, 0x9b, 0x3e, 0x01, 0xd1, 0x75, 0xbe, 0xa1, 0x57, 0xcd, 0xbe,
  0x8d, 0x02, 0x66, 0xbc, 0x4c, 0xa3, 0x9a, 0x3e, 0x0e, 0x3e, 0xa8, 0x3e,
  0xc3, 0xa6, 0x48, 0xbd, 0xbf, 0xf7, 0x26, 0x3e, 0x30, 0x3d, 0x5b, 0x3e,
  0x48, 0xba, 0xa5, 0x3d, 0x14, 0xa0, 0x02, 0xbf, 0xd1, 0x3c, 0xde, 0xbe,
  0x72, 0x51, 0x0a, 0x3d, 0x78, 0x73, 0x89, 0x3d, 0x42, 0xac, 0x9d, 0x3e,
  0xa0, 0x40, 0x41, 0x3f, 0xe5, 0x30, 0xae, 0x3d, 0x85, 0x27, 0x4e, 0x3e,
  0xb4, 0x58, 0x9f, 0xbe, 0xa3, 0xa1, 0x84, 0x3d, 0x4b, 0x88, 0x22, 0x3e,
  0x6f, 0x79, 0xdd, 0x3e, 0x3f, 0xd5, 0x88, 0x3e, 0x7b, 0xda, 0x97, 0x3e,
  0xfc, 0x4e, 0x26, 0xbf, 0xa9, 0xc0, 0x56, 0xbe, 0xf5, 0xb7, 0xa6, 0xbd,
  0x76, 0x08, 0xad, 0xbe, 0x1c, 0x88, 0x7f, 0xbd, 0x83, 0xea, 0xed, 0x3d,
  0x4e, 0x7a, 0xf7, 0x3d, 0x43, 0xbb, 0x19, 0x3e, 0x71, 0xff, 0x43, 0xbf,
  0x11, 0xf2, 0xc2, 0x3c, 0x0d, 0x20, 0x8b, 0x3d, 0x1a, 0x5d, 0x11, 0xbe,
  0x60, 0xef, 0x7d, 0x3e, 0x61, 0xcf, 0x95, 0xbe, 0xf3, 0xb7, 0x7b, 0x3e,
  0x1d, 0x41, 0xd1, 0x3e, 0x35, 0xb8, 0x76, 0xbf, 0xe3, 0x81, 0xd2, 0xbe,
  0x6b, 0x06, 0x4a, 0xbe, 0x97, 0x10, 0x95, 0xbd, 0xea, 0xb3, 0x86, 0xbe,
  0x63, 0xa3, 0x90, 0x3e, 0xf1, 0xc5, 0x3e, 0xbf, 0xc6, 0xf5, 0xfe, 0x3d,
  0x3e, 0x67, 0xe5, 0xbe, 0xf8, 0x21, 0xc0, 0x3e, 0x8e, 0x68, 0x41, 0xbd,
  0x59, 0x4b, 0x2e, 0xbe, 0xfa, 0xc6, 0x89, 0x3c, 0xd8, 0xc5, 0x99, 0xbe,
  0xa1, 0x7c, 0x4f, 0xbd, 0xc1, 0xa2, 0xb3, 0xbd, 0x7f, 0x52, 0x0f, 0xbf,
  0x51, 0x12, 0xd0, 0xbe, 0x02, 0xea, 0x0d, 0xbe, 0xdc, 0xb9, 0xca, 0x3e,
  0xea, 0x4a, 0x1f, 0xbf, 0x39, 0x82, 0xce, 0x3c, 0x66, 0x59, 0xf3, 0xbe,
  0xae, 0x41, 0x18, 0xbf, 0x44, 0xe4, 0xa3, 0xbe, 0x62, 0x09, 0xa8, 0xbd,
  0x46, 0x6c, 0x9f, 0xbe, 0x86, 0x28, 0x17, 0x3e, 0x14, 0xe7, 0x5e, 0x3e,
  0x16, 0x37, 0x3b, 0xbe, 0x64, 0x19, 0x07, 0xbd, 0xc3, 0xa9, 0x16, 0xbe,
  0xfd, 0x21, 0x7d, 0xbe, 0xf4, 0x98, 0xe3, 0xbd, 0x65, 0x7b, 0x65, 0xbd,
  0x57, 0xd7, 0xdc, 0x3c, 0xa1, 0xa9, 0xfb, 0xbe, 0x20, 0x83, 0x46, 0x3e,
  0x19, 0x42, 0xa6, 0xbe, 0x90, 0x8f, 0x63, 0x3e, 0x61, 0x44, 0x0a, 0xbe,
  0xa7, 0x0d, 0x4a, 0xbe, 0x49, 0xb5, 0x2c, 0xbd, 0x90, 0x1d, 0x94, 0x3d,
  0x99, 0xdd, 0x87, 0x3e, 0x45, 0x91, 0x49, 0xbe, 0x6d, 0xff, 0x89, 0x3e,
  0x2a, 0x83, 0x28, 0x3e, 0xaf, 0x16, 0x60, 0xbd, 0x7b, 0xab, 0x94, 0xbe,
  0xbe, 0x10, 0xc9, 0x3d, 0xbd, 0x6a, 0x0d, 0x3e, 0x61, 0xea, 0x29, 0xbe,
  0x9b, 0x9a, 0x80, 0x3d, 0x84, 0x25, 0x37, 0xbe, 0x4f, 0x0e, 0xd8, 0x3e,
  0x8c, 0x91, 0xf2, 0xbe, 0xa8, 0x5a, 0xc9, 0xbd, 0x0f, 0x90, 0xce, 0xbc,
  0xcd, 0x14, 0xb4, 0x3c, 0x71, 0x0a, 0xe7, 0x3d, 0x77, 0xcb, 0x2f, 0x3d,
  0x87, 0x87, 0x25, 0xbe, 0x7e, 0x7c, 0x00, 0x3e, 0x86, 0xee, 0x99, 0xbd,
  0x29, 0xc7, 0x77, 0x3e, 0x21, 0xc1, 0xce, 0xbd, 0xa6, 0x6e, 0x50, 0x3e,
  0xd0, 0x47, 0xb2, 0xbe, 0xf6, 0x8b, 0xfa, 0xbd, 0x59, 0xce, 0xaf, 0x3d,
  0x7b, 0xb7, 0xac, 0x3e, 0xd2, 0x34, 0x9d, 0xbe, 0x37, 0x0c, 0x20, 0xbe,
  0x0e, 0x9b, 0xac, 0xbe, 0x1f, 0xb5, 0xe2, 0xbc, 0xa2, 0x13, 0x3a, 0x3e,
  0x83, 0x72, 0x94, 0x3e, 0xe8, 0x7e, 0xa4, 0xbd, 0x27, 0x58, 0xb5, 0x3e,
  0x8f, 0xe4, 0x98, 0x3e, 0x08, 0x1f, 0xc8, 0x3e, 0xd0, 0xfc, 0x48, 0x3e,
  0x8b, 0xd3, 0xf6, 0x3c, 0x59, 0x80, 0xe3, 0x3c, 0xb0, 0x65, 0x29, 0xbe,
  0x6a, 0x24, 0x7e, 0x3d, 0x31, 0xfa, 0x68, 0xbe, 0x3a, 0x55, 0xfe, 0xbd,
  0x88, 0x77, 0x77, 0xbd, 0x33, 0x5e, 0xc9, 0xbe, 0x7c, 0xcf, 0x27, 0xbd,
  0x4c, 0x07, 0x85, 0x3b, 0xf8, 0xb7, 0x5e, 0x3e, 0xca, 0xd6, 0xba, 0x3c,
  0xd1, 0x2b, 0x3f, 0x3e, 0xc6, 0x49, 0x9a, 0x3d, 0xa7, 0x81, 0x7c, 0x3d,
  0x78, 0x5d, 0x02, 0xbf, 0xaf, 0x85, 0xe1, 0xbb, 0xec, 0x16, 0x09, 0xbd,
  0xd6, 0x24, 0x13, 0x3e, 0x0e, 0x0f, 0x95, 0x3e, 0xa1, 0x9b, 0xb5, 0x3e,
  0xc8, 0x17, 0xb1, 0x3c, 0x2e, 0x1a, 0x19, 0xbe, 0x2d, 0x06, 0xce, 0xbe,
  0x91, 0x96, 0x8f, 0x3d, 0x48, 0x42, 0x0e, 0x3d, 0x5c, 0x62, 0x37, 0x3e,
  0xf2, 0x2d, 0x10, 0xbe, 0x99, 0xbe, 0x96, 0x3e, 0xd5, 0xc4, 0x6b, 0xbd,
  0x35, 0x23, 0x1b, 0x3d, 0x2e, 0x2f, 0x8c, 0xbe, 0x4f, 0xb9, 0xee, 0x3d,
  0x00, 0x09, 0x0b, 0xbe, 0x24, 0x46, 0x4d, 0x3e, 0x14, 0x7d, 0xe4, 0x3e,
  0xd7, 0x7e, 0x82, 0x3e, 0x71, 0x87, 0xe8, 0x3d, 0x1c, 0xd5, 0x0e, 0x3e,
  0x4c, 0xe2, 0x95, 0xbe, 0x1c, 0x07, 0x4e, 0x3e, 0x45, 0xf1, 0x8d, 0x3d,
  0xda, 0xe1, 0xee, 0x3e, 0x86, 0xe2, 0xe8, 0xbd, 0xc8, 0xa9, 0xa1, 0x3e,
  0x2b, 0x5c, 0x92, 0x3e, 0x3f, 0x4e, 0x29, 0x3e, 0xcc, 0xa7, 0xba, 0xbe,
  0xe1, 0xaf, 0x8e, 0xbd, 0x86, 0xb4, 0xcc, 0xbd, 0x55, 0x95, 0x9d, 0x3d,
  0x3b, 0x98, 0xf7, 0x3e, 0x8b, 0x42, 0x16, 0xbd, 0x87, 0x54, 0x2b, 0xbc,
  0x19, 0xd1, 0x59, 0xbe, 0x7d, 0xbb, 0x25, 0xbe, 0xc8, 0x53, 0x14, 0xbd,
  0x12, 0x4a, 0x2a, 0x3e, 0x97, 0x01, 0xa0, 0x3e, 0x2a, 0xb7, 0xa6, 0x3e,
  0x7e, 0x98, 0x2a, 0x3d, 0x02, 0xe2, 0x92, 0xbe, 0x61, 0x82, 0xb7, 0xbe,
  0xe3, 0x1a, 0x31, 0xbf, 0x7e, 0xc8, 0xdb, 0xbe, 0x54, 0x63, 0xd3, 0x3d,
  0x70, 0xb5, 0xe0, 0xbc, 0xa0, 0xfa, 0x34, 0xbe, 0xda, 0xae, 0xf7, 0xbc,
  0xf4, 0x84, 0x0a, 0xbf, 0xf5, 0xf3, 0x8b, 0x3e, 0x01, 0x8c, 0x25, 0xbd,
  0x6b, 0xc9, 0xc7, 0xbe, 0xa6, 0x2e, 0xa9, 0xbe, 0x57, 0x7f, 0x10, 0x3e,
  0x30, 0x1c, 0x24, 0x3e, 0xee, 0x05, 0x2a, 0x3e, 0x9e, 0x4a, 0x86, 0xbf,
  0x65, 0x41, 0x2f, 0xbe, 0x1f, 0xf9, 0x81, 0xbe, 0xe6, 0x49, 0xb6, 0x3e,
  0x5a, 0x3a, 0xbb, 0xbf, 0xda, 0xbe, 0x0f, 0x3e, 0x75, 0xaf, 0xc8, 0xbe,
  0xf9, 0xb7, 0x81, 0xbc, 0xf2, 0x6c, 0x2e, 0x3e, 0x77, 0x1c, 0xb3, 0xbe,
  0x48, 0x91, 0x2d, 0xbf, 0x08, 0x8a, 0x1c, 0x3e, 0xa5, 0xe5, 0xd5, 0x3d,
  0xca, 0x7a, 0xaa, 0xbe, 0xf7, 0x34, 0x6e, 0xbe, 0xd4, 0x1d, 0x88, 0x3e,
  0x67, 0xd7, 0xe7, 0xbd, 0xd2, 0xb4, 0xc7, 0x3d, 0x1d, 0x11, 0x26, 0x3e,
  0x21, 0xa7, 0x37, 0xbf, 0x63, 0xf1, 0xfc, 0xbd, 0xe2, 0x9b, 0xbf, 0xbd,
  0xb3, 0xd9, 0x16, 0x3d, 0xaa, 0xbb, 0xe8, 0x3d, 0x26, 0x91, 0x96, 0x3e,
  0x63, 0x67, 0xde, 0xbe, 0x22, 0x7c, 0x0c, 0xbf, 0xa7, 0xfe, 0x8c, 0xbd,
  0x24, 0x70, 0x1d, 0x3e, 0xc8, 0xd9, 0x19, 0x3f, 0x59, 0x10, 0xa1, 0xbd,
  0xfd, 0x0b, 0x30, 0x3e, 0xbf, 0xf6, 0x8a, 0x3d, 0x13, 0x41, 0x06, 0x3d,
  0xa6, 0x3b, 0x36, 0x3d, 0x8e, 0x15, 0x70, 0xbe, 0x31, 0xb0, 0x9d, 0xbe,
  0xde, 0x19, 0x7c, 0xbd, 0x96, 0xa3, 0x15, 0x3f, 0x9d, 0x7f, 0x70, 0x3e,
  0x34, 0xe9, 0x9a, 0x3e, 0xff, 0xfb, 0x66, 0xbe, 0x7b, 0xcc, 0x48, 0xbe,
  0x3c, 0x69, 0xcf, 0xbb, 0x51, 0x70, 0x46, 0x3e, 0x10, 0x75, 0xee, 0x3e,
  0xf2, 0x2e, 0xf3, 0xbc, 0xc8, 0xd0, 0xd2, 0x3d, 0xcf, 0xa8, 0x15, 0x3d,
  0x51, 0x19, 0x9d, 0x3d, 0x3e, 0x02, 0x20, 0xbe, 0xdd, 0x6a, 0x7e, 0xbf,
  0x22, 0xc6, 0xfc, 0xbd, 0x4a, 0x87, 0xa4, 0x3d, 0x2f, 0xd7, 0xaf, 0x3e,
  0x08, 0x4c, 0x07, 0x3f, 0x14, 0x2d, 0x0b, 0xbe, 0xb0, 0x6f, 0x05, 0xbe,
  0x3f, 0xdb, 0x81, 0xbe, 0x26, 0x2c, 0x22, 0x3c, 0xab, 0x0f, 0x3a, 0x3e,
  0xfc, 0x58, 0xd6, 0x3e, 0xc6, 0xc0, 0x99, 0x3e, 0xfa, 0x0e, 0x48, 0xbc,
  0x10, 0xed, 0x30, 0x3c, 0x1d, 0xb7, 0x99, 0x3d, 0x3f, 0x13, 0xcb, 0xbd,
  0xa7, 0x0e, 0x3d, 0xbe, 0x71, 0x26, 0x98, 0x3c, 0x34, 0xd5, 0xd7, 0x3d,
  0xb8, 0x28, 0x9b, 0x3e, 0x60, 0xea, 0xdf, 0x3e, 0x1b, 0x3d, 0xe0, 0xbe,
  0xdd, 0x15, 0xff, 0x3d, 0x49, 0x84, 0xd4, 0xbd, 0x74, 0x4d, 0x6e, 0x3d,
  0xb6, 0xb5, 0x23, 0x3e, 0x8f, 0x9f, 0x09, 0x3f, 0x35, 0xf1, 0x7e, 0x3d,
  0x48, 0xbc, 0xd3, 0x3e, 0x99, 0x27, 0x99, 0xbe, 0x73, 0x05, 0xa0, 0xbd,
  0xdc, 0x5b, 0xfb, 0xbd, 0x3c, 0x24, 0x29, 0x3e, 0xf2, 0xab, 0x24, 0xbe,
  0xdd, 0xf4, 0xa8, 0xbd, 0xe5, 0xe4, 0xdc, 0x3e, 0x92, 0x79, 0x48, 0x3f,
  0x46, 0x02, 0xbf, 0xbe, 0x5d, 0xa0, 0x49, 0x3e, 0x91, 0x7f, 0xe4, 0x3d,
  0x26, 0xc2, 0x33, 0x3d, 0xca, 0xd0, 0xf6, 0xba, 0x04, 0x16, 0xb6, 0xbd,
  0xee, 0xff, 0x47, 0x3e, 0x26, 0x98, 0x5d, 0x3e, 0x21, 0x94, 0xaa, 0xbe,
  0x9a, 0x02, 0x56, 0x3e, 0xe5, 0x02, 0x55, 0xbd, 0xb4, 0x60, 0xc7, 0xbd,
  0x8b, 0xe3, 0x41, 0xbe, 0x96, 0x79, 0x79, 0xbe, 0xd3, 0x11, 0x88, 0x3e,
  0x1f, 0x97, 0x6e, 0x3f, 0x2f, 0xe8, 0x22, 0xbf, 0x97, 0xb3, 0x06, 0x3f,
  0x23, 0x73, 0x4e, 0x3d, 0x54, 0x9b, 0x7f, 0xbe, 0x51, 0xb8, 0x7e, 0xbd,
  0x68, 0x74, 0xd7, 0x3e, 0x1c, 0xb5, 0x40, 0x3e, 0x7d, 0x3f, 0x8a, 0x3e,
  0xa2, 0x3a, 0x83, 0xbe, 0x0f, 0x6f, 0xb3, 0xbd, 0x0b, 0xd8, 0x8c, 0xbd,
  0x6b, 0x2a, 0x55, 0x3e, 0xa0, 0xf9, 0xc2, 0x3c, 0xa0, 0x2f, 0x40, 0xbe,
  0x55, 0x11, 0x38, 0x3e, 0xe8, 0x4c, 0x5f, 0x3f, 0x93, 0xbf, 0x91, 0xbe,
  0x4b, 0x0b, 0xa9, 0x3d, 0x7a, 0x9f, 0x66, 0x3e, 0xa0, 0x2f, 0x85, 0xbe,
  0xee, 0x63, 0x45, 0x3e, 0x9f, 0x52, 0xed, 0xbc, 0xea, 0xd9, 0x9e, 0x3d,
  0x66, 0xfb, 0x98, 0x3e, 0xd0, 0x5f, 0x1d, 0xbe, 0x1d, 0xde, 0xfa, 0x3d,
  0x3a, 0xbe, 0xc6, 0xbd, 0xdb, 0x34, 0xdd, 0x3e, 0xf8, 0xdd, 0x27, 0x3e,
  0x68, 0xf9, 0x52, 0xbd, 0x31, 0x84, 0x08, 0x3d, 0x69, 0x41, 0xfe, 0x3e,
  0x90, 0x95, 0x83, 0x3e, 0x1c, 0xb1, 0x40, 0x3e, 0xdc, 0xa5, 0x81, 0x3e,
  0x4f, 0x50, 0x5c, 0xbe, 0x4c, 0x13, 0x38, 0x3c, 0x2a, 0xa2, 0x21, 0xbe,
  0x91, 0x2b, 0x9c, 0x3e, 0xe6, 0x86, 0x27, 0xbe, 0xbb, 0xd6, 0x83, 0xbe,
  0xa3, 0x67, 0x01, 0xbd, 0xa0, 0x5f, 0x95, 0xbc, 0x5c, 0x1d, 0x34, 0x3a,
  0xb2, 0x0b, 0x51, 0xbe, 0x50, 0x06, 0x32, 0xbd, 0xb4, 0x27, 0xf0, 0xbe,
  0x24, 0x72, 0x73, 0xbf, 0xee, 0x2a, 0x53, 0xbe, 0xd3, 0xd2, 0x18, 0xbe,
  0xbd, 0xee, 0x5d, 0x3e, 0x7f, 0x04, 0x45, 0xbe, 0x80, 0x58, 0x51, 0xbe,
  0x29, 0xcf, 0x60, 0xbe, 0x29, 0x9c, 0x72, 0x3d, 0x2a, 0x50, 0x2c, 0xbf,
  0x77, 0x49, 0xdf, 0xbe, 0x17, 0xbc, 0x2d, 0xbe, 0x5b, 0x6c, 0xcf, 0xbd,
  0x43, 0x69, 0xdc, 0x3d, 0x4d, 0x89, 0x75, 0xbe, 0xa8, 0xaa, 0x5b, 0xbd,
  0xbc, 0xc9, 0x97, 0xbe, 0x8b, 0xdc, 0x6f, 0xbf, 0x08, 0x7a, 0x6e, 0xbc,
  0x31, 0x64, 0x70, 0x3e, 0x0e, 0x62, 0xc6, 0x3e, 0x12, 0xd0, 0x96, 0xbe,
  0xbd, 0x64, 0xfa, 0x3d, 0x39, 0x39, 0x05, 0xbf, 0x0a, 0x42, 0x95, 0x3e,
  0xb3, 0x59, 0x21, 0xbf, 0xd3, 0xc0, 0xa0, 0xbe, 0x5d, 0xc4, 0x7e, 0xbe,
  0x2a, 0x44, 0xa3, 0xbd, 0xbe, 0xca, 0xda, 0x3e, 0x8e, 0x4d, 0x57, 0xbe,
  0x0d, 0xb9, 0x78, 0x3d, 0x01, 0x4c, 0x0b, 0xbf, 0x7a, 0x9e, 0xc6, 0xbf,
  0x33, 0xf9, 0x85, 0xbe, 0x86, 0x98, 0x4f, 0xbe, 0x48, 0x48, 0xf5, 0x3e,
  0xbb, 0xca, 0x94, 0xbe, 0x51, 0x1f, 0xde, 0xbe, 0x2c, 0xed, 0x94, 0xbe,
  0x61, 0x17, 0x85, 0x3e, 0xf6, 0x8f, 0x18, 0xbf, 0x36, 0x81, 0xdc, 0xbe,
  0x00, 0x18, 0x2c, 0xbd, 0x67, 0xee, 0x1f, 0x3d, 0xa0, 0x15, 0x93, 0x3e,
  0x28, 0xad, 0xef, 0xbe, 0x0f, 0x81, 0xcd, 0xbc, 0xd2, 0xa5, 0x11, 0xbf,
  0x01, 0xad, 0x02, 0xc0, 0x21, 0x7b, 0x50, 0xbf, 0x7e, 0x86, 0x98, 0xbe,
  0x6a, 0xa2, 0x27, 0xbe, 0x19, 0xd3, 0xac, 0xbd, 0x3e, 0xa0, 0x92, 0xbe,
  0x27, 0x0f, 0x32, 0xbf, 0x3f, 0x91, 0xd0, 0xbc, 0x14, 0xae, 0xbc, 0xbe,
  0x68, 0x65, 0x2b, 0xbe, 0x24, 0xc4, 0x50, 0xbe, 0x27, 0x53, 0x0c, 0xbd,
  0x8e, 0x95, 0x96, 0x3e, 0xa1, 0x7f, 0x88, 0xbd, 0xee, 0x14, 0x54, 0xbd,
  0x3f, 0x9e, 0xbf, 0xbe, 0xc4, 0x6b, 0x77, 0xbd, 0x71, 0xc3, 0x51, 0xbe,
  0x39, 0x5c, 0x6c, 0xbe, 0x8a, 0x7d, 0x4f, 0xbd, 0x45, 0xf1, 0x21, 0xbe,
  0x6e, 0x06, 0x44, 0xbe, 0x7d, 0x8c, 0x06, 0xbe, 0x8c, 0xb6, 0x51, 0x3b,
  0x38, 0x8e, 0xd7, 0xbe, 0x08, 0x7e, 0x1d, 0xbf, 0x36, 0x41, 0x2b, 0xbd,
  0xdd, 0xe0, 0xa1, 0x3e, 0xf5, 0x43, 0xeb, 0x3d, 0x0c, 0x1d, 0x2d, 0xbf,
  0x1c, 0x96, 0xb7, 0x3d, 0x20, 0xcf, 0x5f, 0xbe, 0xb9, 0x0f, 0x72, 0xbf,
  0xd2, 0xa0, 0x99, 0xbe, 0x24, 0xe0, 0x30, 0xbe, 0x36, 0x1e, 0xd1, 0x3e,
  0x1c, 0x01, 0xc7, 0x3e, 0x96, 0x42, 0x20, 0x3e, 0x87, 0xbf, 0x83, 0x3e,
  0x51, 0xc1, 0x91, 0xbe, 0x85, 0x30, 0xc8, 0xbe, 0xf1, 0x59, 0x84, 0x3e,
  0x38, 0x0c, 0xec, 0xbe, 0x22, 0x8e, 0x74, 0xbe, 0x77, 0x83, 0xc1, 0x3e,
  0x84, 0x75, 0x11, 0x3f, 0xf9, 0xa6, 0x72, 0xbf, 0x97, 0x23, 0x0d, 0x3f,
  0xda, 0xaa, 0x08, 0x3f, 0x5d, 0x18, 0x43, 0xbe, 0x65, 0xd9, 0x4e, 0xbc,
  0x88, 0xe1, 0x04, 0x3e, 0xca, 0x30, 0x29, 0xbe, 0xae, 0x7c, 0x80, 0xbd,
  0x6b, 0x9b, 0xed, 0x3e, 0xd8, 0x64, 0xbe, 0x3c, 0x7e, 0x8c, 0x74, 0x39,
  0x30, 0x10, 0xb2, 0x3d, 0xcd, 0xc8, 0x07, 0xbf, 0xea, 0xd5, 0xab, 0xbd,
  0x3b, 0x37, 0xa4, 0x3b, 0x85, 0x6f, 0xd5, 0x3e, 0x62, 0xcd, 0x21, 0xbf,
  0x8d, 0x73, 0xee, 0xbe, 0x43, 0xf9, 0x2e, 0x3e, 0xe7, 0x88, 0xc1, 0x3d,
  0x9f, 0xed, 0xd4, 0xbe, 0x57, 0x67, 0x53, 0x3e, 0x67, 0x43, 0x18, 0x3d,
  0xa4, 0xfd, 0xcb, 0x3e, 0xc9, 0x62, 0xb9, 0x3d, 0x07, 0xb3, 0xf0, 0xbd,
  0x3c, 0x36, 0xa9, 0xbe, 0x13, 0x67, 0x26, 0x3e, 0x4b, 0x3a, 0xb4, 0xbe,
  0xab, 0x68, 0x28, 0x3d, 0x1c, 0xd5, 0x87, 0x3e, 0x75, 0xbc, 0xb3, 0x3e,
  0xd2, 0xec, 0xc8, 0xbe, 0x15, 0xfe, 0x95, 0xbe, 0x2c, 0x80, 0xba, 0x3e,
  0x93, 0x7e, 0x0b, 0x3f, 0x00, 0xbd, 0xf5, 0x3d, 0xda, 0xee, 0x8a, 0x3d,
  0xca, 0xc6, 0x11, 0x3e, 0xa5, 0x2c, 0xdd, 0xbd, 0xd3, 0xb0, 0xae, 0x3e,
  0xdb, 0xbb, 0xed, 0xbd, 0x00, 0x4b, 0xfa, 0xbd, 0x32, 0xc2, 0x44, 0x3e,
  0x7b, 0xe0, 0x8d, 0x3d, 0xba, 0x47, 0x9b, 0x3d, 0xab, 0x6f, 0xe6, 0x3d,
  0x65, 0x40, 0x9b, 0x3e, 0x1b, 0x4c, 0xbe, 0xbd, 0x15, 0xe2, 0x8b, 0xbe,
  0x7f, 0x93, 0x72, 0xbe, 0x45, 0x0f, 0x16, 0x3e, 0x68, 0xda, 0x9b, 0x3d,
  0x6c, 0x59, 0xa7, 0x3d, 0x29, 0x1f, 0x09, 0x3e, 0xf0, 0xd6, 0x58, 0xbe,
  0xe2, 0x03, 0x64, 0x3e, 0x8e, 0x7b, 0xb2, 0xbd, 0x27, 0xae, 0xe1, 0x3e,
  0xbc, 0x5e, 0xb6, 0xbd, 0x29, 0x0f, 0x61, 0xbe, 0x27, 0x15, 0x39, 0x3d,
  0x66, 0xa5, 0xbb, 0xbd, 0x30, 0x48, 0x9f, 0x3e, 0x06, 0xe2, 0xca, 0x3d,
  0xb5, 0xc0, 0xfb, 0xbd, 0x20, 0x41, 0x16, 0xbe, 0x89, 0x92, 0xfe, 0x3d,
  0xd6, 0x2e, 0xa4, 0x3e, 0x67, 0xa3, 0x1e, 0x3e, 0xd8, 0xf3, 0xa5, 0x3d,
  0x69, 0xd0, 0x25, 0x3e, 0xa1, 0x29, 0x5d, 0x3e, 0x0e, 0x5e, 0x55, 0xbe,
  0xe8, 0x2c, 0xc2, 0x3e, 0xeb, 0x97, 0x7c, 0x3d, 0x76, 0x79, 0xe1, 0x3c,
  0x60, 0x47, 0x8b, 0x3e, 0x1c, 0xf7, 0x3f, 0xbd, 0xb4, 0xce, 0xfd, 0xbb,
  0x1a, 0xf4, 0x9b, 0x3d, 0x9e, 0x5f, 0xf5, 0xbd, 0xf1, 0x67, 0x06, 0x3e,
  0x13, 0x40, 0xb2, 0x3e, 0x5b, 0xdd, 0x5e, 0xbd, 0xd0, 0x79, 0xcd, 0x3e,
  0xee, 0x1c, 0x88, 0x3e, 0xe0, 0x85, 0x8f, 0x3e, 0x5e, 0xdd, 0xde, 0x3e,
  0x94, 0x5c, 0x82, 0xbe, 0x0b, 0x6f, 0x51, 0x3e, 0xef, 0xd4, 0x8c, 0x3e,
  0x85, 0xf8, 0x1a, 0x3c, 0x7e, 0x05, 0x1b, 0x3e, 0x73, 0x0d, 0xcf, 0xbc,
  0xcb, 0x62, 0xd8, 0x3d, 0x1f, 0x65, 0x12, 0x3e, 0x5c, 0x60, 0x88, 0x3b,
  0x74, 0xa7, 0x70, 0x3e, 0xf4, 0x46, 0x00, 0x3f, 0xca, 0xe3, 0x30, 0xbf,
  0xa9, 0x3d, 0xe9, 0x3e, 0xa4, 0x23, 0x0b, 0x3d, 0x2c, 0x0e, 0xaf, 0x3e,
  0x44, 0xf5, 0x2c, 0x3e, 0x5f, 0xb7, 0x83, 0xbe, 0xf7, 0xa2, 0x26, 0x3e,
  0x52, 0x34, 0x2e, 0x3e, 0x2a, 0xa2, 0xe2, 0x3d, 0xdf, 0x48, 0x0b, 0xbd,
  0x1d, 0x06, 0x2b, 0xbe, 0x8c, 0x1a, 0x89, 0x3e, 0x93, 0xb4, 0x4b, 0x3e,
  0x40, 0x1c, 0xf1, 0x3c, 0x0f, 0x02, 0xda, 0x3e, 0xcf, 0xbf, 0x0b, 0x3f,
  0x2c, 0x20, 0x43, 0xbf, 0x24, 0xa0, 0xdc, 0x3e, 0x5c, 0xb6, 0x0f, 0x3e,
  0x41, 0x16, 0xa4, 0x3e, 0xea, 0xc5, 0xb7, 0x3e, 0xe8, 0x2c, 0x8c, 0xbe,
  0x53, 0xc3, 0x07, 0xbd, 0x53, 0x28, 0x93, 0x3e, 0xb2, 0x49, 0xc3, 0x3d,
  0x66, 0x6d, 0xdd, 0x3d, 0xa8, 0xf0, 0x71, 0xbd, 0xc9, 0xbf, 0x8a, 0x3d,
  0x2e, 0xd9, 0xa1, 0x3d, 0x36, 0x6f, 0xb3, 0x3a, 0x0c, 0x7c, 0x95, 0x3e,
  0x0b, 0xc1, 0xdd, 0x3d, 0xe6, 0x8c, 0xc2, 0xbe, 0x9d, 0x5e, 0x01, 0x3f,
  0x18, 0x98, 0x31, 0x3d, 0x0f, 0x81, 0x83, 0x3e, 0x7d, 0x7f, 0x0e, 0x3e,
  0x1a, 0x52, 0xaa, 0xbc, 0x21, 0xdf, 0xe5, 0xbe, 0xea, 0x17, 0x97, 0x3d,
  0x42, 0x16, 0x8d, 0x3e, 0x33, 0x36, 0xa5, 0x3b, 0x49, 0x7a, 0x15, 0x3d,
  0x0c, 0x13, 0xae, 0x3e, 0xa6, 0xfa, 0xe9, 0xbb, 0x7f, 0x7c, 0x3c, 0xbe,
  0x81, 0x77, 0xf8, 0x3c, 0xcb, 0xd9, 0xd8, 0x3e, 0xee, 0x18, 0x02, 0x3e,
  0x09, 0x2a, 0xab, 0x3e, 0xe2, 0xb1, 0xdd, 0xbd, 0xa1, 0x0a, 0x50, 0xbe,
  0x3d, 0xcf, 0x31, 0x3e, 0x4b, 0xfa, 0x92, 0x3d, 0x82, 0xd7, 0x87, 0xbe,
  0x4c, 0x0b, 0x2d, 0x3e, 0xec, 0x94, 0xd7, 0x3e, 0x2f, 0x3b, 0x4a, 0xbd,
  0xd3, 0xf7, 0x6a, 0x3e, 0xb0, 0xc3, 0x49, 0x3e, 0xfa, 0xeb, 0x86, 0xbe,
  0x8a, 0xae, 0x85, 0xbd, 0x47, 0xb5, 0x91, 0xbe, 0xcc, 0xe8, 0x87, 0x3e,
  0x24, 0x67, 0x89, 0xbe, 0xb4, 0x93, 0x8a, 0xbc, 0x4c, 0x0d, 0xc2, 0xbc,
  0x8d, 0x53, 0x3b, 0x3d, 0x93, 0x39, 0x94, 0x3e, 0x08, 0xc5, 0xd2, 0x3e,
  0xb9, 0x21, 0xa7, 0xbe, 0x4d, 0xf9, 0x76, 0xbd, 0x7c, 0xb1, 0x13, 0xbe,
  0x50, 0x34, 0xe3, 0x3d, 0xbe, 0x7d, 0xda, 0x3e, 0x4a, 0x43, 0x9f, 0x3e,
  0xde, 0x13, 0xde, 0xbe, 0x76, 0x28, 0xa6, 0xbc, 0x3d, 0x96, 0xc5, 0x3e,
  0xf6, 0xe7, 0xe0, 0x3c, 0x6e, 0xba, 0xb3, 0xbd, 0xef, 0x7b, 0x7f, 0x3d,
  0x97, 0x44, 0x0a, 0xbe, 0x21, 0x33, 0x51, 0x3d, 0x55, 0xcd, 0x6a, 0xbd,
  0x45, 0xcc, 0x8e, 0x3e, 0x00, 0x54, 0xe8, 0x3c, 0x4f, 0x5d, 0x76, 0x3b,
  0x4c, 0x31, 0x4c, 0xbd, 0xac, 0x79, 0x63, 0xbd, 0x45, 0xf0, 0x7b, 0x3e,
  0xe9, 0x12, 0x07, 0x3f, 0x6a, 0x3d, 0x75, 0xbe, 0xeb, 0x62, 0xc1, 0xbe,
  0x7a, 0x03, 0x43, 0xbc, 0x16, 0x98, 0x6f, 0xbc, 0xd0, 0x05, 0xe6, 0xbf,
  0xaa, 0xc7, 0x6e, 0xbd, 0xc1, 0xe4, 0xf4, 0xbd, 0xe1, 0xe2, 0xe6, 0xbd,
  0xa2, 0x13, 0x1b, 0xbd, 0x5b, 0x3c, 0xcc, 0x3d, 0x39, 0x1e, 0x6b, 0xbe,
  0x57, 0x6f, 0xe5, 0xbc, 0x9e, 0x8d, 0xf8, 0xbd, 0x68, 0x50, 0x9c, 0x3c,
  0xdf, 0x01, 0xc6, 0x3e, 0x26, 0xc2, 0xe7, 0x3e, 0x2e, 0xa1, 0xae, 0x3d,
  0x0a, 0xcd, 0x22, 0xbe, 0x22, 0xb9, 0x6a, 0xbe, 0x33, 0x5d, 0xf8, 0xbd,
  0xf3, 0x99, 0x89, 0xbe, 0x55, 0x08, 0x74, 0x3f, 0x1e, 0xc8, 0xbc, 0x3e,
  0x21, 0xd6, 0xa9, 0xbe, 0x09, 0xb4, 0xc8, 0x3e, 0xf3, 0x92, 0x03, 0xbe,
  0xd6, 0xfc, 0xb1, 0xbe, 0x25, 0x32, 0x85, 0x3e, 0x85, 0x72, 0x20, 0x3d,
  0x73, 0xae, 0x85, 0xbe, 0xa2, 0x46, 0xc7, 0xbd, 0xd1, 0x98, 0xf1, 0x3d,
  0xd7, 0xb9, 0x81, 0xbf, 0x3e, 0x04, 0x6e, 0x3d, 0x4c, 0x1c, 0x8a, 0xbd,
  0xcf, 0xb6, 0xc0, 0xbe, 0x95, 0x12, 0xbd, 0xbe, 0x6b, 0xe1, 0x12, 0xbe,
  0xd7, 0xc9, 0x90, 0x3d, 0x52, 0x99, 0x9b, 0xbe, 0x62, 0x7d, 0x29, 0xbf,
  0xd0, 0x2c, 0xd3, 0x3d, 0x4e, 0x95, 0x9f, 0xbe, 0x0e, 0x16, 0x1d, 0xbf,
  0x78, 0x99, 0xb3, 0xbd, 0xdd, 0xd4, 0x04, 0xbe, 0x35, 0x8b, 0x05, 0x3f,
  0xf3, 0x34, 0xb9, 0xbb, 0xcb, 0x3c, 0x7f, 0xbf, 0x22, 0xbf, 0x51, 0xbe,
  0x7e, 0x5e, 0xd2, 0xbe, 0xfb, 0x02, 0x40, 0x3e, 0x1c, 0xb9, 0x4e, 0x3e,
  0x80, 0x72, 0x48, 0x3e, 0x72, 0x98, 0x76, 0xbd, 0x9c, 0x3c, 0xe7, 0xbb,
  0xf1, 0xf5, 0xaf, 0xbd, 0x7d, 0x95, 0x59, 0x3e, 0x54, 0xfd, 0x8a, 0x3c,
  0x04, 0x3d, 0x8d, 0xbd, 0xcf, 0x02, 0x8b, 0xbd, 0xba, 0x1a, 0x19, 0xbf,
  0xc7, 0x07, 0x20, 0xbe, 0xb8, 0x54, 0x74, 0x3e, 0xa1, 0x67, 0x87, 0x3e,
  0x61, 0x44, 0x7f, 0xbe, 0xb3, 0x5a, 0xed, 0xbc, 0xd9, 0x98, 0x14, 0x3e,
  0xc8, 0x75, 0x17, 0x3e, 0x25, 0x75, 0x8c, 0x3d, 0x2e, 0x17, 0xca, 0x3b,
  0xcd, 0x80, 0x63, 0xbd, 0xa2, 0xe1, 0x93, 0xbc, 0x48, 0xbe, 0xd7, 0x3b,
  0x8d, 0x1e, 0x76, 0x3d, 0x27, 0xb9, 0xfc, 0x3d, 0x25, 0x40, 0x68, 0x3e,
  0x8f, 0xc2, 0x89, 0xbe, 0x1a, 0x43, 0x7b, 0x3d, 0xb8, 0x74, 0xbd, 0x3e,
  0x97, 0xaa, 0xd3, 0x3d, 0x2f, 0x2b, 0xc9, 0xbc, 0x85, 0x62, 0xe6, 0xbb,
  0xcb, 0x72, 0x32, 0xbe, 0xed, 0xd1, 0x2f, 0x3e, 0xbf, 0xd1, 0x5c, 0x3e,
  0x8b, 0xae, 0x21, 0x3e, 0xd2, 0xef, 0x27, 0x3e, 0x99, 0x93, 0x18, 0xbe,
  0xaf, 0x67, 0xc4, 0xbd, 0x63, 0xe6, 0xc8, 0xbe, 0xdf, 0x91, 0xe9, 0xbd,
  0x75, 0x97, 0x78, 0xbe, 0x72, 0x31, 0xb0, 0xbe, 0xcd, 0xf2, 0x7c, 0x3e,
  0x18, 0x50, 0xc2, 0x3e, 0xb6, 0x09, 0xd2, 0x3d, 0xa2, 0xd5, 0x0a, 0xbe,
  0x16, 0x01, 0x99, 0x3e, 0x7a, 0x60, 0x8b, 0x3e, 0x60, 0x31, 0xbd, 0x3d,
  0x1a, 0x97, 0x42, 0x3f, 0x55, 0x18, 0x78, 0xbc, 0x49, 0xf3, 0x19, 0xbd,
  0xdd, 0xd9, 0x32, 0x3e, 0xca, 0xae, 0x7e, 0x3e, 0xa8, 0x10, 0xf3, 0xbe,
  0xd1, 0x62, 0xcc, 0xbb, 0x33, 0xb9, 0x13, 0x3e, 0xba, 0x84, 0x6e, 0x3e,
  0x50, 0x11, 0x87, 0x3e, 0x0a, 0xe2, 0xd6, 0x3e, 0xf0, 0x3d, 0x4c, 0xbe,
  0xa0, 0x80, 0x9c, 0x3c, 0xa6, 0xa9, 0xdc, 0x3e, 0x0a, 0x4f, 0x17, 0xbc,
  0x24, 0x2b, 0x9d, 0x39, 0x2a, 0x15, 0x22, 0x3f, 0x4f, 0x18, 0x16, 0xbc,
  0x77, 0xa6, 0x94, 0x3c, 0x79, 0x1a, 0x55, 0x3e, 0x1f, 0xe2, 0xb6, 0xbd,
  0x88, 0x3d, 0x13, 0xbf, 0x92, 0xf4, 0x62, 0xbe, 0x68, 0xcd, 0xee, 0x3d,
  0x38, 0xbb, 0xac, 0x3e, 0x4b, 0xbb, 0xd9, 0x3e, 0x05, 0x22, 0x08, 0x3f,
  0x31, 0xbd, 0x08, 0xbe, 0xf4, 0x71, 0x07, 0x3e, 0xf5, 0x63, 0x96, 0x3e,
  0x9b, 0x80, 0x39, 0xbe, 0x6b, 0xf8, 0x87, 0xbe, 0x7a, 0xad, 0x21, 0x3f,
  0x80, 0xdb, 0x0b, 0x3d, 0x13, 0x4a, 0x8f, 0x3b, 0xbf, 0xad, 0x14, 0x3e,
  0x69, 0xaf, 0x17, 0xbf, 0x34, 0x08, 0x77, 0xbf, 0x8b, 0xf8, 0xa8, 0xbc,
  0xd9, 0x83, 0x1a, 0x3e, 0x92, 0xef, 0x7d, 0xbd, 0x4d, 0x89, 0xc7, 0x3d,
  0x2d, 0x6b, 0x5f, 0x3e, 0x3e, 0x2f, 0x91, 0xbe, 0x57, 0x7b, 0xb4, 0x3d,
  0xa4, 0x44, 0x64, 0xbd, 0xef, 0xcf, 0xfa, 0xbd, 0xf3, 0xbf, 0x83, 0x3e,
  0xe9, 0x46, 0x1e, 0x3f, 0x76, 0x35, 0xe0, 0x3d, 0xeb, 0xab, 0x8b, 0xbd,
  0x68, 0xf6, 0xd1, 0x3e, 0x13, 0x13, 0x0a, 0xbe, 0x2a, 0x7a, 0x85, 0xbe,
  0x32, 0x26, 0x84, 0x3e, 0x59, 0x83, 0x1b, 0xbe, 0x0b, 0x6a, 0xb4, 0x3d,
  0xd3, 0x2e, 0x59, 0x3e, 0x72, 0x28, 0x03, 0x3e, 0xe5, 0x71, 0x1b, 0xbf,
  0x37, 0x06, 0x8a, 0x3d, 0xe8, 0xef, 0x03, 0x3f, 0x07, 0x2b, 0x3c, 0x3e,
  0x11, 0xf4, 0xbe, 0xbe, 0x5a, 0xdf, 0x59, 0x3e, 0x26, 0x90, 0x78, 0x3c,
  0x0e, 0xa9, 0x5c, 0x3e, 0xa4, 0xe0, 0x12, 0x3e, 0xaf, 0x8a, 0x17, 0x3e,
  0x9e, 0x21, 0x0f, 0x3d, 0xaa, 0xb0, 0x82, 0x3d, 0xe6, 0xfa, 0x9f, 0xbe,
  0xca, 0x8f, 0xb4, 0xbe, 0x12, 0xe3, 0x35, 0xbd, 0x5d, 0xe6, 0x91, 0x3e,
  0xd8, 0xb4, 0x1b, 0xbf, 0x6c, 0x07, 0x40, 0xbd, 0x5d, 0x9b, 0x9c, 0xbe,
  0x52, 0x5e, 0x7c, 0xbc, 0x14, 0x9e, 0x8e, 0xbe, 0x63, 0x73, 0x36, 0x3f,
  0x68, 0x11, 0x6c, 0xbb, 0x6a, 0x48, 0x97, 0x3d, 0x9a, 0xed, 0x28, 0x3e,
  0xa4, 0x92, 0xeb, 0x3d, 0xc9, 0xb9, 0x8e, 0xbe, 0xfb, 0xb3, 0xa0, 0x3d,
  0x28, 0x49, 0xde, 0x3e, 0x97, 0x06, 0xc1, 0x3a, 0x25, 0xf7, 0xec, 0x3d,
  0xb6, 0x5a, 0x31, 0x3e, 0x67, 0x48, 0x6f, 0x3e, 0x3e, 0x8a, 0x45, 0xbd,
  0xcc, 0xea, 0x86, 0x3d, 0x4d, 0x44, 0x54, 0x3d, 0x91, 0x40, 0x84, 0xbe,
  0x1c, 0x69, 0x03, 0x3f, 0xc5, 0x02, 0x8b, 0xbd, 0x0a, 0xd9, 0x8e, 0x3d,
  0xc3, 0x25, 0xdb, 0xbd, 0x9b, 0x50, 0x7c, 0xbe, 0x19, 0xb5, 0x43, 0xbf,
  0x7b, 0xac, 0x54, 0xbd, 0xe2, 0xa0, 0xe2, 0xbe, 0x2e, 0x41, 0x9e, 0xbd,
  0x43, 0x47, 0xe5, 0x3e, 0x7f, 0x66, 0xc5, 0x3d, 0x97, 0x3e, 0xbb, 0xbe,
  0x4f, 0x26, 0x84, 0xbd, 0x41, 0xc3, 0x80, 0x3e, 0x59, 0x21, 0x7d, 0xbc,
  0xd1, 0x48, 0xa2, 0x3e, 0x43, 0xcd, 0xdd, 0xbb, 0x0d, 0x45, 0x60, 0xbb,
  0xb9, 0x7f, 0xa6, 0x3e, 0x01, 0xde, 0xdb, 0x3d, 0x1a, 0x31, 0xbd, 0xbe,
  0xa4, 0x3e, 0x2a, 0xbf, 0xfc, 0x65, 0x2b, 0xbe, 0x26, 0x98, 0x34, 0xbf,
  0x03, 0xfe, 0xc1, 0x3d, 0x4c, 0xc9, 0xa7, 0x3e, 0xce, 0x9b, 0x52, 0x3e,
  0xae, 0xbd, 0x14, 0xc0, 0x04, 0x09, 0xbc, 0x3d, 0x52, 0xd1, 0x5f, 0x3d,
  0x6d, 0x8c, 0xe2, 0xbd, 0xcf, 0x81, 0x40, 0xbf, 0x2a, 0x40, 0xa9, 0xbe,
  0x64, 0xd7, 0x69, 0xbd, 0xdb, 0xe8, 0x9f, 0xbb, 0xeb, 0x40, 0x82, 0x3d,
  0xab, 0x0f, 0x04, 0x3e, 0x2c, 0x9f, 0x20, 0xbf, 0x0f, 0xeb, 0xba, 0xbe,
  0xde, 0x92, 0x94, 0xbe, 0xe0, 0xe1, 0xad, 0xbd, 0x0e, 0xc5, 0xad, 0x3e,
  0x6d, 0x5f, 0xba, 0xbd, 0x00, 0xd5, 0x26, 0xbf, 0xa9, 0x37, 0x18, 0x3e,
  0x7f, 0x2f, 0x88, 0x3d, 0x97, 0x6e, 0x2f, 0x3d, 0xcc, 0xd4, 0x23, 0x3f,
  0xb0, 0x1c, 0x9c, 0xbe, 0xbb, 0x39, 0x7c, 0xbf, 0x0f, 0xeb, 0xa1, 0xbe,
  0x6c, 0xa2, 0x11, 0xbf, 0xb5, 0xb9, 0xa5, 0x3e, 0xff, 0xca, 0xb1, 0xbe,
  0x8f, 0x6e, 0x8e, 0xbe, 0x2a, 0xcb, 0xca, 0xbe, 0xb3, 0x3b, 0x9c, 0x3e,
  0xf9, 0x3b, 0xe7, 0xbd, 0xb8, 0x24, 0x59, 0xbf, 0xba, 0x6e, 0x95, 0x3e,
  0x54, 0x33, 0x09, 0xbf, 0x6d, 0x35, 0x6b, 0xbd, 0x0d, 0xc1, 0x6e, 0xbe,
  0xa0, 0x99, 0xa2, 0x3e, 0x39, 0x36, 0x1e, 0x3e, 0x1c, 0x1b, 0x87, 0x3e,
  0x01, 0x0c, 0x90, 0x3e, 0xe5, 0x27, 0xca, 0xbe, 0x7d, 0x11, 0x86, 0xbe,
  0x92, 0x1c, 0x8d, 0xbe, 0xe3, 0x95, 0x5b, 0xbe, 0x3e, 0xb0, 0x15, 0x3e,
  0x73, 0x9d, 0xed, 0x3e, 0x0e, 0x9e, 0x2f, 0xbe, 0xa1, 0xca, 0xec, 0xbe,
  0xef, 0xd5, 0x89, 0x3e, 0x2f, 0x56, 0xad, 0xbd, 0x53, 0xb2, 0x14, 0xbe,
  0x1e, 0x06, 0x4c, 0xbf, 0xfe, 0x42, 0x8b, 0xbf, 0x85, 0xd0, 0x6e, 0x3e,
  0x6d, 0x46, 0x91, 0x3d, 0x39, 0xfb, 0x22, 0xbf, 0x1b, 0x17, 0xb2, 0xbe,
  0x6f, 0x3c, 0x82, 0x3d, 0x21, 0x07, 0x78, 0x3e, 0x55, 0x4e, 0x01, 0xbf,
  0x56, 0x8c, 0xa3, 0x3e, 0x64, 0x9b, 0x6c, 0x3c, 0xb4, 0x71, 0x0f, 0xbd,
  0x37, 0x7c, 0x35, 0xbe, 0xc6, 0x66, 0x98, 0x3e, 0x8e, 0xc8, 0x01, 0xbe,
  0xf7, 0xdb, 0x1d, 0xbf, 0xf5, 0x2d, 0x1a, 0xbd, 0xda, 0x0b, 0xef, 0xbe,
  0x9c, 0xd4, 0xa5, 0x3e, 0xdf, 0x7c, 0x56, 0x3d, 0x58, 0x2d, 0xae, 0x3e,
  0x31, 0x1c, 0x1c, 0xbe, 0x86, 0x63, 0x13, 0x3e, 0xdf, 0xd4, 0x9c, 0xbe,
  0xf0, 0x2d, 0x9f, 0x3e, 0x3c, 0x34, 0xc1, 0xbd, 0xf5, 0x71, 0xa2, 0xbe,
  0xca, 0xd2, 0xcf, 0x3d, 0x0b, 0xad, 0xff, 0xbe, 0xf2, 0xfa, 0xd0, 0x3e,
  0xde, 0x06, 0x12, 0x3f, 0x94, 0x4a, 0x32, 0xbe, 0x61, 0xa4, 0xa5, 0xbc,
  0x7c, 0xef, 0x3d, 0xbd, 0x8b, 0xd0, 0xcd, 0xbf, 0x18, 0x45, 0xd3, 0xbd,
  0x2c, 0xe7, 0xae, 0xbd, 0x98, 0x03, 0x20, 0x3b, 0xe4, 0xb6, 0xd3, 0x3c,
  0xd3, 0x65, 0x05, 0xbf, 0x04, 0xd0, 0x34, 0x3e, 0xe1, 0x61, 0x39, 0xbe,
  0x43, 0x22, 0xd6, 0xbe, 0xd3, 0x8a, 0x03, 0x3e, 0x5d, 0x69, 0x98, 0xbd,
  0x81, 0x8a, 0xa5, 0xbe, 0x3c, 0xe5, 0xa3, 0xbd, 0xa1, 0xba, 0x15, 0xbe,
  0xd0, 0xe5, 0x17, 0x3e, 0x8f, 0xb2, 0xb0, 0x3e, 0xf3, 0xe3, 0x2c, 0xbf,
  0x16, 0x8c, 0xb8, 0xbd, 0xf8, 0x3f, 0x58, 0xbe, 0xa9, 0x4b, 0xf4, 0x3d,
  0x95, 0x53, 0x8e, 0xbd, 0xca, 0x05, 0x35, 0x3e, 0xac, 0x43, 0xbd, 0xbd,
  0x39, 0x42, 0xfd, 0xbc, 0x98, 0x2c, 0xec, 0xbe, 0xa4, 0xeb, 0x9f, 0x3e,
  0xd4, 0xb0, 0x72, 0x3d, 0xce, 0xea, 0x8a, 0xbd, 0x0d, 0xc1, 0xc3, 0xbd,
  0x79, 0x32, 0x84, 0xbf, 0x67, 0x72, 0x9a, 0x3c, 0x9e, 0xa2, 0x18, 0xbf,
  0x33, 0x1e, 0x1c, 0xbf, 0xb5, 0x0a, 0x89, 0x3d, 0x60, 0xcc, 0x87, 0x3e,
  0xcf, 0xeb, 0xe2, 0x3e, 0xf9, 0x69, 0x51, 0x3e, 0x8f, 0xa2, 0x94, 0x3e,
  0x0f, 0x7b, 0x0d, 0xbd, 0xf0, 0x83, 0x94, 0xbe, 0x6e, 0x67, 0xb6, 0xbd,
  0xfb, 0xef, 0x0d, 0xbd, 0x8c, 0x89, 0xb3, 0x3d, 0x29, 0x41, 0x7d, 0xbe,
  0x4f, 0x24, 0xb5, 0xbd, 0xc8, 0xd0, 0xf8, 0xbe, 0xaf, 0xc2, 0x4b, 0x3e,
  0x9d, 0x3f, 0x8e, 0xbe, 0x0c, 0xfe, 0x39, 0xbe, 0xdd, 0xa3, 0x25, 0x3d,
  0xa3, 0xb3, 0x82, 0x3e, 0xf3, 0xa8, 0x20, 0x3e, 0xf2, 0x3e, 0x10, 0x3e,
  0xa4, 0x2c, 0x5d, 0xbc, 0xeb, 0x6e, 0x94, 0xbe, 0xd0, 0xd4, 0xb9, 0xbe,
  0x26, 0xf8, 0x11, 0x3e, 0xc8, 0x94, 0x39, 0xbd, 0xe2, 0x5c, 0x0e, 0xbe,
  0x4f, 0x16, 0x23, 0xbe, 0x50, 0xb2, 0x7f, 0xbd, 0x86, 0x89, 0xd6, 0x3e,
  0x2b, 0xe1, 0x6c, 0x3d, 0xb7, 0xbd, 0x2a, 0xbf, 0xea, 0x38, 0x39, 0xbe,
  0x90, 0xa7, 0xa7, 0xbc, 0xcd, 0x8e, 0x82, 0xbd, 0x32, 0xf9, 0x2e, 0x3e,
  0xd4, 0x56, 0xcb, 0x3e, 0x3e, 0xec, 0x31, 0x3e, 0x78, 0x5c, 0xa2, 0xbe,
  0xfc, 0xdc, 0x51, 0xbd, 0x00, 0xf4, 0x56, 0xbe, 0x13, 0x67, 0x54, 0xbe,
  0xa5, 0x87, 0xd9, 0x3d, 0xae, 0xa7, 0xa2, 0xbd, 0xac, 0x21, 0x0f, 0xbe,
  0xfc, 0x98, 0xd2, 0xbd, 0x79, 0xe0, 0x70, 0xbd, 0xd9, 0x57, 0xc5, 0x3e,
  0x07, 0xd2, 0xf9, 0xbe, 0x21, 0xa6, 0xc1, 0x3d, 0x2e, 0x5e, 0x58, 0x3c,
  0xe4, 0x95, 0xe3, 0xbe, 0x3a, 0x54, 0x05, 0xbe, 0x05, 0x34, 0x27, 0x3d,
  0xea, 0x09, 0x16, 0xbe, 0x25, 0x7d, 0xbb, 0xbe, 0x61, 0x9c, 0x6c, 0x3d,
  0x74, 0x67, 0xa7, 0xbd, 0xcd, 0xba, 0x2d, 0xbf, 0xcb, 0x03, 0x21, 0xbe,
  0xfc, 0x33, 0x9b, 0xbe, 0xf9, 0x46, 0x02, 0xbf, 0x67, 0xf7, 0xc3, 0xbe,
  0xad, 0x36, 0x85, 0x3e, 0xbb, 0x45, 0x01, 0xbf, 0xc4, 0xe1, 0xe5, 0xbb,
  0x49, 0x02, 0x80, 0x3e, 0x5f, 0x43, 0x62, 0xbf, 0xe0, 0x3e, 0xec, 0xba,
  0x8f, 0x51, 0x3d, 0xbf, 0x53, 0x69, 0x65, 0x3d, 0xb7, 0x37, 0x16, 0x3c,
  0xc4, 0xc5, 0x27, 0x3e, 0x85, 0xef, 0xaa, 0x3c, 0xf8, 0xd7, 0xbc, 0xbe,
  0xb7, 0x06, 0x20, 0xbe, 0xf0, 0xd6, 0x24, 0xbe, 0xf4, 0xc0, 0x0a, 0xbf,
  0x32, 0xc5, 0x2e, 0xbe, 0xcf, 0xf5, 0x01, 0x3f, 0x10, 0xad, 0x75, 0xbe,
  0x91, 0xe6, 0x18, 0x3e, 0x63, 0x03, 0x8d, 0x3d, 0x2b, 0xd4, 0xc0, 0xbe,
  0x58, 0x89, 0x81, 0xbe, 0xe8, 0x41, 0x2a, 0x3e, 0xdd, 0x9d, 0x15, 0xbe,
  0xe0, 0x70, 0xa0, 0xbd, 0x1f, 0x99, 0xcf, 0x3e, 0xe5, 0x6c, 0x1c, 0xbe,
  0x97, 0xc7, 0x96, 0xbe, 0x7f, 0xc8, 0x53, 0x3e, 0x39, 0xdc, 0x2a, 0xbe,
  0x14, 0xf7, 0x1c, 0xbb, 0x0e, 0x73, 0x35, 0xbe, 0x2b, 0x0b, 0xd3, 0x3e,
  0x08, 0x63, 0x15, 0xbc, 0xff, 0x14, 0xb2, 0x3d, 0x63, 0x28, 0xf8, 0xbc,
  0xfa, 0x73, 0x8c, 0xbd, 0x18, 0x8f, 0x00, 0xbf, 0x42, 0xf6, 0xa0, 0x3d,
  0xd5, 0x73, 0xed, 0xbe, 0xfb, 0x94, 0xc7, 0xbd, 0x50, 0x58, 0x02, 0x3f,
  0x54, 0xff, 0x3c, 0xbc, 0x57, 0x44, 0x15, 0xbf, 0x4f, 0x10, 0x8f, 0x3c,
  0x66, 0x96, 0x66, 0x3e, 0x76, 0x42, 0x38, 0xbd, 0xbb, 0xb9, 0x5c, 0x3d,
  0x92, 0x71, 0xa0, 0x3e, 0xb5, 0xbe, 0x81, 0x3d, 0x6f, 0xb8, 0x8e, 0x3e,
  0xd6, 0x67, 0x59, 0x3e, 0x04, 0x6f, 0x3e, 0x3d, 0xfe, 0xb8, 0x9c, 0xbe,
  0x4d, 0x4d, 0x27, 0x3e, 0xfc, 0xcb, 0x17, 0xbe, 0x71, 0x8b, 0x2a, 0x3e,
  0x03, 0x0d, 0x26, 0x3e, 0x7c, 0xd3, 0x59, 0xbc, 0xdd, 0xb4, 0x9d, 0xbe,
  0x66, 0xe8, 0xac, 0xbd, 0x9e, 0xc1, 0x41, 0x3e, 0xf6, 0x0d, 0x20, 0xbc,
  0xc4, 0x02, 0x97, 0xbe, 0xe0, 0x22, 0x54, 0xbe, 0x8f, 0x81, 0x23, 0xbf,
  0xfd, 0x13, 0x22, 0x3e, 0xdc, 0x4d, 0x4d, 0x3d, 0x7b, 0x95, 0xed, 0xbe,
  0x5c, 0xba, 0x81, 0x3d, 0x76, 0x79, 0xd6, 0xbd, 0x2d, 0x85, 0x8f, 0xbd,
  0xbd, 0xa7, 0xda, 0xbe, 0xb5, 0xe7, 0x88, 0x3e, 0xd9, 0xdd, 0xec, 0xbe,
  0x35, 0xa4, 0x20, 0x3d, 0x0d, 0x7a, 0xb5, 0xbe, 0xc8, 0xcb, 0xe9, 0xbc,
  0x44, 0x31, 0xd2, 0x3e, 0xce, 0x12, 0xb0, 0x3d, 0x20, 0xdf, 0xe1, 0x3c,
  0x10, 0x9e, 0x1f, 0xbe, 0x8d, 0xff, 0x8a, 0x3d, 0x8d, 0xc1, 0x2b, 0x3e,
  0xc3, 0x57, 0x07, 0x3e, 0x8c, 0xbc, 0x72, 0xbe, 0xad, 0xc7, 0xed, 0x3c,
  0x2e, 0x6b, 0xc8, 0x3d, 0xb8, 0xaa, 0x2a, 0xbd, 0xc4, 0x49, 0x99, 0x3e,
  0xfe, 0x8e, 0x9d, 0xbd, 0xc3, 0x03, 0x42, 0x3d, 0x3e, 0xf1, 0x0d, 0xbf,
  0xc8, 0x4c, 0x56, 0x3e, 0xf7, 0x80, 0x84, 0x3e, 0x4e, 0xe5, 0xdc, 0x3d,
  0xbd, 0x53, 0x3a, 0xbe, 0x4f, 0xc5, 0xf8, 0x3c, 0x5d, 0x1b, 0x3d, 0xbd,
  0x62, 0xeb, 0x88, 0x3e, 0xcc, 0x7e, 0x03, 0xbd, 0x53, 0x59, 0x95, 0xbe,
  0xeb, 0x09, 0x2b, 0xbe, 0x67, 0xb1, 0x07, 0x3e, 0xb8, 0x75, 0x54, 0xbe,
  0x4c, 0x90, 0xf4, 0x3e, 0x89, 0xde, 0x98, 0x3d, 0xcf, 0x83, 0x89, 0xbc,
  0x9b, 0x38, 0xf5, 0xbe, 0x04, 0xcf, 0x7f, 0xbd, 0x66, 0x0d, 0x45, 0x3e,
  0x55, 0x0c, 0x01, 0x3e, 0x60, 0xbb, 0x0f, 0xbe, 0xbf, 0x94, 0xbb, 0x3d,
  0xa1, 0xc6, 0xba, 0xbc, 0xf1, 0x87, 0x40, 0x3e, 0x48, 0x80, 0x4f, 0x3e,
  0xf8, 0x77, 0x84, 0x3e, 0x8e, 0xb3, 0xc8, 0xbd, 0xa8, 0x57, 0x77, 0x3d,
  0x71, 0xdb, 0x32, 0xbf, 0xc5, 0x0a, 0x35, 0x3f, 0x2c, 0x7f, 0x73, 0x3e,
  0x85, 0x7e, 0x95, 0x3d, 0xed, 0xd6, 0x24, 0xbf, 0xc7, 0x4d, 0x0c, 0xbe,
  0x91, 0x8b, 0x30, 0x3f, 0x0b, 0xbe, 0x8f, 0x3d, 0xa5, 0x68, 0xa1, 0x3e,
  0x42, 0x17, 0x5c, 0xbe, 0x3d, 0xc6, 0xec, 0xbc, 0x56, 0x30, 0x2c, 0x3d,
  0xf0, 0x0a, 0x3a, 0x3e, 0x77, 0x3e, 0xe1, 0xbd, 0x25, 0xe6, 0x8d, 0xbe,
  0x81, 0x45, 0xd5, 0x3d, 0xc2, 0x9e, 0xcb, 0xbd, 0x8d, 0x9c, 0xfb, 0x3e,
  0xa0, 0x50, 0x1d, 0x3e, 0x7d, 0xc4, 0xc0, 0x3c, 0x18, 0x9e, 0xc6, 0xbe,
  0x58, 0xfa, 0x5d, 0x3e, 0x7f, 0xee, 0xf6, 0x3e, 0x18, 0xc2, 0x23, 0x3f,
  0xe0, 0x7e, 0xa1, 0x3e, 0x43, 0xde, 0x09, 0xbf, 0xee, 0x3b, 0xc2, 0xbe,
  0x83, 0x1f, 0x7a, 0xbe, 0x0d, 0x77, 0xb6, 0x3e, 0x7b, 0x78, 0xf7, 0x3c,
  0x0a, 0x71, 0x78, 0x3d, 0xe1, 0x99, 0xbe, 0xbe, 0xa3, 0x8f, 0x83, 0xbf,
  0x49, 0x0f, 0x71, 0x3e, 0xc3, 0x40, 0x88, 0x3e, 0x07, 0x1a, 0xb3, 0x3d,
  0xd3, 0x8c, 0xae, 0xbd, 0x52, 0x19, 0xca, 0xbe, 0xf5, 0xef, 0x72, 0xbf,
  0xf8, 0x83, 0x8d, 0xbe, 0xea, 0x4c, 0x28, 0x3f, 0x76, 0xed, 0x91, 0xbe,
  0xf8, 0xd3, 0x75, 0xbe, 0x6d, 0x76, 0xf6, 0xbe, 0x0d, 0x9e, 0xf7, 0x3d,
  0x81, 0xcd, 0x2e, 0x3e, 0xd3, 0xbb, 0x48, 0xbe, 0xe1, 0xa9, 0x3f, 0xbf,
  0xb2, 0x03, 0x09, 0xbe, 0x61, 0xd7, 0x4c, 0xbe, 0xae, 0x6c, 0x7c, 0x3e,
  0x35, 0x0d, 0x73, 0x3d, 0x11, 0x27, 0xbe, 0xbd, 0x0b, 0x4a, 0x61, 0xbf,
  0xcc, 0x53, 0xc4, 0xbc, 0x04, 0x95, 0x6b, 0xbe, 0xfc, 0xf8, 0x6d, 0x3e,
  0x73, 0x8d, 0x4b, 0xbe, 0x97, 0x6e, 0x8f, 0xbd, 0x48, 0x13, 0xd5, 0xbe,
  0xbf, 0x52, 0x16, 0xbf, 0x22, 0x2b, 0x49, 0x3e, 0x25, 0x3f, 0x75, 0xbf,
  0x07, 0x8a, 0xeb, 0xbe, 0xc9, 0xcd, 0xd2, 0x3a, 0x1f, 0x8f, 0x88, 0xbe,
  0x90, 0xdf, 0x83, 0xbd, 0xf5, 0xf1, 0xc7, 0xbe, 0xa8, 0xd0, 0xd5, 0x3e,
  0x44, 0x8c, 0x23, 0xbf, 0x08, 0x24, 0x98, 0xbe, 0xd3, 0x80, 0x9d, 0xbe,
  0x53, 0x3b, 0x3e, 0xbf, 0x14, 0x0d, 0x74, 0xbe, 0xf8, 0xff, 0x10, 0xbe,
  0xa5, 0x7a, 0x28, 0xbf, 0xbb, 0x47, 0xcd, 0xbe, 0x89, 0xda, 0x46, 0x3e,
  0xd2, 0x60, 0x19, 0x3d, 0xc7, 0x87, 0x72, 0x3c, 0x62, 0x4d, 0xe6, 0x3d,
  0xb7, 0x6f, 0x45, 0xbe, 0xdb, 0x0a, 0x16, 0xbe, 0x40, 0xef, 0xa0, 0xbe,
  0xc7, 0x4a, 0xea, 0x3d, 0x64, 0x3c, 0x38, 0xbf, 0xd4, 0x22, 0xb8, 0x3c,
  0xb5, 0xf7, 0x42, 0x3d, 0x48, 0x30, 0x73, 0x3d, 0x68, 0x8e, 0x1f, 0xbf,
  0xfa, 0x13, 0x78, 0x3c, 0x4c, 0x51, 0xf1, 0x3e, 0xcd, 0x18, 0x93, 0xbe,
  0x42, 0xf4, 0xdc, 0xbd, 0x5a, 0xa3, 0x5d, 0xbe, 0xb7, 0x2d, 0xcd, 0x3d,
  0x1e, 0xf8, 0x71, 0x3e, 0x65, 0x1c, 0x9b, 0x3e, 0x64, 0x77, 0x03, 0xbe,
  0x7a, 0x9f, 0x76, 0xbc, 0x2a, 0xe6, 0x38, 0xbe, 0x6e, 0x47, 0xe5, 0xbc,
  0x5e, 0x18, 0xeb, 0x3e, 0xf5, 0x49, 0x32, 0x3e, 0xe1, 0x17, 0xc2, 0x3b,
  0x58, 0x33, 0x9c, 0x3e, 0x9a, 0xcf, 0x0e, 0xbe, 0xe2, 0xc1, 0x93, 0x3e,
  0x68, 0x2e, 0x03, 0x3e, 0x5e, 0x1f, 0x5c, 0xbe, 0x7e, 0x3e, 0x7e, 0x3d,
  0x49, 0xef, 0xac, 0x3c, 0x49, 0x32, 0xc5, 0x3e, 0x3f, 0x13, 0x87, 0x3e,
  0x9d, 0xca, 0xf9, 0xbe, 0xa3, 0xbe, 0x87, 0xbd, 0xa0, 0xa3, 0x3a, 0xbe,
  0x68, 0x27, 0xb5, 0xbd, 0x37, 0x48, 0x34, 0xbd, 0x36, 0x11, 0xe7, 0x3d,
  0xb8, 0xc9, 0x17, 0xb8, 0x08, 0x86, 0xc8, 0xbe, 0x46, 0x41, 0x01, 0xbb,
  0x25, 0x05, 0xa6, 0x3e, 0x47, 0x3b, 0x2d, 0x3e, 0x02, 0xd2, 0x14, 0xbe,
  0x94, 0x24, 0x0e, 0xbe, 0xfa, 0x60, 0x5c, 0xbd, 0xcc, 0x4d, 0x1a, 0xbf,
  0x2a, 0xc7, 0x3b, 0x3e, 0x47, 0xb1, 0xaa, 0xbd, 0x0c, 0x38, 0x21, 0x3e,
  0x1d, 0xfa, 0x1b, 0xbf, 0x6d, 0x55, 0x3c, 0xbe, 0xaf, 0xe4, 0xdd, 0x3e,
  0x55, 0x62, 0x16, 0x3d, 0xd7, 0xe1, 0xd6, 0xbd, 0x73, 0x63, 0x18, 0x3e,
  0x5f, 0x7e, 0x4a, 0x3d, 0x7b, 0x63, 0x66, 0x3e, 0x32, 0x36, 0x2d, 0xbd,
  0x35, 0x46, 0xc1, 0xbd, 0x51, 0x07, 0xc7, 0xbe, 0xaf, 0x31, 0xd9, 0x3d,
  0x9d, 0xdf, 0xf3, 0xbe, 0x5a, 0x12, 0x8a, 0x3e, 0x75, 0x80, 0xfb, 0x3c,
  0x84, 0x09, 0xc9, 0x3c, 0x24, 0xd1, 0x32, 0xbf, 0x33, 0x24, 0xa7, 0x3d,
  0x87, 0x87, 0x86, 0xbb, 0xa6, 0x30, 0x23, 0xbd, 0x41, 0x04, 0x40, 0xbf,
  0x10, 0x3a, 0x98, 0xbe, 0x66, 0xd4, 0x3f, 0xbe, 0x9e, 0xb2, 0x6d, 0x3e,
  0x74, 0x13, 0x7d, 0x3e, 0xde, 0x59, 0xb1, 0xbd, 0xe9, 0x36, 0xcf, 0x3e,
  0xe2, 0x43, 0xdd, 0xbe, 0x73, 0x52, 0x8d, 0xbf, 0x73, 0xef, 0xbd, 0x3e,
  0x22, 0x75, 0x7d, 0x3e, 0x9e, 0x72, 0xa0, 0xbd, 0xcf, 0x6a, 0xc8, 0xbe,
  0xf8, 0x39, 0xdc, 0xbd, 0x90, 0xdb, 0xb6, 0xbe, 0x86, 0xe6, 0x9f, 0xbe,
  0xf0, 0x4e, 0x6f, 0x3e, 0x1b, 0x02, 0x73, 0x3e, 0x1e, 0x45, 0xe2, 0x3e,
  0xac, 0xc8, 0x07, 0xbd, 0x84, 0x1b, 0x99, 0x3e, 0x8c, 0x38, 0x46, 0xbc,
  0xd3, 0x79, 0x81, 0x3d, 0xe5, 0x15, 0x9d, 0xbe, 0x84, 0x97, 0x00, 0xbf,
  0xbd, 0x78, 0x06, 0xbe, 0x05, 0x04, 0xe4, 0x3e, 0x4a, 0xa5, 0x38, 0xbe,
  0x50, 0x3b, 0x04, 0xbe, 0xe8, 0x52, 0x94, 0x3b, 0xbe, 0x20, 0x1e, 0xbe,
  0x3e, 0xcd, 0xcb, 0xbe, 0x93, 0x97, 0xa6, 0x3d, 0xdd, 0x54, 0xa0, 0x3e,
  0x57, 0xe5, 0x79, 0x3e, 0xfc, 0x44, 0x3e, 0xbf, 0xd5, 0x35, 0x27, 0xbe,
  0x62, 0x90, 0xe0, 0x3d, 0x2a, 0x2d, 0x35, 0x3e, 0x3d, 0x98, 0x48, 0xbe,
  0x28, 0x06, 0x13, 0x3d, 0x12, 0xcc, 0x37, 0xbe, 0x70, 0x6a, 0x13, 0x3f,
  0x45, 0xad, 0xdb, 0x3c, 0x97, 0x85, 0x24, 0x3e, 0xbc, 0x89, 0xf2, 0xbe,
  0xbc, 0xd1, 0x35, 0xbf, 0xa2, 0x24, 0xd7, 0xbe, 0xd8, 0xe6, 0x19, 0x3f,
  0x27, 0xb2, 0x59, 0x3e, 0x94, 0xcc, 0x74, 0xbd, 0xc9, 0x82, 0xbb, 0xbd,
  0x8b, 0xa4, 0x66, 0xbf, 0x71, 0x32, 0x3a, 0xbd, 0x5f, 0xd1, 0x05, 0xbe,
  0x1a, 0x5d, 0xf7, 0xbb, 0x58, 0xc2, 0x77, 0xbd, 0xce, 0x14, 0xa8, 0x3e,
  0x70, 0x83, 0x49, 0x3e, 0x38, 0xf6, 0x85, 0x3e, 0x01, 0x7f, 0xb8, 0x3e,
  0xe9, 0x31, 0x00, 0xbf, 0x36, 0x6d, 0xaf, 0xbf, 0xc0, 0xf8, 0x67, 0x3e,
  0xcb, 0x33, 0x1a, 0x3f, 0x14, 0x3c, 0x00, 0x3e, 0x2e, 0x95, 0xe2, 0xbc,
  0x7c, 0x45, 0x95, 0xbd, 0x6f, 0x11, 0x51, 0xbf, 0x3a, 0x81, 0x69, 0xbe,
  0x73, 0x5c, 0xc2, 0x3c, 0x80, 0xa7, 0x89, 0xbe, 0xd5, 0x62, 0x1c, 0x3e,
  0xed, 0x76, 0x3e, 0x3e, 0xd5, 0x1f, 0x88, 0x3d, 0x82, 0xd7, 0x2a, 0x3d,
  0xf2, 0xf0, 0x81, 0x3e, 0xba, 0xba, 0xe8, 0xbe, 0x12, 0x4b, 0x4f, 0xbf,
  0xba, 0x64, 0xa6, 0x3d, 0xad, 0xcb, 0xc0, 0xbc, 0x0b, 0x17, 0x01, 0xbd,
  0x56, 0xc3, 0x14, 0xbd, 0xe8, 0x0b, 0x52, 0x3e, 0x78, 0xf1, 0xb0, 0xbe,
  0xcf, 0xa5, 0xc8, 0xbd, 0x40, 0x94, 0x3e, 0x3e, 0xb1, 0x14, 0xa1, 0xbe,
  0xee, 0xf3, 0xb3, 0x3e, 0xeb, 0x20, 0xe8, 0x3e, 0x46, 0x7b, 0x7a, 0xbe,
  0x5d, 0xe8, 0xb6, 0x3e, 0x59, 0x45, 0xc0, 0x3e, 0xc3, 0x43, 0x91, 0xbe,
  0x2e, 0x05, 0x3c, 0xbf, 0x69, 0x22, 0x4b, 0x3e, 0x61, 0x7b, 0x8a, 0xbe,
  0xda, 0x3d, 0xa5, 0xbd, 0x51, 0x49, 0x72, 0x3d, 0x24, 0xe2, 0xb1, 0x3c,
  0x31, 0x01, 0x89, 0xbd, 0xdf, 0x7c, 0x29, 0xbe, 0x98, 0x6d, 0x03, 0xbe,
  0x9a, 0x8d, 0x27, 0xbe, 0xb0, 0x22, 0x92, 0xbe, 0xcd, 0xe5, 0x2c, 0x3e,
  0x21, 0xd9, 0x17, 0x3c, 0x40, 0x16, 0x08, 0x3c, 0xee, 0x62, 0xb7, 0x3c,
  0x15, 0x0c, 0x1e, 0xbe, 0x2e, 0xae, 0x66, 0xbf, 0x5e, 0xd6, 0x51, 0x3d,
  0x91, 0x1e, 0x1e, 0x3e, 0x8e, 0xcd, 0xbd, 0xbc, 0x57, 0xf9, 0x07, 0x3e,
  0xad, 0xe3, 0x17, 0x3e, 0x5e, 0x68, 0x95, 0xbd, 0x55, 0x03, 0x1b, 0xbd,
  0x68, 0x87, 0xdb, 0x3d, 0x93, 0x54, 0x30, 0xbe, 0x4c, 0xed, 0x06, 0xbe,
  0xdf, 0x6c, 0x80, 0x3e, 0x5a, 0x9f, 0x9a, 0xbd, 0xd4, 0x82, 0x97, 0x3e,
  0xee, 0x79, 0xf3, 0xbd, 0x62, 0xb0, 0x66, 0x3e, 0x8d, 0xb3, 0xf6, 0xbf,
  0xdc, 0xe6, 0xb4, 0xbd, 0x1d, 0xd0, 0xa8, 0xbe, 0x41, 0xf7, 0xa4, 0xbd,
  0x24, 0x28, 0x8c, 0xbb, 0x3e, 0x70, 0x8c, 0x3e, 0x22, 0xb8, 0xeb, 0xbd,
  0x80, 0x18, 0x75, 0x3e, 0x19, 0xe6, 0xc8, 0x3d, 0x84, 0xb0, 0x84, 0xbe,
  0x3d, 0x47, 0xdb, 0xbe, 0x75, 0xa0, 0xa0, 0xbd, 0x7c, 0x56, 0xfe, 0xbd,
  0x9e, 0xec, 0x61, 0x3e, 0x81, 0x09, 0xd2, 0x3e, 0x39, 0x13, 0x72, 0x3e,
  0xa8, 0x98, 0x5c, 0x3e, 0xce, 0x14, 0xb4, 0x3d, 0x02, 0x52, 0x6a, 0xbf,
  0xfb, 0x19, 0x43, 0x3e, 0xa1, 0x0c, 0x60, 0x3d, 0x45, 0x11, 0x35, 0xbb,
  0xba, 0x2b, 0xd2, 0xbe, 0x7c, 0x04, 0x8b, 0xbd, 0xb7, 0x86, 0x08, 0xbf,
  0x0c, 0x6a, 0x96, 0xbe, 0x9c, 0xde, 0xb1, 0xbd, 0x0f, 0x14, 0x9e, 0x3e,
  0x7e, 0xc6, 0x43, 0xbe, 0x0f, 0x78, 0xb4, 0x3e, 0x29, 0xa0, 0xe4, 0x3d,
  0xce, 0x8a, 0x8a, 0xbe, 0x14, 0x4a, 0x10, 0x3e, 0x84, 0x7a, 0x17, 0x3e,
  0x02, 0x1d, 0x28, 0xbf, 0x00, 0xdf, 0xda, 0x3e, 0x3e, 0xe7, 0xdf, 0x3d,
  0x8d, 0x62, 0xfb, 0xbe, 0x96, 0x43, 0x02, 0xbe, 0x7a, 0x0c, 0x8c, 0xbd,
  0x55, 0x65, 0x0d, 0xbe, 0xc9, 0x2f, 0xc2, 0xbe, 0xbb, 0x89, 0xca, 0xbc,
  0x7d, 0x38, 0x09, 0x3e, 0xc4, 0x4c, 0xd0, 0xbb, 0xa4, 0x69, 0x73, 0xbe,
  0x72, 0x32, 0x09, 0x3e, 0x3d, 0xc4, 0xbe, 0x3c, 0xec, 0x0a, 0xdc, 0xbe,
  0x08, 0x83, 0x11, 0xbd, 0x4c, 0x75, 0xe2, 0x3d, 0x97, 0x52, 0x14, 0x3f,
  0xf2, 0x82, 0x89, 0x3d, 0xc3, 0x0f, 0x08, 0xbe, 0x23, 0x04, 0x87, 0x3e,
  0x0b, 0xce, 0x36, 0x3e, 0x3c, 0xea, 0xb6, 0xbb, 0xb6, 0x12, 0x12, 0xbe,
  0x66, 0xb9, 0x41, 0x3e, 0x20, 0x86, 0x8e, 0x3d, 0xc1, 0x4e, 0xbb, 0x3e,
  0x94, 0x4d, 0x2d, 0xbe, 0x61, 0xd0, 0x1a, 0x3e, 0x9e, 0x8e, 0x63, 0xbe,
  0x99, 0x84, 0x0c, 0xbf, 0x2a, 0x77, 0x42, 0xbe, 0x2a, 0x06, 0x0a, 0x3e,
  0xdd, 0x23, 0xec, 0xbd, 0x55, 0xb4, 0x1e, 0x3d, 0xee, 0x17, 0xb2, 0x3d,
  0x0d, 0x91, 0x13, 0xbd, 0x89, 0x7b, 0x15, 0x3e, 0x28, 0xe5, 0xa3, 0xbc,
  0xa1, 0xbc, 0xc1, 0xbe, 0xfe, 0xd7, 0x62, 0xbe, 0x7d, 0xe0, 0xb5, 0x3e,
  0x3c, 0x68, 0x03, 0x3f, 0x6c, 0xdf, 0x90, 0x3e, 0xa4, 0x0a, 0x45, 0xbd,
  0x6c, 0xf4, 0xa4, 0xbe, 0xe2, 0x17, 0x88, 0xbf, 0xdf, 0xdd, 0x04, 0xbf,
  0xa2, 0xbf, 0x04, 0x3f, 0xb3, 0x01, 0xb2, 0x3e, 0x8f, 0x5c, 0x86, 0x3d,
  0x4e, 0x9b, 0x44, 0xbe, 0xe0, 0x4f, 0x02, 0xbf, 0x47, 0xe4, 0x99, 0x3e,
  0x88, 0xd6, 0xdd, 0x3d, 0xd2, 0x54, 0xb2, 0xbe, 0x8e, 0x31, 0xb3, 0x3d,
  0x15, 0x14, 0x9b, 0x3e, 0x45, 0x3f, 0xaa, 0x3e, 0xa4, 0x75, 0x8f, 0xbd,
  0x05, 0xcf, 0x2b, 0xbe, 0x86, 0x56, 0xe6, 0xbd, 0x44, 0x41, 0x09, 0x3d,
  0x0b, 0xe1, 0x45, 0xbe, 0xa4, 0x26, 0x81, 0x3e, 0xc4, 0xad, 0x0e, 0x3d,
  0x9a, 0x56, 0x04, 0x3e, 0x9c, 0x29, 0xc0, 0xbd, 0x16, 0x17, 0xab, 0xbe,
  0x35, 0x9a, 0x1e, 0x3e, 0x4c, 0x6a, 0xa8, 0x3d, 0xbf, 0x32, 0xd9, 0xbe,
  0x01, 0x56, 0xf4, 0x3d, 0x74, 0x4f, 0x03, 0x3f, 0x06, 0xbc, 0xd3, 0x3d,
  0x2d, 0x9a, 0x11, 0xbe, 0x7c, 0x80, 0x09, 0x3e, 0x2f, 0x4d, 0xc7, 0xbd,
  0x1e, 0x75, 0x07, 0xbf, 0xd2, 0x8c, 0xcd, 0x3d, 0x9e, 0x6d, 0x49, 0xbf,
  0xd6, 0x4f, 0x61, 0x3c, 0xf6, 0x8c, 0xf1, 0x3d, 0x17, 0xd8, 0xd9, 0x3c,
  0xf6, 0x47, 0xaf, 0x3c, 0x41, 0xd5, 0x1f, 0xbe, 0x7f, 0x0f, 0x30, 0x3d,
  0xcd, 0xbc, 0xf1, 0xbd, 0x2d, 0x07, 0xe0, 0x3d, 0x1e, 0x4d, 0x72, 0x3c,
  0x27, 0xac, 0x88, 0xbe, 0xd6, 0xd2, 0xdb, 0x3d, 0xc5, 0xc3, 0x59, 0xbd,
  0xb5, 0x15, 0xe0, 0x3d, 0x4f, 0x26, 0x9f, 0xbe, 0x0f, 0xbb, 0xe8, 0xbd,
  0xa9, 0xcb, 0xc9, 0xbe, 0xd5, 0x0d, 0x88, 0xbd, 0x37, 0x69, 0x3d, 0xbf,
  0x2a, 0xa4, 0xe3, 0xbe, 0x8c, 0xfe, 0xa6, 0x3e, 0x85, 0xf3, 0x37, 0x3e,
  0x35, 0xd7, 0xd5, 0x3d, 0xb6, 0x12, 0xd8, 0xbe, 0x78, 0xcc, 0x57, 0xbe,
  0x9a, 0xca, 0x52, 0xbe, 0xc4, 0xf0, 0x12, 0x3d, 0x58, 0xee, 0x17, 0xbe,
  0x2c, 0xb4, 0x2e, 0xbe, 0x54, 0x33, 0x72, 0xbe, 0x1a, 0x4b, 0xd0, 0xbe,
  0x0d, 0xa1, 0x10, 0xbe, 0x6f, 0x13, 0x21, 0xbf, 0x68, 0x8a, 0x80, 0xbe,
  0x94, 0x19, 0xf4, 0xbe, 0xe0, 0xb1, 0xde, 0xbd, 0x9b, 0xe1, 0xac, 0x3d,
  0x30, 0xbd, 0x15, 0x3e, 0x70, 0x21, 0xd0, 0x3b, 0x79, 0x4e, 0xa9, 0xbe,
  0x3d, 0xee, 0xc9, 0xbe, 0xf0, 0x88, 0x7e, 0xbc, 0xea, 0x97, 0x8d, 0x3e,
  0x7e, 0x3d, 0xb1, 0x3b, 0x45, 0xd5, 0xd8, 0xbd, 0x2f, 0x13, 0x33, 0xbf,
  0x6a, 0xc1, 0x30, 0xbe, 0xa9, 0xae, 0xa3, 0x3e, 0xbe, 0xbb, 0x04, 0xbf,
  0xb5, 0xf2, 0xb5, 0xbe, 0xee, 0xc8, 0x6d, 0xbe, 0x59, 0x02, 0xa2, 0xbe,
  0x7c, 0x93, 0x7c, 0x3e, 0x70, 0x25, 0x53, 0x3e, 0xf1, 0x48, 0x30, 0x3e,
  0x2a, 0x9e, 0x71, 0xbe, 0xa2, 0x8a, 0x73, 0xbe, 0x09, 0x2a, 0x3c, 0xbd,
  0xbd, 0x61, 0x6c, 0x3e, 0x21, 0x45, 0x73, 0xbd, 0x66, 0xbd, 0xf3, 0x3d,
  0x51, 0x75, 0x6d, 0xbe, 0xc8, 0x2d, 0x45, 0x3d, 0x95, 0x8c, 0x93, 0xbe,
  0xd8, 0x77, 0x32, 0xbe, 0x8e, 0x3e, 0x90, 0xbc, 0xaa, 0x00, 0xba, 0xbe,
  0xd8, 0x70, 0xe3, 0xbb, 0x16, 0x18, 0x14, 0x3e, 0x4e, 0xdc, 0x6a, 0xbd,
  0xd5, 0x06, 0x0e, 0x3e, 0xf7, 0xff, 0xcb, 0xbe, 0x68, 0x02, 0x46, 0xbd,
  0x17, 0x82, 0x81, 0xbe, 0x38, 0x60, 0x5d, 0x3e, 0xef, 0x2c, 0x42, 0xbd,
  0x8c, 0xde, 0x04, 0xbe, 0xe1, 0x84, 0x8a, 0x3d, 0x77, 0x6b, 0x7f, 0x3d,
  0xf9, 0x1c, 0x64, 0x3e, 0xdb, 0xcf, 0x85, 0x3d, 0xa7, 0x89, 0xd2, 0x3c,
  0xfa, 0xf2, 0xa2, 0xbe, 0xd3, 0x8d, 0xfa, 0xbd, 0xd2, 0xb3, 0xd6, 0x3d,
  0x85, 0x2e, 0x18, 0x3e, 0x57, 0x07, 0xcd, 0xbd, 0x77, 0x40, 0x8b, 0xbe,
  0xb6, 0xfc, 0x96, 0xbe, 0x80, 0x14, 0x0e, 0xbe, 0x7c, 0x0a, 0x20, 0x3e,
  0xf5, 0xcc, 0x78, 0x3d, 0x35, 0x37, 0x39, 0x3e, 0x03, 0xdd, 0x2d, 0xbf,
  0xe0, 0xfb, 0x8b, 0x3e, 0xe9, 0xab, 0x8b, 0x3e, 0xb6, 0x2a, 0x43, 0x3f,
  0xbd, 0x58, 0xf9, 0x3e, 0xe4, 0xd7, 0xda, 0xbe, 0xe0, 0xcd, 0x01, 0xbe,
  0xc0, 0xb7, 0xc5, 0xbd, 0x2d, 0x4f, 0x16, 0x3d, 0x9e, 0x1f, 0xbf, 0x3d,
  0x49, 0xb0, 0x1b, 0xbf, 0x1e, 0xc6, 0x69, 0xbe, 0xd8, 0xe5, 0xe6, 0xbd,
  0xac, 0x98, 0x26, 0x3e, 0xe4, 0x71, 0xea, 0xbd, 0x9d, 0x10, 0xe0, 0x3c,
  0xa1, 0x7f, 0x3c, 0xbe, 0x13, 0x63, 0xb8, 0x3e, 0xb7, 0x62, 0x79, 0x3e,
  0x3d, 0x87, 0x61, 0x3f, 0x0f, 0x30, 0x9f, 0xbc, 0x1c, 0x0f, 0xcd, 0xbe,
  0x19, 0xb4, 0xca, 0xbd, 0xf2, 0xfb, 0x10, 0x3e, 0xec, 0xc3, 0x9a, 0x3c,
  0xf7, 0x92, 0x1d, 0xbd, 0xfb, 0xfd, 0x12, 0xbe, 0x81, 0x11, 0x3a, 0xbe,
  0x82, 0x98, 0x07, 0xbd, 0xb4, 0xf4, 0x80, 0x3e, 0x25, 0x4b, 0x89, 0x3e,
  0x4a, 0x72, 0x21, 0xbb, 0xe8, 0x46, 0x34, 0xbf, 0x38, 0xdb, 0x44, 0x3e,
  0x95, 0x95, 0x42, 0x3e, 0xf5, 0x3f, 0x15, 0x3f, 0xd8, 0x70, 0x77, 0xbc,
  0x8d, 0xc7, 0x1b, 0xbf, 0x09, 0x71, 0xd9, 0xbe, 0x6e, 0x0d, 0xab, 0x3d,
  0xa7, 0x63, 0xc8, 0x3d, 0x35, 0xe6, 0x8e, 0xbe, 0xc7, 0x1b, 0x8e, 0x3d,
  0xb5, 0xdf, 0xb1, 0x3d, 0x08, 0xcb, 0xb4, 0x3d, 0x7b, 0x20, 0xd5, 0x3e,
  0xa9, 0x0d, 0x5f, 0x3e, 0xff, 0x4e, 0x07, 0x3e, 0x04, 0xdd, 0x8c, 0xbd,
  0x9d, 0x77, 0xa2, 0xbe, 0x7e, 0xdb, 0xea, 0x3c, 0xea, 0xa5, 0xd6, 0x3e,
  0x5e, 0x9b, 0x14, 0xbe, 0x3a, 0x9f, 0x40, 0xbf, 0xcb, 0x55, 0x57, 0xbd,
  0x10, 0xe2, 0xab, 0xbe, 0x4b, 0xf4, 0xdf, 0xbc, 0xbb, 0xcb, 0xc1, 0xbc,
  0x7d, 0x86, 0x10, 0x3e, 0x1e, 0xab, 0x0e, 0x3e, 0x57, 0x9b, 0xd6, 0x3d,
  0x87, 0x33, 0xab, 0x3d, 0x00, 0xdc, 0x7a, 0xbf, 0x11, 0xf9, 0x29, 0x3e,
  0x60, 0x9a, 0x11, 0xbf, 0x37, 0xff, 0xed, 0x3d, 0x6a, 0xf7, 0xaf, 0xbd,
  0xcd, 0x0f, 0x7f, 0x3e, 0x4b, 0x07, 0x74, 0xbd, 0xcf, 0x51, 0x94, 0xbe,
  0xa7, 0x5d, 0x2f, 0x3e, 0x04, 0xc4, 0x24, 0xbf, 0x58, 0x99, 0x3f, 0xbf,
  0x9c, 0xc3, 0xc6, 0xbe, 0xf7, 0x55, 0x85, 0x3c, 0xc1, 0x3b, 0x65, 0x3e,
  0xa1, 0xbe, 0x2e, 0x3c, 0x3c, 0x24, 0x9d, 0x3e, 0x10, 0xb4, 0x1a, 0xbf,
  0xb0, 0xf8, 0x2b, 0x3e, 0xbb, 0x6f, 0x14, 0x3d, 0xd6, 0x82, 0xf9, 0xbd,
  0x77, 0x98, 0x85, 0xbe, 0x4c, 0x1f, 0x66, 0xbc, 0x5b, 0xa2, 0x08, 0x3f,
  0x93, 0xd8, 0x7e, 0x3e, 0x61, 0xff, 0x9e, 0x3e, 0xcd, 0xd8, 0xe6, 0xbe,
  0xfd, 0xca, 0x22, 0xbe, 0x03, 0x63, 0x24, 0xbf, 0xf6, 0x25, 0xb0, 0xbe,
  0x62, 0x1b, 0x4c, 0x3e, 0x55, 0x14, 0xa5, 0xbd, 0xaa, 0xc0, 0x12, 0x3e,
  0xca, 0x82, 0x0d, 0xbe, 0x18, 0x7a, 0xc8, 0x3e, 0xdd, 0x12, 0x3d, 0xbe,
  0x6f, 0xf2, 0x07, 0xbe, 0x47, 0x77, 0x2a, 0xbf, 0x82, 0xdf, 0xae, 0xbf,
  0x8f, 0x5a, 0x8b, 0x3e, 0x93, 0xab, 0x8e, 0x3d, 0xd3, 0xd8, 0x78, 0x3e,
  0x59, 0x31, 0x25, 0xbf, 0x28, 0x96, 0xbc, 0xbf, 0xa7, 0x18, 0x87, 0xbe,
  0xe5, 0x98, 0x3d, 0x3d, 0xbc, 0xb6, 0x03, 0xbe, 0x2c, 0x37, 0xd7, 0xbe,
  0xf4, 0x46, 0x1f, 0xbe, 0x8d, 0x0b, 0xae, 0x3c, 0x71, 0x14, 0xa6, 0x3e,
  0x66, 0x77, 0xc0, 0xbd, 0x0d, 0xb6, 0x8f, 0x3e, 0xf9, 0x41, 0x14, 0xbb,
  0x08, 0xd8, 0x8a, 0x3e, 0x5b, 0x1e, 0x30, 0xbe, 0xd2, 0xd1, 0x95, 0x3e,
  0xc7, 0x47, 0xdc, 0xbe, 0x13, 0x18, 0xb8, 0x3b, 0xf7, 0x79, 0xcb, 0xbf,
  0xbe, 0x86, 0x7e, 0xbf, 0xc7, 0x34, 0xc7, 0xbe, 0xb2, 0xa7, 0xa6, 0xbd,
  0x56, 0x44, 0x5f, 0x3e, 0x21, 0x06, 0x85, 0xbe, 0x91, 0x5c, 0x60, 0xbe,
  0x31, 0xdf, 0x80, 0xbe, 0x51, 0x4c, 0x6b, 0x3e, 0xf4, 0x47, 0x47, 0x3e,
  0x80, 0x8b, 0x74, 0xbe, 0xb1, 0x02, 0xf2, 0x3d, 0xea, 0x2d, 0x67, 0xbd,
  0xda, 0xb7, 0x4f, 0xbd, 0x8b, 0x39, 0x04, 0x3d, 0x00, 0x34, 0xec, 0x3d,
  0x11, 0xd3, 0x40, 0x3d, 0xbb, 0xad, 0x2c, 0xbd, 0xf0, 0x41, 0x84, 0xbe,
  0x32, 0xd4, 0x20, 0xbe, 0xb8, 0x9a, 0x13, 0xbe, 0xcb, 0xd9, 0xc6, 0x3e,
  0xa1, 0xf7, 0x66, 0xbf, 0xd8, 0xef, 0xa8, 0x3e, 0x1b, 0xda, 0xd4, 0x3e,
  0x6c, 0x3f, 0xe9, 0xbe, 0xcf, 0x4b, 0x44, 0xbf, 0xcd, 0x76, 0x93, 0x3e,
  0x45, 0x53, 0x9b, 0x3e, 0xbf, 0xfc, 0x65, 0x3d, 0x78, 0x3b, 0x85, 0xbe,
  0xdc, 0xff, 0xf2, 0xbe, 0x8d, 0xf2, 0xab, 0xbe, 0xca, 0x3a, 0x5f, 0x3e,
  0xa8, 0x43, 0x9a, 0xbd, 0xf4, 0x86, 0x28, 0x3e, 0x4f, 0xbd, 0x50, 0xbe,
  0x24, 0xd1, 0x0b, 0x3e, 0x7c, 0x9a, 0x0e, 0xbf, 0x67, 0xb5, 0xe2, 0x3e,
  0x3b, 0xf8, 0x2d, 0xbd, 0x41, 0xcc, 0x0d, 0xbe, 0xa8, 0x1e, 0x87, 0xbd,
  0x91, 0x6c, 0x99, 0x3e, 0x89, 0x59, 0x86, 0xbd, 0x7a, 0xd6, 0x95, 0x3e,
  0xb4, 0xb1, 0xad, 0x3c, 0x08, 0x48, 0x25, 0x3e, 0xdd, 0x61, 0x39, 0xbe,
  0x97, 0x5e, 0xa1, 0x3e, 0x64, 0xa4, 0x12, 0x3e, 0xdc, 0xe6, 0x51, 0x3d,
  0xeb, 0xdb, 0x11, 0xbe, 0xea, 0xfa, 0x9f, 0x3e, 0x68, 0xde, 0xaf, 0xbd,
  0x7b, 0xb3, 0x4c, 0x3e, 0x85, 0x14, 0x39, 0x3e, 0x42, 0x71, 0x11, 0xbe,
  0x32, 0x08, 0x21, 0xbd, 0x95, 0x9a, 0x74, 0xbf, 0x15, 0x91, 0xae, 0x3d,
  0xc8, 0xdb, 0xcb, 0xbc, 0xcb, 0xf7, 0xa9, 0xbd, 0x94, 0x69, 0x00, 0x3e,
  0xd8, 0xdb, 0x9d, 0xbd, 0x0e, 0xb8, 0xc5, 0x3e, 0xb4, 0x0e, 0x3b, 0xbe,
  0x5c, 0x36, 0xc0, 0x3d, 0x12, 0x45, 0xe4, 0xbe, 0x06, 0xe0, 0xc1, 0x3e,
  0xfd, 0x1d, 0xde, 0xbd, 0x68, 0xb4, 0xa5, 0x3e, 0x18, 0x9e, 0x0d, 0x3e,
  0xae, 0x72, 0x30, 0xbe, 0x10, 0xf6, 0x59, 0xbe, 0x4b, 0x41, 0x8f, 0xbe,
  0x63, 0x7f, 0x0b, 0x3c, 0x6e, 0x18, 0x79, 0x3d, 0x92, 0xf4, 0x88, 0xbd,
  0x46, 0x57, 0x0f, 0xbe, 0x40, 0xd4, 0x4d, 0x3e, 0x36, 0x33, 0x29, 0x3e,
  0x0a, 0xb2, 0xa1, 0x3c, 0xd0, 0x3c, 0x73, 0x3e, 0x8e, 0x4b, 0xd1, 0xbe,
  0xb4, 0x5e, 0x87, 0x3e, 0xad, 0x26, 0xe5, 0xbd, 0x26, 0xc1, 0xdb, 0x3e,
  0xa3, 0x27, 0x36, 0x3e, 0x3e, 0xb8, 0x3e, 0xbe, 0x20, 0xa4, 0x7f, 0xbe,
  0xec, 0xb0, 0xb4, 0xbc, 0x1a, 0xc0, 0x3d, 0xbe, 0xf3, 0x30, 0xda, 0x3a,
  0xa5, 0x56, 0x90, 0xbe, 0x66, 0xdf, 0xac, 0xbd, 0x1d, 0xeb, 0x80, 0xbe,
  0x4a, 0x43, 0x8a, 0x3e, 0x68, 0xa9, 0x7c, 0xbb, 0x8d, 0x99, 0xb3, 0xbd,
  0xd4, 0x3a, 0xd2, 0x3d, 0x0b, 0xc7, 0x8c, 0x3d, 0xca, 0x1c, 0xc5, 0xbd,
  0x23, 0x55, 0x97, 0xbd, 0x57, 0x01, 0xa5, 0xbb, 0x90, 0xab, 0x0f, 0xbe,
  0x92, 0x97, 0x09, 0xbf, 0xb2, 0x30, 0xa2, 0xbe, 0x1a, 0xdc, 0xa9, 0xbd,
  0xab, 0x24, 0x3d, 0xbc, 0xae, 0x4e, 0x2c, 0xbc, 0x86, 0x5b, 0xd3, 0xbc,
  0x4c, 0x64, 0xa5, 0x3d, 0x9a, 0xea, 0xcd, 0xbc, 0x4f, 0x03, 0xaf, 0xbc,
  0x6f, 0x57, 0xa7, 0xbd, 0x79, 0x51, 0xfc, 0xbe, 0x1c, 0xcb, 0x86, 0xbe,
  0x33, 0xca, 0x0a, 0xbe, 0xc2, 0x47, 0x0d, 0xbe, 0xab, 0xa5, 0x64, 0xbe,
  0x99, 0x1c, 0x3d, 0xbc, 0x4d, 0xb2, 0xde, 0x3e, 0x5c, 0xd5, 0x34, 0xbf,
  0x63, 0x94, 0x86, 0x3d, 0xce, 0x21, 0xe8, 0xbd, 0xd6, 0x2f, 0x79, 0xbe,
  0x8f, 0xf7, 0x8c, 0xbd, 0xa0, 0x56, 0x09, 0x3d, 0xf2, 0x34, 0xd5, 0x3e,
  0xec, 0x4f, 0xaf, 0xbe, 0x5b, 0xe9, 0x9a, 0xbe, 0x5b, 0x5b, 0x73, 0xbe,
  0x30, 0x92, 0x00, 0xbf, 0x41, 0xc5, 0x34, 0x3d, 0x05, 0x65, 0x49, 0x3e,
  0xcb, 0x36, 0x96, 0xbe, 0x35, 0x7f, 0x46, 0x3e, 0x09, 0x14, 0x83, 0xbb,
  0xae, 0xca, 0xe6, 0xbe, 0xf5, 0x95, 0x0a, 0xbe, 0xff, 0xbc, 0xb2, 0xbd,
  0xf0, 0xe6, 0x39, 0xbd, 0x39, 0x41, 0xb3, 0xbd, 0x46, 0x85, 0x6c, 0x3d,
  0xe2, 0x9f, 0x27, 0x3f, 0xab, 0x1e, 0xcf, 0xbe, 0x94, 0x4a, 0x21, 0xbe,
  0xab, 0xab, 0xa7, 0xbe, 0x08, 0x46, 0xbe, 0xbc, 0x10, 0x03, 0xab, 0xbc,
  0xb3, 0x58, 0x4c, 0x3e, 0x27, 0x17, 0x89, 0xbe, 0x3f, 0x53, 0xf8, 0xbc,
  0xf5, 0xfa, 0x50, 0xbe, 0x54, 0x8d, 0xd2, 0xbd, 0xfb, 0x03, 0x82, 0xbe,
  0x50, 0xb1, 0x82, 0xbd, 0x08, 0x2a, 0x94, 0xbe, 0xff, 0xca, 0x3c, 0x3e,
  0x0c, 0x80, 0x9e, 0x3e, 0xd7, 0x1c, 0x90, 0x3e, 0xc7, 0x3b, 0xf6, 0xbd,
  0xc0, 0xe0, 0x4a, 0xbe, 0x0c, 0x96, 0x60, 0xbe, 0xdf, 0xef, 0x3b, 0x3e,
  0x62, 0x5f, 0xf6, 0xbe, 0xb4, 0x22, 0x7c, 0x3d, 0xdd, 0x80, 0xdf, 0x3d,
  0x40, 0x02, 0x64, 0xbe, 0x13, 0xc7, 0x27, 0xbe, 0x61, 0xfa, 0x62, 0x3e,
  0x3b, 0xe2, 0x31, 0xbe, 0x8e, 0xc3, 0x33, 0x3e, 0x4b, 0x11, 0xb9, 0xbd,
  0x29, 0x5f, 0x82, 0x3e, 0x7b, 0xa6, 0xa8, 0x3d, 0x77, 0x37, 0x87, 0x3e,
  0x7d, 0x28, 0xae, 0xbd, 0x24, 0xdf, 0xd8, 0xbd, 0x62, 0x83, 0x03, 0x3e,
  0x1b, 0xbf, 0x20, 0x3e, 0xbb, 0x5d, 0x1e, 0xbe, 0x6c, 0x55, 0x49, 0x3e,
  0x69, 0x1f, 0x41, 0x3e, 0xc6, 0x20, 0x5d, 0xbe, 0xe8, 0x0d, 0x47, 0x3d,
  0xb8, 0xc3, 0xc0, 0x3b, 0xc2, 0x61, 0x54, 0xbd, 0x1d, 0x72, 0x7e, 0x3e,
  0x2f, 0xc0, 0x41, 0x3d, 0x25, 0x9e, 0x1d, 0x3e, 0x06, 0x04, 0x0d, 0xbd,
  0x99, 0x71, 0x29, 0x3f, 0xe6, 0x85, 0x74, 0xbd, 0x16, 0x09, 0xac, 0xbd,
  0xeb, 0x0b, 0xa3, 0xbc, 0x25, 0x3a, 0x0d, 0xbe, 0x46, 0xe7, 0x43, 0xbd,
  0x15, 0x58, 0x8d, 0x3e, 0x6c, 0x26, 0x44, 0x3e, 0x28, 0x96, 0xa3, 0xbd,
  0xf8, 0x9a, 0x08, 0xbe, 0xf9, 0xd3, 0x90, 0x3e, 0x3f, 0xf9, 0x8e, 0x3e,
  0xc1, 0x6c, 0xb7, 0x3d, 0x39, 0x8a, 0xb2, 0xbe, 0xbc, 0x3f, 0x0d, 0xbd,
  0x1a, 0x39, 0x1a, 0xbd, 0x01, 0x52, 0x50, 0x3e, 0x9f, 0x0f, 0xb1, 0xbe,
  0x1c, 0x45, 0x1c, 0x3e, 0x80, 0x52, 0x13, 0xbf, 0xa9, 0x78, 0x15, 0xbe,
  0x6a, 0x8d, 0x5c, 0xbe, 0xa1, 0xad, 0x36, 0x3f, 0xb1, 0x91, 0x9a, 0x3d,
  0xd3, 0x81, 0xaf, 0x3d, 0xaa, 0x38, 0xde, 0xbd, 0x3a, 0x80, 0x00, 0x3f,
  0xef, 0x09, 0x3d, 0x3e, 0x25, 0xca, 0xde, 0x3d, 0x58, 0xcb, 0x84, 0xbe,
  0x3d, 0xd6, 0x64, 0xbe, 0xf4, 0x88, 0xa9, 0xbe, 0xef, 0x7c, 0xb0, 0xba,
  0x0a, 0x00, 0xc8, 0xbe, 0x4a, 0xbb, 0x56, 0x3c, 0xf9, 0x0b, 0x24, 0xbf,
  0x0b, 0x3d, 0x99, 0xbe, 0x2d, 0xcd, 0xeb, 0xbe, 0x9d, 0xc6, 0x99, 0x3e,
  0xb6, 0x88, 0x80, 0x3c, 0x9a, 0x86, 0x2f, 0xbf, 0x10, 0x32, 0x01, 0xbe,
  0x6e, 0xd2, 0x7b, 0xbe, 0xa7, 0xeb, 0x8c, 0x3e, 0x29, 0x2b, 0xb7, 0x3e,
  0x1a, 0xbd, 0xc8, 0xbd, 0x0e, 0x10, 0x04, 0x3f, 0xe5, 0x29, 0x06, 0x3e,
  0x7d, 0x47, 0x1b, 0xbf, 0xe3, 0xab, 0x9a, 0xbe, 0x62, 0xcf, 0xb0, 0xbe,
  0x35, 0xad, 0x7a, 0xbd, 0x66, 0xe5, 0xda, 0x3e, 0xe7, 0x0b, 0x05, 0xbf,
  0x2f, 0x82, 0x33, 0xbe, 0xb9, 0xec, 0xc9, 0xbc, 0xfa, 0xbb, 0x99, 0xbf,
  0x9c, 0x6d, 0xb6, 0xbe, 0xe8, 0xd2, 0x94, 0xbe, 0x43, 0x3b, 0xcb, 0x3e,
  0x88, 0x6d, 0x0a, 0x3e, 0x9e, 0x89, 0xdc, 0xbe, 0xf9, 0x6e, 0x1c, 0xbf,
  0x8a, 0x12, 0xac, 0x3e, 0xed, 0xa3, 0xc5, 0xbe, 0x95, 0xa1, 0x23, 0xbf,
  0x5f, 0x46, 0xb4, 0xbe, 0x48, 0x42, 0xb3, 0xbe, 0x1c, 0xeb, 0xd3, 0x3e,
  0x3f, 0x58, 0xdc, 0xbe, 0x39, 0xb3, 0xbe, 0xbd, 0x5a, 0xca, 0x5e, 0xbf,
  0x3f, 0xdf, 0x7c, 0xbf, 0xdf, 0xfd, 0x29, 0xbf, 0x7a, 0x09, 0xe4, 0x3e,
  0x4e, 0x17, 0x7e, 0x3d, 0xea, 0x52, 0x6a, 0x3e, 0xdd, 0x2f, 0x0d, 0xbf,
  0xc8, 0x44, 0x08, 0xbf, 0xb2, 0xd4, 0xa3, 0x3c, 0xd1, 0x20, 0x0e, 0xbf,
  0xd5, 0x93, 0x94, 0xbe, 0xb1, 0xbf, 0xb3, 0xbe, 0xa1, 0x39, 0xc6, 0xbe,
  0x45, 0x0a, 0xa9, 0x3e, 0xaa, 0x9c, 0x96, 0xbe, 0xb2, 0xf8, 0x4a, 0x3d,
  0xf7, 0xd2, 0x1a, 0xbf, 0xd4, 0xd3, 0x16, 0x3f, 0xe2, 0x49, 0x89, 0x3e,
  0x8f, 0x26, 0x38, 0xbe, 0xa5, 0x46, 0xdf, 0x3d, 0xa2, 0x44, 0x1d, 0x3d,
  0xe1, 0x7b, 0xb4, 0xbe, 0xd8, 0x92, 0x14, 0xbf, 0x3d, 0x44, 0x17, 0xbe,
  0x49, 0x3c, 0x23, 0xbf, 0xd9, 0xf8, 0x6e, 0xbe, 0x00, 0x0a, 0x7f, 0x3d,
  0x01, 0x73, 0xe7, 0xbd, 0xc1, 0x9b, 0xaa, 0xbd, 0x9c, 0x33, 0x2c, 0xbe,
  0x86, 0x66, 0xa8, 0x3e, 0xc4, 0x77, 0x33, 0xbf, 0xdd, 0xaf, 0xd5, 0x3d,
  0xb6, 0xa0, 0x67, 0x3e, 0x48, 0x6f, 0x97, 0x3e, 0x7b, 0x00, 0xd0, 0x3d,
  0xa7, 0x5d, 0x09, 0x3e, 0x48, 0x53, 0x95, 0xbe, 0x86, 0x9a, 0x69, 0xbe,
  0xcc, 0xe2, 0x74, 0xbd, 0xb8, 0xb8, 0xe7, 0xbe, 0x98, 0xd5, 0x50, 0xbe,
  0x6c, 0x9f, 0x65, 0xbe, 0x14, 0x03, 0x4a, 0x3e, 0xe8, 0x22, 0xbc, 0xbe,
  0x6c, 0x00, 0x9b, 0xbe, 0xb2, 0x20, 0x5e, 0x3e, 0x2a, 0x82, 0x17, 0xbf,
  0x97, 0xed, 0x92, 0x3f, 0xa1, 0xfc, 0x0f, 0xbf, 0x16, 0x71, 0x60, 0x3e,
  0x34, 0xab, 0xa5, 0x3d, 0x51, 0xa5, 0xa0, 0x3c, 0x49, 0x50, 0xde, 0x3d,
  0x4b, 0xb0, 0x5a, 0xbd, 0xbd, 0x08, 0xe3, 0xbd, 0x7d, 0x6e, 0xe8, 0xbe,
  0xf0, 0x1b, 0x8e, 0xbe, 0x60, 0xd6, 0xb4, 0xbd, 0xcb, 0x29, 0xc8, 0x3e,
  0x66, 0x21, 0xf0, 0xbd, 0x68, 0xf1, 0x0a, 0xbe, 0xe8, 0x8f, 0x00, 0x3d,
  0x5d, 0xbe, 0x08, 0xbf, 0xc4, 0x08, 0x33, 0x3f, 0xa2, 0xa1, 0x1e, 0xbe,
  0x70, 0xc4, 0xd7, 0xbe, 0xa5, 0xd9, 0x02, 0x3e, 0x93, 0xdf, 0x9b, 0x3d,
  0x1f, 0x54, 0x8a, 0x3e, 0xf8, 0xeb, 0x84, 0xbd, 0x1c, 0x94, 0xeb, 0xbc,
  0x85, 0x99, 0x9c, 0xbc, 0x6c, 0x66, 0xb6, 0xbe, 0x1a, 0x3f, 0xac, 0xbd,
  0x1c, 0x1f, 0xb5, 0x3d, 0x8a, 0xc9, 0x08, 0xbe, 0xce, 0x12, 0x74, 0xbe,
  0x56, 0x73, 0xf7, 0x3d, 0x83, 0x17, 0xb1, 0xbd, 0x31, 0xa7, 0x73, 0x3e,
  0xfb, 0x8f, 0x9b, 0xbe, 0x23, 0xb9, 0x7c, 0xbd, 0xfa, 0x69, 0x1f, 0xbf,
  0xdd, 0x83, 0x58, 0x3d, 0xbc, 0xa0, 0x22, 0x3e, 0x40, 0x6f, 0x4c, 0x3e,
  0x96, 0x9a, 0x8e, 0xbe, 0x95, 0xf8, 0xd5, 0x3d, 0x8b, 0x38, 0x40, 0x3b,
  0x07, 0x96, 0xba, 0x3d, 0xb9, 0x04, 0x6c, 0x3e, 0x07, 0xfb, 0x57, 0xbe,
  0x14, 0x17, 0x9f, 0xbe, 0x41, 0xc1, 0x6e, 0x3d, 0xff, 0x17, 0xf1, 0x3b,
  0x2e, 0x18, 0x98, 0x3e, 0x53, 0xff, 0x19, 0xbe, 0x95, 0xae, 0xbd, 0xbe,
  0x34, 0x4f, 0x90, 0xbe, 0xa5, 0x42, 0x02, 0x3d, 0x16, 0x63, 0x71, 0x3e,
  0x68, 0x9e, 0xd9, 0x3d, 0xcf, 0x4f, 0x08, 0xbe, 0x5e, 0xd2, 0x58, 0x3e,
  0x9f, 0x74, 0x28, 0xbe, 0xa2, 0xad, 0x35, 0x3e, 0x4e, 0xc8, 0x37, 0x3e,
  0xd5, 0x81, 0xd9, 0xbe, 0xf9, 0x31, 0x93, 0xbe, 0xa8, 0xa2, 0xc7, 0x3c,
  0x4a, 0xa2, 0xe0, 0x3d, 0x3e, 0xe3, 0x1e, 0x3f, 0x01, 0x97, 0xdd, 0x3d,
  0x73, 0x70, 0xbd, 0xbe, 0x9e, 0xa6, 0xc6, 0xbd, 0x5c, 0x25, 0x03, 0x3e,
  0xad, 0xb8, 0xd2, 0x3e, 0xbc, 0xc5, 0x8d, 0x3e, 0x1c, 0x95, 0x17, 0xbf,
  0x86, 0x5b, 0x8c, 0x3e, 0x67, 0xd3, 0xcd, 0x3d, 0x69, 0x5c, 0xa4, 0x3d,
  0x7a, 0xb4, 0xc9, 0x3c, 0x7e, 0xae, 0x03, 0xbf, 0x28, 0x57, 0xc7, 0xbd,
  0x00, 0xbd, 0x15, 0x3b, 0xd3, 0xb9, 0xbd, 0x3e, 0x6f, 0xcf, 0xe1, 0x3e,
  0xc0, 0xac, 0x83, 0x3e, 0x2a, 0x65, 0xfb, 0xbe, 0xf9, 0x03, 0x89, 0xbe,
  0x72, 0xe8, 0x26, 0x3d, 0xd8, 0x16, 0x3a, 0x3e, 0x6b, 0x22, 0xb7, 0x3e,
  0xe4, 0x4e, 0x8a, 0xbe, 0xb7, 0x78, 0x84, 0x3e, 0x0f, 0xeb, 0x54, 0x3d,
  0xbd, 0x9d, 0x2e, 0x3e, 0x7d, 0x7a, 0x35, 0xbd, 0x26, 0x30, 0x02, 0xbf,
  0x27, 0xe3, 0x10, 0xbe, 0xcb, 0xc8, 0x6b, 0x3c, 0x9a, 0x20, 0xd1, 0x3e,
  0x71, 0xac, 0x01, 0x3f, 0x52, 0x51, 0x87, 0x3e, 0x71, 0xa5, 0x7d, 0xbe,
  0x84, 0x9e, 0xe5, 0xbe, 0x33, 0xc9, 0x96, 0xbc, 0xe1, 0x49, 0x33, 0x3e,
  0x26, 0x11, 0xc2, 0x3e, 0x12, 0x24, 0xa6, 0xbe, 0xf1, 0x2f, 0x35, 0x3e,
  0x76, 0xd9, 0x21, 0x3e, 0x37, 0x95, 0x81, 0x3e, 0xb2, 0x9e, 0xb0, 0xbd,
  0x70, 0xf2, 0x3c, 0xbf, 0x22, 0xfd, 0xea, 0xbd, 0x2f, 0x13, 0xcd, 0x3d,
  0xff, 0x89, 0x82, 0x3e, 0x9b, 0x32, 0xfc, 0x3e, 0x69, 0x38, 0x50, 0x3e,
  0x01, 0x4c, 0x1d, 0xbe, 0xbc, 0x0d, 0x92, 0xbe, 0x00, 0x4d, 0x2b, 0xbb,
  0x27, 0x54, 0x1c, 0x3e, 0xf6, 0x19, 0xb7, 0x3e, 0xd7, 0x3b, 0xbc, 0x3b,
  0xb9, 0x82, 0x8a, 0x3e, 0xbe, 0xcb, 0x85, 0x3e, 0x20, 0xb0, 0x5a, 0xbd,
  0xf7, 0xf5, 0x52, 0x3e, 0x7a, 0x3d, 0xdf, 0xbe, 0xb2, 0x44, 0xdf, 0xbd,
  0xbe, 0xd6, 0x56, 0xbc, 0x8e, 0x8f, 0xb0, 0x3d, 0xe8, 0xd9, 0x75, 0xbd,
  0x7a, 0xb0, 0xf4, 0xbd, 0x8d, 0x8b, 0x5e, 0xbf, 0x2c, 0x64, 0x4f, 0xbe,
  0x24, 0xd7, 0xfc, 0xbe, 0x53, 0x42, 0xee, 0x3d, 0xa1, 0xdf, 0xfb, 0x3e,
  0x4a, 0x38, 0x30, 0x3e, 0x71, 0x4b, 0xd1, 0x3e, 0x5f, 0x7a, 0x7f, 0x3e,
  0x38, 0x70, 0xca, 0xbe, 0xa4, 0x37, 0x4d, 0x3d, 0x34, 0xe5, 0xe6, 0x3e,
  0xbe, 0xe2, 0x73, 0xbd, 0xd2, 0xb7, 0x3c, 0xbe, 0xf0, 0x7c, 0x9a, 0xbe,
  0xd0, 0xde, 0x8d, 0x3e, 0x32, 0x3c, 0x93, 0xbe, 0xbd, 0x61, 0xa7, 0xbf,
  0x28, 0x0e, 0xbf, 0x3e, 0x0b, 0xdd, 0x20, 0xbf, 0xd9, 0xad, 0xf1, 0xbb,
  0x64, 0x13, 0xfb, 0xbe, 0x5f, 0x2f, 0x22, 0x3e, 0x4b, 0x37, 0xec, 0xbe,
  0x27, 0x16, 0xdd, 0xbd, 0xa4, 0xd8, 0x76, 0x3f, 0xdf, 0x6b, 0xb9, 0x3e,
  0xb1, 0x58, 0xce, 0xbe, 0xad, 0x25, 0x0e, 0xbd, 0xc0, 0x0e, 0x61, 0xbd,
  0xc5, 0x52, 0x99, 0x3e, 0x5f, 0xd7, 0x0a, 0x3f, 0x63, 0xd5, 0x67, 0xbd,
  0x81, 0xdd, 0x00, 0xbf, 0x22, 0x1a, 0x8f, 0x3e, 0x15, 0x06, 0x3e, 0xbf,
  0xe1, 0x82, 0x42, 0xbf, 0x13, 0x3e, 0xa4, 0xbd, 0xc3, 0xc9, 0x6a, 0xbd,
  0xf1, 0x56, 0x16, 0xbf, 0xfd, 0x58, 0x58, 0xbe, 0xe6, 0x06, 0xd0, 0x3e,
  0x28, 0x8c, 0x1c, 0xbf, 0x7a, 0x50, 0xb2, 0x3e, 0x32, 0x77, 0xbd, 0xbe,
  0x1c, 0x07, 0x96, 0xbe, 0x63, 0xa5, 0x6c, 0x3e, 0x84, 0x42, 0xbb, 0x3e,
  0xb9, 0xd3, 0x26, 0xbf, 0x99, 0x01, 0x4e, 0xbf, 0x8b, 0xac, 0xec, 0x3d,
  0xbd, 0x2e, 0xb2, 0xbe, 0x1e, 0xba, 0x65, 0xbf, 0x2a, 0x0f, 0x13, 0xbf,
  0xf1, 0xf9, 0x8d, 0x3e, 0x88, 0x4b, 0x42, 0xbe, 0xe7, 0x19, 0x65, 0xbd,
  0x10, 0x4f, 0xa3, 0xbd, 0x47, 0x12, 0x40, 0xbf, 0x80, 0xab, 0x12, 0x3f,
  0xb6, 0x98, 0x9d, 0x3e, 0x42, 0xb3, 0x88, 0xbe, 0x89, 0x6c, 0x9b, 0x3d,
  0xd9, 0x41, 0xc7, 0xbd, 0xc7, 0x8b, 0xaa, 0xbe, 0xcc, 0x9b, 0x3c, 0x3e,
  0xbf, 0x1d, 0x59, 0xbd, 0x72, 0x34, 0x21, 0xbf, 0xfc, 0xf1, 0x10, 0x3e,
  0xb4, 0x6f, 0x0b, 0xbf, 0x22, 0x26, 0xa5, 0x3e, 0x46, 0x15, 0x39, 0x3e,
  0x63, 0x62, 0xe3, 0x3d, 0xca, 0xbf, 0xb1, 0xbc, 0xce, 0xc9, 0x76, 0x3e,
  0xe7, 0x57, 0xef, 0x3d, 0x4d, 0x0f, 0xb0, 0x3c, 0x05, 0xf4, 0x41, 0xbf,
  0xaa, 0x53, 0x21, 0xbd, 0x6b, 0x64, 0x63, 0x3e, 0xde, 0xd7, 0x25, 0xbd,
  0xeb, 0x5d, 0xf4, 0x3e, 0xab, 0x2e, 0x6b, 0x3e, 0x96, 0x2d, 0x85, 0xbe,
  0x89, 0xc1, 0x8c, 0xbe, 0xb2, 0x64, 0xac, 0x3e, 0x0d, 0x5f, 0x8f, 0x3b,
  0xd8, 0x3c, 0x18, 0x3f, 0xcd, 0x8f, 0x19, 0xbd, 0x6e, 0xe2, 0x00, 0x3e,
  0x17, 0xfe, 0x18, 0x3e, 0x07, 0x15, 0xa0, 0x3e, 0x52, 0x53, 0x8c, 0x3e,
  0x8d, 0xf0, 0x04, 0xbf, 0x75, 0x55, 0x50, 0xbd, 0x4b, 0x9d, 0xb1, 0xbd,
  0xee, 0x09, 0xb6, 0xbc, 0x08, 0xb9, 0x27, 0xbc, 0x52, 0x4d, 0x6a, 0x3e,
  0x48, 0xb6, 0xe1, 0x3c, 0x91, 0x76, 0xae, 0x3b, 0x50, 0x7a, 0xfe, 0xbd,
  0xe9, 0xf5, 0x00, 0x3e, 0x79, 0x7c, 0x8a, 0xbe, 0x83, 0x4f, 0xb8, 0xbd,
  0xa2, 0x82, 0x4c, 0xbe, 0xbf, 0x6e, 0xae, 0x3d, 0xcc, 0x92, 0x88, 0x3e,
  0xf7, 0xe8, 0x44, 0xbe, 0x8e, 0xcc, 0x48, 0xbd, 0x38, 0x83, 0xa5, 0xbe,
  0x5e, 0x06, 0x0f, 0x3e, 0xca, 0xcc, 0x69, 0x3e, 0x33, 0xe4, 0x94, 0x3d,
  0xbc, 0x67, 0xf5, 0x3d, 0x63, 0xe1, 0x87, 0xbd, 0x2e, 0xa9, 0x82, 0xbc,
  0x05, 0x92, 0x81, 0xbe, 0x0f, 0x33, 0x95, 0x3e, 0x99, 0x0d, 0xc1, 0x3e,
  0x78, 0x70, 0x9e, 0x3d, 0x20, 0x32, 0xaa, 0xbd, 0x40, 0x83, 0x87, 0x3e,
  0xab, 0xa2, 0x66, 0x3e, 0x45, 0x8b, 0x72, 0x3e, 0x2a, 0x6c, 0x98, 0xbd,
  0x95, 0x9b, 0xd2, 0xbd, 0x89, 0x85, 0x50, 0x3e, 0x09, 0xa7, 0xad, 0x3a,
  0x07, 0xdb, 0x07, 0xbf, 0xac, 0xfd, 0x76, 0x3d, 0x17, 0xd8, 0x93, 0xbc,
  0x92, 0x1a, 0xed, 0xbd, 0xa9, 0x8e, 0x54, 0xbe, 0x53, 0x90, 0x81, 0x3b,
  0x40, 0x04, 0x8b, 0x3d, 0x27, 0xba, 0x0e, 0x3e, 0x9a, 0x4b, 0x07, 0xbe,
  0xd6, 0x8a, 0x63, 0xbe, 0x95, 0x84, 0x18, 0x3f, 0xe2, 0xd4, 0x60, 0x3d,
  0xc7, 0x39, 0x6c, 0xbe, 0xc8, 0xfe, 0xde, 0xbd, 0x59, 0x0b, 0x13, 0xbe,
  0xde, 0x27, 0x9b, 0xbe, 0xe2, 0xa2, 0x62, 0xbe, 0xf2, 0x10, 0x6a, 0x3e,
  0x8f, 0xc4, 0x04, 0xbc, 0x08, 0x5c, 0x1e, 0xbe, 0x5f, 0xf1, 0x0c, 0x3e,
  0x82, 0x58, 0x44, 0x3e, 0xe5, 0xe0, 0x8b, 0x3e, 0x1a, 0x21, 0x9d, 0xbc,
  0x91, 0x88, 0x3a, 0x3e, 0x6c, 0x0b, 0x83, 0x3e, 0xb7, 0xc5, 0x0d, 0x3e,
  0x00, 0xeb, 0x3f, 0x3e, 0x78, 0xaa, 0x8a, 0xbe, 0x58, 0xc1, 0x1b, 0x3e,
  0xe5, 0xaf, 0xc2, 0xbe, 0xbf, 0x06, 0x4a, 0xbe, 0xb8, 0xf5, 0xf3, 0x3d,
  0xef, 0x91, 0x50, 0x3e, 0xce, 0xbe, 0x3b, 0x3e, 0xb6, 0xd4, 0x40, 0xbe,
  0x86, 0x71, 0xf3, 0xbe, 0xab, 0x39, 0x74, 0x3e, 0x01, 0xae, 0x5f, 0x3e,
  0xd3, 0x89, 0x11, 0x3e, 0x22, 0x86, 0x12, 0xbc, 0xb3, 0x51, 0x56, 0xbe,
  0xe5, 0x95, 0x2e, 0x3f, 0xcc, 0x2b, 0x83, 0xbc, 0x00, 0x63, 0x34, 0xbe,
  0x76, 0xe6, 0x5e, 0xbd, 0xb6, 0xc7, 0x21, 0x3f, 0x59, 0x71, 0x2a, 0xbd,
  0x9f, 0x43, 0xe2, 0x3d, 0xab, 0x26, 0x85, 0xbd, 0x5a, 0xe5, 0x43, 0x3d,
  0x45, 0x8f, 0x41, 0xbe, 0x46, 0xf5, 0x42, 0x3e, 0x11, 0x5d, 0xf3, 0x3c,
  0x3c, 0x33, 0xaa, 0x3d, 0xa9, 0x26, 0x81, 0x3d, 0x03, 0xf2, 0xe8, 0xbd,
  0x2a, 0x4b, 0xfe, 0x3d, 0xa2, 0x7e, 0x48, 0xbd, 0x91, 0x05, 0x30, 0x3e,
  0x3e, 0xdf, 0xf9, 0xbe, 0xeb, 0x7d, 0x09, 0xbf, 0x42, 0x3f, 0x08, 0xbe,
  0xe7, 0x40, 0xcb, 0xbe, 0xf6, 0xc2, 0xb1, 0xbe, 0xa8, 0xe5, 0x4b, 0x3e,
  0x84, 0x91, 0xa2, 0xbd, 0xa1, 0x4b, 0x22, 0xbe, 0x09, 0x66, 0x89, 0xbf,
  0x84, 0x56, 0x80, 0xbd, 0x8d, 0xb8, 0x62, 0xbe, 0x70, 0x21, 0x20, 0xbb,
  0xb6, 0x64, 0x1f, 0x3e, 0x97, 0x06, 0x29, 0xbe, 0x20, 0x33, 0xd4, 0xba,
  0x89, 0xe6, 0x6a, 0x3d, 0x6f, 0x61, 0xdb, 0x3d, 0x95, 0x99, 0x7e, 0xbe,
  0xff, 0xa5, 0x61, 0xbe, 0x6a, 0xaf, 0x5b, 0xbb, 0xc1, 0xc5, 0xaf, 0xbe,
  0xc1, 0x24, 0x90, 0xbc, 0x7e, 0x40, 0x60, 0x3e, 0x3d, 0x85, 0x86, 0xbe,
  0xad, 0x66, 0x57, 0xbe, 0x12, 0x8e, 0x09, 0xbe, 0xdd, 0x39, 0xd8, 0xbe,
  0xe9, 0x48, 0xec, 0xbc, 0xda, 0x44, 0xd1, 0x3d, 0x06, 0xc4, 0x9b, 0x3c,
  0xa4, 0xec, 0x70, 0x3e, 0xec, 0x73, 0x14, 0x3e, 0x03, 0x2f, 0xae, 0xbd,
  0x45, 0xf6, 0xfb, 0xbd, 0xba, 0x9a, 0x3b, 0xbc, 0x79, 0x80, 0xc4, 0x3d,
  0x92, 0x4b, 0x2a, 0xbd, 0x87, 0x95, 0x24, 0x3d, 0xb0, 0xae, 0x87, 0xbd,
  0x43, 0x45, 0x19, 0xbc, 0x22, 0x4f, 0xa0, 0xbe, 0xd7, 0x5f, 0xc4, 0xbc,
  0x41, 0x6d, 0xfe, 0x3b, 0x9e, 0x4d, 0x29, 0xbe, 0x48, 0x39, 0x6a, 0x3d,
  0x72, 0xac, 0xf2, 0x3d, 0x5f, 0x6c, 0xec, 0xbd, 0xfb, 0x45, 0xa7, 0x3d,
  0xb2, 0x4b, 0x07, 0x3d, 0xc5, 0xb9, 0xe8, 0xbd, 0xeb, 0x6e, 0x7f, 0x3e,
  0xd4, 0x93, 0xd5, 0xbd, 0xe1, 0x35, 0xb1, 0x3e, 0x46, 0x11, 0x02, 0x3d,
  0x21, 0xe3, 0x33, 0xbe, 0xb5, 0x99, 0xe5, 0x3c, 0xe2, 0xb0, 0xce, 0x3d,
  0xf4, 0x68, 0x4e, 0x3d, 0x37, 0x7e, 0x77, 0xbf, 0x85, 0x79, 0xb4, 0xbe,
  0xf8, 0x05, 0x17, 0xbf, 0xca, 0xe3, 0x25, 0x3e, 0xe9, 0x3b, 0x27, 0x3f,
  0x5b, 0xb5, 0x9b, 0x3e, 0x3f, 0x13, 0x02, 0xbd, 0xa0, 0x2b, 0xd7, 0xbc,
  0x77, 0xc5, 0xd6, 0x3e, 0xbb, 0x74, 0xcd, 0xbe, 0x4d, 0x3e, 0x4d, 0x3e,
  0x2b, 0x2e, 0x32, 0x3f, 0xd9, 0x77, 0x12, 0xbe, 0x95, 0x66, 0x1a, 0x3e,
  0xbe, 0xf7, 0xd9, 0xbe, 0xb6, 0xc2, 0x17, 0xbe, 0x19, 0x75, 0x43, 0xbe,
  0xfd, 0xcf, 0x87, 0xbe, 0x6d, 0x01, 0xde, 0xbd, 0xf3, 0x3d, 0xdd, 0x3e,
  0x2a, 0x4b, 0x93, 0x3e, 0xbf, 0x9d, 0xef, 0x3c, 0xb9, 0xa0, 0x56, 0xbe,
  0x58, 0x13, 0x19, 0xbe, 0xfe, 0xc0, 0xcd, 0x3e, 0x90, 0x06, 0x72, 0xbe,
  0x30, 0xa3, 0x0f, 0x3f, 0xf0, 0x7f, 0x09, 0x3f, 0xdb, 0xf8, 0xd5, 0x3d,
  0xbd, 0x59, 0x68, 0x3e, 0x5c, 0xa3, 0xe9, 0xbe, 0x59, 0x28, 0xeb, 0x3d,
  0x17, 0xc2, 0x96, 0xbf, 0x26, 0xae, 0x0d, 0xbf, 0x59, 0x18, 0xa0, 0x3e,
  0xd6, 0x6a, 0xaa, 0x3e, 0xa7, 0x6f, 0x85, 0x3e, 0x8f, 0xa1, 0xe8, 0xbe,
  0xc3, 0x97, 0x0a, 0xbe, 0xa6, 0x53, 0x72, 0xbd, 0x19, 0xec, 0xf7, 0x3d,
  0x12, 0x88, 0x97, 0xbe, 0xbb, 0x0c, 0x47, 0x3e, 0x8c, 0x14, 0x29, 0x3f,
