/* Copyright 2019 The TensorFlow Authors. All Rights Reserved.

Licensed under the Apache License, Version 2.0 (the "License");
you may not use this file except in compliance with the License.
You may obtain a copy of the License at

    http://www.apache.org/licenses/LICENSE-2.0

Unless required by applicable law or agreed to in writing, software
distributed under the License is distributed on an "AS IS" BASIS,
WITHOUT WARRANTIES OR CONDITIONS OF ANY KIND, either express or implied.
See the License for the specific language governing permissions and
limitations under the License.
==============================================================================*/

// Automatically created from a TensorFlow Lite flatbuffer using the command:
// xxd -i magic_wand_model.tflite > magic_wand_model_data.cc
// See the README for a full description of the creation process.

#include "magic_wand_model_data.h"

// We need to keep the data array aligned on some architectures.
#ifdef __has_attribute
#define HAVE_ATTRIBUTE(x) __has_attribute(x)
#else
#define HAVE_ATTRIBUTE(x) 0
#endif
#if HAVE_ATTRIBUTE(aligned) || (defined(__GNUC__) && !defined(__clang__))
#define DATA_ALIGN_ATTRIBUTE __attribute__((aligned(4)))
#else
#define DATA_ALIGN_ATTRIBUTE
#endif

// CNN
const unsigned char g_magic_wand_model_data[] DATA_ALIGN_ATTRIBUTE = {
  0x1c, 0x00, 0x00, 0x00, 0x54, 0x46, 0x4c, 0x33, 0x14, 0x00, 0x20, 0x00,
  0x1c, 0x00, 0x18, 0x00, 0x14, 0x00, 0x10, 0x00, 0x0c, 0x00, 0x00, 0x00,
  0x08, 0x00, 0x04, 0x00, 0x14, 0x00, 0x00, 0x00, 0x1c, 0x00, 0x00, 0x00,
  0x88, 0x00, 0x00, 0x00, 0xe0, 0x00, 0x00, 0x00, 0x7c, 0x45, 0x00, 0x00,
  0x8c, 0x45, 0x00, 0x00, 0xe8, 0x4f, 0x00, 0x00, 0x03, 0x00, 0x00, 0x00,
  0x01, 0x00, 0x00, 0x00, 0x04, 0x00, 0x00, 0x00, 0x7a, 0xb9, 0xff, 0xff,
  0x0c, 0x00, 0x00, 0x00, 0x1c, 0x00, 0x00, 0x00, 0x38, 0x00, 0x00, 0x00,
  0x0f, 0x00, 0x00, 0x00, 0x73, 0x65, 0x72, 0x76, 0x69, 0x6e, 0x67, 0x5f,
  0x64, 0x65, 0x66, 0x61, 0x75, 0x6c, 0x74, 0x00, 0x01, 0x00, 0x00, 0x00,
  0x04, 0x00, 0x00, 0x00, 0x94, 0xff, 0xff, 0xff, 0x11, 0x00, 0x00, 0x00,
  0x04, 0x00, 0x00, 0x00, 0x07, 0x00, 0x00, 0x00, 0x64, 0x65, 0x6e, 0x73,
  0x65, 0x5f, 0x31, 0x00, 0x01, 0x00, 0x00, 0x00, 0x04, 0x00, 0x00, 0x00,
  0x5a, 0xba, 0xff, 0xff, 0x04, 0x00, 0x00, 0x00, 0x0c, 0x00, 0x00, 0x00,
  0x63, 0x6f, 0x6e, 0x76, 0x32, 0x64, 0x5f, 0x69, 0x6e, 0x70, 0x75, 0x74,
  0x00, 0x00, 0x00, 0x00, 0x02, 0x00, 0x00, 0x00, 0x34, 0x00, 0x00, 0x00,
  0x04, 0x00, 0x00, 0x00, 0xdc, 0xff, 0xff, 0xff, 0x14, 0x00, 0x00, 0x00,
  0x04, 0x00, 0x00, 0x00, 0x13, 0x00, 0x00, 0x00, 0x43, 0x4f, 0x4e, 0x56,
  0x45, 0x52, 0x53, 0x49, 0x4f, 0x4e, 0x5f, 0x4d, 0x45, 0x54, 0x41, 0x44,
  0x41, 0x54, 0x41, 0x00, 0x08, 0x00, 0x0c, 0x00, 0x08, 0x00, 0x04, 0x00,
  0x08, 0x00, 0x00, 0x00, 0x13, 0x00, 0x00, 0x00, 0x04, 0x00, 0x00, 0x00,
  0x13, 0x00, 0x00, 0x00, 0x6d, 0x69, 0x6e, 0x5f, 0x72, 0x75, 0x6e, 0x74,
  0x69, 0x6d, 0x65, 0x5f, 0x76, 0x65, 0x72, 0x73, 0x69, 0x6f, 0x6e, 0x00,
  0x15, 0x00, 0x00, 0x00, 0x98, 0x44, 0x00, 0x00, 0x90, 0x44, 0x00, 0x00,
  0x60, 0x44, 0x00, 0x00, 0x10, 0x44, 0x00, 0x00, 0x80, 0x42, 0x00, 0x00,
  0x70, 0x3a, 0x00, 0x00, 0x20, 0x3a, 0x00, 0x00, 0x00, 0x3a, 0x00, 0x00,
  0xe8, 0x39, 0x00, 0x00, 0xd8, 0x01, 0x00, 0x00, 0xc8, 0x00, 0x00, 0x00,
  0xc0, 0x00, 0x00, 0x00, 0xb8, 0x00, 0x00, 0x00, 0xb0, 0x00, 0x00, 0x00,
  0xa8, 0x00, 0x00, 0x00, 0xa0, 0x00, 0x00, 0x00, 0x98, 0x00, 0x00, 0x00,
  0x90, 0x00, 0x00, 0x00, 0x88, 0x00, 0x00, 0x00, 0x68, 0x00, 0x00, 0x00,
  0x04, 0x00, 0x00, 0x00, 0x2a, 0xbb, 0xff, 0xff, 0x04, 0x00, 0x00, 0x00,
  0x54, 0x00, 0x00, 0x00, 0x0c, 0x00, 0x00, 0x00, 0x08, 0x00, 0x0e, 0x00,
  0x08, 0x00, 0x04, 0x00, 0x08, 0x00, 0x00, 0x00, 0x10, 0x00, 0x00, 0x00,
  0x24, 0x00, 0x00, 0x00, 0x00, 0x00, 0x06, 0x00, 0x08, 0x00, 0x04, 0x00,
  0x06, 0x00, 0x00, 0x00, 0x04, 0x00, 0x00, 0x00, 0x00, 0x00, 0x00, 0x00,
  0x00, 0x00, 0x0a, 0x00, 0x10, 0x00, 0x0c, 0x00, 0x08, 0x00, 0x04, 0x00,
  0x0a, 0x00, 0x00, 0x00, 0x02, 0x00, 0x00, 0x00, 0x02, 0x00, 0x00, 0x00,
  0x04, 0x00, 0x00, 0x00, 0x06, 0x00, 0x00, 0x00, 0x32, 0x2e, 0x31, 0x33,
  0x2e, 0x30, 0x00, 0x00, 0x8a, 0xbb, 0xff, 0xff, 0x04, 0x00, 0x00, 0x00,
  0x10, 0x00, 0x00, 0x00, 0x31, 0x2e, 0x35, 0x2e, 0x30, 0x00, 0x00, 0x00,
  0x00, 0x00, 0x00, 0x00, 0x00, 0x00, 0x00, 0x00, 0x00, 0xb2, 0xff, 0xff,
  0x04, 0xb2, 0xff, 0xff, 0x08, 0xb2, 0xff, 0xff, 0x0c, 0xb2, 0xff, 0xff,
  0x10, 0xb2, 0xff, 0xff, 0x14, 0xb2, 0xff, 0xff, 0x18, 0xb2, 0xff, 0xff,
  0x1c, 0xb2, 0xff, 0xff, 0xc6, 0xbb, 0xff, 0xff, 0x04, 0x00, 0x00, 0x00,
  0x00, 0x01, 0x00, 0x00, 0xcc, 0xbe, 0x0e, 0xbf, 0x31, 0x5f, 0x32, 0xbe,
  0x4c, 0x51, 0x91, 0x3e, 0x08, 0x1d, 0x26, 0xbf, 0x02, 0x43, 0x82, 0xbe,
  0x0d, 0x72, 0x13, 0x3f, 0x0b, 0x1c, 0x10, 0xbe, 0x0e, 0x1c, 0xb6, 0xbe,
  0xdf, 0xbe, 0x2e, 0xbf, 0x48, 0xe6, 0x8e, 0xbf, 0xbd, 0x39, 0x26, 0xbe,
  0x7d, 0xdf, 0x11, 0xbe, 0x7b, 0x04, 0x1f, 0xbf, 0x9d, 0x5b, 0x7f, 0xbf,
  0x0a, 0x76, 0xd4, 0x3b, 0x56, 0x8c, 0x3d, 0xbf, 0x06, 0xe1, 0xf1, 0x3e,
  0xce, 0x4c, 0xb1, 0x3e, 0xc7, 0x3f, 0x44, 0x3e, 0xba, 0x8f, 0x36, 0xbe,
  0x2e, 0x67, 0xf6, 0x3e, 0x74, 0x35, 0xe4, 0xbe, 0x12, 0xfa, 0x12, 0x3e,
  0xb6, 0x41, 0xe3, 0x3e, 0x31, 0xb7, 0x98, 0x3e, 0x33, 0xec, 0x6a, 0xbe,
  0xa5, 0x79, 0x2b, 0xbe, 0x08, 0xe6, 0xbb, 0xbe, 0x9b, 0x86, 0xd4, 0xbd,
  0xd2, 0xbe, 0x2c, 0xbe, 0x71, 0xf8, 0xf3, 0xbe, 0xdb, 0xb0, 0xbc, 0xbe,
  0xbb, 0x4a, 0x46, 0xbe, 0x09, 0x7d, 0xfe, 0xbe, 0x3e, 0x05, 0xbb, 0xbe,
  0xab, 0x7f, 0xed, 0x3e, 0x90, 0x60, 0xec, 0xbe, 0x0f, 0x3e, 0xd9, 0x3e,
  0xd9, 0x27, 0x47, 0xbe, 0xde, 0xec, 0x03, 0xbf, 0x91, 0xb3, 0x17, 0xbc,
  0x62, 0x26, 0x48, 0xbe, 0x90, 0x54, 0x91, 0xbe, 0x5b, 0x89, 0x87, 0xbf,
  0x21, 0xe7, 0x78, 0x3e, 0x91, 0x01, 0x3f, 0x3e, 0xb1, 0x00, 0x2d, 0xbf,
  0x10, 0x80, 0xfd, 0xbe, 0x9b, 0xb5, 0x99, 0xbe, 0xff, 0x07, 0x1b, 0xbf,
  0x12, 0x92, 0x45, 0xbe, 0x2f, 0xdd, 0x98, 0xbd, 0x01, 0xf7, 0x0b, 0xbe,
  0x0f, 0x05, 0x11, 0x3e, 0x09, 0xca, 0x5a, 0x3e, 0x98, 0x3c, 0x15, 0xbf,
  0x1b, 0xbb, 0x90, 0x3e, 0x06, 0xdc, 0x95, 0x3f, 0xfd, 0x40, 0x71, 0x3e,
  0xc5, 0x85, 0x67, 0xbe, 0x98, 0xc0, 0x7c, 0x3e, 0xbb, 0x19, 0x84, 0xbe,
  0xed, 0x8e, 0xb3, 0x3a, 0x4c, 0x7c, 0xe5, 0x3e, 0xd2, 0xbc, 0xff, 0xff,
  0x04, 0x00, 0x00, 0x00, 0x00, 0x38, 0x00, 0x00, 0xc9, 0xa0, 0x99, 0x3c,
  0x7d, 0x59, 0xec, 0x3e, 0x13, 0xc5, 0x8c, 0x3e, 0x19, 0x98, 0x10, 0xbf,
  0x8e, 0x9d, 0xe8, 0xbe, 0xb3, 0xea, 0x44, 0xbe, 0x26, 0x7f, 0xbd, 0xbe,
  0xbf, 0x3b, 0x10, 0x3d, 0x36, 0xce, 0x30, 0x3e, 0x84, 0x82, 0x37, 0xbf,
  0xe9, 0xe2, 0x17, 0xbe, 0x92, 0x45, 0x8b, 0x3e, 0x6d, 0x9a, 0x43, 0xbe,
  0xc0, 0xc3, 0xf2, 0xbd, 0x44, 0x01, 0xdb, 0x3e, 0x1c, 0xa4, 0xcc, 0xbf,
  0xd6, 0xc8, 0xae, 0x3d, 0xf2, 0x1d, 0x0e, 0x3e, 0xf4, 0x80, 0x17, 0xbe,
  0x89, 0x06, 0x24, 0xbd, 0xd8, 0xf8, 0x7f, 0x3e, 0xcf, 0xa3, 0x07, 0xbe,
  0xa1, 0xd3, 0x57, 0xbe, 0xa2, 0x48, 0x5d, 0xbf, 0x5f, 0xb8, 0x1a, 0x3e,
  0xdc, 0x48, 0x9b, 0x3e, 0x58, 0x26, 0xd7, 0x3d, 0xd0, 0x3f, 0x09, 0xbe,
  0x46, 0xbc, 0x66, 0xbe, 0x9d, 0x06, 0x93, 0xbe, 0xb0, 0x11, 0x25, 0x3f,
  0x90, 0xb7, 0x8c, 0xbf, 0xde, 0x44, 0x7c, 0xbd, 0x42, 0x7a, 0xe5, 0x3e,
  0x19, 0xe9, 0x93, 0x3e, 0x28, 0x6e, 0x7d, 0xbe, 0x76, 0xab, 0x12, 0xbe,
  0x52, 0x2c, 0x70, 0xbf, 0xab, 0xb9, 0xcb, 0x3d, 0xdb, 0x97, 0x0d, 0x3f,
  0x4c, 0xfc, 0xe0, 0xbe, 0x22, 0x62, 0x01, 0x3f, 0x7a, 0xb5, 0xca, 0xbe,
  0x5b, 0x25, 0x16, 0xbe, 0x80, 0xae, 0x55, 0xbe, 0x37, 0xc8, 0x8e, 0xbf,
  0x53, 0xa2, 0xae, 0x3d, 0x01, 0x09, 0xce, 0xbe, 0x4a, 0x6b, 0xd0, 0xbc,
  0x2f, 0x23, 0xfa, 0x3e, 0x46, 0xfc, 0x54, 0x3e, 0x7a, 0xb0, 0xe1, 0xbe,
  0xa8, 0x7e, 0xdc, 0xbe, 0xff, 0xe4, 0xdb, 0x3c, 0xa1, 0xe4, 0x41, 0x3e,
  0x6f, 0x4e, 0x0b, 0x3f, 0xed, 0xcc, 0x8c, 0xbe, 0xb6, 0x5a, 0x79, 0x3d,
  0x34, 0x93, 0xa9, 0xba, 0x35, 0x41, 0x5c, 0x3e, 0x96, 0x39, 0x9d, 0xbe,
  0x1b, 0xd2, 0x52, 0xbf, 0x28, 0x00, 0x07, 0xbf, 0x38, 0xae, 0x86, 0xbd,
  0xd5, 0xbb, 0xd6, 0x3d, 0xaf, 0x9d, 0x89, 0x3e, 0x37, 0x86, 0x88, 0x3e,
  0x39, 0xef, 0x84, 0xbe, 0x1a, 0x2d, 0xa7, 0xbe, 0xef, 0x64, 0xb0, 0x3e,
  0x78, 0x27, 0x43, 0xbd, 0x7b, 0xc7, 0x8f, 0x3e, 0x73, 0x37, 0xcb, 0x3d,
  0x2a, 0xa6, 0x04, 0xbf, 0x25, 0xba, 0x02, 0x3d, 0xef, 0x10, 0x2a, 0x3e,
  0x4a, 0xd8, 0xe8, 0xbe, 0x27, 0xca, 0x45, 0xbf, 0xec, 0x93, 0x9b, 0xbe,
  0x3b, 0x7f, 0x78, 0xbe, 0x5b, 0x57, 0xd3, 0x3d, 0xaa, 0x75, 0x5c, 0xbe,
  0x04, 0x4a, 0x92, 0xbe, 0x36, 0x95, 0x5d, 0x3b, 0x73, 0xd4, 0xc1, 0xbc,
  0xe1, 0x88, 0xc7, 0x3c, 0x04, 0x77, 0x08, 0xbf, 0x15, 0x2a, 0x00, 0xbf,
  0x1d, 0x06, 0x82, 0x3e, 0x22, 0x4d, 0x63, 0xbf, 0x57, 0xbf, 0xa1, 0xbe,
  0x06, 0x50, 0x36, 0x3e, 0x25, 0x13, 0x21, 0xbd, 0x50, 0x52, 0x23, 0x3e,
  0x02, 0x91, 0x21, 0xbd, 0x89, 0x4b, 0x89, 0xbd, 0xe2, 0x98, 0xc2, 0xbd,
  0x34, 0xfc, 0x75, 0xbf, 0x26, 0x27, 0x03, 0xbf, 0x2d, 0xed, 0x08, 0xbe,
  0x2e, 0x6f, 0x87, 0x3e, 0xce, 0x82, 0x28, 0xbe, 0xeb, 0x84, 0xde, 0xbe,
  0x49, 0xcc, 0xe8, 0xbe, 0x83, 0xcb, 0xdc, 0x3c, 0xfd, 0x26, 0x09, 0xbf,
  0x23, 0xbe, 0xaa, 0xbe, 0x99, 0x52, 0x20, 0x3e, 0x91, 0x56, 0x3b, 0xbe,
  0x83, 0xaf, 0x28, 0xbe, 0xb1, 0x73, 0x36, 0xbf, 0x89, 0x0c, 0xbe, 0xbe,
  0xab, 0x31, 0xaa, 0x3e, 0xbb, 0x86, 0x27, 0xbe, 0xcb, 0x29, 0xff, 0xbe,
  0x3c, 0x41, 0xd0, 0xbd, 0xaf, 0x13, 0x7e, 0xbe, 0x8e, 0xc3, 0x2a, 0xbf,
  0x4d, 0x97, 0x94, 0xbe, 0xf5, 0x86, 0x1b, 0xbe, 0x57, 0xdf, 0x39, 0xbe,
  0x75, 0xac, 0xe5, 0x3e, 0x5e, 0x4b, 0xdc, 0xbe, 0x2f, 0xae, 0xf6, 0x3d,
  0xca, 0xba, 0x21, 0x3e, 0xf4, 0x8e, 0xa9, 0xbe, 0xfa, 0xb8, 0x93, 0xbe,
  0xb5, 0x60, 0x29, 0xbd, 0xf8, 0xc7, 0x4e, 0xbe, 0x34, 0x27, 0x17, 0x3f,
  0x89, 0xe6, 0x6a, 0x3e, 0xce, 0xb4, 0xbb, 0xbe, 0x61, 0xc6, 0xaa, 0xbd,
  0x22, 0x89, 0xc6, 0x3d, 0x8e, 0xf5, 0x5b, 0xbd, 0x9d, 0xf6, 0x30, 0x3d,
  0x0c, 0x05, 0x07, 0xbf, 0xd5, 0x54, 0x05, 0x3e, 0x59, 0xba, 0x98, 0xbd,
  0x43, 0xd7, 0x07, 0xbd, 0x84, 0xc4, 0xa7, 0x3e, 0x81, 0x05, 0x19, 0xbf,
  0xfe, 0x1c, 0xd6, 0xbe, 0x48, 0x5b, 0x87, 0x3d, 0x19, 0x3c, 0x27, 0xbd,
  0x60, 0x0d, 0xf8, 0x3e, 0xd8, 0xe0, 0x1b, 0x3f, 0xf1, 0xa9, 0xa6, 0xbe,
  0x24, 0x90, 0x88, 0xbd, 0xbe, 0xd0, 0x8b, 0xbe, 0x52, 0x71, 0x06, 0xbf,
  0x00, 0x7b, 0xdc, 0xbe, 0xe1, 0x34, 0x5a, 0xbe, 0xab, 0x4d, 0x4a, 0xbf,
  0x17, 0xb5, 0x11, 0xbc, 0xfc, 0xa4, 0xca, 0x3d, 0x69, 0x62, 0x09, 0xbe,
  0x89, 0x2f, 0x9a, 0xbd, 0xde, 0xba, 0x21, 0xbe, 0x6a, 0xc3, 0x20, 0xbf,
  0xab, 0x41, 0x90, 0x3e, 0x14, 0x83, 0xd1, 0x3e, 0xda, 0x0f, 0xbe, 0x3e,
  0xe2, 0x0b, 0x38, 0xbf, 0x0c, 0x21, 0x3b, 0xbe, 0x43, 0xef, 0x5c, 0xbe,
  0x38, 0x41, 0x49, 0xbf, 0x90, 0x91, 0x4c, 0xbe, 0xd0, 0x37, 0x19, 0xbe,
  0x45, 0x1a, 0xba, 0xbe, 0xdb, 0x48, 0x50, 0x3d, 0xfe, 0x63, 0xab, 0x3d,
  0x2e, 0xd6, 0x29, 0xbf, 0xc8, 0x2a, 0xa9, 0xbe, 0x6f, 0x64, 0x59, 0x3e,
  0x15, 0x72, 0x46, 0xbf, 0x82, 0x5c, 0x20, 0x3e, 0xb4, 0x93, 0xd5, 0x3e,
  0xe2, 0x51, 0xe4, 0x3d, 0x5b, 0x80, 0x5b, 0xbe, 0xd7, 0x84, 0x18, 0x3e,
  0x6c, 0x5f, 0xbf, 0xbe, 0x57, 0x18, 0xf7, 0xbd, 0x1f, 0xad, 0x57, 0xbf,
  0x8d, 0x93, 0x18, 0x3e, 0x61, 0xed, 0x09, 0x3e, 0x9d, 0x88, 0x17, 0x3d,
  0x69, 0x7e, 0x22, 0xbe, 0x5c, 0x06, 0x94, 0xbe, 0x51, 0xcb, 0xba, 0xbe,
  0x8d, 0x44, 0x19, 0x3e, 0x92, 0xd0, 0x86, 0xbf, 0x88, 0xf1, 0x20, 0x3c,
  0x63, 0x9b, 0xa8, 0x3e, 0x35, 0xda, 0xd7, 0x3e, 0x1b, 0x7f, 0x3c, 0xbe,
  0x6f, 0x86, 0x06, 0x3d, 0x2d, 0x6a, 0xac, 0xbe, 0x37, 0xf5, 0xc7, 0x3d,
  0xf3, 0xbd, 0x2c, 0x3f, 0x76, 0x89, 0x7c, 0x3e, 0x39, 0x11, 0x10, 0x3f,
  0xfd, 0xae, 0xf3, 0x3d, 0x0c, 0x3f, 0x88, 0x3d, 0xda, 0x46, 0x0f, 0xbe,
  0xe2, 0x92, 0x37, 0xbf, 0xb8, 0x92, 0x9d, 0x3e, 0x8b, 0x6e, 0x35, 0xbf,
  0xb9, 0xd0, 0x2c, 0xbe, 0xec, 0xdf, 0xd8, 0x3e, 0xcc, 0x07, 0xd4, 0x3e,
  0xd4, 0x9d, 0x94, 0xbe, 0x62, 0xc2, 0x18, 0xbe, 0x53, 0xdb, 0x44, 0xbf,
  0xfb, 0x58, 0xf2, 0x3d, 0xa0, 0x4f, 0xab, 0x3e, 0xb6, 0x16, 0x5f, 0xbf,
  0x3a, 0x4d, 0xdf, 0x3c, 0x1c, 0xc1, 0x3c, 0xbe, 0xaa, 0xc7, 0x7f, 0xbd,
  0x23, 0xfb, 0xf9, 0xbe, 0x0e, 0x5b, 0x54, 0xbf, 0x9c, 0x58, 0x47, 0x3e,
  0xfe, 0xd5, 0xb3, 0xbe, 0x36, 0x73, 0x23, 0x3e, 0xe5, 0x9f, 0x37, 0x3e,
  0x24, 0x5a, 0x49, 0xbf, 0xcd, 0x5c, 0xa6, 0xbd, 0xf2, 0x72, 0x4e, 0x3e,
  0x7c, 0x44, 0x98, 0xbe, 0x90, 0xd1, 0xc1, 0x3d, 0x45, 0x86, 0x2c, 0x3e,
  0x41, 0xfd, 0x30, 0x3e, 0x94, 0xe6, 0x89, 0xbd, 0xc8, 0x45, 0x72, 0x3d,
  0xc0, 0xbc, 0x9a, 0x3d, 0xb5, 0x52, 0x54, 0x3e, 0xcb, 0x8b, 0xc6, 0xbe,
  0x2e, 0x21, 0x13, 0xbf, 0x7f, 0x19, 0x7c, 0xbe, 0x5d, 0xb4, 0x32, 0xbe,
  0xae, 0x4d, 0x96, 0x3e, 0x45, 0x4a, 0xdb, 0x3e, 0x74, 0x00, 0x5d, 0xbe,
  0xab, 0x7e, 0x9a, 0xbd, 0x2b, 0xb8, 0x8e, 0xbe, 0xcc, 0xfa, 0xcc, 0x3e,
  0x00, 0x35, 0xef, 0x3e, 0x6b, 0x3e, 0x2f, 0xbd, 0x27, 0x29, 0x4e, 0x3e,
  0x16, 0x1d, 0xf7, 0x3b, 0x53, 0x46, 0x22, 0x3e, 0xff, 0x2f, 0x19, 0xbd,
  0xfe, 0x0b, 0x7b, 0x3c, 0x19, 0x14, 0x6b, 0xbf, 0x06, 0xd0, 0x24, 0xbf,
  0xbe, 0xbd, 0x30, 0xbe, 0x2a, 0x76, 0x83, 0x3c, 0x9b, 0xb6, 0x04, 0x3f,
  0xa2, 0xea, 0xea, 0xbe, 0xab, 0x9c, 0x84, 0xbe, 0x48, 0x0c, 0x83, 0xbf,
  0x81, 0x47, 0x80, 0xbf, 0x06, 0xfa, 0xd9, 0x3e, 0x56, 0x82, 0xf1, 0x3d,
  0xf9, 0x6b, 0x6c, 0xbe, 0xe5, 0xdc, 0x2b, 0xbe, 0x54, 0xa4, 0x26, 0x3e,
  0x06, 0x64, 0x80, 0xbe, 0x3c, 0xd7, 0x12, 0xbf, 0xd3, 0xb4, 0x8f, 0x3e,
  0x71, 0x3c, 0x9c, 0xbe, 0x5c, 0x45, 0xdd, 0x3d, 0x33, 0x71, 0x1a, 0xbd,
  0xa6, 0x0e, 0xd4, 0xbe, 0xb5, 0x37, 0x1e, 0xbf, 0x52, 0xc4, 0x86, 0x3d,
  0x87, 0x0f, 0x23, 0xbf, 0xdf, 0x88, 0x6c, 0xbd, 0x22, 0xf8, 0xb9, 0xbe,
  0x18, 0x7e, 0x84, 0xbc, 0xb7, 0xb7, 0xdd, 0x3d, 0xb7, 0xef, 0xa4, 0xbe,
  0x2d, 0xb5, 0x09, 0xbd, 0x08, 0xf7, 0xb1, 0x3e, 0x68, 0xde, 0xa9, 0xbd,
  0x18, 0x50, 0x4d, 0x3e, 0xed, 0x5b, 0x21, 0xbf, 0x73, 0x01, 0xcf, 0x3d,
  0x29, 0x88, 0x33, 0x3e, 0x53, 0xdd, 0x7e, 0x3d, 0x20, 0xc0, 0x1e, 0xbf,
  0xc8, 0xb4, 0xbe, 0x3d, 0xc9, 0x3a, 0x21, 0x3e, 0xbc, 0x35, 0x94, 0x3e,
  0xd1, 0xb3, 0xc6, 0xbc, 0x23, 0x26, 0x47, 0xbd, 0xdc, 0x67, 0x0b, 0x3f,
  0x19, 0xbf, 0x07, 0xbf, 0xdf, 0xcf, 0x12, 0xbe, 0xac, 0x71, 0x63, 0xbd,
  0xfc, 0x0d, 0x0a, 0xbf, 0xdd, 0x86, 0x2e, 0x3c, 0x9e, 0xc1, 0x0b, 0xbf,
  0x3d, 0x97, 0x6d, 0xbe, 0xe0, 0xd8, 0x2b, 0x3e, 0xed, 0x9e, 0xee, 0x3e,
  0x30, 0x75, 0xbb, 0x3d, 0x21, 0x44, 0x2a, 0x3e, 0xc0, 0x53, 0x1e, 0x3e,
  0x04, 0x34, 0x03, 0x3f, 0x9e, 0xc1, 0xfb, 0x3d, 0x88, 0x05, 0xea, 0x3d,
  0x0e, 0x09, 0x9a, 0x3e, 0xce, 0x4c, 0xb6, 0xbd, 0x5c, 0x92, 0xc2, 0xbc,
  0x0b, 0xcf, 0xe6, 0x3e, 0xe2, 0x52, 0x4b, 0xbe, 0x16, 0x4a, 0xbf, 0xbd,
  0x9f, 0xa5, 0x73, 0xbe, 0x92, 0x60, 0x39, 0x3e, 0x1e, 0xd5, 0x19, 0x3e,
  0xd5, 0x25, 0x98, 0x3e, 0x39, 0x1c, 0x96, 0xbe, 0x4d, 0x19, 0x68, 0x3e,
  0x3c, 0x6a, 0xb9, 0xbe, 0x20, 0xdc, 0x95, 0x3e, 0xc2, 0x54, 0xcd, 0x3e,
  0x3d, 0xbd, 0x7a, 0x3e, 0x61, 0x7f, 0xde, 0x3d, 0x43, 0x2a, 0xd9, 0xbd,
  0xcd, 0xbc, 0x01, 0xbe, 0x4f, 0x73, 0xb3, 0x3e, 0xb3, 0xcf, 0x17, 0xbf,
  0xdb, 0x28, 0x38, 0xbe, 0xab, 0x84, 0x15, 0x3e, 0x8d, 0x1a, 0x49, 0x3e,
  0x7f, 0x66, 0x99, 0x3e, 0xcd, 0x0b, 0xeb, 0x3e, 0xab, 0x37, 0x3b, 0x3d,
  0xdd, 0xde, 0xa6, 0xbe, 0x9b, 0xf0, 0x11, 0xbf, 0x4a, 0x7b, 0xce, 0x3d,
  0x74, 0x23, 0xe8, 0x3d, 0xbb, 0xdf, 0xa7, 0x3e, 0x5a, 0xa1, 0x96, 0xbd,
  0x10, 0xd8, 0xd0, 0xbd, 0x3e, 0xe1, 0xfb, 0xbd, 0x68, 0x9c, 0x8d, 0xbe,
  0xd0, 0x98, 0x3c, 0xbf, 0xf5, 0x8e, 0x80, 0xbe, 0x9a, 0x67, 0x6b, 0xbd,
  0x53, 0x26, 0x5b, 0xbe, 0x39, 0x07, 0x18, 0x3e, 0x51, 0x13, 0xfc, 0x3e,
  0xc6, 0x56, 0x98, 0xbe, 0xff, 0xc6, 0x1b, 0xbe, 0x9c, 0x5d, 0xd1, 0xbe,
  0x34, 0xe5, 0x3e, 0xbe, 0x17, 0xd9, 0xe1, 0x3d, 0xe5, 0x6a, 0xcf, 0x3e,
  0xbf, 0x6f, 0xb8, 0xbb, 0x53, 0x51, 0x29, 0x3e, 0xd0, 0x75, 0xb0, 0xb9,
  0xa7, 0x10, 0x63, 0xbe, 0x65, 0xe6, 0x43, 0xbf, 0x6e, 0x44, 0x92, 0xbd,
  0x83, 0xe9, 0x53, 0xbe, 0xba, 0x2c, 0xf7, 0xbc, 0xd6, 0x33, 0xb0, 0x3e,
  0x13, 0x2d, 0x06, 0x3f, 0x2b, 0x89, 0x51, 0xbe, 0x35, 0xa4, 0x88, 0xbc,
  0x56, 0xe0, 0xeb, 0xbd, 0x3d, 0xe7, 0x89, 0xbe, 0x98, 0xf7, 0x76, 0x3d,
  0xae, 0x64, 0xa5, 0x3e, 0x62, 0xb5, 0xda, 0xbd, 0x25, 0x27, 0x19, 0xbd,
  0xe9, 0x77, 0xf4, 0x3b, 0x34, 0x57, 0x38, 0xbe, 0xf0, 0xfd, 0xee, 0xbd,
  0x87, 0x96, 0x95, 0x3e, 0x4c, 0x54, 0xf5, 0xbe, 0x83, 0xe7, 0x18, 0x3e,
  0x94, 0x2a, 0xfc, 0x3d, 0x72, 0xef, 0xd4, 0x3e, 0x2f, 0xa0, 0xac, 0xbe,
  0xf7, 0xab, 0xb5, 0x3e, 0x20, 0x63, 0x9a, 0xbe, 0x28, 0x5b, 0x02, 0xbe,
  0xd6, 0x7a, 0x91, 0x3e, 0xc0, 0x32, 0x04, 0xbc, 0x17, 0x5c, 0xda, 0x3e,
  0xef, 0xf1, 0xfb, 0x3c, 0xf9, 0x2e, 0x77, 0xbb, 0x09, 0x93, 0x5b, 0xbe,
  0x19, 0x6b, 0xd0, 0x3c, 0xbe, 0x45, 0x0d, 0x3f, 0x45, 0xa7, 0x19, 0xbf,
  0x75, 0xdf, 0x82, 0x3d, 0x37, 0x7f, 0xc4, 0x3e, 0xa4, 0x34, 0x3c, 0x3f,
  0xfb, 0x8d, 0x45, 0xbf, 0x32, 0xd2, 0xca, 0x3d, 0x65, 0x9e, 0x60, 0x3e,
  0x9a, 0x36, 0x8a, 0x3e, 0x90, 0x98, 0xbf, 0x3e, 0xd1, 0xb6, 0x09, 0xbf,
  0xb7, 0x44, 0x3d, 0x3f, 0xae, 0x9e, 0x10, 0x3d, 0x2d, 0xa9, 0x8b, 0xbd,
  0xa9, 0x45, 0x24, 0xbe, 0x2a, 0xe3, 0x89, 0xbe, 0x78, 0xe1, 0x9f, 0x3e,
  0xe0, 0x9c, 0x15, 0xbf, 0x1b, 0x65, 0xef, 0xbe, 0xbd, 0x48, 0x4f, 0x3e,
  0xe9, 0xd0, 0x11, 0x3f, 0xb7, 0x19, 0x76, 0xbf, 0x04, 0x97, 0x97, 0xbe,
  0xcb, 0xdb, 0xdc, 0xbd, 0x28, 0x95, 0xa3, 0xbc, 0xd2, 0x53, 0x58, 0x3e,
  0xdd, 0x0d, 0x5a, 0xbe, 0x11, 0x03, 0x6b, 0x3c, 0x34, 0x68, 0xa4, 0xbe,
  0xa4, 0xa7, 0x69, 0x3d, 0x91, 0xe4, 0xdd, 0xbe, 0x72, 0x4f, 0xe3, 0xbf,
  0x38, 0xaf, 0x30, 0xbf, 0x2c, 0xd4, 0x95, 0xbd, 0x1d, 0x5d, 0xce, 0x3c,
  0x3e, 0xe9, 0xff, 0xbd, 0xb7, 0x79, 0x0c, 0xbf, 0x4f, 0x08, 0xa0, 0xbc,
  0xf4, 0x47, 0x69, 0xbc, 0xb3, 0xda, 0x92, 0xbf, 0x38, 0x3f, 0x3b, 0xbe,
  0x3a, 0xd3, 0x12, 0xbe, 0x33, 0x2f, 0x2c, 0x3e, 0x61, 0x97, 0xa3, 0xbe,
  0x29, 0x82, 0xa4, 0x3e, 0x14, 0x2f, 0x2a, 0x3b, 0xed, 0xbf, 0x96, 0x3e,
  0x5e, 0x4b, 0x1a, 0xbf, 0x0c, 0x07, 0xa3, 0xbe, 0xf2, 0x50, 0xb0, 0xbe,
  0x2c, 0x1f, 0xaf, 0x3c, 0xd0, 0xae, 0xbd, 0x3e, 0x4d, 0xe9, 0xa9, 0x3e,
  0xdf, 0x8b, 0x3a, 0xbd, 0x41, 0x0a, 0x71, 0x3d, 0xa6, 0xbb, 0xe4, 0xbe,
  0xf3, 0x64, 0xd3, 0x3e, 0xdc, 0xd6, 0xe0, 0xbb, 0x84, 0xe7, 0xe3, 0x3d,
  0x16, 0x64, 0xc2, 0x3e, 0xc4, 0xa6, 0x29, 0xbe, 0x7b, 0x3c, 0xc7, 0xbd,
  0x35, 0x8a, 0x0a, 0x3e, 0xd3, 0x29, 0x0e, 0xbe, 0x42, 0xeb, 0x6f, 0x3d,
  0x41, 0x79, 0xcb, 0xbe, 0x13, 0x7e, 0x97, 0xbe, 0x0f, 0xf3, 0xef, 0x3e,
  0x09, 0xe4, 0xf9, 0x3e, 0x11, 0x24, 0x93, 0xbd, 0xa4, 0x2f, 0x8d, 0xbd,
  0x1d, 0x21, 0x24, 0xbf, 0xeb, 0x54, 0xf3, 0x3e, 0x89, 0x0e, 0xf1, 0xbe,
  0xed, 0xcc, 0x66, 0xbe, 0xa0, 0x98, 0xef, 0x3e, 0x16, 0xcd, 0xbb, 0xbe,
  0x38, 0x59, 0x7e, 0x3d, 0xb6, 0x7f, 0x63, 0x3e, 0xdb, 0xed, 0x95, 0xbe,
  0x1e, 0x93, 0xb4, 0x3e, 0x3b, 0xe4, 0x27, 0x3d, 0x8a, 0x08, 0x22, 0xbe,
  0xde, 0xf7, 0x22, 0x3e, 0x24, 0xd1, 0xb5, 0x3e, 0x10, 0xbb, 0x46, 0xbd,
  0x4e, 0x65, 0x0e, 0xbc, 0x11, 0xc9, 0xb9, 0xbe, 0x94, 0x2b, 0x7c, 0x3e,
  0xf4, 0x44, 0x63, 0xbe, 0x93, 0xff, 0xb5, 0x3d, 0xda, 0xff, 0xa7, 0x3e,
  0x1a, 0x43, 0x0a, 0xbf, 0x85, 0x27, 0x54, 0xbd, 0x4f, 0xf6, 0x10, 0x3e,
  0x08, 0x19, 0x9e, 0x3e, 0x7c, 0xf0, 0x79, 0x3c, 0xd8, 0x46, 0xc5, 0xbd,
  0x7f, 0xfc, 0x28, 0xbe, 0x7d, 0xa6, 0x59, 0xbe, 0x0a, 0x34, 0xfc, 0x3e,
  0xc7, 0x3b, 0xb0, 0xbe, 0x0c, 0x1b, 0x89, 0x3d, 0x8c, 0xdd, 0x3b, 0xbe,
  0xbd, 0x66, 0xd1, 0x3e, 0xc5, 0x08, 0x6b, 0x3e, 0x24, 0x30, 0x92, 0xbe,
  0x9c, 0x97, 0xb7, 0x3d, 0x96, 0x86, 0x24, 0xbf, 0x34, 0x4e, 0x35, 0xbc,
  0x30, 0xd1, 0x32, 0x3e, 0xec, 0x74, 0x98, 0x3e, 0xd0, 0xfb, 0xa3, 0x3e,
  0x72, 0x8f, 0x50, 0xbe, 0xf7, 0xe2, 0xb2, 0xbe, 0xeb, 0x93, 0x64, 0x3e,
  0x38, 0x2d, 0x43, 0x3f, 0xb6, 0xc5, 0xa8, 0xbd, 0xf2, 0xdf, 0x30, 0xbe,
  0xf9, 0xd1, 0x94, 0xbe, 0x4f, 0x1c, 0x06, 0x3f, 0xec, 0xcf, 0x88, 0x3e,
  0xd2, 0x7e, 0xc8, 0xbd, 0xbf, 0xd6, 0x6e, 0x3e, 0x20, 0x4b, 0x99, 0xbe,
  0x69, 0xc9, 0x5a, 0x3c, 0x45, 0x13, 0x59, 0xbd, 0xcb, 0x1e, 0x94, 0xbe,
  0xa9, 0x83, 0x1b, 0x3d, 0xc8, 0x55, 0x96, 0x3d, 0x24, 0x62, 0x78, 0xbd,
  0x1b, 0x66, 0x3f, 0xbe, 0x9e, 0x92, 0xdc, 0x3e, 0x09, 0x06, 0xa8, 0xbe,
  0x78, 0x52, 0x89, 0xbf, 0xd3, 0x23, 0xdc, 0xbe, 0x16, 0xb2, 0x0d, 0x3f,
  0x89, 0xda, 0xa2, 0x3e, 0x1d, 0x09, 0x18, 0x3e, 0x3d, 0xc2, 0x56, 0x3e,
  0xdf, 0x5c, 0x85, 0xbe, 0xa9, 0x95, 0x91, 0x3d, 0xee, 0xed, 0x48, 0xbf,
  0x47, 0x4f, 0xf4, 0xbe, 0xd5, 0x5b, 0x51, 0xbf, 0x4d, 0x0a, 0xe9, 0x3e,
  0x61, 0xea, 0xca, 0x3e, 0x65, 0x31, 0xf1, 0xbe, 0xb4, 0xe8, 0x61, 0x3e,
  0xf2, 0xc1, 0xd8, 0xbe, 0x31, 0xa6, 0x83, 0xbf, 0x98, 0x29, 0x8c, 0xbe,
  0xd4, 0xcf, 0x61, 0x3e, 0x18, 0xd3, 0x95, 0x3e, 0x08, 0xeb, 0xa3, 0x3e,
  0x0b, 0x53, 0x11, 0xbf, 0xf8, 0xc3, 0xee, 0x3c, 0xac, 0x0a, 0xbe, 0x3d,
  0xf9, 0xee, 0x11, 0xbf, 0xfc, 0xc9, 0x71, 0xbf, 0x00, 0x22, 0x52, 0xbf,
  0xe1, 0xbe, 0xb8, 0x3e, 0xf5, 0xab, 0xba, 0xbd, 0x63, 0x8f, 0x14, 0xbf,
  0xbc, 0x9b, 0x61, 0x3d, 0x16, 0xe3, 0x0c, 0xbe, 0x22, 0xa0, 0x26, 0xbf,
  0x64, 0x6e, 0xab, 0xbe, 0x91, 0x1d, 0xe6, 0xbe, 0x72, 0x63, 0x6b, 0x3e,
  0x2e, 0x1a, 0xdb, 0x3e, 0xfa, 0x36, 0xaf, 0xbe, 0xb9, 0x7e, 0x2f, 0xbe,
  0x98, 0x2c, 0xf5, 0xbd, 0xfa, 0xe5, 0x81, 0xbe, 0x69, 0xfd, 0x3b, 0x3e,
  0x78, 0xd0, 0x18, 0xbe, 0x25, 0xdd, 0x91, 0x3d, 0xc6, 0xac, 0x88, 0x3e,
  0x16, 0x5d, 0xe9, 0xbe, 0x44, 0xd4, 0x97, 0x3e, 0x24, 0xfe, 0x13, 0xbe,
  0x21, 0xd0, 0x5c, 0x3e, 0x55, 0xa0, 0x20, 0xbf, 0xce, 0x94, 0x85, 0xbe,
  0x90, 0x2d, 0x87, 0x3c, 0xcc, 0x74, 0x59, 0x3d, 0x6a, 0x23, 0xaa, 0x3e,
  0xe0, 0x12, 0x55, 0x3d, 0x27, 0xb0, 0x21, 0x3c, 0xef, 0xfc, 0xa2, 0xbb,
  0xe5, 0x10, 0xa2, 0xbd, 0xcb, 0x1e, 0xb0, 0x3e, 0x94, 0x3c, 0x4b, 0x3e,
  0x86, 0x12, 0x0a, 0x3e, 0x2e, 0x73, 0x30, 0x3e, 0xb8, 0xa0, 0x0e, 0xbe,
  0x4b, 0xf7, 0x22, 0xbe, 0x3c, 0xbd, 0xf3, 0x3b, 0x16, 0x3b, 0x20, 0xbf,
  0xda, 0x32, 0x3a, 0x3e, 0xbc, 0xbc, 0x41, 0xbc, 0xe8, 0x07, 0xa0, 0x3e,
  0x0b, 0xc8, 0x23, 0x3f, 0x4c, 0x59, 0x3c, 0xbe, 0x0a, 0xdc, 0xb4, 0x3c,
  0xce, 0x5a, 0xa3, 0x3c, 0x1e, 0x69, 0x11, 0xbf, 0x7e, 0x42, 0xbe, 0xbc,
  0xa3, 0x0e, 0x47, 0x3d, 0x17, 0xd5, 0x3a, 0xbe, 0x90, 0x2b, 0x86, 0x3e,
  0xed, 0x5b, 0xc2, 0x3e, 0xbd, 0x0e, 0xa0, 0xbd, 0xb2, 0x98, 0x61, 0xbe,
  0x5b, 0x7f, 0xbc, 0xbe, 0xef, 0x98, 0x5a, 0x3e, 0xff, 0x25, 0x13, 0xbf,
  0x93, 0xfd, 0x31, 0x3e, 0x42, 0xc4, 0xc0, 0xbc, 0xf0, 0xc8, 0x9a, 0xbe,
  0xf4, 0xca, 0x1a, 0xbd, 0x69, 0x5e, 0x7a, 0x3e, 0xda, 0x59, 0x25, 0xbe,
  0x2f, 0xf4, 0xeb, 0xbd, 0x60, 0xdc, 0xa2, 0xbd, 0xd2, 0xfc, 0x93, 0xbd,
  0xa2, 0x22, 0x04, 0x3f, 0x2a, 0x5b, 0x0e, 0x3f, 0x4a, 0x73, 0x5e, 0x3d,
  0x35, 0xfa, 0x1f, 0x3e, 0xfb, 0xeb, 0xbf, 0xbe, 0x94, 0xf0, 0xeb, 0x3e,
  0x5d, 0x24, 0x9e, 0x3d, 0xd7, 0xd0, 0x1e, 0xbe, 0x26, 0x4c, 0xaa, 0xbd,
  0x87, 0xe9, 0xb7, 0xbc, 0x21, 0x9b, 0x4d, 0xbe, 0xc5, 0xb0, 0xaa, 0x3d,
  0xa5, 0xef, 0x56, 0x3e, 0x05, 0x78, 0x00, 0x3f, 0x55, 0xa9, 0x52, 0xbe,
  0x4e, 0x5c, 0x53, 0xbe, 0x75, 0xf2, 0xf6, 0x3e, 0xcd, 0xe4, 0xa3, 0x3e,
  0xa5, 0x97, 0x2d, 0xbe, 0x2d, 0x66, 0x36, 0x3d, 0xfe, 0x2f, 0x8e, 0xbe,
  0x75, 0x02, 0xad, 0x3e, 0x36, 0x4e, 0xe9, 0x3e, 0xf9, 0xa1, 0xea, 0xbd,
  0x4a, 0x51, 0xf3, 0x3e, 0x43, 0x60, 0xd6, 0xbe, 0xbd, 0xe0, 0x07, 0x3e,
  0x76, 0x1e, 0xa9, 0xbd, 0xca, 0x60, 0xba, 0x3e, 0x4b, 0xce, 0x25, 0xbd,
  0xd1, 0xa5, 0xa0, 0x3b, 0xb3, 0xc7, 0x08, 0xbe, 0xf0, 0xb8, 0x10, 0xbe,
  0x62, 0xc6, 0x3b, 0x3f, 0x2c, 0xb0, 0x9b, 0xbe, 0x05, 0x6c, 0x8e, 0xbf,
  0x91, 0x49, 0xd2, 0xbe, 0xcd, 0x35, 0x02, 0x3b, 0xbb, 0x08, 0x24, 0x3e,
  0xaf, 0x18, 0x70, 0xbe, 0x9d, 0x9b, 0xfd, 0xbe, 0x59, 0x36, 0xb0, 0xbe,
  0xc9, 0x99, 0xfb, 0x3e, 0x80, 0x60, 0xcb, 0x3d, 0xe8, 0xc0, 0x5b, 0x3e,
  0x94, 0xd0, 0x28, 0xbf, 0x33, 0x8c, 0x4b, 0x3e, 0x23, 0xd1, 0x09, 0xbf,
  0x1e, 0xa6, 0x00, 0x3d, 0x92, 0x60, 0x67, 0x3c, 0x37, 0x67, 0xa2, 0xbe,
  0x73, 0xb5, 0x89, 0xbf, 0x06, 0x3a, 0x45, 0xbf, 0x73, 0x18, 0xa8, 0x3d,
  0x90, 0x47, 0x84, 0x3c, 0xf2, 0xcb, 0x89, 0xbe, 0x53, 0x65, 0x14, 0x3d,
  0x7e, 0x1a, 0x8c, 0xbd, 0x65, 0xb4, 0x87, 0x3d, 0x5b, 0xdc, 0xbe, 0x3d,
  0xe0, 0xeb, 0x57, 0xbe, 0xd0, 0xfb, 0x65, 0xbe, 0x52, 0x87, 0x17, 0xbf,
  0x3d, 0x07, 0xa7, 0xbf, 0xf9, 0x26, 0x95, 0x3d, 0x4d, 0x58, 0x00, 0x3f,
  0x5c, 0x8c, 0x04, 0xbf, 0xdf, 0x96, 0xc9, 0xbe, 0xff, 0xfa, 0x05, 0xbd,
  0x2c, 0xca, 0x1a, 0xbd, 0x95, 0x76, 0x4d, 0x3e, 0x1c, 0xe8, 0x86, 0x3d,
  0x0d, 0xd5, 0x7d, 0x3d, 0xaa, 0x96, 0x12, 0x3e, 0xd8, 0x7e, 0xe2, 0x3e,
  0x78, 0x3a, 0xab, 0xbe, 0xe7, 0x7a, 0x82, 0x3d, 0xb8, 0x2c, 0xb3, 0x3c,
  0xd3, 0x31, 0x05, 0xbf, 0x93, 0xd9, 0xd3, 0xbe, 0x16, 0x52, 0xa9, 0x3e,
  0x40, 0xd6, 0x00, 0x3f, 0x09, 0x65, 0x60, 0xbd, 0x4f, 0xfa, 0x22, 0x3d,
  0xab, 0x11, 0x0d, 0x3f, 0x33, 0x66, 0xc0, 0xbc, 0xcd, 0xe8, 0x1d, 0xbc,
  0x71, 0xee, 0x9e, 0x3e, 0x66, 0xb5, 0x22, 0xbf, 0x38, 0x82, 0xea, 0x3c,
  0xc5, 0x69, 0x11, 0x3e, 0x17, 0x01, 0x63, 0x3e, 0xf3, 0x3f, 0x99, 0xbd,
  0x99, 0x68, 0xd4, 0xbe, 0x71, 0x86, 0xe5, 0xbd, 0x93, 0xce, 0xdc, 0x3e,
  0x57, 0x40, 0x9f, 0xbc, 0xd3, 0xbc, 0x8b, 0x3d, 0xb9, 0xb3, 0x01, 0xbe,
  0xf8, 0x73, 0x04, 0x3d, 0xaa, 0x0b, 0xab, 0xbe, 0x97, 0x11, 0x35, 0xbd,
  0x12, 0x29, 0xe6, 0x3e, 0xdb, 0x9d, 0x1f, 0xbd, 0x26, 0x2c, 0x24, 0xbe,
  0x43, 0xbc, 0x61, 0x3e, 0x10, 0x13, 0x4b, 0x3e, 0x37, 0xc6, 0xb5, 0xbe,
  0x5a, 0x32, 0x42, 0xbe, 0x8f, 0xcd, 0x15, 0x3e, 0xe0, 0xa3, 0xc1, 0x3e,
  0xa7, 0x7f, 0xc7, 0x3e, 0x6e, 0x79, 0x2c, 0x3e, 0x82, 0xde, 0xc4, 0x3d,
  0x78, 0x2f, 0x4e, 0xbe, 0xe7, 0xeb, 0xab, 0xbe, 0xf9, 0x26, 0xea, 0xbd,
  0x4a, 0x7d, 0x9a, 0xbe, 0x6d, 0x1c, 0x21, 0x3e, 0x77, 0x45, 0x05, 0xbd,
  0xcf, 0x57, 0x7f, 0x3e, 0x78, 0x74, 0xbc, 0xbd, 0x4c, 0xd6, 0x8b, 0x3d,
  0x6d, 0xd8, 0x8f, 0x3e, 0x37, 0x7c, 0xdb, 0x3d, 0xed, 0xf1, 0xc9, 0x3e,
  0xaa, 0x46, 0xf1, 0x3e, 0xc4, 0x79, 0xf7, 0xbd, 0x44, 0x26, 0x9c, 0x3c,
  0x96, 0xf3, 0x63, 0xbc, 0xc3, 0x2f, 0x6b, 0xbe, 0x3c, 0x12, 0x04, 0xbf,
  0xe6, 0xd7, 0xf0, 0x3d, 0xec, 0x90, 0x94, 0xbe, 0xbb, 0xdf, 0xb3, 0xbd,
  0xc3, 0xe0, 0xa5, 0x3c, 0xb9, 0xa2, 0xa1, 0xbd, 0x8b, 0x18, 0x73, 0x3d,
  0x68, 0xd9, 0x4e, 0x3d, 0x90, 0x3a, 0x62, 0x3b, 0xa4, 0xb5, 0x00, 0x3e,
  0xf2, 0xaa, 0xbe, 0x3e, 0x49, 0x8b, 0x0a, 0xbe, 0xa6, 0xdf, 0x45, 0xbe,
  0x6c, 0xa4, 0xfb, 0xbd, 0xb4, 0xad, 0x7c, 0xbb, 0x63, 0x91, 0x08, 0xbf,
  0xab, 0xd2, 0xfa, 0xbe, 0x58, 0xf7, 0xa3, 0xbe, 0x3d, 0xe1, 0x8e, 0xbe,
  0xb5, 0x0c, 0x1f, 0xbe, 0x13, 0x37, 0x0e, 0xbf, 0xbc, 0x9a, 0xbb, 0x3e,
  0xef, 0xda, 0x31, 0xbc, 0x20, 0xd5, 0x1c, 0x3e, 0xd4, 0x9e, 0xdd, 0x3e,
  0x1b, 0xba, 0xff, 0xbd, 0x63, 0x3b, 0xb5, 0xbd, 0xe8, 0xa5, 0xa7, 0x3c,
  0x5a, 0x19, 0x85, 0xbe, 0xf2, 0xdd, 0xb9, 0xbd, 0x77, 0xe8, 0xba, 0xbe,
  0x5d, 0x46, 0x2c, 0x3e, 0xec, 0xfb, 0x0d, 0xbe, 0x0d, 0x2f, 0x6e, 0xbe,
  0x8d, 0x84, 0x06, 0xbf, 0x4e, 0x37, 0xaf, 0x3d, 0xf8, 0x32, 0x10, 0xbf,
  0xdd, 0x0b, 0x26, 0xbe, 0x7a, 0xdb, 0x73, 0x3e, 0x56, 0x2a, 0x01, 0x3e,
  0x51, 0x6a, 0xae, 0x3d, 0x72, 0x5f, 0xea, 0xbe, 0x3f, 0x00, 0x6b, 0xbe,
  0xf4, 0x6c, 0x06, 0xbf, 0x3e, 0x47, 0xce, 0xbd, 0xd8, 0xbe, 0xe5, 0xbe,
  0x5f, 0x78, 0x85, 0xbe, 0x5d, 0x06, 0x27, 0xbe, 0x4c, 0xf2, 0x6d, 0xbe,
  0x2e, 0x1d, 0x20, 0xbf, 0x93, 0xb6, 0x02, 0x3d, 0xb8, 0x8d, 0x5f, 0x3e,
  0xfe, 0xfc, 0x56, 0xbe, 0xa2, 0x4b, 0x05, 0xbf, 0x89, 0x74, 0x67, 0x3c,
  0xfa, 0x47, 0x84, 0x3e, 0xb0, 0xc7, 0x0a, 0xbe, 0xf8, 0x90, 0x92, 0xbe,
  0x0e, 0x62, 0xb9, 0xbd, 0xff, 0xf0, 0x2a, 0xbe, 0xe1, 0xe8, 0x60, 0xbe,
  0x8e, 0x59, 0x47, 0xbe, 0x71, 0x69, 0x07, 0x3e, 0x78, 0xf0, 0x36, 0x3e,
  0x7c, 0x87, 0xe9, 0xbe, 0x1d, 0x88, 0xf1, 0x3d, 0x7f, 0xc3, 0xbb, 0x3e,
  0x16, 0x5a, 0x13, 0x3f, 0xbc, 0x6a, 0x7e, 0x3e, 0x96, 0x54, 0x13, 0xbf,
  0x47, 0x51, 0xe1, 0x3d, 0x27, 0x69, 0xf2, 0x3d, 0xcc, 0x76, 0x3d, 0xbd,
  0xb5, 0xfb, 0x89, 0x3e, 0x69, 0x50, 0x3b, 0x3d, 0x12, 0x1b, 0xa2, 0xbe,
  0xa6, 0x3b, 0x87, 0xbf, 0x20, 0xbe, 0x1c, 0xbf, 0xfa, 0x5a, 0x64, 0x3e,
  0x4a, 0xba, 0x44, 0xbe, 0xc8, 0xcc, 0x8e, 0x3c, 0x27, 0x2a, 0x94, 0x3e,
  0x35, 0x40, 0x10, 0x3e, 0x9c, 0x80, 0x4c, 0x3e, 0x50, 0x76, 0xdf, 0x3d,
  0xb6, 0x2e, 0x4d, 0xbe, 0x75, 0xca, 0x23, 0x3e, 0xb3, 0x7a, 0x77, 0xbe,
  0x69, 0x49, 0x33, 0xbf, 0x2e, 0x50, 0x09, 0x3f, 0x55, 0xeb, 0xd7, 0xbd,
  0xda, 0xe0, 0xbd, 0xbe, 0xce, 0x04, 0xad, 0x3e, 0xc4, 0x1e, 0xf1, 0xbe,
  0x84, 0xea, 0x0d, 0xbd, 0xe7, 0xaa, 0x92, 0xbe, 0x77, 0x4f, 0x85, 0x3e,
  0x3a, 0xfd, 0x01, 0x3f, 0xe4, 0xb8, 0x86, 0xbe, 0xa0, 0x32, 0x9d, 0xbd,
  0x55, 0xdf, 0x50, 0x3e, 0x3f, 0x74, 0xa1, 0x3e, 0x29, 0xa4, 0xaa, 0x3d,
  0x4e, 0x04, 0x0b, 0xbe, 0xc4, 0x27, 0xa8, 0xbd, 0x2e, 0x31, 0x8a, 0x3e,
  0x8c, 0x99, 0x7a, 0xbe, 0x2c, 0x61, 0x8a, 0x3c, 0x58, 0xf4, 0xd4, 0x3e,
  0x39, 0xd5, 0xcd, 0xbd, 0x7d, 0x4b, 0x21, 0xbf, 0x94, 0xe3, 0xe6, 0xbd,
  0x24, 0x34, 0x87, 0x3c, 0x2c, 0x9d, 0x0f, 0x3f, 0x55, 0xf8, 0x18, 0xbe,
  0xe8, 0x79, 0x91, 0xbe, 0x38, 0x48, 0x19, 0xbe, 0xfb, 0x75, 0x2c, 0x3e,
  0x69, 0xa0, 0xb9, 0x3e, 0xfb, 0x0b, 0x53, 0xbf, 0x10, 0xe0, 0xa8, 0xbd,
  0x43, 0x32, 0x1f, 0xbf, 0x39, 0xe6, 0x1f, 0x3e, 0x9a, 0x50, 0x9c, 0x3e,
  0x77, 0x20, 0x83, 0xbd, 0x1f, 0x5c, 0x87, 0x3d, 0xf2, 0x9e, 0x07, 0xbf,
  0x18, 0x09, 0xb2, 0xbe, 0x8a, 0x96, 0x21, 0xbe, 0x21, 0xb0, 0x0d, 0xbe,
  0xb3, 0x8e, 0x37, 0xbe, 0x33, 0x1b, 0x9a, 0xbe, 0x75, 0x5d, 0x0e, 0xbf,
  0xc4, 0xdb, 0x70, 0x3e, 0xaf, 0x81, 0x86, 0xbf, 0x50, 0x62, 0xa7, 0xbf,
  0x73, 0xcf, 0x8a, 0xbf, 0xd2, 0x99, 0x80, 0xbf, 0xc3, 0xe8, 0x74, 0x3e,
  0x7c, 0x79, 0x24, 0x3b, 0xae, 0xa1, 0x3e, 0x39, 0xaf, 0xbf, 0x72, 0x3e,
  0xeb, 0x06, 0x07, 0xbd, 0x62, 0xe2, 0x03, 0xbe, 0x50, 0x82, 0xbe, 0x3d,
  0x34, 0x4d, 0xfb, 0xbe, 0x03, 0xe7, 0x86, 0xbc, 0xf2, 0xbf, 0x01, 0xbf,
  0xba, 0x7a, 0x2b, 0xbd, 0xa5, 0xa5, 0x01, 0x3f, 0x95, 0x4d, 0x5a, 0xbc,
  0x63, 0xf3, 0x42, 0xbf, 0xe2, 0x0d, 0xd1, 0xbe, 0xe4, 0xef, 0xc0, 0xbd,
  0xe5, 0xa3, 0xa8, 0x3e, 0x88, 0xb3, 0x9a, 0x3e, 0xf4, 0x31, 0x22, 0x3e,
  0xa4, 0x4d, 0x34, 0x3e, 0xc1, 0xac, 0x8c, 0x3e, 0x69, 0x0d, 0x2f, 0x3c,
  0x85, 0x71, 0xd2, 0x3d, 0xc5, 0xea, 0x65, 0xbe, 0x34, 0x8e, 0xec, 0x3d,
  0x93, 0xc3, 0x85, 0x3e, 0xf9, 0xb9, 0x49, 0xbe, 0x9f, 0x29, 0x83, 0x3d,
  0xee, 0x2b, 0x4c, 0x3d, 0x72, 0xc0, 0xbe, 0xbd, 0x18, 0xc5, 0x34, 0xbe,
  0xbb, 0x3e, 0xc2, 0xbd, 0x2e, 0xae, 0xd9, 0x3d, 0xe1, 0xb6, 0x3a, 0x3e,
  0x5e, 0x5e, 0xb6, 0xbd, 0x8e, 0x2d, 0x56, 0x3e, 0x3e, 0xe9, 0x80, 0x3e,
  0x30, 0x91, 0x30, 0xbe, 0xc8, 0x59, 0x14, 0xbf, 0x6d, 0xe2, 0x05, 0x3f,
  0x62, 0x51, 0x81, 0x3e, 0x3e, 0x1f, 0x14, 0x3f, 0xb3, 0x00, 0x23, 0xbf,
  0xf3, 0x55, 0x54, 0x3c, 0x54, 0x53, 0xa7, 0x3e, 0xb7, 0xce, 0x31, 0x3e,
  0xcf, 0x1b, 0x61, 0xbe, 0x91, 0xd4, 0x54, 0xbe, 0xb5, 0x94, 0x43, 0xbf,
  0x58, 0x07, 0x5c, 0x3d, 0xe6, 0x7c, 0xda, 0xbd, 0x55, 0xf4, 0xd7, 0xbe,
  0xdd, 0xcb, 0x64, 0x3e, 0xf2, 0xab, 0xe6, 0x3c, 0xf1, 0xea, 0x5e, 0xbf,
  0xba, 0x7e, 0x9d, 0x3e, 0xb9, 0x21, 0x0f, 0xbf, 0x10, 0x24, 0x14, 0x3f,
  0xe8, 0x3c, 0x24, 0xbe, 0x99, 0x77, 0x25, 0xbf, 0xfa, 0xfe, 0xf9, 0x3d,
  0x34, 0x20, 0x4e, 0x3d, 0x92, 0x09, 0xd8, 0xbc, 0x0a, 0x83, 0xb6, 0xbe,
  0x13, 0xa5, 0x3b, 0x3d, 0xb4, 0xd2, 0x26, 0x3e, 0x36, 0xab, 0x20, 0xbe,
  0x31, 0x8a, 0x0d, 0xbf, 0xa4, 0x27, 0x85, 0xbf, 0x8a, 0xbb, 0x36, 0x3e,
  0xab, 0xf2, 0xf5, 0xbe, 0x75, 0xc2, 0x35, 0xbf, 0xdf, 0xba, 0xb2, 0x3d,
  0xe7, 0xb1, 0x5b, 0xbf, 0x10, 0xf0, 0xbe, 0x3e, 0x4f, 0x15, 0x57, 0xbe,
  0x32, 0xde, 0x9a, 0xbe, 0x7a, 0x56, 0xbc, 0xbe, 0xcd, 0x56, 0xed, 0xbe,
  0x41, 0xd8, 0xab, 0x3e, 0xf4, 0x05, 0x27, 0xbd, 0x0f, 0xdb, 0x68, 0x3e,
  0x2c, 0x7e, 0x55, 0x3e, 0xa0, 0x80, 0xbf, 0xbd, 0x8c, 0x11, 0xfb, 0xbe,
  0xe2, 0x80, 0xbe, 0x3e, 0x9f, 0xc9, 0x38, 0xbe, 0x49, 0x93, 0x55, 0x3d,
  0xb3, 0x15, 0x2c, 0xbf, 0x26, 0xdd, 0x96, 0xbf, 0x69, 0x2a, 0x74, 0xbe,
  0x93, 0xa2, 0x0a, 0xbf, 0x2d, 0x52, 0x2e, 0xbe, 0x93, 0xb6, 0x97, 0xbe,
  0xa7, 0x84, 0x15, 0x3e, 0x05, 0x55, 0x4e, 0xbe, 0x33, 0xda, 0x27, 0xbf,
  0xda, 0x5b, 0xc3, 0xbd, 0x4f, 0x06, 0xa4, 0xba, 0x34, 0xfa, 0x85, 0xbe,
  0x1c, 0xe5, 0xe4, 0x3c, 0x17, 0x40, 0x0e, 0x3e, 0x04, 0xe0, 0x44, 0xbe,
  0x71, 0xfe, 0xf4, 0x3d, 0x78, 0x94, 0xa5, 0x3b, 0x8d, 0xf2, 0xaf, 0xbf,
  0x82, 0xd1, 0x15, 0xbe, 0x7a, 0x3d, 0xd7, 0xbe, 0xb2, 0x16, 0xc9, 0x3d,
  0xdb, 0x53, 0x8f, 0xbe, 0xeb, 0x0a, 0x3c, 0xbe, 0x65, 0xde, 0x15, 0xbf,
  0xa3, 0x3e, 0xb6, 0xbe, 0x80, 0x7b, 0x44, 0xbe, 0x38, 0x34, 0xb0, 0xbc,
  0xea, 0x73, 0xc5, 0xbe, 0xda, 0xe7, 0x87, 0xbb, 0x23, 0xf6, 0x90, 0xbd,
  0x92, 0x7a, 0x8d, 0xbd, 0x85, 0xa0, 0x6d, 0x3d, 0x46, 0x89, 0x02, 0x3e,
  0x86, 0xb6, 0x9e, 0xbe, 0xdf, 0xfb, 0x76, 0xbe, 0x3b, 0xde, 0xf3, 0xbc,
  0x8c, 0xc4, 0xc5, 0x3d, 0xd3, 0xb4, 0x49, 0xbe, 0x98, 0xee, 0x68, 0x3d,
  0x7e, 0x35, 0x17, 0xbf, 0x7e, 0x11, 0xc4, 0x3c, 0x08, 0xc9, 0xe6, 0xbe,
  0x12, 0xd5, 0xdc, 0x3e, 0xc0, 0xfb, 0x88, 0x3d, 0xd1, 0x79, 0x27, 0xbf,
  0xca, 0xf5, 0x2a, 0x3e, 0x6a, 0x9c, 0x5f, 0xbe, 0xc1, 0x21, 0x1d, 0xbd,
  0x1a, 0xe3, 0x47, 0xbc, 0xd7, 0xe9, 0xd3, 0x3d, 0xf3, 0x14, 0x78, 0xbe,
  0x15, 0x3f, 0x19, 0x3f, 0xcb, 0xc0, 0x24, 0x3c, 0xc1, 0x38, 0x8b, 0xbe,
  0x35, 0xaa, 0x90, 0xbe, 0x0d, 0xfb, 0x9a, 0xbe, 0xbd, 0x72, 0xf6, 0x3e,
  0xc9, 0x45, 0x2e, 0xbe, 0x85, 0x76, 0x5c, 0xbc, 0xa1, 0x5d, 0x56, 0x3e,
  0x74, 0x21, 0xa3, 0xbd, 0xaf, 0xdf, 0xc6, 0x3d, 0x1c, 0x9c, 0x83, 0x3e,
  0xd1, 0x84, 0x1d, 0xbe, 0xff, 0x74, 0x18, 0x3e, 0x87, 0x08, 0xb4, 0xbd,
  0xc4, 0xce, 0x53, 0xbe, 0x86, 0x9e, 0x33, 0x3f, 0x6b, 0xc4, 0x1d, 0xbe,
  0x91, 0x63, 0x12, 0xbd, 0x00, 0x1f, 0xe2, 0xbe, 0xfd, 0x80, 0xab, 0xbe,
  0x06, 0x55, 0xd6, 0x3e, 0x6c, 0xf8, 0x09, 0xbf, 0xeb, 0x45, 0xb9, 0x3e,
  0xed, 0xf1, 0xdd, 0x3c, 0x0e, 0xd9, 0x8d, 0xbc, 0x9b, 0x60, 0x06, 0x3e,
  0xfb, 0xc7, 0x92, 0x3e, 0x11, 0xeb, 0x47, 0xbe, 0x7e, 0xcb, 0xe9, 0x3d,
  0xc9, 0x84, 0xcf, 0x3d, 0x2d, 0x49, 0x3e, 0xbd, 0x65, 0xfd, 0x5f, 0x3f,
  0xf6, 0x22, 0x86, 0x3d, 0xb4, 0x4f, 0x3d, 0xbe, 0xf6, 0x16, 0xbe, 0x3c,
  0x7d, 0x84, 0x47, 0xbf, 0x18, 0xaa, 0x47, 0x3e, 0x3f, 0x30, 0x8e, 0xbc,
  0x40, 0xad, 0x68, 0x3d, 0xf2, 0x2a, 0x4c, 0xbd, 0xba, 0x8d, 0xbd, 0x3e,
  0x35, 0x51, 0xab, 0x3c, 0x98, 0xf6, 0x05, 0xbf, 0x3a, 0x10, 0xa6, 0xbe,
  0x21, 0x73, 0xc6, 0x3e, 0x05, 0x55, 0x33, 0x3f, 0x63, 0x5f, 0x18, 0xbf,
  0xaa, 0x51, 0xcb, 0x3d, 0x3d, 0x32, 0x73, 0x3d, 0x7f, 0x38, 0x4f, 0x3d,
  0x4b, 0x35, 0xa6, 0xbe, 0xa6, 0x46, 0xe4, 0xbe, 0x48, 0x08, 0xf9, 0xbe,
  0x7e, 0x0c, 0x2c, 0x3e, 0xda, 0x81, 0x7f, 0x3e, 0xe5, 0xa8, 0xd7, 0xbe,
  0xef, 0x9d, 0x93, 0xbe, 0x22, 0xe8, 0x32, 0x3c, 0xb6, 0xa6, 0x60, 0xbf,
  0xb5, 0xb2, 0x4f, 0xbe, 0x42, 0x0b, 0xee, 0x3d, 0xf8, 0x9e, 0x6e, 0x3e,
  0x8d, 0x6e, 0xbb, 0xbe, 0x7a, 0x89, 0x2d, 0xbf, 0xec, 0xba, 0xef, 0x3d,
  0xa0, 0x39, 0x2b, 0x3e, 0xf2, 0x15, 0xdb, 0xbe, 0x44, 0x6c, 0x79, 0xba,
  0x40, 0x2e, 0xbd, 0xbe, 0xbd, 0x13, 0x57, 0x3e, 0xdc, 0xc2, 0x44, 0x3d,
  0x65, 0xca, 0x53, 0xbe, 0x67, 0x4c, 0xb2, 0xbf, 0x9a, 0x32, 0xd9, 0x3c,
  0x66, 0x26, 0x51, 0xbf, 0x06, 0x1e, 0xb5, 0xbe, 0x7d, 0x12, 0x9b, 0xbd,
  0x9e, 0x54, 0x66, 0xbe, 0x7a, 0x90, 0x08, 0xbe, 0x72, 0xa1, 0xbf, 0xbd,
  0xa7, 0x7b, 0xfa, 0x3d, 0x66, 0x94, 0x9f, 0x3b, 0x7a, 0xaa, 0xba, 0x3e,
  0x5e, 0x3f, 0x09, 0xbf, 0xf4, 0x88, 0x5b, 0xbd, 0x6c, 0x95, 0xfa, 0x3d,
  0xbe, 0x58, 0x83, 0xbd, 0xb0, 0xf3, 0x49, 0xbf, 0x4b, 0x8a, 0x72, 0xbd,
  0xfc, 0x59, 0xe8, 0xbe, 0x3b, 0xa9, 0x0c, 0xbf, 0xa0, 0xb0, 0x59, 0x3e,
  0x16, 0xe1, 0xa5, 0x3e, 0x3c, 0xbb, 0x6d, 0x3e, 0x33, 0x33, 0xd7, 0x3d,
  0x2d, 0x1e, 0x9a, 0xbc, 0x46, 0x53, 0x01, 0xbf, 0x6e, 0xc6, 0x63, 0x3e,
  0x82, 0x7f, 0xb2, 0x3e, 0xed, 0xdc, 0x3d, 0x3f, 0x58, 0xc2, 0xa7, 0x3e,
  0x88, 0x45, 0xc5, 0x3e, 0xc3, 0x55, 0x7b, 0xbf, 0xdd, 0x23, 0x94, 0xbe,
  0xce, 0xf3, 0x18, 0x3e, 0x49, 0x42, 0xeb, 0xbe, 0x43, 0xdd, 0xac, 0xbe,
  0xa9, 0x85, 0x8a, 0x3e, 0x2c, 0xde, 0xfd, 0xbd, 0x07, 0xf1, 0x1a, 0x3e,
  0xa3, 0x20, 0x2d, 0xbe, 0xb4, 0xfe, 0x52, 0x3e, 0x2b, 0x74, 0x16, 0xbf,
  0x4f, 0x63, 0xdd, 0x3d, 0x14, 0x2a, 0x17, 0x3f, 0x00, 0xb8, 0xd5, 0x3e,
  0xd6, 0x84, 0x98, 0x3e, 0x76, 0x6b, 0x1e, 0x3e, 0xce, 0x9c, 0xb9, 0xbd,
  0x38, 0xe5, 0x97, 0xbe, 0xf6, 0x7a, 0x2a, 0xbf, 0x41, 0x1b, 0x3d, 0xbe,
  0x6c, 0x56, 0xe9, 0xbe, 0x80, 0xd0, 0xde, 0x3e, 0x59, 0xaf, 0x47, 0x3d,
  0xe6, 0x03, 0x06, 0xbf, 0x62, 0x73, 0xf9, 0xbd, 0xdb, 0xce, 0x8a, 0x3e,
  0xff, 0xf3, 0xb2, 0xbe, 0xfe, 0x3f, 0x08, 0x3b, 0xf8, 0xfc, 0x35, 0xbd,
  0x70, 0x90, 0xfd, 0x3e, 0xf5, 0x70, 0xb7, 0x3d, 0x3d, 0xf9, 0xf3, 0x3e,
  0x70, 0x4e, 0x5a, 0x3e, 0x56, 0xab, 0x22, 0x3e, 0x6f, 0xeb, 0x9e, 0xbe,
  0x17, 0x3e, 0x57, 0xbe, 0x84, 0x9e, 0x09, 0xbf, 0x5a, 0x8d, 0x05, 0xbe,
  0x10, 0x06, 0x7b, 0x3e, 0xee, 0x56, 0xa3, 0xbe, 0x9e, 0x5e, 0x83, 0x3e,
  0xe8, 0x17, 0xa6, 0xbd, 0xf0, 0xa8, 0x42, 0xbf, 0xb9, 0xf6, 0x0b, 0x3e,
  0x38, 0xda, 0xcf, 0x3d, 0xd9, 0xc8, 0xa9, 0x3e, 0xa4, 0x67, 0x71, 0x3d,
  0x48, 0x81, 0x92, 0x3e, 0x2f, 0xc6, 0x23, 0xbe, 0xbd, 0xdd, 0x0e, 0x3e,
  0x03, 0x9f, 0x9c, 0xbe, 0x0b, 0x04, 0x64, 0xbe, 0x48, 0xec, 0xa4, 0xbe,
  0x5a, 0x58, 0x92, 0x3d, 0x85, 0x3b, 0xc3, 0x3e, 0xdc, 0x91, 0x13, 0xbe,
  0x47, 0x53, 0x08, 0x3e, 0xfe, 0x93, 0x70, 0xbd, 0x96, 0x75, 0x65, 0xbf,
  0x43, 0xf7, 0xdd, 0xbd, 0x6a, 0xa5, 0x82, 0xbe, 0xfc, 0x45, 0x84, 0x3d,
  0x8a, 0x46, 0x5a, 0x3e, 0xa6, 0xf3, 0x0c, 0x3d, 0x92, 0x41, 0x4b, 0x3e,
  0xaa, 0x3b, 0x87, 0x3d, 0xd3, 0xee, 0xb1, 0x3d, 0xfa, 0x44, 0x06, 0x3f,
  0x1e, 0x01, 0x22, 0x3b, 0x43, 0x39, 0x3d, 0x3d, 0x23, 0x77, 0xea, 0x3e,
  0x60, 0x55, 0x2f, 0x3e, 0x4c, 0xd2, 0x32, 0xbd, 0xe3, 0x85, 0xf1, 0x3d,
  0xab, 0xca, 0x30, 0xbf, 0x4c, 0xe9, 0xf1, 0xbd, 0x7b, 0xfc, 0x9e, 0x3d,
  0xe6, 0x95, 0xae, 0x3e, 0x82, 0xa9, 0x6c, 0xbd, 0x20, 0xca, 0xd1, 0x3e,
  0xa2, 0x93, 0xf0, 0x3d, 0x09, 0xb3, 0xd2, 0xbd, 0x5b, 0x96, 0xc7, 0xbe,
  0xbd, 0x84, 0xe6, 0xbe, 0x78, 0xe7, 0x84, 0xbe, 0x52, 0xa3, 0x18, 0xbb,
  0x61, 0x35, 0x47, 0x3e, 0x78, 0x89, 0x25, 0x3e, 0xe9, 0x86, 0x06, 0xbc,
  0x3a, 0x50, 0x33, 0x3d, 0xa2, 0x08, 0x6f, 0xbf, 0xc2, 0x55, 0x4e, 0xbe,
  0xc5, 0x17, 0x4c, 0xbf, 0x77, 0xaa, 0x00, 0x3d, 0xfc, 0xbd, 0x90, 0xbd,
  0x5d, 0x67, 0x97, 0x3e, 0x8d, 0x30, 0xe4, 0x3d, 0x04, 0x23, 0x8d, 0xbd,
  0xf1, 0xcf, 0x0c, 0xbe, 0x4a, 0x5b, 0x8b, 0xbe, 0x97, 0xe7, 0x69, 0x3e,
  0xa6, 0x99, 0x67, 0x3e, 0x6c, 0xab, 0x53, 0x3e, 0x1f, 0x69, 0xf0, 0x3e,
  0x54, 0x9d, 0x2c, 0x3e, 0x0b, 0x7c, 0x1b, 0x3e, 0xa4, 0x87, 0x62, 0xbf,
  0xcc, 0xfb, 0x58, 0xbe, 0x9f, 0x34, 0xaa, 0xbd, 0xb3, 0x0e, 0x8f, 0x3e,
  0x30, 0x37, 0x3e, 0xbe, 0x46, 0x4b, 0xb1, 0x3e, 0x54, 0x75, 0x81, 0x3d,
  0x5e, 0x4f, 0x48, 0xbd, 0x8b, 0xc5, 0x81, 0xbd, 0xcc, 0xdb, 0x3f, 0x3d,
  0xa4, 0x52, 0x58, 0xbe, 0xae, 0xf0, 0x79, 0xbe, 0xf9, 0x43, 0x09, 0x3e,
  0x68, 0x52, 0x16, 0x3f, 0xf9, 0xdf, 0x77, 0x3d, 0x5b, 0xe3, 0x01, 0x3e,
  0x20, 0x33, 0x0a, 0xbf, 0xb9, 0x5a, 0xdc, 0xbd, 0x7b, 0x49, 0x83, 0x3d,
  0x27, 0xef, 0x9b, 0x3e, 0x98, 0xe6, 0x89, 0x3e, 0x18, 0x98, 0x1a, 0x3e,
  0xf8, 0x06, 0x3d, 0xbe, 0x4c, 0xac, 0x8c, 0xbe, 0x2e, 0x29, 0x02, 0xbf,
  0x0f, 0x4a, 0x91, 0xbd, 0x6b, 0xef, 0x86, 0xbe, 0xb9, 0x73, 0xe8, 0x3d,
  0xbd, 0x6b, 0x8c, 0x3d, 0xfe, 0x11, 0x33, 0x3c, 0xe2, 0xa8, 0x8f, 0x3d,
  0xce, 0x13, 0x91, 0x3e, 0x45, 0x18, 0xdd, 0xbe, 0x33, 0x6e, 0xee, 0xbe,
  0x0d, 0xaa, 0x40, 0xbe, 0xbf, 0xf0, 0x27, 0x3e, 0x47, 0x6f, 0x72, 0x3d,
  0xc9, 0x03, 0xbb, 0x3e, 0xf2, 0x28, 0x22, 0xbf, 0x4f, 0x50, 0xe4, 0xbd,
  0x4c, 0x8b, 0x10, 0xbe, 0x06, 0xd0, 0xee, 0x3d, 0x99, 0x81, 0x3b, 0xbe,
  0x8c, 0xbb, 0xe9, 0x3e, 0xd7, 0x01, 0x99, 0x3e, 0x78, 0xed, 0xa7, 0xbe,
  0x8a, 0x86, 0x0d, 0xbd, 0x5b, 0x58, 0x83, 0x3d, 0xe6, 0xf5, 0x97, 0xbe,
  0xcd, 0x49, 0xb1, 0xbe, 0x48, 0x3c, 0x7b, 0xbd, 0x48, 0x68, 0x8e, 0x3e,
  0x97, 0xcb, 0x29, 0x3e, 0xc1, 0x55, 0x7d, 0x3e, 0xbb, 0xf1, 0x6c, 0xbe,
  0x31, 0xbe, 0xcd, 0xbb, 0x5a, 0xe1, 0x86, 0xbe, 0xc0, 0x73, 0xe4, 0x3d,
  0xcd, 0xc2, 0xaa, 0xbd, 0x83, 0xc9, 0x77, 0x3e, 0x4f, 0xc2, 0xa4, 0x3d,
  0xdd, 0x51, 0xd1, 0xbe, 0x30, 0x87, 0xe3, 0x3a, 0x99, 0x16, 0xf7, 0xbc,
  0x68, 0x01, 0x4c, 0xbf, 0xa6, 0xa6, 0x69, 0xbe, 0xd7, 0x6c, 0x00, 0x3e,
  0x4c, 0x4c, 0x61, 0x3e, 0xe9, 0xe6, 0x2f, 0x3d, 0x5d, 0xa9, 0xe9, 0x3e,
  0x8f, 0xcc, 0x70, 0xbe, 0xb9, 0xeb, 0x44, 0x3e, 0xfd, 0x84, 0xcf, 0xbe,
  0x62, 0xd6, 0x84, 0xbd, 0x73, 0x8a, 0x8c, 0xbe, 0x70, 0x74, 0x5b, 0x3e,
  0x15, 0x11, 0xa7, 0x3d, 0x0f, 0x1b, 0xda, 0xbe, 0x9a, 0x17, 0xf8, 0xbd,
  0xa7, 0x9c, 0x77, 0x3d, 0x9c, 0xf0, 0x91, 0xbf, 0x92, 0x78, 0xcb, 0xbe,
  0xc6, 0xa9, 0xb4, 0x3e, 0xa3, 0x50, 0xbd, 0x3e, 0x17, 0x13, 0x5c, 0x3e,
  0xc6, 0x6f, 0xa0, 0x3e, 0x8f, 0xbb, 0x11, 0xbe, 0x42, 0x42, 0x13, 0x3e,
  0xf2, 0x81, 0xfc, 0xbd, 0xf3, 0x64, 0xdb, 0x3c, 0x49, 0xb1, 0x6b, 0xbe,
  0x7d, 0xc4, 0x3e, 0x3f, 0x6e, 0x61, 0x98, 0x3c, 0x3c, 0xc9, 0xfb, 0x3d,
  0x14, 0x63, 0x59, 0xbf, 0x4c, 0x9d, 0x2d, 0x3c, 0xfe, 0x17, 0x8e, 0xbf,
  0x6c, 0x35, 0xd7, 0xbd, 0x30, 0x33, 0xb5, 0x3e, 0x61, 0xa7, 0x10, 0x3e,
  0xba, 0x5d, 0xbb, 0x3d, 0xde, 0x36, 0x91, 0xbc, 0x28, 0x81, 0x8a, 0x3d,
  0x3e, 0x6c, 0x2d, 0x3f, 0xfd, 0x6a, 0x4f, 0xbd, 0x66, 0xa0, 0x83, 0x3e,
  0x1f, 0xa1, 0x60, 0x3e, 0x23, 0x7e, 0xb7, 0xbe, 0xbf, 0xd2, 0x94, 0xbe,
  0xea, 0x0f, 0x1c, 0x3d, 0xc0, 0x07, 0xe7, 0xbe, 0xfd, 0xba, 0xf3, 0xbd,
  0x66, 0x55, 0x85, 0x3e, 0x8d, 0x94, 0x9e, 0x3e, 0xf1, 0x08, 0xf8, 0xbe,
  0xe0, 0x47, 0xfa, 0x3d, 0x2d, 0x9d, 0x0a, 0x3f, 0x78, 0xea, 0xa4, 0x3e,
  0xb8, 0x8e, 0xe4, 0xbd, 0xa4, 0x94, 0x42, 0x3f, 0x19, 0x7a, 0x2a, 0x3f,
  0xb0, 0x78, 0xc9, 0x3d, 0xe3, 0xdb, 0xf4, 0xbd, 0x40, 0x81, 0x5f, 0x3d,
  0x60, 0xda, 0xa3, 0xbc, 0xf4, 0xb6, 0x38, 0x3f, 0xc5, 0xfc, 0x14, 0xbf,
  0x23, 0x11, 0x22, 0xbf, 0x5b, 0xe4, 0x9c, 0x3d, 0xe2, 0xf7, 0x90, 0x3e,
  0x2b, 0x9e, 0xdf, 0xbe, 0x9d, 0xbe, 0x90, 0xbe, 0x2d, 0xed, 0xcb, 0x3d,
  0x8f, 0xfa, 0x0f, 0x3e, 0x9a, 0xf2, 0x25, 0x3d, 0xa4, 0xc5, 0xe2, 0x3e,
  0xec, 0x2c, 0xb2, 0x3e, 0x10, 0x46, 0xf9, 0x3e, 0x0e, 0x50, 0x95, 0xbe,
  0x6d, 0x83, 0xaa, 0x3d, 0xdd, 0x0c, 0xb9, 0xbd, 0xb8, 0xff, 0x0d, 0x3e,
  0xe0, 0xdd, 0x52, 0xbe, 0x79, 0x18, 0x3a, 0xbf, 0xc6, 0x4e, 0x5f, 0x3e,
  0xa6, 0x44, 0x9a, 0x3e, 0x75, 0xae, 0x2b, 0xbe, 0xb7, 0x3d, 0x58, 0xbd,
  0x97, 0x92, 0xd4, 0xbc, 0x5b, 0xcb, 0xa0, 0x3d, 0x8c, 0x26, 0x5f, 0xbd,
  0x44, 0x17, 0x50, 0x3e, 0x92, 0xa5, 0x80, 0x3e, 0xc0, 0x57, 0xd3, 0x3e,
  0xc5, 0x52, 0xf9, 0xbd, 0x6b, 0xe5, 0xb2, 0xbd, 0x68, 0xc8, 0xb6, 0xbd,
  0x91, 0xad, 0x92, 0xbe, 0x37, 0xbd, 0x08, 0x3c, 0xa6, 0x8c, 0xe3, 0xbe,
  0xae, 0x89, 0x24, 0x3f, 0xa1, 0xc3, 0x37, 0x3e, 0x0c, 0xea, 0x33, 0x3e,
  0x28, 0x1a, 0xeb, 0xbc, 0x92, 0x37, 0x92, 0xbc, 0x62, 0x6b, 0x4a, 0x3e,
  0x02, 0x33, 0x90, 0xbe, 0x1f, 0xab, 0x06, 0x3d, 0x4e, 0x01, 0x0d, 0xbe,
  0x26, 0x30, 0x26, 0x3f, 0x8a, 0xeb, 0x84, 0x3d, 0x66, 0x33, 0xeb, 0xbd,
  0x93, 0x01, 0xd7, 0x3d, 0x54, 0x85, 0x22, 0xbf, 0x78, 0x64, 0x34, 0x3e,
  0x79, 0x21, 0x13, 0x3d, 0xc7, 0x4c, 0x31, 0x3e, 0x7f, 0xfd, 0xa7, 0xbd,
  0x90, 0x94, 0x2a, 0x3e, 0x34, 0xfa, 0x0f, 0x3e, 0x4c, 0x6c, 0x5b, 0x3e,
  0xea, 0x60, 0xc1, 0x3d, 0xda, 0xde, 0xa0, 0x3e, 0x98, 0x51, 0x43, 0xbd,
  0xf6, 0x9f, 0x39, 0x3e, 0x91, 0x2a, 0x44, 0x3e, 0x4a, 0x20, 0x8c, 0x3d,
  0xa2, 0x67, 0x41, 0x3e, 0x05, 0xa7, 0x12, 0x3e, 0x7a, 0x33, 0x23, 0xbf,
  0xcf, 0x91, 0xc0, 0xbd, 0xa8, 0x6d, 0x83, 0xbc, 0x69, 0xae, 0x44, 0x3e,
  0x6c, 0x69, 0xe8, 0xbd, 0x14, 0x26, 0x20, 0x3d, 0xf1, 0xd7, 0x9a, 0x3d,
  0xb5, 0x7a, 0x66, 0x3c, 0xd4, 0xbd, 0x42, 0xbc, 0x66, 0xba, 0xbe, 0x3d,
  0xb0, 0xed, 0x68, 0x3d, 0x15, 0x42, 0x8e, 0x3e, 0x45, 0x68, 0xc3, 0x3d,
  0xd9, 0x9a, 0xd3, 0xbc, 0xa7, 0x7d, 0xae, 0xbe, 0xf0, 0xe6, 0x3a, 0xbd,
  0xb5, 0x6a, 0xe7, 0xbe, 0x4f, 0x31, 0x4a, 0xbe, 0x38, 0x03, 0xd8, 0x3c,
  0xd4, 0x66, 0x71, 0x3e, 0x03, 0x9c, 0x92, 0xbe, 0xf3, 0x5f, 0x9a, 0x3e,
  0x78, 0xd7, 0x96, 0x3e, 0x70, 0x1c, 0x5f, 0x3d, 0x88, 0xc6, 0xb0, 0x3d,
  0xcf, 0xd2, 0xa0, 0xbd, 0xcb, 0x86, 0x96, 0x3d, 0x2e, 0xb4, 0xff, 0x3e,
  0xe5, 0x3f, 0xa1, 0x3d, 0xac, 0x44, 0x54, 0xbe, 0x7f, 0x84, 0xc5, 0xbe,
  0xf8, 0xa4, 0x9e, 0xbe, 0xf5, 0xb1, 0xc6, 0xbe, 0x05, 0xdf, 0x89, 0xbe,
  0xac, 0xdf, 0xaa, 0x3d, 0x83, 0xa3, 0x49, 0x3d, 0x58, 0x02, 0x83, 0xbd,
  0x88, 0x4a, 0x9b, 0xbe, 0x3b, 0x05, 0x0a, 0xbe, 0x81, 0x30, 0x97, 0x3e,
  0x95, 0x4d, 0x34, 0x3d, 0x6a, 0x27, 0x45, 0x3e, 0x5d, 0x64, 0x44, 0x3e,
  0xb3, 0xca, 0x1c, 0x3f, 0x26, 0x2f, 0x4b, 0xbd, 0xd7, 0xb5, 0xe5, 0xbd,
  0xb5, 0xe1, 0x5f, 0xbe, 0xed, 0x62, 0x2f, 0xbe, 0x69, 0x32, 0x12, 0xbe,
  0x3f, 0xde, 0x69, 0xbd, 0xfa, 0x94, 0x9f, 0xbd, 0x9b, 0x9d, 0x85, 0x3e,
  0x1b, 0x12, 0x52, 0xbe, 0x27, 0xca, 0xc7, 0xbe, 0x85, 0x7a, 0x22, 0xbe,
  0xc8, 0x50, 0x23, 0x3d, 0x07, 0xc7, 0x7c, 0x3e, 0x8f, 0x9f, 0xbf, 0xbd,
  0x6a, 0x19, 0xd0, 0xbc, 0x26, 0xa7, 0xf0, 0x3e, 0x96, 0xe0, 0xbe, 0x3e,
  0xea, 0x6c, 0xfc, 0x3d, 0xfc, 0xf0, 0x87, 0xbf, 0x58, 0x35, 0x13, 0xbe,
  0x97, 0x6b, 0x98, 0xbc, 0xfb, 0xa8, 0x47, 0x3c, 0x0d, 0x3e, 0xf0, 0x3c,
  0x1b, 0x11, 0x12, 0x3f, 0x03, 0x68, 0xa9, 0xbe, 0x23, 0x24, 0x9f, 0x3d,
  0x2c, 0x10, 0x86, 0x3d, 0xc1, 0x3b, 0xb5, 0x3e, 0x27, 0xc4, 0xda, 0x3e,
  0x94, 0x84, 0xfb, 0xbe, 0x46, 0x5b, 0x2d, 0xbe, 0x0f, 0xdb, 0x09, 0x3f,
  0x05, 0x6e, 0xc4, 0xbd, 0xd1, 0xb8, 0xd7, 0x3d, 0x1a, 0x1d, 0xf1, 0xbe,
  0xc4, 0x36, 0xde, 0xbd, 0x3e, 0x26, 0x33, 0x3f, 0xf1, 0xa1, 0xd2, 0xbe,
  0x17, 0xdf, 0x40, 0xbe, 0x48, 0x2e, 0x1c, 0x3e, 0x07, 0xf6, 0x70, 0xbd,
  0x30, 0x50, 0xab, 0x3d, 0xa6, 0xdd, 0x92, 0x3d, 0x84, 0x89, 0x29, 0x3d,
  0x5f, 0x3e, 0x11, 0xbe, 0xe2, 0xe1, 0x83, 0xbf, 0x21, 0x61, 0x08, 0x3f,
  0x10, 0xa4, 0x90, 0x3e, 0x67, 0x91, 0x62, 0x3e, 0xdf, 0x2e, 0x86, 0x3c,
  0x28, 0xad, 0x17, 0xbf, 0x2a, 0xf2, 0xb1, 0xbe, 0xe6, 0xc2, 0x44, 0xbd,
  0x4f, 0xd2, 0xa4, 0x3d, 0x2f, 0xad, 0xa1, 0xbe, 0x8d, 0x84, 0xa4, 0x3e,
  0x99, 0x06, 0xf3, 0xba, 0x57, 0x9a, 0xc7, 0xbd, 0x14, 0xa4, 0x44, 0x3d,
  0x85, 0xcf, 0xa7, 0x3e, 0xa6, 0xad, 0x72, 0xbf, 0x61, 0xd5, 0x08, 0xbf,
  0xbf, 0xb7, 0x37, 0x3e, 0xaf, 0xf3, 0x95, 0xbd, 0xd0, 0x5c, 0xd9, 0xbc,
  0x33, 0x84, 0xa7, 0x3d, 0x99, 0xaa, 0x04, 0xbf, 0xae, 0x1d, 0x8a, 0xbe,
  0x7a, 0x6b, 0xa6, 0xbe, 0x7d, 0xd0, 0x92, 0xbd, 0x95, 0x69, 0xde, 0xbd,
  0x0a, 0x17, 0x4d, 0x3e, 0x60, 0xde, 0x1b, 0xbe, 0x73, 0x3e, 0x6a, 0xbe,
  0x79, 0xb0, 0x12, 0x3d, 0x91, 0x3a, 0x1f, 0x3f, 0x46, 0xba, 0x6e, 0xbf,
  0x46, 0x82, 0xaa, 0xba, 0x87, 0xa8, 0x46, 0x3e, 0x16, 0xc1, 0xbf, 0xbd,
  0xd8, 0xc6, 0x56, 0x3d, 0x1a, 0x9c, 0x02, 0x3e, 0x4b, 0x5f, 0x15, 0xbf,
  0x51, 0xcc, 0x69, 0x3d, 0xba, 0xdb, 0x2d, 0x3d, 0x1a, 0x3f, 0x57, 0x3e,
  0xfb, 0xd9, 0x04, 0x3e, 0x74, 0x44, 0x0f, 0xbd, 0xe7, 0xcb, 0x19, 0x3e,
  0x3d, 0x66, 0x64, 0xbe, 0x14, 0x91, 0x9f, 0xbd, 0x2c, 0x18, 0x80, 0x3e,
  0xce, 0xa5, 0x64, 0x3d, 0x32, 0xff, 0xe9, 0xbd, 0x91, 0xa6, 0xc8, 0x3e,
  0xd9, 0x21, 0x8c, 0xbc, 0xe0, 0x2b, 0x12, 0xbd, 0x40, 0xb8, 0x97, 0xbd,
  0xd1, 0x0c, 0x40, 0xbd, 0xca, 0x83, 0x7e, 0xbf, 0xf6, 0x2f, 0x0d, 0x3e,
  0x3d, 0x8f, 0x8d, 0xbe, 0x7b, 0x09, 0x72, 0xbc, 0x7a, 0xc2, 0xae, 0x3d,
  0x3d, 0x09, 0x43, 0x3e, 0x18, 0x1e, 0x15, 0xbc, 0xf8, 0x1f, 0x65, 0xbe,
  0x3f, 0x5f, 0xce, 0xbd, 0x9c, 0x55, 0xb7, 0xbf, 0x98, 0x53, 0x66, 0x3e,
  0x72, 0xa9, 0x14, 0x3f, 0x7c, 0x77, 0x00, 0x3f, 0x0b, 0x18, 0x1e, 0xbf,
  0x89, 0x9a, 0x7f, 0xbe, 0x89, 0x1a, 0x68, 0xbe, 0xe8, 0x10, 0x35, 0xbc,
  0x01, 0x4c, 0x1b, 0x3e, 0x7f, 0x00, 0xf3, 0x3d, 0x8b, 0x9a, 0xf3, 0x3c,
  0xf9, 0xf9, 0xf9, 0xbd, 0x06, 0xc8, 0x7a, 0xbf, 0xc0, 0x12, 0x95, 0xbe,
  0xab, 0xe8, 0xe1, 0xbe, 0x0f, 0x1c, 0xc1, 0x3d, 0xf1, 0x72, 0x15, 0xbf,
  0xad, 0xdd, 0x90, 0x3e, 0xaf, 0xb8, 0xe4, 0x3e, 0x73, 0x14, 0x58, 0x3f,
  0x89, 0x96, 0x0d, 0xbf, 0x45, 0x50, 0x86, 0x3e, 0x7b, 0x8f, 0x6b, 0xbf,
  0x7e, 0xa4, 0x1b, 0x3d, 0xc1, 0x52, 0x23, 0xbe, 0xfc, 0xcd, 0xf3, 0xbb,
  0x76, 0x21, 0xa2, 0x3e, 0xfa, 0x21, 0x52, 0xbe, 0x75, 0x8b, 0x03, 0xbf,
  0x70, 0xe2, 0xe3, 0xbd, 0x04, 0xf3, 0xa9, 0xbe, 0x13, 0x05, 0x98, 0x3e,
  0xc8, 0x24, 0x10, 0xbf, 0x72, 0x1d, 0x41, 0x3e, 0x5e, 0x28, 0xac, 0x3e,
  0xaf, 0x8f, 0x0d, 0x3f, 0x28, 0x2e, 0x59, 0xbf, 0x3c, 0xdb, 0x92, 0x3e,
  0x54, 0xb6, 0x9a, 0xbd, 0x8d, 0x67, 0xa8, 0x3d, 0x33, 0xc6, 0x00, 0x3f,
  0x0c, 0x53, 0x14, 0xbf, 0x58, 0xba, 0xbf, 0x3e, 0xb2, 0xbc, 0x0a, 0xbe,
  0x63, 0x46, 0x7a, 0xbe, 0xbc, 0x00, 0x17, 0xbf, 0xa4, 0xc3, 0x22, 0xbf,
  0xe0, 0xf2, 0x28, 0x3d, 0x36, 0xf7, 0xf1, 0xbe, 0xb3, 0xd4, 0x8c, 0xbd,
  0xbf, 0x1b, 0x58, 0x3e, 0x56, 0x13, 0xdd, 0x3e, 0xb4, 0x14, 0x32, 0xbf,
  0x12, 0x26, 0x56, 0x3e, 0x13, 0xc6, 0x98, 0x3d, 0x9c, 0x87, 0xbb, 0x3d,
  0x54, 0xff, 0xf7, 0x3e, 0x19, 0x62, 0xf1, 0x3c, 0xb0, 0x6e, 0x38, 0x3e,
  0xfd, 0xf0, 0x9a, 0xbd, 0xe5, 0xf6, 0x07, 0x3e, 0x92, 0xae, 0x00, 0xbf,
  0x2c, 0x99, 0x67, 0xbf, 0x94, 0xab, 0x3d, 0xbd, 0xec, 0x3f, 0xf1, 0xbe,
  0xb9, 0x92, 0x57, 0xbe, 0xfb, 0xe5, 0x0b, 0xbe, 0x0f, 0xa4, 0x97, 0x3e,
  0x17, 0xc4, 0xf1, 0xbe, 0x8f, 0x82, 0xbc, 0xbd, 0x11, 0xd3, 0x0b, 0xbf,
  0x69, 0x65, 0x07, 0xbf, 0x81, 0x79, 0x92, 0x3e, 0xa7, 0x7f, 0x66, 0x3e,
  0x46, 0xac, 0xfd, 0x3d, 0x36, 0xaa, 0x25, 0x3e, 0x48, 0xe2, 0x9f, 0x3e,
  0xc7, 0x0d, 0x55, 0xbe, 0x16, 0x34, 0x1b, 0xbe, 0xe6, 0x67, 0x1f, 0x3d,
  0x6a, 0xc7, 0x3a, 0xbe, 0xdc, 0xbd, 0xad, 0xbe, 0x12, 0xb4, 0x8e, 0x3c,
  0x81, 0x51, 0xef, 0x3e, 0x2d, 0xa2, 0x93, 0xbe, 0x35, 0x1f, 0xa0, 0x3c,
  0xe3, 0x53, 0x08, 0xbf, 0xff, 0xd4, 0x10, 0xbf, 0x43, 0xe5, 0xed, 0x3d,
  0xbd, 0x5e, 0xc7, 0x3e, 0x14, 0xce, 0x8c, 0x3d, 0xe4, 0x41, 0x9d, 0xbd,
  0x5b, 0x45, 0x8e, 0x3e, 0x82, 0xc0, 0xc0, 0xbd, 0x13, 0x71, 0x94, 0xbe,
  0x16, 0x9d, 0x2b, 0xbd, 0x00, 0xee, 0x06, 0xbd, 0x09, 0xe4, 0x12, 0xbf,
  0x60, 0xf0, 0x53, 0x3e, 0x7d, 0x90, 0x7a, 0x3e, 0x53, 0xde, 0x2a, 0xbe,
  0xe9, 0x20, 0x35, 0x3e, 0x53, 0xec, 0x75, 0xbe, 0x89, 0x05, 0x24, 0xbf,
  0x2a, 0x9a, 0xb0, 0xba, 0xd8, 0x7b, 0x9e, 0x3e, 0xb6, 0x72, 0x7e, 0x3e,
  0xc7, 0x84, 0xa6, 0xbb, 0x12, 0xc6, 0x28, 0x3e, 0x67, 0x70, 0xc8, 0x3d,
  0x0e, 0xa9, 0x5d, 0xbe, 0xb7, 0x34, 0x89, 0xbe, 0x33, 0x95, 0x93, 0xbe,
  0x0f, 0x79, 0x6d, 0xbe, 0x7e, 0xb6, 0x54, 0x3a, 0xa1, 0x9a, 0x9c, 0x3d,
  0xba, 0xba, 0xa8, 0xbd, 0xa5, 0x66, 0xce, 0xbd, 0x09, 0xe4, 0xe7, 0x3e,
  0x8f, 0xb7, 0x7e, 0xbf, 0x0d, 0x64, 0xf1, 0x3e, 0x9d, 0x81, 0xa7, 0x3d,
  0xce, 0x42, 0x28, 0x3e, 0x87, 0x63, 0x1b, 0xbd, 0x2f, 0x46, 0x2a, 0x3e,
  0x6a, 0xdf, 0x07, 0x3e, 0xe4, 0x14, 0x10, 0x3e, 0x7f, 0xfa, 0xc5, 0x3e,
  0x7d, 0x99, 0xf3, 0x3d, 0xaf, 0xfa, 0xa0, 0xbd, 0x57, 0xd9, 0x78, 0xbf,
  0x9e, 0x80, 0x9c, 0xbf, 0x3a, 0x7b, 0x16, 0xbf, 0xa7, 0x6b, 0x2e, 0xbe,
  0xfd, 0x97, 0x84, 0xbd, 0x80, 0x08, 0x9f, 0xbe, 0x3b, 0xc4, 0xa0, 0x3e,
  0x72, 0xe5, 0xc4, 0xbd, 0x0c, 0x5b, 0xd5, 0xbe, 0xd3, 0xdc, 0x97, 0xbe,
  0x4e, 0x64, 0xce, 0x3d, 0xc1, 0x01, 0x66, 0x3d, 0xaa, 0x16, 0x20, 0xbc,
  0x68, 0xbe, 0xb0, 0xbe, 0xd8, 0x7b, 0xcd, 0xbb, 0xbe, 0xfb, 0xcd, 0xbc,
  0x9e, 0xe9, 0x2d, 0xbf, 0xb4, 0x2c, 0x94, 0xbe, 0x46, 0xb0, 0x8c, 0xbe,
  0xdc, 0x0b, 0x48, 0xbe, 0x3f, 0x62, 0x70, 0xbd, 0x3c, 0x4e, 0x82, 0xbe,
  0x2c, 0x84, 0x5d, 0x3d, 0xe4, 0xd2, 0xc3, 0xbd, 0x74, 0x4d, 0xd6, 0xbe,
  0xa2, 0x9e, 0x1a, 0xbd, 0x15, 0xa9, 0x04, 0x3e, 0xef, 0xe2, 0x5b, 0xbd,
  0x2e, 0xb8, 0x55, 0xbd, 0x06, 0x6c, 0xe2, 0xbe, 0x5d, 0xf2, 0xc3, 0x3e,
  0xf0, 0x0e, 0xaf, 0x3e, 0x0a, 0x62, 0x53, 0xbf, 0xdf, 0xe4, 0x16, 0xbf,
  0x06, 0xfb, 0x9e, 0x3a, 0x78, 0xbc, 0x89, 0xbe, 0x32, 0x90, 0x22, 0xbe,
  0xf8, 0x91, 0x8c, 0x3d, 0xec, 0x67, 0x5c, 0xbe, 0xf1, 0x02, 0x6a, 0xbe,
  0x97, 0xbb, 0x16, 0xbf, 0x80, 0xa9, 0x0f, 0x3e, 0x54, 0xa0, 0x7b, 0x3e,
  0xe5, 0xb0, 0x32, 0x3d, 0x59, 0xf3, 0x51, 0x3e, 0x96, 0xb4, 0x88, 0xbe,
  0xad, 0x0b, 0xa9, 0x3e, 0x8c, 0x62, 0x61, 0x3d, 0x88, 0x32, 0x52, 0xbf,
  0xbc, 0x83, 0x94, 0xbf, 0x82, 0xc2, 0xc1, 0xbd, 0x8e, 0xd5, 0x03, 0xbe,
  0xe2, 0x22, 0x18, 0x3d, 0x36, 0xc2, 0x2c, 0xbd, 0x11, 0x81, 0x81, 0xbf,
  0x2e, 0x86, 0x9b, 0xbe, 0x85, 0x53, 0x75, 0xbf, 0xcf, 0xfc, 0x9b, 0x3d,
  0x27, 0x6e, 0x78, 0x3e, 0xd6, 0xc2, 0xd5, 0xbc, 0x2e, 0xdb, 0xe6, 0x3e,
  0x5f, 0x92, 0x2b, 0xbf, 0x36, 0x72, 0xbd, 0x3e, 0x81, 0x8d, 0xee, 0xbc,
  0x4c, 0xad, 0xc3, 0xbe, 0xc0, 0xf2, 0x22, 0xbf, 0x33, 0xbb, 0x84, 0xbe,
  0xaa, 0xf7, 0x35, 0xbe, 0xe2, 0x0d, 0xd7, 0x3d, 0x38, 0x18, 0x75, 0xbe,
  0x06, 0x33, 0xcf, 0xbe, 0xb0, 0xf0, 0x16, 0xbf, 0xe3, 0xe1, 0x4b, 0xbe,
  0x9d, 0x9e, 0xaf, 0x3d, 0x68, 0x3d, 0x24, 0x3e, 0x91, 0xdc, 0x6d, 0x3e,
  0x4b, 0x9f, 0xfe, 0x3d, 0xec, 0x95, 0xfa, 0xbe, 0x3d, 0x08, 0xa5, 0x3e,
  0x1a, 0xf2, 0xb2, 0x3e, 0x63, 0x21, 0xbe, 0x3e, 0x19, 0x0f, 0x0c, 0xbf,
  0xbb, 0x0f, 0xf8, 0x3d, 0x14, 0xde, 0x91, 0x3d, 0x25, 0xd1, 0x81, 0xbe,
  0xd5, 0xec, 0xe0, 0xbf, 0xf3, 0xe7, 0x2c, 0xbe, 0xc9, 0x31, 0x07, 0xbd,
  0x69, 0xfc, 0xdf, 0x3e, 0x5d, 0xaf, 0xb2, 0x3d, 0xb3, 0xfd, 0xd0, 0xbd,
  0x6a, 0x47, 0x8d, 0xbd, 0xe1, 0x87, 0x4e, 0xbe, 0xdf, 0xf1, 0x26, 0x3e,
  0x4f, 0x09, 0x53, 0x3d, 0x81, 0x5c, 0xd4, 0xbd, 0xa0, 0xa2, 0xc2, 0x3e,
  0xc8, 0x3a, 0x9b, 0x3e, 0xc6, 0x3c, 0x09, 0x3e, 0xf7, 0x60, 0xe4, 0xbd,
  0x38, 0xa4, 0xa3, 0xbb, 0x06, 0x15, 0xa4, 0xbe, 0x16, 0x44, 0x1c, 0x3e,
  0x3f, 0xcc, 0x7b, 0xbe, 0x40, 0xa1, 0x34, 0xbf, 0xfb, 0x74, 0xa4, 0x3d,
  0xea, 0x38, 0xde, 0xbc, 0x59, 0xdb, 0xac, 0xbe, 0x6c, 0x89, 0x93, 0xbe,
  0x38, 0x8a, 0xdb, 0xbe, 0x83, 0x6f, 0x04, 0x3d, 0x8c, 0x28, 0xbc, 0xba,
  0xd1, 0x3b, 0x82, 0xbe, 0xa5, 0x53, 0x32, 0xbe, 0x61, 0x11, 0x36, 0x3d,
  0x7e, 0xb0, 0x01, 0xbc, 0x98, 0xe8, 0xb4, 0x3e, 0xca, 0x79, 0x36, 0xbf,
  0x18, 0x24, 0xb9, 0xbd, 0x15, 0x02, 0x3e, 0x3c, 0x6b, 0xc6, 0x4b, 0xbe,
  0xf7, 0x1c, 0x45, 0x3e, 0xcc, 0x2a, 0xf8, 0x3d, 0x96, 0x16, 0x9c, 0xbe,
  0x48, 0x79, 0x35, 0xbf, 0x8b, 0xe4, 0xe2, 0x3e, 0xa3, 0x97, 0xe3, 0xbe,
  0xe3, 0xb6, 0x27, 0x3d, 0x0c, 0x00, 0xf2, 0x3d, 0xdd, 0xc4, 0x0b, 0xbf,
  0x7a, 0x58, 0x73, 0x3e, 0xb3, 0x2b, 0x9d, 0x3c, 0xe3, 0xdc, 0x10, 0xbc,
  0xed, 0xe5, 0x3d, 0xbe, 0xbf, 0x2f, 0x30, 0xbe, 0x06, 0x28, 0x3c, 0x3e,
  0x48, 0xbb, 0xc2, 0x3e, 0x01, 0xef, 0x55, 0xbd, 0x06, 0xe9, 0x03, 0xbe,
  0xa6, 0x85, 0xd8, 0xbc, 0xa9, 0xf6, 0x8b, 0xbe, 0xbe, 0xf0, 0x2d, 0x3e,
  0x1c, 0xca, 0x22, 0xbc, 0xd8, 0xba, 0x3b, 0x3e, 0x6b, 0x55, 0xcc, 0x3e,
  0xdd, 0x54, 0x73, 0x3d, 0xe8, 0xec, 0xa7, 0xbe, 0x3f, 0x27, 0x10, 0xbe,
  0x79, 0xca, 0xbe, 0x3e, 0xd0, 0x8d, 0x1c, 0xbe, 0xa5, 0x4c, 0x49, 0x3d,
  0xba, 0x00, 0xa7, 0xbd, 0x9c, 0x0f, 0x4d, 0x3e, 0x12, 0x7b, 0x8a, 0x3e,
  0x0a, 0x41, 0x43, 0xbc, 0x6d, 0xb8, 0x28, 0x3e, 0x57, 0xf8, 0x43, 0xbe,
  0x96, 0xa1, 0x02, 0xbe, 0xe2, 0x98, 0x6e, 0xbe, 0x0f, 0xc6, 0xab, 0xbe,
  0xd3, 0xb8, 0x5d, 0x3e, 0xca, 0x65, 0xaf, 0xbd, 0x73, 0xc6, 0xcb, 0x3d,
  0xf0, 0x2d, 0xa6, 0xbe, 0x7e, 0xae, 0xcf, 0x3e, 0xc5, 0x92, 0x85, 0xbe,
  0xb6, 0xd8, 0x3c, 0x3f, 0x7d, 0x4b, 0xa1, 0x3e, 0x68, 0x37, 0x0d, 0x3c,
  0xcf, 0xd0, 0x0b, 0x3f, 0x76, 0x54, 0x27, 0xbe, 0xa7, 0x21, 0xac, 0xbe,
  0xcf, 0x20, 0x1f, 0xbf, 0x93, 0x71, 0x7c, 0x3e, 0xb1, 0x88, 0x25, 0x3d,
  0x55, 0x52, 0x21, 0x3e, 0x79, 0x46, 0x5a, 0x3d, 0xa3, 0xe1, 0xab, 0xbe,
  0xf4, 0x93, 0xd2, 0x3e, 0xdd, 0x81, 0xb8, 0xbe, 0x12, 0x3f, 0xa2, 0xbd,
  0x93, 0x0a, 0x1e, 0xbf, 0x6a, 0xf5, 0xfa, 0x3e, 0x21, 0x6b, 0xa7, 0x3e,
  0x9d, 0x99, 0x8f, 0x3d, 0x7d, 0xa6, 0x74, 0x3d, 0xc6, 0x63, 0x07, 0xbe,
  0x38, 0x5d, 0x76, 0xbe, 0x32, 0xf6, 0xdf, 0xbe, 0x48, 0x65, 0x7f, 0x3e,
  0xff, 0x0a, 0x76, 0xbe, 0x96, 0xef, 0x9d, 0x3d, 0xe7, 0x8d, 0x18, 0xbd,
  0x7e, 0x44, 0xc1, 0xbe, 0xd5, 0xa5, 0x59, 0x3e, 0xa7, 0xcb, 0x8a, 0xbe,
  0x0f, 0x36, 0x35, 0x3d, 0x04, 0xea, 0x26, 0xbf, 0xc4, 0x30, 0x46, 0xbb,
  0x5f, 0x3c, 0x69, 0x3e, 0xf7, 0x10, 0xab, 0xbe, 0x10, 0x40, 0x95, 0x3e,
  0x61, 0xca, 0x1a, 0xbc, 0x62, 0x6a, 0x3c, 0xbe, 0x64, 0x0e, 0xb4, 0xbe,
  0xb6, 0xaf, 0x4a, 0xbc, 0xc8, 0xd2, 0x15, 0xbf, 0x0f, 0x0d, 0x09, 0x3e,
  0x01, 0xbb, 0x97, 0xbd, 0x7c, 0xbd, 0x30, 0xbd, 0x79, 0x95, 0x09, 0x3f,
  0x86, 0x71, 0xe4, 0xbd, 0xb6, 0x7b, 0x51, 0x3e, 0x18, 0x37, 0x21, 0xbf,
  0x20, 0xd4, 0x9e, 0x3e, 0x87, 0xcd, 0x02, 0xbe, 0x6f, 0x95, 0x08, 0xbf,
  0x2f, 0x3d, 0xba, 0x3e, 0x65, 0xc2, 0xd0, 0xbd, 0x2d, 0xa6, 0x05, 0x3d,
  0x7a, 0x64, 0x05, 0xbf, 0x06, 0x68, 0xe3, 0xbd, 0x1f, 0x85, 0x04, 0xbe,
  0xda, 0xcf, 0xfd, 0x3d, 0x35, 0x10, 0x68, 0x3e, 0xe8, 0x6c, 0x42, 0xbe,
  0xc5, 0xa3, 0x00, 0x3e, 0xff, 0x81, 0xcd, 0xbe, 0x3e, 0x29, 0xca, 0xbd,
  0xa3, 0x66, 0x16, 0xbf, 0xe2, 0x35, 0xe2, 0x3d, 0x50, 0xe1, 0xde, 0x3d,
  0x3b, 0xa2, 0x48, 0xbe, 0xd3, 0x5c, 0x24, 0x3e, 0x06, 0x20, 0xb5, 0x3d,
  0xb8, 0x24, 0x15, 0xbe, 0x33, 0x2c, 0x68, 0xbf, 0xeb, 0x30, 0xdc, 0x3e,
  0xdd, 0x7f, 0xb3, 0xbe, 0xf4, 0x0f, 0xe1, 0x3d, 0x81, 0x56, 0x34, 0x3f,
  0x17, 0x41, 0xc5, 0xbe, 0x3f, 0xb3, 0x1d, 0xbc, 0x4e, 0xda, 0x0f, 0xbe,
  0xb5, 0xf8, 0x3a, 0x3e, 0x34, 0xfc, 0x87, 0xbe, 0x70, 0x72, 0x48, 0xbc,
  0x34, 0xf6, 0xd6, 0xba, 0x8f, 0x41, 0x11, 0xbf, 0x9f, 0x98, 0x91, 0x3e,
  0xe0, 0x61, 0x69, 0xbe, 0x1b, 0x39, 0xfa, 0xbe, 0x72, 0x98, 0xf7, 0xbe,
  0x28, 0x8f, 0x55, 0x3d, 0x23, 0xb7, 0xce, 0x3d, 0x06, 0x59, 0x39, 0x3e,
  0xfc, 0x40, 0x54, 0x3f, 0x72, 0xd6, 0xa7, 0xbd, 0xf8, 0xb1, 0xa0, 0x3d,
  0x6d, 0x5b, 0x1f, 0xbc, 0x49, 0x18, 0xfd, 0xbd, 0x59, 0x12, 0x7a, 0xbd,
  0x65, 0x01, 0x0e, 0x3f, 0x0f, 0x0a, 0xc9, 0xbd, 0xa4, 0x02, 0xf0, 0x3d,
  0x4a, 0xa0, 0xb8, 0x3e, 0x76, 0x33, 0xfd, 0x3d, 0xc5, 0x79, 0x4a, 0xbd,
  0xa0, 0x73, 0xe8, 0xbe, 0x17, 0x23, 0x9b, 0xbc, 0x9b, 0x72, 0x86, 0x3c,
  0xf2, 0x21, 0x2f, 0x3d, 0x41, 0x27, 0x56, 0x3f, 0x33, 0x84, 0x35, 0x3e,
  0xc1, 0x95, 0xb2, 0x3d, 0x5f, 0xab, 0x57, 0xbe, 0xe3, 0x00, 0x7d, 0xbe,
  0x98, 0x8b, 0xf1, 0xbd, 0x3d, 0x2d, 0xde, 0x3e, 0x02, 0x96, 0x04, 0xbe,
  0x01, 0xc9, 0x73, 0xbd, 0x24, 0x51, 0x18, 0x3e, 0x52, 0xa8, 0x48, 0x3e,
  0xb8, 0x67, 0x45, 0xbe, 0x38, 0x17, 0xfd, 0xbe, 0x00, 0x3e, 0x14, 0xbe,
  0x19, 0xd2, 0xf8, 0xbd, 0x40, 0xc3, 0x36, 0x3e, 0x2d, 0xbc, 0x65, 0x3e,
  0x19, 0xac, 0x11, 0x3e, 0x83, 0x87, 0x30, 0xbd, 0xcd, 0xf3, 0x93, 0xbe,
  0x84, 0x8b, 0xdd, 0xbe, 0x38, 0x3a, 0x3d, 0xbe, 0x38, 0x19, 0x37, 0x3e,
  0xf5, 0x03, 0xa2, 0x3c, 0x53, 0x7b, 0xc9, 0xbe, 0x5c, 0x11, 0x50, 0x3e,
  0x3d, 0x02, 0x17, 0xbd, 0x54, 0x6b, 0xd4, 0xbd, 0x78, 0x19, 0x57, 0xbf,
  0xe4, 0x7b, 0xa9, 0x3e, 0x27, 0xef, 0x66, 0xbe, 0x7f, 0x6b, 0x7f, 0x3e,
  0x6e, 0xbd, 0xa9, 0x3e, 0xc1, 0xe1, 0x10, 0xbe, 0xb1, 0x62, 0x95, 0xbe,
  0xbf, 0x22, 0xbb, 0xbe, 0x02, 0x6e, 0x98, 0x3d, 0x2b, 0xe9, 0xac, 0xbe,
  0xc2, 0xc6, 0xf2, 0x3d, 0x72, 0xaa, 0x24, 0xbf, 0xf2, 0xbf, 0xa0, 0x3e,
  0x9f, 0x30, 0x18, 0xbd, 0x79, 0x82, 0x92, 0xbe, 0x33, 0xb2, 0x06, 0x3e,
  0x97, 0x84, 0x46, 0xbf, 0xac, 0xf6, 0x6a, 0x3e, 0xea, 0x5b, 0x2a, 0xbe,
  0x90, 0xd5, 0x15, 0x3e, 0x53, 0xfd, 0xf3, 0xbd, 0xfa, 0x28, 0xdf, 0x3d,
  0x8b, 0x56, 0xa1, 0x3d, 0x24, 0x81, 0xb7, 0xbe, 0x47, 0x44, 0xf7, 0x3d,
  0x48, 0x42, 0xcd, 0xbe, 0xe6, 0x3b, 0x0c, 0x3f, 0xa2, 0xc0, 0xcd, 0xbd,
  0xcc, 0xb4, 0xb5, 0x3d, 0x2b, 0x9d, 0x58, 0xbe, 0x4d, 0x6b, 0xa4, 0xbc,
  0x48, 0x49, 0x7d, 0xbf, 0x6f, 0x7a, 0x56, 0xbf, 0x0f, 0xde, 0x98, 0x3e,
  0x37, 0xe3, 0x35, 0xbe, 0xe6, 0xac, 0xcd, 0xbe, 0xc1, 0xfa, 0x66, 0xbe,
  0x74, 0x0f, 0x81, 0xbe, 0x91, 0x37, 0x02, 0x3d, 0x51, 0x75, 0x61, 0xbf,
  0xea, 0x80, 0x6b, 0x3e, 0xe9, 0x31, 0xad, 0xbe, 0x4f, 0x15, 0x2e, 0x3d,
  0x62, 0x3e, 0x01, 0x3e, 0x6c, 0xf9, 0xdb, 0x3d, 0xdc, 0x60, 0x76, 0xbd,
  0x04, 0x63, 0x65, 0xbe, 0x2a, 0x0b, 0xdc, 0xbe, 0x48, 0x99, 0x97, 0xbc,
  0x55, 0x0b, 0xd5, 0x3d, 0xe1, 0x2a, 0xb1, 0xbe, 0x73, 0x97, 0xd4, 0x3d,
  0x78, 0x04, 0x3b, 0xbf, 0x79, 0xd9, 0x6e, 0x3e, 0x9d, 0x8c, 0xa2, 0x3e,
  0x8d, 0x94, 0x28, 0xbf, 0x61, 0x34, 0x52, 0x3e, 0x1d, 0x2f, 0x63, 0xbe,
  0x26, 0xff, 0x0f, 0x3d, 0x25, 0x55, 0x04, 0xbf, 0x31, 0x95, 0x6f, 0xbe,
  0xc2, 0x15, 0xde, 0x3d, 0x86, 0xdb, 0xc3, 0xbd, 0xb2, 0xe3, 0xa3, 0xbe,
  0xe1, 0xeb, 0x4f, 0x3e, 0xde, 0x19, 0xbe, 0x3d, 0xb2, 0x12, 0x1e, 0x3d,
  0x54, 0x88, 0x26, 0xbd, 0xc9, 0x6d, 0x20, 0xbe, 0x26, 0xcd, 0xce, 0xbd,
  0x2d, 0xfa, 0xe9, 0xbe, 0x9f, 0xe3, 0xad, 0xbe, 0x72, 0x09, 0x63, 0xbd,
  0xf4, 0x12, 0x4b, 0xbe, 0x35, 0x22, 0x50, 0x3d, 0x41, 0x3f, 0x6e, 0x3d,
  0x74, 0x0e, 0xab, 0xbe, 0x2c, 0x67, 0x1e, 0xbd, 0xf8, 0xaf, 0x7b, 0xbd,
  0xfb, 0xdb, 0x30, 0x3e, 0xa6, 0x48, 0x2d, 0x3d, 0xca, 0xad, 0xbc, 0xbd,
  0x9e, 0xda, 0xa9, 0x3e, 0xa0, 0x1c, 0xb3, 0xbe, 0x26, 0x35, 0x40, 0xbf,
  0x2b, 0x13, 0xb9, 0xbe, 0x39, 0xf3, 0x8f, 0xbd, 0x4e, 0x24, 0x24, 0xbd,
  0x6d, 0x8f, 0xb3, 0xbd, 0xc8, 0x68, 0x28, 0xbf, 0xb9, 0x5b, 0xb4, 0x3c,
  0x4b, 0x63, 0x78, 0x3d, 0x1f, 0xea, 0xb1, 0xbe, 0x6a, 0x5b, 0x81, 0xbf,
  0x8f, 0x3d, 0x6d, 0xbd, 0x7d, 0xd1, 0x93, 0xbe, 0xde, 0x2c, 0xa3, 0xbe,
  0xae, 0x44, 0xb5, 0xbd, 0xda, 0xe4, 0xe4, 0xbe, 0xcc, 0xd5, 0xb6, 0xbe,
  0x1a, 0x10, 0x77, 0x3c, 0xec, 0xfa, 0xa1, 0xbd, 0x90, 0x7a, 0x5f, 0xbe,
  0x30, 0x7d, 0x22, 0x3d, 0x95, 0x74, 0x88, 0x3d, 0x61, 0xfe, 0x72, 0x3e,
  0x49, 0x54, 0x0e, 0xbd, 0xfe, 0xf7, 0x49, 0x3d, 0xcf, 0x3a, 0x9a, 0x3e,
  0xb1, 0xf7, 0x74, 0xbf, 0x50, 0x1a, 0x43, 0xbc, 0x23, 0x74, 0xee, 0x3c,
  0x58, 0x39, 0x72, 0xbe, 0x48, 0x27, 0x63, 0x3d, 0xec, 0x72, 0x37, 0xbe,
  0x5d, 0x37, 0x00, 0xbf, 0x3d, 0x6e, 0x1c, 0xbf, 0x5d, 0x9b, 0xb1, 0xbe,
  0x10, 0xf9, 0xac, 0xbe, 0xc2, 0x73, 0x17, 0xbe, 0x93, 0xf5, 0x40, 0xbc,
  0x4f, 0x31, 0xd6, 0xbe, 0xc3, 0xdf, 0x06, 0xbe, 0x26, 0x40, 0x6d, 0xbe,
  0x85, 0xd1, 0xce, 0xbd, 0x3e, 0xde, 0x6c, 0xbe, 0x07, 0x4f, 0x2c, 0xbd,
  0x36, 0x2d, 0x3a, 0xbe, 0x21, 0xca, 0x59, 0x3e, 0x6f, 0x18, 0xdb, 0xbd,
  0x34, 0x48, 0xe9, 0xbe, 0x29, 0xec, 0x88, 0xbd, 0xbc, 0xb9, 0x58, 0xbf,
  0x7e, 0xd3, 0x03, 0xbf, 0x59, 0x91, 0x0f, 0xbe, 0xd0, 0x82, 0xa6, 0xbe,
  0xb4, 0x8d, 0xc5, 0xbe, 0xfc, 0x0b, 0xb2, 0xbe, 0x2c, 0xde, 0xdd, 0x3d,
  0x9d, 0xd7, 0xae, 0xbe, 0x2d, 0xec, 0x21, 0x3e, 0x01, 0x32, 0x94, 0xbc,
  0xa8, 0xc6, 0x19, 0xbe, 0x06, 0x33, 0xc5, 0xbe, 0x9c, 0x26, 0x53, 0xbf,
  0xd7, 0xd1, 0xdf, 0xbe, 0x4d, 0xba, 0xca, 0xbe, 0xd9, 0x74, 0xce, 0x3d,
  0x29, 0x00, 0xa5, 0xbc, 0xfb, 0x16, 0xec, 0x3d, 0xf2, 0x93, 0x96, 0xbe,
  0x1e, 0x08, 0x3e, 0xbf, 0x4b, 0xac, 0x71, 0xbe, 0xff, 0xfe, 0x02, 0x3e,
  0x7a, 0x97, 0x5b, 0x3e, 0x07, 0x2b, 0x9c, 0xbe, 0xe0, 0xaf, 0xdd, 0x3e,
  0x20, 0x38, 0xd0, 0x3d, 0x70, 0xcb, 0xb6, 0xbd, 0x76, 0xcb, 0x63, 0xbd,
  0x49, 0x60, 0x72, 0xbf, 0x8b, 0x8c, 0x23, 0xbc, 0xe5, 0x52, 0x21, 0xbf,
  0xcc, 0xc7, 0x9e, 0x3e, 0x78, 0xf6, 0x82, 0xbe, 0x90, 0x5b, 0x1a, 0xbd,
  0xd9, 0xcb, 0x13, 0xbc, 0xf5, 0xcd, 0xf2, 0xbe, 0xf7, 0xba, 0x04, 0xbf,
  0xd3, 0xa4, 0xa6, 0xbc, 0xe3, 0x86, 0xca, 0x3e, 0x14, 0x97, 0x92, 0xbe,
  0x47, 0x4d, 0xe2, 0x3e, 0x6e, 0x69, 0x24, 0xbd, 0xc4, 0x9b, 0xae, 0xbe,
  0xef, 0xc7, 0x6a, 0x3e, 0x87, 0xd2, 0x30, 0xbf, 0x73, 0x3e, 0xef, 0x3e,
  0x4f, 0x09, 0xa4, 0xbe, 0x82, 0xef, 0x45, 0xbf, 0x2b, 0x90, 0x79, 0xbe,
  0x39, 0xbf, 0x40, 0xbe, 0xb6, 0x1d, 0xb9, 0x3d, 0xfd, 0x57, 0x59, 0xbf,
  0x31, 0xd4, 0x62, 0x3e, 0x55, 0xc0, 0xab, 0xbe, 0xac, 0x05, 0xe5, 0x3d,
  0x55, 0x79, 0xdd, 0xbe, 0xce, 0xdf, 0x97, 0xbc, 0x82, 0x40, 0x2f, 0xbf,
  0x4b, 0x43, 0x75, 0xbe, 0x0d, 0xe1, 0x28, 0xbf, 0x6b, 0x18, 0xfb, 0xbe,
  0xc5, 0xed, 0x11, 0x3e, 0xb9, 0x98, 0x03, 0xbf, 0xaa, 0x28, 0x53, 0xbd,
  0x5e, 0x90, 0xc4, 0xbe, 0x62, 0xf7, 0x6b, 0x3e, 0x2f, 0xc7, 0x70, 0x3d,
  0x48, 0x59, 0x4b, 0xbf, 0xd4, 0x06, 0x68, 0x3e, 0xc9, 0x79, 0x03, 0xbe,
  0x54, 0xee, 0xaf, 0x3e, 0x1b, 0xf8, 0x94, 0xbe, 0x7a, 0x9c, 0x1c, 0xbe,
  0x79, 0x8c, 0x00, 0xbe, 0x58, 0x06, 0x26, 0xbe, 0x7c, 0xb0, 0x0e, 0xbf,
  0x66, 0xfc, 0xb3, 0xbe, 0x4c, 0xba, 0xb9, 0x3d, 0xf8, 0xd8, 0x51, 0xbe,
  0xef, 0x0f, 0x26, 0xbb, 0x28, 0x29, 0xa2, 0x3d, 0x3d, 0x02, 0xdc, 0xbe,
  0x4c, 0xdb, 0x38, 0x3c, 0x65, 0xe9, 0xaf, 0xbf, 0x94, 0xb8, 0x4b, 0x3e,
  0x56, 0x80, 0x26, 0x3d, 0x2f, 0x4c, 0x2a, 0x3e, 0xb0, 0xb1, 0xf4, 0xbe,
  0xfd, 0x6b, 0x1f, 0x3e, 0x44, 0xd7, 0xb0, 0xbe, 0xdf, 0x4e, 0x7d, 0xbd,
  0x38, 0x09, 0x6a, 0xbe, 0xa5, 0x39, 0x16, 0xbe, 0xbd, 0xf5, 0xd2, 0x3d,
  0x2b, 0x6d, 0x55, 0xbe, 0x74, 0x08, 0xe2, 0xbf, 0x0d, 0x66, 0x68, 0xbf,
  0xdb, 0x8f, 0x29, 0x3e, 0x15, 0x86, 0x4e, 0xbf, 0xc6, 0xd4, 0xbe, 0x3e,
  0x90, 0x3c, 0x70, 0xbe, 0x8e, 0x9c, 0x58, 0x3f, 0xf8, 0x40, 0x42, 0xbe,
  0x8d, 0x71, 0x8d, 0xbf, 0xa3, 0xee, 0x87, 0x3f, 0x92, 0x6c, 0x37, 0xbe,
  0x55, 0xbb, 0xe3, 0xbe, 0x22, 0xfd, 0x05, 0xbe, 0xa7, 0xe5, 0xc7, 0xbe,
  0x45, 0xdc, 0xf3, 0x3e, 0x36, 0x1a, 0xe1, 0x3d, 0xea, 0x79, 0x8d, 0x3d,
  0xe0, 0x40, 0xe8, 0xbe, 0xbd, 0x4d, 0xba, 0x3c, 0x0a, 0xbf, 0x1f, 0xbf,
  0x9a, 0x4a, 0x50, 0xbe, 0x56, 0xf1, 0x08, 0xbf, 0xbc, 0x9e, 0x3d, 0x3e,
  0xc0, 0xba, 0x30, 0x3f, 0x63, 0x14, 0x1c, 0xbf, 0x72, 0x10, 0xbc, 0xbd,
  0x4f, 0x62, 0x66, 0x3d, 0x90, 0x30, 0x82, 0xbe, 0xc5, 0x48, 0xa6, 0x3c,
  0x03, 0x99, 0x9c, 0x3d, 0x0a, 0x5e, 0x87, 0x3e, 0x80, 0xf5, 0x73, 0xb9,
  0x68, 0xe7, 0x30, 0xbf, 0x2e, 0x25, 0x5d, 0xbe, 0xaa, 0xdf, 0xbc, 0x3d,
  0x63, 0x99, 0x0e, 0x3e, 0x29, 0x3c, 0x26, 0x3e, 0x26, 0xb2, 0x7a, 0xbe,
  0x61, 0xa7, 0x0d, 0xbe, 0x2a, 0x10, 0x33, 0x3f, 0x70, 0x76, 0xe4, 0x3d,
  0x82, 0xd7, 0xa4, 0xbe, 0x21, 0x59, 0x92, 0xbc, 0x6a, 0x12, 0x4c, 0xbc,
  0xb7, 0x45, 0xfa, 0x3d, 0x10, 0x72, 0x04, 0x3f, 0xeb, 0xa4, 0x08, 0x3f,
  0x7a, 0xd9, 0xa2, 0xbe, 0xf7, 0xe3, 0x78, 0xbf, 0x1e, 0x6c, 0x97, 0x3c,
  0x2f, 0x0b, 0x37, 0xbe, 0xdf, 0xcf, 0x70, 0x3e, 0xa7, 0xc1, 0x96, 0x3e,
  0xb8, 0xbd, 0x85, 0xbe, 0x12, 0x37, 0x85, 0xbe, 0xc3, 0x20, 0x0e, 0xbd,
  0xeb, 0x1f, 0x0e, 0x3f, 0x30, 0xbe, 0x2e, 0xbf, 0x3d, 0xb5, 0x9d, 0x3e,
  0x34, 0xe9, 0xa5, 0xbc, 0x44, 0x83, 0xca, 0x3d, 0x07, 0xf4, 0x02, 0x3f,
  0x92, 0xdd, 0x2b, 0x3e, 0x83, 0xda, 0x34, 0xbf, 0x8a, 0x3b, 0x2f, 0xbe,
  0xd2, 0xa2, 0x31, 0x3e, 0x27, 0xcf, 0xc4, 0xbe, 0x75, 0x18, 0x01, 0x3f,
  0x44, 0xbb, 0xc5, 0x3d, 0xe3, 0xb0, 0x46, 0x3e, 0x6d, 0x3c, 0xa3, 0xbe,
  0x16, 0x6e, 0xf4, 0x3d, 0xc5, 0x98, 0x01, 0x3f, 0x6d, 0xe9, 0x6a, 0xbf,
  0x28, 0xdc, 0xd6, 0x3e, 0xf2, 0x23, 0x83, 0xbe, 0xce, 0x15, 0x13, 0xbe,
  0x8c, 0x0d, 0xb7, 0x3d, 0x4e, 0xf1, 0x99, 0x3e, 0xba, 0x64, 0x14, 0x3e,
  0x76, 0x8a, 0xc2, 0xbc, 0xb3, 0x08, 0xda, 0xbe, 0x6e, 0xe9, 0x94, 0xbc,
  0x67, 0x6d, 0x93, 0x3d, 0x73, 0x3b, 0x85, 0x3e, 0x73, 0xc1, 0x1f, 0x3e,
  0x70, 0x32, 0xa8, 0x3d, 0xe0, 0x23, 0x76, 0xbe, 0xfb, 0x20, 0x69, 0x3e,
  0x8b, 0x63, 0x3c, 0xbf, 0xac, 0x31, 0x2b, 0x3f, 0xcf, 0xec, 0xa7, 0xbe,
  0xdc, 0x02, 0x2b, 0x3e, 0x16, 0xbe, 0xbc, 0x3d, 0xfc, 0xfe, 0xbe, 0xbe,
  0x99, 0x39, 0xf3, 0x3e, 0x43, 0xbc, 0x94, 0xbd, 0x66, 0x70, 0xa4, 0xbe,
  0x22, 0xa5, 0x79, 0x3d, 0x40, 0x36, 0x1a, 0x3d, 0x53, 0xd9, 0x8c, 0x3c,
  0x18, 0xcc, 0x7f, 0x3e, 0x3c, 0x37, 0x32, 0xbe, 0x09, 0xbf, 0xdb, 0x3b,
  0x70, 0xab, 0xa3, 0xbe, 0x65, 0x7c, 0xb1, 0xbe, 0xd5, 0x12, 0xb9, 0x3e,
  0x01, 0x46, 0x83, 0x3c, 0x33, 0x61, 0x4d, 0x3d, 0x45, 0x4e, 0x7a, 0x3e,
  0xc0, 0xe6, 0x48, 0xbc, 0xac, 0xfb, 0xe5, 0x3e, 0xd9, 0xc4, 0x98, 0x3e,
  0xa3, 0x0c, 0x9a, 0x3e, 0x97, 0xd7, 0xee, 0xbd, 0x22, 0x45, 0x8d, 0x3e,
  0xb6, 0x45, 0x35, 0xbd, 0x76, 0xb5, 0x4d, 0xbe, 0xf2, 0x51, 0x35, 0xbe,
  0xb9, 0x5d, 0xe1, 0x3e, 0x16, 0xf9, 0x19, 0xbf, 0x90, 0xfa, 0x09, 0xbe,
  0xb8, 0xfe, 0xaa, 0x3e, 0x89, 0xb7, 0x3c, 0xbe, 0x13, 0x2e, 0x04, 0xbc,
  0x51, 0xfb, 0x2b, 0x3c, 0x9a, 0x51, 0xd0, 0x3e, 0x6a, 0x32, 0xb1, 0x3e,
  0x3a, 0x56, 0xe6, 0x3e, 0x7a, 0xca, 0xa9, 0x3e, 0x8a, 0x4a, 0xac, 0x3d,
  0x38, 0x52, 0x66, 0x3e, 0x71, 0x0a, 0xbe, 0x3d, 0xb9, 0x1f, 0x2d, 0x3e,
  0x8f, 0xcf, 0x89, 0xbe, 0x48, 0x52, 0x9a, 0x3e, 0x0f, 0x53, 0x82, 0xbe,
  0x4a, 0x46, 0x01, 0xbf, 0xdd, 0x72, 0xee, 0x3d, 0x48, 0x77, 0x90, 0x3d,
  0x68, 0x44, 0xbf, 0xbc, 0x99, 0x5f, 0x95, 0x3e, 0x00, 0xe9, 0xb3, 0x3e,
  0x6a, 0xee, 0xd1, 0x3e, 0xfc, 0x7c, 0x16, 0x3e, 0x5b, 0x08, 0x3e, 0x3e,
  0x35, 0x97, 0xbb, 0x3e, 0x69, 0x0d, 0xc8, 0xbb, 0x3c, 0x48, 0x2b, 0xbd,
  0x60, 0xac, 0xad, 0x3c, 0x0d, 0xae, 0x59, 0x3d, 0x7f, 0xaf, 0xec, 0x3e,
  0xfa, 0x92, 0x1d, 0xbc, 0x05, 0xde, 0xf5, 0xbe, 0x73, 0xf7, 0xd9, 0x3d,
  0x58, 0xa0, 0x9c, 0x3e, 0xcd, 0x0b, 0x43, 0xbd, 0x68, 0x97, 0x9e, 0xbd,
  0xdf, 0xc1, 0xf8, 0x3e, 0xed, 0xb5, 0xd9, 0x3e, 0x19, 0x29, 0x8c, 0x3e,
  0x4c, 0x50, 0x6f, 0xbe, 0x86, 0x98, 0x3c, 0xbe, 0x3d, 0xb3, 0xe4, 0x3d,
  0x8d, 0xa1, 0x16, 0xbc, 0xd6, 0x60, 0xbb, 0x3e, 0xd7, 0x64, 0x45, 0xbe,
  0xc5, 0xdc, 0xec, 0x3e, 0x50, 0x2a, 0xea, 0xbd, 0xbf, 0x54, 0x13, 0xbf,
  0x0e, 0x65, 0xe9, 0x3d, 0x54, 0xee, 0xa5, 0x3e, 0x44, 0x14, 0x1d, 0xbe,
  0x3e, 0x64, 0x84, 0x3e, 0x2e, 0xcd, 0xca, 0x3e, 0x6b, 0x81, 0xdc, 0x3e,
  0x7e, 0xe3, 0x5b, 0xbe, 0xb9, 0xad, 0xc9, 0x3a, 0x6c, 0xac, 0x14, 0xbd,
  0x04, 0x70, 0x7f, 0x3e, 0x14, 0x1d, 0xec, 0xbc, 0x35, 0xbb, 0x45, 0xbd,
  0x3e, 0x9a, 0xd8, 0xbd, 0xe3, 0xb3, 0xe6, 0x3e, 0x68, 0x86, 0x0c, 0xbf,
  0x9d, 0x17, 0x3e, 0xbf, 0xd3, 0xd6, 0x64, 0x3e, 0x84, 0x70, 0x9c, 0x3e,
  0xe1, 0xaf, 0x96, 0xbc, 0x27, 0x28, 0x17, 0x3f, 0x3b, 0x0c, 0xd8, 0xbd,
  0x54, 0x65, 0xea, 0x3d, 0x0c, 0x47, 0x06, 0xbd, 0x9a, 0x74, 0x15, 0x3b,
  0xa0, 0xf1, 0x28, 0x3d, 0xc0, 0x85, 0xf8, 0x3d, 0xac, 0x62, 0xfe, 0xbd,
  0xe3, 0xff, 0xaf, 0x3c, 0x6f, 0xef, 0x39, 0xbe, 0x55, 0xa6, 0xf7, 0xbe,
  0x80, 0x8f, 0x5f, 0xbf, 0xf3, 0x55, 0x14, 0xbf, 0x70, 0xe9, 0xe9, 0x3d,
  0xf5, 0xa5, 0x2f, 0x3e, 0x59, 0xa3, 0xe6, 0xbb, 0x1c, 0x66, 0x8c, 0x3e,
  0x82, 0xbc, 0x42, 0xbe, 0x2b, 0x54, 0x9a, 0x3c, 0x81, 0xa1, 0x04, 0x3e,
  0xb1, 0xdc, 0x8a, 0xbe, 0xa7, 0xa1, 0xdf, 0xbc, 0xf9, 0x3c, 0x75, 0x3e,
  0xb2, 0xda, 0x73, 0x3c, 0x0b, 0xcd, 0x90, 0xbe, 0xef, 0xda, 0x7e, 0xbe,
  0xd8, 0x41, 0xbd, 0xbd, 0x4a, 0x67, 0x70, 0xbf, 0xf0, 0x82, 0x12, 0xbd,
  0xea, 0x08, 0x21, 0x3e, 0x50, 0x53, 0xc3, 0x3d, 0x98, 0xec, 0x10, 0x3e,
  0x4c, 0x57, 0x71, 0xbe, 0x2b, 0xed, 0xcb, 0x3d, 0x0c, 0x0c, 0xb8, 0xbd,
  0xc7, 0x71, 0xbd, 0x3d, 0xed, 0xfa, 0x95, 0xbc, 0x56, 0xfa, 0x75, 0xbe,
  0xb2, 0x4b, 0x06, 0x3e, 0xa2, 0x9f, 0x27, 0x3e, 0x17, 0x57, 0xd6, 0xbd,
  0xc3, 0x94, 0x98, 0xbf, 0xc5, 0x7d, 0x6e, 0xbe, 0x0c, 0x62, 0x78, 0x3d,
  0x89, 0x1c, 0x11, 0xbe, 0xcf, 0x9c, 0x94, 0x3d, 0x41, 0xdd, 0x0e, 0xbe,
  0xaf, 0xd2, 0xfc, 0x3d, 0xd5, 0x58, 0xe6, 0xbd, 0xd4, 0x87, 0x8e, 0xbd,
  0xe5, 0xcb, 0x32, 0xbe, 0x88, 0xc1, 0x62, 0xbe, 0xcc, 0x91, 0xe1, 0xbd,
  0x7b, 0x25, 0x02, 0xbe, 0xa7, 0x5c, 0x1e, 0x3e, 0x50, 0x55, 0x8f, 0x3e,
  0x4d, 0x82, 0x6f, 0xbe, 0x40, 0x88, 0x66, 0xbe, 0xc0, 0xd9, 0x61, 0xbe,
  0xe7, 0x56, 0x41, 0xbc, 0xa4, 0x1b, 0xc4, 0xbe, 0xfc, 0x2b, 0x5d, 0x3b,
  0x6c, 0x12, 0xaa, 0xbc, 0xa5, 0x88, 0x02, 0xbd, 0x29, 0xa9, 0x3e, 0xbd,
  0x65, 0x23, 0x35, 0x3f, 0x87, 0x68, 0xa1, 0xbe, 0x5b, 0x40, 0x9a, 0xbd,
  0x3c, 0xee, 0xa8, 0x3e, 0x3b, 0xf3, 0x83, 0x3e, 0xe2, 0x45, 0x80, 0x3d,
  0xaf, 0xd0, 0xcc, 0xbd, 0x55, 0xad, 0x3b, 0xbe, 0xda, 0xb3, 0xc5, 0x3e,
  0x54, 0x57, 0x8d, 0x3e, 0xcc, 0xc1, 0xf3, 0xbe, 0xe8, 0x8b, 0x61, 0x3d,
  0xc2, 0x11, 0x88, 0x3d, 0xb3, 0xc2, 0xd3, 0x3b, 0x6f, 0x8f, 0xc2, 0x3e,
  0x23, 0xe4, 0x2d, 0xbe, 0xc5, 0x46, 0x75, 0xbe, 0xd7, 0x7f, 0xd8, 0x3d,
  0x1f, 0xda, 0x76, 0x3e, 0x97, 0x2f, 0x67, 0x3e, 0x9b, 0x5b, 0x5b, 0x3e,
  0xfe, 0xad, 0x3c, 0x3d, 0x5c, 0xf0, 0xb4, 0xbe, 0x88, 0xed, 0x6b, 0xbe,
  0xa7, 0x38, 0x03, 0x3f, 0x4c, 0x39, 0x98, 0x3e, 0x4e, 0x41, 0x85, 0xbe,
  0xa3, 0xdd, 0xbe, 0xbe, 0x38, 0xed, 0x85, 0x3b, 0xbf, 0x16, 0xc4, 0x3e,
  0xe8, 0xf2, 0xbf, 0x3e, 0xc0, 0xc5, 0x82, 0x3e, 0xb1, 0x88, 0x11, 0xbf,
  0x9d, 0x9f, 0xae, 0x3e, 0x81, 0x88, 0x07, 0x3f, 0xf0, 0x43, 0x0c, 0x3d,
  0x12, 0x01, 0x36, 0x3e, 0xa5, 0x87, 0xe3, 0xbd, 0xa6, 0x7a, 0xec, 0xbd,
  0x70, 0xa7, 0xb5, 0xbc, 0x9d, 0xb3, 0x0d, 0x3f, 0x81, 0xdc, 0x16, 0x3f,
  0x25, 0x99, 0x0e, 0x3d, 0xcc, 0x07, 0xd9, 0xbd, 0xcd, 0xa9, 0x83, 0xbc,
  0xbf, 0x2f, 0x4d, 0xbc, 0xb5, 0x53, 0x22, 0x3f, 0x8c, 0x34, 0xa0, 0x3e,
  0x76, 0x87, 0x45, 0xbe, 0xd6, 0x87, 0x81, 0xbd, 0x16, 0x86, 0x9f, 0x3e,
  0x0f, 0x0e, 0xe2, 0x3d, 0xcd, 0xf5, 0x89, 0x3e, 0x61, 0x03, 0x18, 0x3e,
  0xcd, 0xe8, 0x8b, 0xbe, 0x9e, 0x0b, 0x78, 0x3c, 0x7c, 0xdb, 0x19, 0x3f,
  0xe3, 0xce, 0x04, 0x3f, 0x31, 0x0c, 0x8c, 0x3d, 0x46, 0x09, 0xd5, 0x3e,
  0x69, 0xde, 0x1a, 0xbf, 0xce, 0xa6, 0x8a, 0x3c, 0x8c, 0xa8, 0xdb, 0x3e,
  0xbb, 0x99, 0x4b, 0x3e, 0x80, 0xa2, 0x16, 0x3e, 0x95, 0x03, 0x9a, 0x3e,
  0x74, 0xba, 0x73, 0x3e, 0x14, 0xe2, 0x8b, 0x3e, 0x79, 0x04, 0x89, 0x3e,
  0x44, 0x68, 0x89, 0xbe, 0xa4, 0xe1, 0xbe, 0xbe, 0xeb, 0x56, 0x5b, 0xbe,
  0x87, 0x70, 0xf8, 0x3e, 0xba, 0x80, 0x2a, 0x3f, 0x09, 0xc1, 0x66, 0x3e,
  0xd4, 0x7b, 0xcd, 0x3e, 0x4b, 0x8d, 0x82, 0xbf, 0x84, 0x85, 0xbe, 0x3d,
  0x4a, 0xbf, 0x27, 0x3e, 0xaa, 0xe6, 0xd5, 0x3d, 0x7e, 0x5c, 0x24, 0xbe,
  0xa9, 0x39, 0x81, 0x3e, 0x4a, 0x39, 0x8b, 0xbb, 0xd2, 0xd6, 0x73, 0x3e,
  0x80, 0x47, 0xbe, 0x3d, 0x23, 0xed, 0x12, 0xbe, 0x95, 0xa9, 0x53, 0xbe,
  0x9f, 0x37, 0x38, 0xbe, 0x25, 0x01, 0x0a, 0x3f, 0x0a, 0xf0, 0xe2, 0x3e,
  0x2a, 0x7c, 0xbd, 0xbd, 0x93, 0xae, 0x18, 0x3e, 0x33, 0x85, 0x3b, 0xbf,
  0x70, 0xa7, 0xc4, 0x3c, 0xc0, 0xc9, 0x19, 0x3f, 0x31, 0xd7, 0x56, 0x3e,
  0x13, 0x5a, 0x5e, 0x3b, 0xfa, 0xa1, 0xb2, 0x3d, 0x34, 0xf4, 0x98, 0x3e,
  0x1e, 0x81, 0x47, 0x3e, 0x73, 0xb3, 0x2d, 0x3e, 0x6c, 0xae, 0x81, 0xbe,
  0x81, 0x97, 0xb5, 0xbe, 0x68, 0x36, 0x1c, 0xbf, 0x4b, 0x9b, 0x01, 0x3f,
  0x39, 0xa9, 0x85, 0xbd, 0x22, 0xfc, 0x9e, 0x3e, 0xed, 0x91, 0xcd, 0xbd,
  0x31, 0xea, 0x24, 0xbf, 0xd5, 0x46, 0x75, 0x3d, 0x4c, 0xc6, 0x8e, 0x3e,
  0xeb, 0xc1, 0x8a, 0x3e, 0xb3, 0x96, 0x28, 0xbe, 0x71, 0xf1, 0xf4, 0x3d,
  0xf6, 0xfc, 0xa6, 0xbd, 0x4c, 0x5f, 0x0a, 0x3f, 0x58, 0xd4, 0x4d, 0x3e,
  0xae, 0x8b, 0x7e, 0xbd, 0x2c, 0x22, 0x64, 0xbe, 0xe8, 0xaa, 0xdd, 0xbe,
  0xc1, 0xd4, 0x0d, 0x3f, 0x5b, 0xa2, 0x15, 0xbd, 0x29, 0xa2, 0x11, 0x3f,
  0xc4, 0x81, 0x93, 0x3d, 0x13, 0xb8, 0x77, 0xbe, 0x18, 0x30, 0x12, 0x3e,
  0xfb, 0xa2, 0x16, 0x3f, 0xb2, 0x57, 0xef, 0xbd, 0x18, 0x20, 0xc4, 0xbe,
  0x34, 0x96, 0xc4, 0xbc, 0x51, 0xd4, 0x4d, 0x3e, 0xf9, 0xd0, 0x3a, 0xbd,
  0x09, 0xd9, 0x37, 0x3e, 0xcf, 0x6d, 0xbd, 0x3c, 0xfb, 0xad, 0x04, 0x3e,
  0xdf, 0xfa, 0x36, 0xbe, 0x56, 0x7e, 0xf5, 0x3e, 0xff, 0x6e, 0xe6, 0xbd,
  0xcb, 0x55, 0x0e, 0x3c, 0xcf, 0x21, 0x07, 0x3e, 0x77, 0x42, 0xbe, 0xbd,
  0x5e, 0xee, 0x4e, 0x3d, 0xb9, 0x37, 0xb1, 0x3e, 0x3e, 0xff, 0x95, 0x3e,
  0xba, 0x23, 0x4c, 0xbe, 0x19, 0x2a, 0xb4, 0x3d, 0x8c, 0x66, 0xa9, 0xbe,
  0xb4, 0x07, 0x8f, 0x3e, 0xc9, 0x26, 0x49, 0x3d, 0xcf, 0x84, 0x37, 0x3d,
  0x29, 0x3f, 0x04, 0xbe, 0x90, 0x61, 0xba, 0xbe, 0x37, 0xa1, 0xce, 0x3d,
  0x6e, 0x66, 0x14, 0x3f, 0x8a, 0x79, 0x38, 0xbe, 0x75, 0x91, 0x4d, 0x3e,
  0x72, 0xb2, 0x0b, 0xbf, 0x1c, 0xf6, 0xec, 0x3d, 0xd2, 0x62, 0x57, 0x3e,
  0xdc, 0x70, 0x53, 0x3e, 0x8d, 0xcb, 0x34, 0x3e, 0xbc, 0xcf, 0xfd, 0x3d,
  0xe7, 0xfc, 0x2b, 0xbf, 0x86, 0x2a, 0x10, 0x3e, 0x46, 0xf8, 0x79, 0x3e,
  0x77, 0xea, 0xca, 0x3d, 0x2a, 0x58, 0x28, 0x3e, 0x81, 0x14, 0x6d, 0xbe,
  0x1b, 0xb0, 0x82, 0x3e, 0x43, 0xe3, 0x50, 0x3e, 0x8e, 0x9c, 0xc5, 0x3c,
  0x5f, 0x02, 0x84, 0x3e, 0x99, 0x92, 0x35, 0xbe, 0x86, 0xf9, 0xe8, 0x3c,
  0x80, 0x9f, 0x1f, 0x3d, 0xd9, 0x8e, 0x57, 0x3e, 0xf4, 0x34, 0x98, 0xbf,
  0xc9, 0xce, 0xdc, 0x3e, 0x0e, 0xeb, 0xc5, 0x3c, 0xaf, 0xe1, 0x87, 0xbf,
  0xd0, 0x27, 0xe7, 0x3e, 0x77, 0xc7, 0x99, 0x3e, 0x6f, 0x7c, 0x09, 0x3e,
  0xfd, 0x90, 0x37, 0xbe, 0x9a, 0x6a, 0xf7, 0xbd, 0x2d, 0x0d, 0x99, 0xbc,
  0x0a, 0xa8, 0x85, 0xbf, 0xb0, 0x76, 0x25, 0xbf, 0x7c, 0x95, 0x93, 0xbe,
  0x91, 0x75, 0x9c, 0x3e, 0x60, 0xf3, 0x79, 0x3d, 0xc5, 0x3d, 0xef, 0x3d,
  0xe0, 0xa6, 0x93, 0xbf, 0x50, 0xc5, 0x05, 0xbe, 0xa0, 0xf6, 0x8f, 0x3e,
  0x5c, 0xdb, 0x42, 0xbf, 0x46, 0xd1, 0x0f, 0x3f, 0x6d, 0x30, 0x62, 0xbe,
  0x8e, 0x75, 0x4d, 0xbe, 0x68, 0x25, 0x06, 0x3f, 0x20, 0xdd, 0x13, 0x3f,
  0xa4, 0x95, 0xe9, 0x3e, 0x6f, 0xb1, 0x68, 0xbd, 0x38, 0x02, 0xbc, 0x3e,
  0x9e, 0x5e, 0x20, 0x3d, 0x54, 0x6b, 0xd2, 0x3e, 0x6a, 0x22, 0xa8, 0xbe,
  0x94, 0x15, 0xba, 0x3d, 0xc3, 0xca, 0xf8, 0x3d, 0x68, 0x08, 0x28, 0xbe,
  0x4c, 0x6d, 0xc1, 0x3e, 0xac, 0x88, 0x0c, 0xbf, 0xcf, 0xdc, 0xc9, 0xbe,
  0xcc, 0x7d, 0x7f, 0xbd, 0xc9, 0x3e, 0x29, 0xbe, 0x43, 0x91, 0x0e, 0x3f,
  0xb8, 0x75, 0x4f, 0xbf, 0x6e, 0xd8, 0xd4, 0x3e, 0x12, 0x43, 0x82, 0x3e,
  0x3c, 0xec, 0x8d, 0x3d, 0x57, 0xfe, 0x4a, 0x3e, 0x62, 0x28, 0xe0, 0x3d,
  0x41, 0x0c, 0xba, 0xbd, 0xcf, 0xa3, 0x43, 0xbe, 0x4e, 0x5b, 0x4f, 0x3d,
  0xe9, 0xe8, 0x71, 0xbe, 0x5b, 0x9a, 0xe6, 0x3e, 0x53, 0x61, 0xcb, 0xbe,
  0x43, 0x1b, 0x59, 0xbf, 0x77, 0xef, 0xe1, 0x3e, 0x58, 0x78, 0x18, 0x3e,
  0x01, 0x0e, 0x43, 0xbd, 0x39, 0x9e, 0x4c, 0xbf, 0xb2, 0xca, 0xff, 0xbd,
  0x1c, 0xf0, 0x7f, 0x3e, 0x49, 0x6c, 0x0d, 0x3c, 0x2d, 0xab, 0x90, 0x3e,
  0x96, 0x6a, 0xd8, 0x3d, 0x83, 0xe2, 0x55, 0xbe, 0x21, 0xff, 0xe0, 0xbe,
  0xdb, 0x66, 0x2b, 0x3d, 0x6f, 0x56, 0x37, 0x3d, 0x36, 0x67, 0xce, 0x3c,
  0x19, 0xdf, 0x51, 0xbe, 0x8e, 0x8b, 0x12, 0xbf, 0x59, 0xc3, 0x98, 0x3e,
  0x4d, 0x59, 0x3e, 0xbe, 0x4d, 0x90, 0x1e, 0x3e, 0x37, 0x7b, 0x82, 0xbf,
  0x29, 0xc6, 0x59, 0xbe, 0xae, 0xfa, 0x62, 0xbe, 0x57, 0x4b, 0xb1, 0x3e,
  0x34, 0x20, 0xa9, 0x3e, 0xba, 0x26, 0x0c, 0x3e, 0xa8, 0x82, 0x1d, 0xbe,
  0x9e, 0x28, 0x17, 0xbf, 0xfd, 0xb6, 0x86, 0x3e, 0x8d, 0x56, 0xd9, 0xbe,
  0x5c, 0x5a, 0x04, 0xbe, 0x6a, 0x93, 0x30, 0xbe, 0xe4, 0x41, 0x94, 0xbf,
  0x6c, 0x39, 0xd6, 0x3e, 0xf3, 0xfd, 0x04, 0xbe, 0xde, 0x93, 0x66, 0x3e,
  0x86, 0x80, 0xe5, 0xbe, 0xfd, 0xc7, 0x9c, 0xbe, 0x03, 0xcf, 0xae, 0x3e,
  0xe9, 0x86, 0x17, 0x3c, 0xb5, 0x4f, 0xc1, 0x3e, 0x29, 0xb8, 0xac, 0x3d,
  0x9d, 0x21, 0x9e, 0xbe, 0xd2, 0x45, 0x20, 0xbf, 0x4e, 0xba, 0x57, 0x3e,
  0xba, 0xfe, 0x0e, 0xbf, 0x78, 0xec, 0x71, 0xbe, 0x7a, 0xa9, 0x83, 0xbc,
  0xf4, 0xa2, 0x13, 0xbf, 0xf2, 0xbf, 0x48, 0x3e, 0x48, 0x02, 0xb4, 0x3c,
  0xa9, 0x51, 0xd0, 0xbd, 0xb1, 0x81, 0xd8, 0xbe, 0x18, 0x6a, 0x38, 0x3e,
  0x84, 0x51, 0x44, 0x3e, 0xe9, 0xca, 0xe2, 0xbc, 0x31, 0x61, 0x0c, 0x3f,
  0xee, 0x4b, 0xfb, 0x3d, 0x69, 0xb5, 0x1f, 0x3d, 0xb9, 0x21, 0x4e, 0xbe,
  0xe3, 0xe2, 0x77, 0x3d, 0xb2, 0xe0, 0x7a, 0xbe, 0x4e, 0xd6, 0xf4, 0xbd,
  0x50, 0x23, 0x80, 0x3d, 0x0a, 0x93, 0x6d, 0xbf, 0xc4, 0x43, 0x47, 0x3e,
  0x08, 0x97, 0x1f, 0xbe, 0xf0, 0xd8, 0xda, 0x3d, 0x05, 0xa1, 0x04, 0xbf,
  0xd2, 0x03, 0x75, 0x3e, 0x46, 0xdd, 0x77, 0xbe, 0x6b, 0xa6, 0x16, 0x3e,
  0x79, 0x67, 0x1c, 0x3e, 0x2f, 0xcc, 0xa5, 0x3d, 0x97, 0xa8, 0x56, 0xbe,
  0xbf, 0x06, 0xfc, 0xbd, 0x61, 0x2d, 0xb2, 0x3d, 0x5f, 0xd4, 0xc5, 0xbe,
  0xbc, 0x0d, 0x12, 0x3e, 0x35, 0xfa, 0xfc, 0xbd, 0x89, 0xbf, 0xcb, 0xbe,
  0xae, 0xc1, 0x23, 0xbe, 0xed, 0x5e, 0xad, 0x3d, 0xd9, 0xed, 0xa3, 0x3e,
  0x44, 0xa4, 0x8f, 0x3d, 0x40, 0xe6, 0x16, 0xbc, 0x99, 0x81, 0x5e, 0x3e,
  0xaa, 0xbb, 0x1c, 0xbe, 0xbe, 0xd2, 0xe4, 0x3e, 0x6b, 0xe3, 0x9a, 0x3d,
  0x44, 0x57, 0xeb, 0xbc, 0x94, 0x97, 0x1e, 0xbe, 0x12, 0xb1, 0x8f, 0xba,
  0x0e, 0x29, 0x1b, 0xbe, 0x66, 0xd6, 0x88, 0x3e, 0x50, 0xa7, 0xc2, 0xbe,
  0x63, 0xa7, 0x80, 0xbf, 0x66, 0x29, 0x6e, 0x3e, 0x0b, 0xbf, 0x60, 0xbc,
  0xc8, 0xfd, 0xca, 0x3e, 0xbf, 0x6d, 0xd1, 0xbe, 0x40, 0x30, 0xc2, 0x3e,
  0xaa, 0x1a, 0x21, 0x3d, 0x3f, 0xa5, 0xb8, 0x3e, 0xbd, 0x96, 0x5e, 0x3e,
  0xe2, 0xd0, 0x01, 0xbc, 0xe8, 0x91, 0xaf, 0xbd, 0xa4, 0x2d, 0x78, 0x3e,
  0x25, 0xeb, 0x1e, 0x3e, 0x13, 0x93, 0xad, 0xbe, 0x28, 0xb0, 0x8b, 0xbe,
  0xee, 0x4f, 0xc0, 0xbe, 0xcd, 0x7a, 0x7b, 0xbe, 0xca, 0x20, 0x7f, 0x3e,
  0xcf, 0x51, 0xed, 0x3d, 0xde, 0x15, 0x56, 0x3e, 0x5f, 0xc9, 0xbb, 0xbe,
  0xf8, 0x51, 0x39, 0x3e, 0x51, 0x74, 0xe0, 0x3e, 0xdc, 0x0a, 0x8c, 0xbd,
  0xf3, 0x72, 0xd4, 0x3d, 0x28, 0xf8, 0x05, 0xbc, 0xcf, 0x26, 0xed, 0xbd,
  0x4d, 0x6f, 0x52, 0x3e, 0xce, 0x81, 0x65, 0x3e, 0x9c, 0x3d, 0x21, 0xbe,
  0x10, 0x76, 0x9d, 0xbd, 0xd1, 0x0a, 0xc5, 0xbe, 0x19, 0xeb, 0x4e, 0xbe,
  0x27, 0x55, 0x77, 0x3d, 0xae, 0x0f, 0xdf, 0xba, 0x26, 0xaa, 0x7e, 0x3e,
  0xee, 0x79, 0x4d, 0xbf, 0x8b, 0x72, 0x15, 0xbe, 0x28, 0x6c, 0xa4, 0x3d,
  0xac, 0xa1, 0x0b, 0x3d, 0x9f, 0xf8, 0x1e, 0x3e, 0xf1, 0xc9, 0x61, 0xbe,
  0x11, 0x33, 0x64, 0xbe, 0x03, 0xcf, 0xf2, 0xbe, 0xf2, 0x1c, 0x4f, 0x3e,
  0x1b, 0x25, 0x93, 0xbc, 0xc3, 0xf7, 0xa3, 0x3e, 0x99, 0x13, 0xcd, 0xbe,
  0xc0, 0x37, 0x42, 0xbf, 0x0c, 0x68, 0x28, 0x3e, 0xfc, 0xe0, 0x45, 0xbd,
  0x31, 0x90, 0x07, 0x3f, 0x9a, 0x3a, 0xd6, 0xbe, 0x35, 0xcc, 0xef, 0x3e,
  0x70, 0xe4, 0xfc, 0x3c, 0x03, 0x1a, 0xbb, 0x3d, 0xac, 0xaf, 0x9c, 0x3d,
  0x1b, 0xc3, 0x5b, 0x3d, 0x5d, 0x90, 0x20, 0xbe, 0xe2, 0xff, 0x6a, 0xbf,
  0x47, 0x76, 0x82, 0x3e, 0x05, 0xe5, 0x60, 0xbe, 0x3e, 0xfa, 0xd4, 0x3e,
  0x7e, 0x39, 0x05, 0xbf, 0xdb, 0xe2, 0x3a, 0xbf, 0x9f, 0xc9, 0x33, 0x3e,
  0x9a, 0x05, 0x80, 0xbd, 0x42, 0x4e, 0x12, 0x3f, 0xa8, 0x82, 0x86, 0xbf,
  0xee, 0x60, 0xe4, 0xbe, 0x60, 0xef, 0x25, 0xbd, 0xba, 0x88, 0xc7, 0xbe,
  0x9a, 0x78, 0x1f, 0x3e, 0xd4, 0x16, 0x31, 0x3e, 0x13, 0x15, 0x90, 0xbe,
  0xea, 0xab, 0x76, 0xbe, 0x02, 0x81, 0xcc, 0x3d, 0x2d, 0x1a, 0x5a, 0xbd,
  0x17, 0x68, 0x97, 0x3d, 0xc0, 0xc9, 0xc3, 0xbc, 0x57, 0xc1, 0x0e, 0xbf,
  0xbd, 0x7d, 0x89, 0xbc, 0x13, 0x08, 0x58, 0xbe, 0xe2, 0x54, 0x42, 0x3f,
  0xcc, 0xcc, 0x91, 0xbd, 0x00, 0x65, 0xa7, 0xbe, 0x97, 0xd2, 0x86, 0x3c,
  0x7c, 0x31, 0xa3, 0x3b, 0x78, 0x42, 0x80, 0x3d, 0xe8, 0x4c, 0x38, 0x3e,
  0x1d, 0x0c, 0x86, 0xbe, 0xbf, 0xe7, 0x3b, 0xbf, 0x24, 0x41, 0x02, 0x3f,
  0x4b, 0x99, 0x58, 0x3d, 0x77, 0x9b, 0xa3, 0xbf, 0x0b, 0x6a, 0x87, 0xbe,
  0xf8, 0x44, 0xa0, 0xbe, 0xce, 0x30, 0x72, 0xbe, 0x2f, 0xc1, 0x39, 0x3d,
  0x1f, 0x5d, 0x11, 0x3f, 0xff, 0xc8, 0x44, 0x3f, 0x30, 0xc9, 0x58, 0x3f,
  0xf9, 0xc0, 0x23, 0x3e, 0x50, 0x10, 0xa7, 0xbf, 0x2d, 0x81, 0x78, 0x3e,
  0x2e, 0x4f, 0xd0, 0x3e, 0x09, 0x84, 0xa3, 0xbe, 0x5f, 0x11, 0x54, 0xbc,
  0x85, 0xbc, 0xc8, 0xbe, 0xda, 0x94, 0x5b, 0xbf, 0x56, 0x70, 0x1b, 0x3f,
  0xa0, 0xe7, 0xc7, 0xbe, 0xcb, 0x24, 0x59, 0x3d, 0x5b, 0xb7, 0x52, 0xbe,
  0x08, 0xcc, 0xe1, 0x3d, 0xd6, 0x7f, 0x93, 0x3d, 0xf2, 0x7e, 0xd9, 0x3d,
  0x3f, 0x25, 0xa2, 0xbe, 0x25, 0x45, 0xa2, 0x3e, 0x2b, 0xd8, 0xba, 0x3d,
  0x80, 0x1d, 0xd4, 0xbd, 0x9d, 0x6b, 0xd7, 0xbe, 0xe2, 0x0b, 0x20, 0xbe,
  0x0b, 0x81, 0x28, 0x3d, 0xb4, 0x69, 0x2c, 0xbe, 0x88, 0x50, 0x89, 0xbe,
  0xc3, 0xa4, 0x1c, 0x3f, 0x76, 0x06, 0xc0, 0x3d, 0xc0, 0xd1, 0x04, 0xbb,
  0xc1, 0xd8, 0x7f, 0xbe, 0x5f, 0x6b, 0x8e, 0xbd, 0xbb, 0xbc, 0x12, 0xbc,
  0x9a, 0xe2, 0xfd, 0xbc, 0xff, 0x3f, 0x17, 0x3f, 0x04, 0x21, 0x25, 0xbe,
  0xc3, 0xc6, 0x01, 0x3e, 0xc9, 0x33, 0x7a, 0x3e, 0xfe, 0x8e, 0x38, 0xbf,
  0xbf, 0x3b, 0x59, 0xbd, 0xa5, 0x10, 0x09, 0xbf, 0xec, 0x13, 0xe4, 0x3e,
  0x41, 0x01, 0x41, 0x3e, 0x13, 0x60, 0xb1, 0x3e, 0x88, 0x94, 0x80, 0x3e,
  0x84, 0xb4, 0x3b, 0xbf, 0xcf, 0xda, 0x23, 0xbe, 0x9e, 0x6b, 0x33, 0xbe,
  0xab, 0xd6, 0xc2, 0x3d, 0xa6, 0x22, 0xd1, 0xbe, 0x29, 0x48, 0x0d, 0x3e,
  0x5e, 0x18, 0xb4, 0xbe, 0x76, 0xda, 0x73, 0x3e, 0x05, 0x38, 0x04, 0x3e,
  0xbe, 0x0f, 0xfc, 0xbe, 0x0a, 0x19, 0x41, 0xbe, 0x3a, 0xe4, 0xd3, 0xbe,
  0x95, 0xe8, 0x05, 0x3e, 0x6e, 0xc6, 0x12, 0x3e, 0x04, 0x68, 0xda, 0x3e,
  0xa2, 0xe4, 0xd0, 0xbd, 0x89, 0xc4, 0xa3, 0xbe, 0x6b, 0x9a, 0x0f, 0xbe,
  0xf3, 0x85, 0x05, 0xbc, 0xc3, 0xb6, 0xab, 0xbd, 0xd9, 0x8a, 0x37, 0xbf,
  0xc2, 0x5e, 0x97, 0x3e, 0x3b, 0xd2, 0xea, 0xbe, 0xc9, 0x62, 0xc3, 0x3d,
  0x4c, 0x1f, 0x58, 0x3e, 0x73, 0xa1, 0x27, 0xbf, 0x63, 0x57, 0x4a, 0x3e,
  0x1a, 0xb7, 0x8f, 0x3d, 0x1a, 0x40, 0xc6, 0x3d, 0x31, 0x2f, 0xd8, 0xbe,
  0xc7, 0x69, 0x6e, 0xbf, 0x41, 0x56, 0xcb, 0x3d, 0xc7, 0x91, 0x41, 0xbf,
  0x06, 0x3e, 0xb3, 0x3e, 0x16, 0xa4, 0xb0, 0x3c, 0x9e, 0x45, 0x75, 0xbd,
  0x64, 0xc5, 0xbb, 0xbe, 0xd4, 0xce, 0x01, 0xbf, 0x12, 0xc5, 0x90, 0x3d,
  0x53, 0x6f, 0x7c, 0x3d, 0x8e, 0xbd, 0x0c, 0x3e, 0xaa, 0x09, 0xb4, 0xbe,
  0x60, 0x96, 0xcb, 0xbd, 0x66, 0xd4, 0x34, 0xbe, 0x22, 0x87, 0x38, 0x3e,
  0x9e, 0x1f, 0x45, 0xbf, 0xf2, 0xa2, 0xbe, 0xbe, 0xf5, 0x8e, 0xeb, 0xbe,
  0xce, 0x3f, 0x03, 0xbf, 0xf1, 0x0c, 0xa6, 0x3e, 0xfb, 0xa4, 0x1a, 0x3d,
  0xe5, 0x12, 0x7b, 0xbe, 0x4b, 0x75, 0x10, 0xbf, 0x65, 0xa3, 0x25, 0xbf,
  0x87, 0x12, 0xd8, 0xbe, 0x30, 0x68, 0x33, 0xbe, 0x96, 0xac, 0xf4, 0xbd,
  0xcb, 0xa8, 0xc0, 0xbe, 0xcc, 0x47, 0xc0, 0xbe, 0xfc, 0x8f, 0x22, 0xbe,
  0x98, 0xb0, 0x9c, 0xbc, 0xff, 0x23, 0xed, 0xbe, 0x0d, 0x5c, 0x0c, 0xbf,
  0xa3, 0xc0, 0xa6, 0x3d, 0x62, 0xaf, 0x27, 0x3f, 0x9a, 0xf9, 0x09, 0x3d,
  0x00, 0x51, 0x50, 0xbd, 0xc3, 0xb8, 0x1d, 0xbd, 0xf7, 0xd7, 0x92, 0xbe,
  0x1d, 0x52, 0xc6, 0x3e, 0xfb, 0xf8, 0xb1, 0xbe, 0x56, 0x40, 0xc2, 0xbd,
  0xc0, 0x4e, 0xbf, 0x3c, 0x9d, 0xfe, 0xf0, 0xbe, 0x13, 0x89, 0xb2, 0xbd,
  0x72, 0x2f, 0x8a, 0x3e, 0x90, 0x51, 0x4a, 0xbe, 0x35, 0x7a, 0x26, 0xbf,
  0x26, 0xbb, 0x8f, 0x3e, 0x32, 0xa7, 0xff, 0x3e, 0x3c, 0x19, 0x13, 0x3e,
  0x6a, 0x26, 0x8b, 0xbd, 0xaa, 0x10, 0xf8, 0x3c, 0x98, 0x0f, 0x30, 0x3f,
  0xe9, 0xdd, 0x18, 0x3e, 0xb8, 0x6e, 0xe1, 0xbe, 0x18, 0xb0, 0x80, 0x3e,
  0xc9, 0x23, 0x9d, 0x3b, 0x3b, 0xbe, 0x8c, 0x3d, 0x77, 0x6a, 0xa2, 0xbd,
  0x98, 0xeb, 0x37, 0xbe, 0xff, 0x16, 0x4b, 0xbe, 0x03, 0xc1, 0xd1, 0xbe,
  0x80, 0xfd, 0xa7, 0x3e, 0x56, 0xc3, 0x43, 0x3e, 0x92, 0xe4, 0xf9, 0x3e,
  0x76, 0x2d, 0x70, 0x3e, 0xe8, 0x15, 0x3b, 0xbe, 0xdc, 0x5b, 0xa1, 0xbb,
  0x54, 0x19, 0xfa, 0x3e, 0x0d, 0x5c, 0x8b, 0xbb, 0xf5, 0x87, 0x3d, 0xbf,
  0x12, 0xe1, 0x3d, 0xbf, 0x5e, 0x37, 0x8e, 0xbd, 0x3c, 0x47, 0x78, 0x3e,
  0x25, 0x46, 0xfe, 0xbe, 0x85, 0x97, 0xb9, 0xbd, 0xdc, 0x1e, 0x04, 0xbf,
  0x11, 0xc0, 0xa0, 0xbe, 0xa6, 0xbb, 0xeb, 0x3e, 0xc1, 0xfe, 0x00, 0x3f,
  0xce, 0xd8, 0xc0, 0xbe, 0x43, 0x4e, 0x9e, 0x3e, 0xbf, 0x71, 0x0e, 0xbe,
  0xe0, 0xb1, 0x24, 0x3b, 0x7b, 0x89, 0x03, 0x3d, 0xe0, 0xe7, 0x47, 0xbd,
  0x21, 0x58, 0x7e, 0x3e, 0xb7, 0x60, 0x64, 0x3d, 0x3b, 0xcf, 0x8d, 0xbe,
  0x61, 0x00, 0xe7, 0xbe, 0xe4, 0x5a, 0x26, 0xbf, 0x52, 0x5b, 0xd5, 0xbe,
  0xdf, 0x34, 0x14, 0x3e, 0x1e, 0x2a, 0x46, 0xbe, 0x06, 0xd6, 0xa1, 0x3e,
  0x10, 0xce, 0xaf, 0x3d, 0xce, 0xe8, 0x59, 0xbe, 0x5b, 0xa9, 0xb9, 0x3e,
  0xad, 0x9e, 0x08, 0x3c, 0x4d, 0xa7, 0x16, 0xbd, 0x98, 0xf3, 0x45, 0xbe,
  0xd1, 0xe8, 0x0e, 0xbf, 0x44, 0xcb, 0x85, 0x3e, 0x09, 0xca, 0xc3, 0xbf,
  0xcb, 0xc3, 0x53, 0x3d, 0x67, 0x8a, 0x08, 0x3e, 0x6e, 0x86, 0x83, 0xbe,
  0xc6, 0xa9, 0x4a, 0x3e, 0x28, 0xc7, 0x9d, 0x3e, 0x68, 0xb1, 0x5b, 0xbe,
  0xb7, 0xe5, 0x37, 0xbf, 0xea, 0x25, 0x51, 0xbf, 0x3b, 0x53, 0xa5, 0x3e,
  0x5c, 0x17, 0x2b, 0xbe, 0x18, 0xf6, 0x99, 0xba, 0x89, 0xad, 0xe2, 0x3c,
  0x34, 0xbb, 0xf4, 0xbe, 0xa6, 0x4f, 0x59, 0xbf, 0x72, 0x54, 0xa1, 0xbe,
  0x60, 0x89, 0x79, 0xbf, 0x91, 0x83, 0xe8, 0xbc, 0x3a, 0x8d, 0x15, 0xbc,
  0x1a, 0xf0, 0x7c, 0xbd, 0x1b, 0x97, 0x6f, 0xbe, 0xb9, 0xee, 0x16, 0x3e,
  0xe7, 0x2c, 0x44, 0xbe, 0x8d, 0xaf, 0x0b, 0xbf, 0x34, 0x59, 0xb3, 0xbd,
  0xd9, 0x9e, 0x8c, 0xbd, 0x92, 0x84, 0x9b, 0x3d, 0xa6, 0x2a, 0x8d, 0xbd,
  0x99, 0x24, 0x1b, 0xbe, 0xe9, 0x07, 0xb2, 0xbe, 0x58, 0xdd, 0x14, 0xbe,
  0x3f, 0xd0, 0xa1, 0x3b, 0x1c, 0x0a, 0x20, 0xbf, 0xfa, 0x67, 0x3f, 0xbd,
  0xa3, 0x3a, 0x3f, 0x3e, 0x39, 0x6a, 0x75, 0xbe, 0x0d, 0x9a, 0x0b, 0x3d,
  0xa8, 0x09, 0x7c, 0x3d, 0xe7, 0x9e, 0x01, 0x3d, 0x23, 0xe5, 0x17, 0x3d,
  0x25, 0xf3, 0xb8, 0xbf, 0x1c, 0x25, 0x9c, 0xbe, 0x00, 0x45, 0x72, 0x3d,
  0x1b, 0x97, 0xb2, 0x3e, 0x0c, 0xf8, 0xc2, 0xbc, 0x59, 0x77, 0x8c, 0xbe,
  0xec, 0x71, 0x84, 0xbe, 0xdd, 0x0f, 0xfc, 0xbe, 0x89, 0xbf, 0x4c, 0x3d,
  0xbd, 0x0b, 0x9a, 0x3e, 0x74, 0x78, 0xc8, 0xbe, 0x95, 0x7b, 0xfd, 0x3c,
  0x6d, 0x92, 0x58, 0x3e, 0x92, 0x99, 0xd1, 0x3e, 0x34, 0x6d, 0xb5, 0xbd,
  0xbd, 0x5e, 0x90, 0x3b, 0x47, 0xf4, 0x2e, 0xbf, 0x2f, 0x8e, 0x66, 0x3e,
  0x19, 0xc4, 0x89, 0x3e, 0xc2, 0x24, 0xd1, 0x3d, 0x54, 0xcc, 0x31, 0x3d,
  0x23, 0x6d, 0x0a, 0xbf, 0xfb, 0xf6, 0x3c, 0x3e, 0xb9, 0x71, 0x1e, 0xbf,
  0x58, 0x5b, 0xba, 0xbe, 0x17, 0x3e, 0x71, 0xbe, 0x4d, 0x6b, 0xf7, 0xbe,
  0x66, 0xf9, 0x08, 0xbe, 0x6d, 0x65, 0x81, 0x3d, 0x7b, 0x7a, 0x4a, 0x3f,
  0xaf, 0x97, 0x7b, 0xbe, 0x64, 0x21, 0x84, 0x3e, 0xd2, 0x7f, 0x44, 0xbf,
  0xde, 0xf3, 0xd3, 0x3e, 0x10, 0x4e, 0x37, 0x3d, 0x5a, 0x4e, 0x8d, 0x3b,
  0x7a, 0xa5, 0xcd, 0x3d, 0xb8, 0xdd, 0x60, 0xbe, 0xe9, 0x40, 0x18, 0x3f,
  0x9f, 0x3b, 0x89, 0xbe, 0xce, 0x4d, 0x9e, 0xbc, 0x04, 0x7c, 0xae, 0xbe,
  0x4e, 0x74, 0xfa, 0xbd, 0x2a, 0x2d, 0x87, 0x3d, 0x7f, 0xae, 0x0c, 0x3f,
  0x2c, 0xa7, 0x05, 0x3f, 0x65, 0xa3, 0x5e, 0xbe, 0xe4, 0x3a, 0xd4, 0xbb,
  0xc0, 0xab, 0x07, 0xbe, 0x33, 0x24, 0x18, 0x3e, 0xd4, 0x20, 0x15, 0x3e,
  0xee, 0x83, 0xad, 0x3e, 0xcc, 0xf3, 0x25, 0x3d, 0x9d, 0x91, 0x22, 0xbe,
  0xe2, 0xfc, 0x15, 0x3f, 0xb2, 0x06, 0x12, 0xbd, 0xae, 0x1b, 0x7c, 0x3e,
  0xd3, 0x42, 0x8b, 0xbe, 0x70, 0xcf, 0xb9, 0xbd, 0xf6, 0xf2, 0xb2, 0x3d,
  0x5a, 0x9e, 0xf0, 0x3e, 0x1b, 0x5b, 0x1c, 0x3f, 0x97, 0x99, 0xa8, 0xbe,
  0x81, 0x90, 0xce, 0x3e, 0xc0, 0x45, 0xe4, 0x3d, 0xed, 0xea, 0xf4, 0x3d,
  0x17, 0x0d, 0x99, 0x3b, 0x23, 0x1a, 0xa4, 0x3c, 0xb3, 0xd8, 0x99, 0xbc,
  0x8d, 0x52, 0x47, 0x3e, 0xd3, 0x5c, 0x22, 0x3f, 0x1e, 0xa9, 0x0b, 0x3f,
  0xe4, 0x1c, 0xb1, 0xbe, 0xf2, 0xa2, 0x40, 0xbd, 0xe6, 0x70, 0x8f, 0x3e,
  0x75, 0x02, 0x07, 0xbc, 0xd3, 0xca, 0x21, 0x3f, 0xc8, 0x5d, 0x23, 0x3e,
  0x45, 0x23, 0xb1, 0xbe, 0x91, 0x26, 0xa7, 0x3e, 0xad, 0x72, 0x61, 0xbe,
  0xd3, 0xb7, 0xe0, 0x3d, 0xca, 0x29, 0xaa, 0x3e, 0xf2, 0xb8, 0xa9, 0x3e,
  0xbd, 0x29, 0xa3, 0x3d, 0x97, 0xc0, 0x68, 0x3e, 0x30, 0x65, 0x26, 0x3f,
  0x16, 0xf5, 0xae, 0x3e, 0xdd, 0xb4, 0xf5, 0xbd, 0x21, 0x48, 0x00, 0xbf,
  0x66, 0x27, 0xa7, 0x3e, 0x98, 0xe6, 0x10, 0xbd, 0x9b, 0xed, 0x9a, 0x3e,
  0x94, 0x04, 0xd5, 0x3d, 0x31, 0xf7, 0x85, 0x3c, 0xad, 0xcc, 0x41, 0x3e,
  0x3d, 0x61, 0x00, 0x3d, 0xca, 0x06, 0xca, 0x3d, 0xc1, 0x48, 0xe5, 0x3d,
  0x89, 0x92, 0x97, 0x3e, 0x92, 0x51, 0xa7, 0x3c, 0xd4, 0x24, 0x39, 0xbe,
  0x62, 0xd3, 0xc9, 0x3e, 0x2c, 0x35, 0xb3, 0xbc, 0x5f, 0xac, 0x0f, 0x3d,
  0x6a, 0x23, 0x64, 0xbd, 0xf3, 0x42, 0x83, 0x3e, 0xe9, 0xe8, 0xc8, 0x3c,
  0x00, 0x68, 0xa0, 0xbd, 0x09, 0xf4, 0x23, 0x3d, 0x95, 0xe5, 0x30, 0x3b,
  0x82, 0x1e, 0x04, 0x3e, 0x17, 0x46, 0xfa, 0xbd, 0x81, 0x3d, 0x13, 0x3e,
  0x68, 0x83, 0x88, 0x3e, 0x95, 0x1c, 0x6d, 0x3e, 0x82, 0x40, 0x07, 0x3e,
  0x9e, 0x68, 0x82, 0xbe, 0x72, 0xe2, 0x23, 0x3f, 0x92, 0xb0, 0xd3, 0x3e,
  0xfc, 0xb8, 0xf0, 0xbd, 0x13, 0xa7, 0x24, 0x3e, 0xfc, 0x49, 0x29, 0x3e,
  0xd0, 0x00, 0x92, 0xbd, 0xf2, 0x15, 0x8a, 0xbd, 0x70, 0x55, 0xe5, 0x3d,
  0x52, 0x32, 0x59, 0x3e, 0xf1, 0x47, 0x0e, 0x3e, 0x7e, 0xf7, 0x95, 0x3e,
  0xab, 0xf9, 0x18, 0x3e, 0x80, 0x68, 0xc6, 0x3e, 0x2e, 0x7b, 0x9e, 0x3d,
  0x82, 0xfc, 0xb5, 0xbb, 0xc2, 0xbc, 0xe6, 0xbe, 0xfa, 0xea, 0x15, 0x3f,
  0x37, 0x25, 0x88, 0xbd, 0x07, 0x47, 0x28, 0x3e, 0x68, 0x04, 0x04, 0xbd,
  0x53, 0x29, 0xc6, 0xbd, 0x1b, 0x4b, 0xa1, 0xbd, 0xb0, 0x26, 0x67, 0x3c,
  0x71, 0x3c, 0x72, 0xbd, 0xf8, 0xa9, 0x71, 0xbd, 0xf0, 0xeb, 0xb3, 0x3e,
  0x57, 0x6a, 0xd3, 0x3d, 0xf8, 0x4e, 0x98, 0xbc, 0x2c, 0xfb, 0x63, 0x3e,
  0xe3, 0xba, 0x13, 0x3d, 0x02, 0xf1, 0x9d, 0x3d, 0x9f, 0xe3, 0xde, 0xbd,
  0x29, 0xe9, 0x2f, 0x3f, 0x74, 0xfe, 0x2c, 0x3e, 0x76, 0x3d, 0x25, 0xbc,
  0x95, 0xbc, 0x3d, 0xbe, 0xcd, 0xeb, 0xbf, 0xbd, 0x72, 0x5f, 0xb1, 0x3c,
  0xbe, 0xc9, 0x17, 0x3e, 0xf0, 0x5c, 0xcd, 0x3d, 0x61, 0x61, 0xb8, 0x3d,
  0x02, 0x78, 0xf0, 0x3e, 0xab, 0x51, 0x47, 0xbe, 0x2f, 0x2f, 0x26, 0xbd,
  0xee, 0x4c, 0xd4, 0x3d, 0x72, 0x82, 0x12, 0x3e, 0xf8, 0x80, 0x05, 0x3e,
  0x8b, 0x64, 0x1b, 0x3e, 0x0e, 0x74, 0xc8, 0x3e, 0x56, 0x98, 0x32, 0xbf,
  0xd0, 0x91, 0x27, 0xbe, 0x30, 0x86, 0xa0, 0xbe, 0xf6, 0x56, 0xe1, 0x3c,
  0x1d, 0x13, 0x3f, 0x3e, 0xb8, 0x6c, 0x56, 0x3d, 0x66, 0xf8, 0xf4, 0x3e,
  0x97, 0xea, 0x3e, 0xbd, 0xdd, 0xf1, 0xca, 0x3e, 0x8b, 0x0f, 0x66, 0xbe,
  0xe2, 0x82, 0x2d, 0xbe, 0x93, 0xf8, 0x18, 0x3e, 0x23, 0xb6, 0x17, 0x3e,
  0x39, 0xfa, 0x97, 0x3c, 0x7d, 0xd5, 0x11, 0xbe, 0x2e, 0x4f, 0x33, 0x3e,
  0x08, 0x49, 0xcf, 0x3c, 0x4d, 0x11, 0x49, 0xbe, 0xd7, 0x64, 0xd8, 0xbd,
  0xf7, 0x5b, 0x19, 0x3b, 0xf7, 0xc5, 0xdd, 0x3e, 0xe3, 0x0d, 0x20, 0x3e,
  0xbb, 0x6b, 0xf8, 0x3e, 0xae, 0x9e, 0xe0, 0x3d, 0x68, 0xb2, 0x1a, 0xbd,
  0xdb, 0xd9, 0x2c, 0xbf, 0x06, 0x4f, 0xa5, 0x3d, 0x06, 0xda, 0x93, 0x3c,
  0x03, 0x3a, 0x0e, 0xbd, 0xd1, 0x91, 0x72, 0xbd, 0x2d, 0x1f, 0x16, 0xbe,
  0xb9, 0x99, 0x92, 0x3e, 0x0e, 0x06, 0x05, 0xbe, 0x75, 0xcb, 0x0b, 0xbf,
  0x5f, 0x27, 0x51, 0xbe, 0x13, 0x56, 0x5b, 0xbe, 0xe6, 0x90, 0x7e, 0x3d,
  0xa2, 0x1a, 0x2f, 0x3e, 0xe8, 0xb8, 0x1a, 0x3f, 0xdc, 0x0d, 0x4e, 0xbc,
  0x50, 0x0d, 0x5d, 0x3e, 0xc2, 0xed, 0x87, 0x3d, 0x85, 0x8c, 0xa2, 0xbe,
  0x6b, 0xf1, 0xef, 0x3d, 0x44, 0x33, 0xa1, 0x3e, 0x78, 0xd8, 0x54, 0x3d,
  0x7f, 0x7e, 0xbc, 0xbe, 0x0d, 0x5b, 0x56, 0xbd, 0xbc, 0x82, 0x07, 0x3e,
  0xd5, 0x9b, 0x33, 0xbe, 0xc9, 0x57, 0x61, 0xbc, 0x70, 0x75, 0x25, 0xbe,
  0xd9, 0xad, 0x57, 0x3e, 0x61, 0x38, 0xc0, 0x3e, 0x55, 0x26, 0x36, 0x3f,
  0xef, 0x57, 0x69, 0xbe, 0x4b, 0x1c, 0xe6, 0x3d, 0x1f, 0x13, 0xfe, 0x3e,
  0xff, 0x25, 0xf8, 0x3d, 0xc2, 0x86, 0x96, 0xbe, 0x1a, 0xa6, 0xa7, 0xbd,
  0x22, 0xdb, 0x41, 0xbe, 0x06, 0x40, 0xcb, 0xbc, 0x5f, 0xc0, 0x1a, 0xbf,
  0xe3, 0xc5, 0x8d, 0x3e, 0xd0, 0x24, 0x04, 0xbf, 0xc3, 0x6e, 0xd4, 0xbf,
  0xa9, 0x80, 0x9d, 0xbd, 0x23, 0x5e, 0xa6, 0x3e, 0x96, 0x32, 0x84, 0xbf,
  0xa3, 0x41, 0x8c, 0x3d, 0xc6, 0x53, 0xe3, 0x3d, 0xe2, 0x55, 0x21, 0x3e,
  0xfd, 0x01, 0x82, 0xbe, 0x12, 0xdd, 0x21, 0x3e, 0x9b, 0xc7, 0x54, 0xbe,
  0x4c, 0xfb, 0xc4, 0x3d, 0xab, 0xd8, 0x99, 0x3c, 0x16, 0xb6, 0x3b, 0x3e,
  0x60, 0x90, 0x18, 0xbf, 0xcc, 0x20, 0x68, 0x3e, 0x26, 0x37, 0x91, 0xbe,
  0xd6, 0x2a, 0xa9, 0xbf, 0x4b, 0xf6, 0x1d, 0x3d, 0x5c, 0x0f, 0x40, 0x3c,
  0xf7, 0x0e, 0x4c, 0xbe, 0xe0, 0xd6, 0xb9, 0xbe, 0xaa, 0xa5, 0x9d, 0xbe,
  0x37, 0x21, 0xa1, 0xbd, 0xac, 0x45, 0xe8, 0x3d, 0xc5, 0x81, 0x8d, 0x3e,
  0x9c, 0xde, 0xd0, 0x3d, 0xc6, 0xac, 0x2e, 0x3e, 0x49, 0xe2, 0x87, 0xbe,
  0x9b, 0x53, 0x98, 0x3d, 0x8c, 0xe1, 0xc7, 0xbe, 0xbe, 0xd0, 0x4b, 0x3d,
  0xa8, 0x39, 0x8a, 0xbf, 0x26, 0x8b, 0x46, 0xbf, 0x60, 0x5e, 0xa2, 0x3e,
  0xd1, 0x93, 0x94, 0x3e, 0x35, 0x57, 0x02, 0xbd, 0xcf, 0x56, 0xc7, 0xbe,
  0x60, 0x0f, 0x1c, 0xbf, 0x32, 0xd4, 0x78, 0xbe, 0x8f, 0x3e, 0x73, 0x3e,
  0x49, 0x1a, 0x9d, 0x3e, 0xd0, 0xbc, 0xc5, 0x3d, 0xda, 0x22, 0x02, 0xbe,
  0xc1, 0x8a, 0x69, 0xbd, 0x44, 0x76, 0x13, 0x3e, 0x48, 0x26, 0x5d, 0xbe,
  0xac, 0x24, 0x24, 0xbe, 0x81, 0x37, 0x70, 0xbe, 0x0f, 0xb3, 0xc0, 0xbe,
  0x53, 0x92, 0x06, 0x3f, 0x03, 0x08, 0x86, 0x3d, 0x39, 0x68, 0xc4, 0x3d,
  0x74, 0x0b, 0xf5, 0x3d, 0xd8, 0x36, 0xb9, 0xbd, 0x61, 0x8c, 0x84, 0xbd,
  0xb4, 0xbd, 0x0f, 0x3f, 0xc4, 0x29, 0xc0, 0xbe, 0x42, 0x2a, 0x5a, 0xbe,
  0xdf, 0x2b, 0x2d, 0xbb, 0x95, 0x2c, 0x2c, 0x3d, 0x2d, 0x32, 0xa4, 0x3e,
  0xe5, 0x3f, 0xb0, 0x3d, 0xaa, 0x43, 0xb7, 0x3c, 0xd6, 0x5f, 0x26, 0xbf,
  0x03, 0xdd, 0x65, 0xbf, 0x2a, 0xab, 0x25, 0x3e, 0xab, 0x3a, 0x27, 0x3a,
  0x1f, 0x8a, 0x2f, 0x3d, 0x19, 0x7b, 0xc8, 0xbd, 0x69, 0x22, 0xfb, 0xbd,
  0x4e, 0xb0, 0x18, 0x3e, 0x89, 0x08, 0x25, 0x3f, 0x44, 0x5d, 0x8b, 0xbe,
  0xa4, 0x29, 0xbe, 0xbd, 0xf9, 0x23, 0x36, 0x3e, 0x4b, 0x32, 0xca, 0x3c,
  0xb4, 0x22, 0x1a, 0xbe, 0x1f, 0x96, 0x43, 0xbe, 0xf1, 0x42, 0x3d, 0x3e,
  0xdc, 0xef, 0x29, 0xbf, 0x23, 0x18, 0x43, 0xbf, 0x43, 0x9e, 0xe7, 0xbd,
  0xa3, 0xb7, 0x72, 0xbc, 0x0d, 0x73, 0x0a, 0xbd, 0x0f, 0x45, 0x87, 0x3d,
  0x1c, 0xfd, 0x05, 0x3e, 0x37, 0x05, 0x9e, 0x3e, 0x87, 0x81, 0x15, 0xbd,
  0x3b, 0x0d, 0x02, 0x3f, 0x08, 0x49, 0xb7, 0xbb, 0x8b, 0x52, 0x09, 0x3d,
  0xc5, 0xbf, 0xe2, 0x3d, 0x24, 0xc7, 0x0e, 0x3e, 0x80, 0xd7, 0xa1, 0x3d,
  0xe8, 0xb9, 0x1f, 0x3e, 0x87, 0x26, 0x3d, 0xbe, 0x88, 0x72, 0x1a, 0x3e,
  0x70, 0xf8, 0xf1, 0x3e, 0xbc, 0x96, 0x8a, 0xbd, 0x99, 0x71, 0x36, 0xbc,
  0x56, 0x42, 0xa5, 0xbe, 0x12, 0xbb, 0x5d, 0x3e, 0x57, 0x7c, 0xc5, 0x3e,
  0xf3, 0xcb, 0x14, 0x3f, 0x3d, 0x3b, 0x3c, 0x3e, 0xf8, 0x11, 0x29, 0x3e,
  0xe2, 0xc2, 0xd6, 0x3e, 0xb7, 0x83, 0x3f, 0xbe, 0xbb, 0x25, 0xb7, 0xbb,
  0xca, 0x3d, 0x03, 0xbf, 0x42, 0x46, 0x5a, 0x3e, 0x60, 0x77, 0xc3, 0xbe,
  0xf0, 0xcb, 0x8c, 0xbe, 0xbd, 0xae, 0x49, 0x3e, 0xf9, 0x1f, 0xf3, 0xbd,
  0x66, 0x97, 0x3e, 0xbe, 0xbd, 0xca, 0xaa, 0x3c, 0x57, 0x39, 0x0d, 0x3f,
  0x34, 0x8d, 0x9e, 0x3e, 0x3e, 0x42, 0x14, 0xbf, 0x8a, 0x80, 0x5f, 0xbe,
  0x09, 0xaf, 0xd8, 0xbe, 0x37, 0x89, 0x3f, 0x3e, 0xe0, 0xb8, 0x86, 0xba,
  0x87, 0xac, 0x2e, 0xbe, 0x9d, 0xcf, 0x92, 0xbe, 0xbe, 0x60, 0x6b, 0x3e,
  0x4f, 0xf2, 0x3b, 0xbf, 0x03, 0x00, 0xd6, 0xbe, 0x33, 0xb1, 0x9e, 0xbe,
  0xa9, 0x2f, 0xf2, 0x3c, 0x58, 0xe2, 0x7c, 0x3e, 0x97, 0x1c, 0x61, 0xbe,
  0x42, 0x68, 0x92, 0xbe, 0xa6, 0x94, 0x43, 0x3e, 0x04, 0x53, 0xc4, 0xbe,
  0xb7, 0x18, 0x1f, 0x3e, 0x74, 0x76, 0x34, 0x3d, 0x85, 0x44, 0x34, 0x3e,
  0xcb, 0xd6, 0xca, 0xbd, 0xbe, 0x01, 0x6e, 0xbe, 0x4e, 0x0e, 0xdc, 0xba,
  0x01, 0x58, 0x87, 0xbc, 0x88, 0xd1, 0xd2, 0xbf, 0x67, 0x7e, 0x4d, 0xbf,
  0xd1, 0x20, 0xf9, 0x3d, 0x18, 0xe4, 0x55, 0xbc, 0x9a, 0x8a, 0x5c, 0xbe,
  0xbe, 0x1d, 0x21, 0xbe, 0xf7, 0x24, 0x0b, 0xbe, 0xce, 0x99, 0x51, 0x3e,
  0x0a, 0x60, 0x4a, 0x3f, 0x0b, 0x85, 0x70, 0x3e, 0xf2, 0x1a, 0xf4, 0xbd,
  0x61, 0x3e, 0x0a, 0xbd, 0x79, 0xbd, 0x23, 0xbf, 0x14, 0x38, 0xb3, 0x3e,
  0x33, 0xdc, 0x18, 0xbe, 0xbe, 0xf9, 0x34, 0x3d, 0x55, 0x62, 0x5a, 0xbf,
  0x72, 0x28, 0x6e, 0xbe, 0x6b, 0x46, 0x33, 0x3e, 0x41, 0x90, 0x4f, 0x3e,
  0x75, 0x04, 0x48, 0x3d, 0x7a, 0x8b, 0xf6, 0xbf, 0xf9, 0x7a, 0x28, 0xbe,
  0x95, 0x11, 0x9c, 0x3e, 0x44, 0x02, 0x06, 0x3e, 0xce, 0x99, 0x6c, 0xbe,
  0x3e, 0xfc, 0x2b, 0xbf, 0x34, 0xf9, 0x4c, 0x3e, 0xcb, 0x81, 0xaa, 0xbe,
  0x2b, 0x73, 0x31, 0x3e, 0xcf, 0x21, 0xfb, 0xbe, 0x44, 0x09, 0x0a, 0x3f,
  0xc1, 0xb3, 0xdf, 0xbe, 0x35, 0x2e, 0x50, 0xbf, 0xb5, 0x23, 0xc4, 0x3d,
  0xe2, 0xcd, 0xc4, 0x3d, 0x20, 0x61, 0x57, 0xbf, 0xff, 0x77, 0xa1, 0x3e,
  0x9c, 0x2a, 0xcf, 0x3e, 0x63, 0xca, 0x7a, 0x3d, 0xb0, 0xd0, 0x75, 0x3d,
  0x65, 0x3b, 0x02, 0xbf, 0xe3, 0xe6, 0xa1, 0xbe, 0x01, 0x14, 0x7a, 0xbd,
  0x9d, 0x0d, 0xe7, 0xbe, 0x57, 0xd7, 0xbd, 0x3e, 0x0f, 0x7c, 0x8d, 0xbe,
  0x8b, 0x26, 0x0c, 0x3d, 0x4d, 0x0f, 0xcb, 0xbe, 0x7f, 0x38, 0x51, 0xbf,
  0x1b, 0xc9, 0xcb, 0xbe, 0x0b, 0xec, 0xbf, 0x3d, 0xad, 0x03, 0x94, 0xbe,
  0x64, 0x0e, 0x56, 0x3e, 0x98, 0x35, 0x79, 0xbe, 0x21, 0x3d, 0x4a, 0xbe,
  0x19, 0x2c, 0xe4, 0xbe, 0x8d, 0x66, 0x13, 0x3e, 0xd1, 0x6d, 0x32, 0x3d,
  0x6f, 0x9b, 0x07, 0x3e, 0x82, 0x64, 0x4e, 0xbe, 0x86, 0x42, 0x3b, 0x3e,
  0x14, 0x58, 0x95, 0xbe, 0x3e, 0xfd, 0x16, 0x3e, 0xbf, 0x25, 0x1c, 0xc0,
  0x73, 0x0e, 0xa3, 0xbe, 0xeb, 0x96, 0xba, 0xbe, 0x00, 0x8d, 0xb8, 0xbd,
  0x43, 0x19, 0xea, 0xbe, 0xb7, 0x4e, 0xd2, 0x3e, 0x73, 0x67, 0x0a, 0xbf,
  0xf4, 0xe6, 0xeb, 0xbe, 0xde, 0xf4, 0xff, 0xff, 0x04, 0x00, 0x00, 0x00,
  0x08, 0x00, 0x00, 0x00, 0xff, 0xff, 0xff, 0xff, 0xe0, 0x00, 0x00, 0x00,
  0xf2, 0xf4, 0xff, 0xff, 0x04, 0x00, 0x00, 0x00, 0x10, 0x00, 0x00, 0x00,
  0x76, 0x18, 0xfc, 0x3d, 0x77, 0x63, 0xab, 0xbe, 0xf0, 0xc9, 0x9b, 0x3f,
  0x58, 0x6a, 0x95, 0xbf, 0x0e, 0xf5, 0xff, 0xff, 0x04, 0x00, 0x00, 0x00,
  0x40, 0x00, 0x00, 0x00, 0xbb, 0x22, 0x3f, 0x3d, 0x7e, 0xcd, 0xd8, 0xbe,
  0xd6, 0xb9, 0xaa, 0x3d, 0x54, 0xf5, 0x89, 0xbd, 0x1e, 0xa5, 0x6f, 0x3f,
  0xc8, 0xe8, 0x3b, 0x3f, 0xde, 0xa5, 0x23, 0xbe, 0x4d, 0xf3, 0x29, 0xbf,
  0x19, 0xaa, 0xa1, 0x3f, 0x91, 0xce, 0xcd, 0x3f, 0x9a, 0xdf, 0x12, 0x3e,
  0xfb, 0x9b, 0x81, 0xbe, 0x29, 0x03, 0x8d, 0x3f, 0xe1, 0xe1, 0x37, 0x3f,
  0x49, 0x25, 0x93, 0xbf, 0x90, 0x84, 0x2b, 0x3f, 0x5a, 0xf5, 0xff, 0xff,
  0x04, 0x00, 0x00, 0x00, 0x00, 0x08, 0x00, 0x00, 0x95, 0x8a, 0x44, 0x3c,
  0xf5, 0x7e, 0x02, 0x3d, 0x0e, 0xe5, 0x39, 0xbe, 0xd2, 0x3d, 0xdc, 0x3c,
  0x2c, 0xd8, 0x9c, 0xbd, 0x0a, 0x0c, 0xc2, 0xbd, 0x5a, 0xd8, 0x57, 0x3f,
  0xbe, 0x91, 0xa3, 0x3d, 0xb3, 0x2c, 0xd2, 0x3d, 0x9a, 0x18, 0x0f, 0x3d,
  0xa8, 0x23, 0x5a, 0xbe, 0x1e, 0x5d, 0x6e, 0xbd, 0x4b, 0x85, 0xbf, 0x3c,
  0x50, 0x93, 0x31, 0x3e, 0x18, 0xbe, 0x14, 0xbe, 0x5c, 0xc4, 0x74, 0x3e,
  0x88, 0xa6, 0xe5, 0x3c, 0xaa, 0xf0, 0x72, 0x3d, 0x84, 0x7f, 0x5e, 0xbe,
  0x8d, 0xec, 0x4b, 0xbe, 0x61, 0x79, 0x1e, 0x3e, 0x7a, 0xc5, 0xbf, 0xbd,
  0xc0, 0xd1, 0xe6, 0xbe, 0x18, 0x98, 0x6b, 0xbe, 0x39, 0xd0, 0x3a, 0xbe,
  0x45, 0x7c, 0x22, 0xbe, 0xc5, 0x57, 0x75, 0xbe, 0x0a, 0x0a, 0x73, 0xbe,
  0x3f, 0xc7, 0xd5, 0x3d, 0xf0, 0x4f, 0x27, 0xbe, 0xef, 0x59, 0xf5, 0xbe,
  0x5e, 0xf7, 0x65, 0xbf, 0xf6, 0xeb, 0x9e, 0x3d, 0x79, 0x4a, 0x74, 0xbf,
  0xc1, 0x99, 0x82, 0xbe, 0x59, 0x5f, 0x18, 0xbf, 0xcb, 0x31, 0xa6, 0x3e,
  0x86, 0x73, 0x68, 0xbd, 0x30, 0x69, 0xda, 0x3e, 0x6f, 0xc9, 0x3c, 0xbe,
  0x99, 0x88, 0x3c, 0x3d, 0x25, 0x72, 0xf4, 0xbd, 0x86, 0x7e, 0x00, 0xbf,
  0xa5, 0x20, 0x54, 0xbe, 0xf7, 0xe4, 0xca, 0x3e, 0xf9, 0xb6, 0x15, 0xbe,
  0xe0, 0xf2, 0xea, 0xbd, 0xdb, 0x4c, 0xf0, 0xbe, 0x1a, 0x04, 0x93, 0xbf,
  0xf9, 0x84, 0xeb, 0x3e, 0x1e, 0x34, 0x16, 0xbd, 0x0a, 0xa9, 0x43, 0x3d,
  0xf6, 0xa7, 0xa3, 0xbe, 0xed, 0xdd, 0x38, 0xbf, 0x35, 0xe8, 0xa0, 0xbe,
  0x2a, 0x9c, 0xaa, 0xbe, 0x53, 0x5b, 0x18, 0xbc, 0x77, 0x57, 0x99, 0x3d,
  0x1d, 0xb1, 0x53, 0xbe, 0xfd, 0x92, 0xa6, 0xbd, 0xb0, 0xb6, 0xe9, 0xbe,
  0x2b, 0x31, 0x48, 0xbe, 0x52, 0x41, 0x3f, 0xbe, 0xd1, 0xb5, 0x46, 0x3f,
  0xaa, 0xc9, 0xf8, 0xbe, 0xe0, 0xf9, 0xb5, 0x3e, 0x8c, 0x5b, 0x56, 0xbe,
  0x55, 0x9f, 0xf6, 0x3d, 0xa6, 0x6e, 0x2d, 0x3f, 0xf8, 0xd3, 0x06, 0xbf,
  0xfc, 0xf0, 0xbe, 0xbe, 0x1b, 0x53, 0xf8, 0xbe, 0xae, 0xae, 0x91, 0xbe,
  0xc2, 0x68, 0x39, 0x3e, 0x6b, 0x78, 0x2e, 0xbe, 0x12, 0x3b, 0x96, 0x3e,
  0x1b, 0x8b, 0xa5, 0xbe, 0x63, 0x26, 0xe1, 0xbd, 0xfa, 0xeb, 0xbc, 0xbe,
  0xad, 0xba, 0x6c, 0xbd, 0xfb, 0x52, 0x25, 0x3e, 0xe7, 0x71, 0x16, 0xbe,
  0xef, 0x48, 0xf7, 0xbe, 0x7e, 0x56, 0xcf, 0xbe, 0xd4, 0x77, 0xe3, 0xbe,
  0xea, 0x05, 0x4b, 0x3e, 0x5b, 0xde, 0x8c, 0x3d, 0x69, 0x52, 0x77, 0x3e,
  0xfa, 0x57, 0x05, 0x3e, 0x73, 0x9d, 0xbb, 0xbf, 0x22, 0xeb, 0x0e, 0xbf,
  0xdd, 0x5c, 0x82, 0xbf, 0xdb, 0xee, 0xdf, 0xbe, 0x13, 0x36, 0x95, 0x3d,
  0x97, 0x08, 0xf3, 0x3e, 0x5d, 0xc1, 0x06, 0x3e, 0xf2, 0xa1, 0x51, 0xbe,
  0x5f, 0x26, 0xe9, 0xbd, 0xbe, 0x03, 0x82, 0xbd, 0xf0, 0x45, 0x19, 0x3e,
  0x9c, 0x57, 0x89, 0xba, 0xaa, 0xfb, 0x88, 0x3e, 0x1e, 0xe2, 0x1d, 0x3c,
  0x71, 0xdf, 0x23, 0xbb, 0xbf, 0xe5, 0x24, 0xbe, 0x55, 0xd4, 0x01, 0x3f,
  0xc9, 0xd0, 0x3a, 0xbd, 0xff, 0x70, 0x0a, 0x3e, 0xd7, 0xde, 0x4c, 0xbc,
  0x39, 0x45, 0xb1, 0x3d, 0xde, 0xbb, 0x2d, 0x3c, 0x89, 0x6f, 0x19, 0x3e,
  0xa1, 0x37, 0xba, 0x3d, 0xfa, 0xb0, 0x70, 0xbd, 0x9e, 0x86, 0xd9, 0xbd,
  0xe4, 0xbe, 0x85, 0x3c, 0x9c, 0x45, 0x0f, 0xbe, 0x89, 0x3c, 0xe0, 0x3d,
  0x67, 0x61, 0x4b, 0xbe, 0x24, 0xf3, 0xdd, 0xbc, 0x84, 0x00, 0x4b, 0x3e,
  0xf1, 0xec, 0xba, 0x3d, 0xaa, 0xde, 0x98, 0xbd, 0xc5, 0x82, 0xb8, 0x3d,
  0xc8, 0x49, 0x72, 0xbd, 0x3d, 0x11, 0xa4, 0x3e, 0x4b, 0xb1, 0x91, 0xbe,
  0x9d, 0x12, 0x09, 0xbe, 0x12, 0xb0, 0x3c, 0xbe, 0x11, 0x23, 0x0e, 0x3e,
  0xe6, 0x6a, 0x58, 0xbe, 0x4f, 0x9d, 0x74, 0xbd, 0x77, 0xef, 0x6a, 0xbd,
  0x1f, 0x88, 0x99, 0xbe, 0xaf, 0xd0, 0x2c, 0xbc, 0x72, 0x4b, 0xd9, 0x3d,
  0xa1, 0x45, 0xa9, 0x3d, 0xe4, 0xe2, 0x8e, 0x3e, 0xa2, 0x18, 0xc7, 0x3c,
  0xf3, 0xd2, 0x3d, 0x3e, 0xca, 0x93, 0xf2, 0x3c, 0x69, 0xff, 0x2f, 0xbe,
  0xcb, 0x1d, 0x68, 0xbd, 0x41, 0xfb, 0x9e, 0x3d, 0x13, 0x14, 0x9d, 0xbd,
  0x3e, 0xcc, 0x6e, 0x3e, 0x9f, 0x1b, 0x37, 0xbd, 0xde, 0x59, 0x50, 0x3e,
  0x15, 0x92, 0x27, 0x3e, 0xe2, 0xc1, 0x1f, 0xbe, 0x14, 0x34, 0x94, 0xbd,
  0x4a, 0x90, 0xc0, 0x3c, 0x08, 0xa6, 0x07, 0xbe, 0xfa, 0x3c, 0x7e, 0xbd,
  0x72, 0x7b, 0x14, 0xbd, 0x90, 0x27, 0xd5, 0xbc, 0x0f, 0x4c, 0x1d, 0x3f,
  0x99, 0xf4, 0xd6, 0xbe, 0x02, 0x84, 0x2b, 0xbe, 0xb6, 0x86, 0xbc, 0xbd,
  0xe2, 0xf0, 0x80, 0xbe, 0xba, 0x6a, 0x66, 0xbd, 0xa8, 0x63, 0x15, 0xbf,
  0x77, 0x81, 0xee, 0xbd, 0xe5, 0x66, 0x91, 0xbe, 0xaf, 0x7e, 0xc7, 0xbd,
  0x80, 0xd8, 0x1d, 0xbf, 0x91, 0x44, 0x29, 0xbe, 0xfc, 0x22, 0x1b, 0xbd,
  0x51, 0xd4, 0x88, 0xbc, 0xe6, 0x19, 0x82, 0xbe, 0x18, 0xd7, 0x12, 0x3f,
  0xbd, 0xcd, 0x9c, 0xbe, 0x0e, 0xd4, 0x3b, 0xbf, 0x6d, 0xec, 0xee, 0xbf,
  0xc8, 0xc0, 0x33, 0xbf, 0x7f, 0xae, 0xb8, 0xbd, 0xf4, 0x55, 0x05, 0xbf,
  0xaf, 0xb6, 0x75, 0xbe, 0x59, 0x36, 0x87, 0x3e, 0xbd, 0xe6, 0xc2, 0x3e,
  0x8b, 0x91, 0x8c, 0x3c, 0x31, 0xe2, 0xe2, 0xbd, 0xa7, 0xf6, 0x9d, 0xbd,
