/* Copyright 2019 The TensorFlow Authors. All Rights Reserved.

Licensed under the Apache License, Version 2.0 (the "License");
you may not use this file except in compliance with the License.
You may obtain a copy of the License at

    http://www.apache.org/licenses/LICENSE-2.0

Unless required by applicable law or agreed to in writing, software
distributed under the License is distributed on an "AS IS" BASIS,
WITHOUT WARRANTIES OR CONDITIONS OF ANY KIND, either express or implied.
See the License for the specific language governing permissions and
limitations under the License.
==============================================================================*/

// Automatically created from a TensorFlow Lite flatbuffer using the command:
// xxd -i magic_wand_model.tflite > magic_wand_model_data.cc
// See the README for a full description of the creation process.

#include "magic_wand_model_data.h"

// We need to keep the data array aligned on some architectures.
#ifdef __has_attribute
#define HAVE_ATTRIBUTE(x) __has_attribute(x)
#else
#define HAVE_ATTRIBUTE(x) 0
#endif
#if HAVE_ATTRIBUTE(aligned) || (defined(__GNUC__) && !defined(__clang__))
#define DATA_ALIGN_ATTRIBUTE __attribute__((aligned(4)))
#else
#define DATA_ALIGN_ATTRIBUTE
#endif

// CNN
const unsigned char g_magic_wand_model_data[] DATA_ALIGN_ATTRIBUTE = {
  0x1c, 0x00, 0x00, 0x00, 0x54, 0x46, 0x4c, 0x33, 0x14, 0x00, 0x20, 0x00,
  0x04, 0x00, 0x08, 0x00, 0x0c, 0x00, 0x10, 0x00, 0x14, 0x00, 0x00, 0x00,
  0x18, 0x00, 0x1c, 0x00, 0x14, 0x00, 0x00, 0x00, 0x03, 0x00, 0x00, 0x00,
  0x18, 0x00, 0x00, 0x00, 0x2c, 0x00, 0x00, 0x00, 0x58, 0x01, 0x00, 0x00,
  0x2c, 0x00, 0x00, 0x00, 0x00, 0x01, 0x00, 0x00, 0x78, 0x00, 0x00, 0x00,
  0x05, 0x00, 0x00, 0x00, 0x94, 0x07, 0x00, 0x00, 0xb0, 0x06, 0x00, 0x00,
  0x4c, 0x04, 0x00, 0x00, 0x88, 0x03, 0x00, 0x00, 0x2c, 0x02, 0x00, 0x00,
  0x01, 0x00, 0x00, 0x00, 0x50, 0x01, 0x00, 0x00, 0x14, 0x00, 0x00, 0x00,
  0x9c, 0x4e, 0x00, 0x00, 0x98, 0x4e, 0x00, 0x00, 0xb4, 0x4d, 0x00, 0x00,
  0x28, 0x4d, 0x00, 0x00, 0xa4, 0x4c, 0x00, 0x00, 0x44, 0x4c, 0x00, 0x00,
  0xd8, 0x4b, 0x00, 0x00, 0x88, 0x13, 0x00, 0x00, 0x34, 0x12, 0x00, 0x00,
  0x58, 0x10, 0x00, 0x00, 0xfc, 0x07, 0x00, 0x00, 0x70, 0x4e, 0x00, 0x00,
  0x6c, 0x4e, 0x00, 0x00, 0x68, 0x4e, 0x00, 0x00, 0x64, 0x4e, 0x00, 0x00,
  0x60, 0x4e, 0x00, 0x00, 0x5c, 0x4e, 0x00, 0x00, 0x58, 0x4e, 0x00, 0x00,
  0x54, 0x4e, 0x00, 0x00, 0xbc, 0x00, 0x00, 0x00, 0x01, 0x00, 0x00, 0x00,
  0x10, 0x00, 0x00, 0x00, 0x00, 0x00, 0x0a, 0x00, 0x10, 0x00, 0x0c, 0x00,
  0x08, 0x00, 0x04, 0x00, 0x0a, 0x00, 0x00, 0x00, 0x0c, 0x00, 0x00, 0x00,
  0x1c, 0x00, 0x00, 0x00, 0x20, 0x00, 0x00, 0x00, 0x0f, 0x00, 0x00, 0x00,
  0x73, 0x65, 0x72, 0x76, 0x69, 0x6e, 0x67, 0x5f, 0x64, 0x65, 0x66, 0x61,
  0x75, 0x6c, 0x74, 0x00, 0x01, 0x00, 0x00, 0x00, 0x14, 0x00, 0x00, 0x00,
  0x01, 0x00, 0x00, 0x00, 0x24, 0x00, 0x00, 0x00, 0x08, 0x00, 0x0c, 0x00,
  0x08, 0x00, 0x04, 0x00, 0x08, 0x00, 0x00, 0x00, 0x11, 0x00, 0x00, 0x00,
  0x04, 0x00, 0x00, 0x00, 0x07, 0x00, 0x00, 0x00, 0x64, 0x65, 0x6e, 0x73,
  0x65, 0x5f, 0x31, 0x00, 0x02, 0xb3, 0xff, 0xff, 0x04, 0x00, 0x00, 0x00,
  0x0c, 0x00, 0x00, 0x00, 0x63, 0x6f, 0x6e, 0x76, 0x32, 0x64, 0x5f, 0x69,
  0x6e, 0x70, 0x75, 0x74, 0x00, 0x00, 0x00, 0x00, 0x01, 0x00, 0x00, 0x00,
  0x0c, 0x00, 0x00, 0x00, 0x08, 0x00, 0x0c, 0x00, 0x04, 0x00, 0x08, 0x00,
  0x08, 0x00, 0x00, 0x00, 0x08, 0x00, 0x00, 0x00, 0x13, 0x00, 0x00, 0x00,
  0x13, 0x00, 0x00, 0x00, 0x6d, 0x69, 0x6e, 0x5f, 0x72, 0x75, 0x6e, 0x74,
  0x69, 0x6d, 0x65, 0x5f, 0x76, 0x65, 0x72, 0x73, 0x69, 0x6f, 0x6e, 0x00,
  0x52, 0xb3, 0xff, 0xff, 0x04, 0x00, 0x00, 0x00, 0x10, 0x00, 0x00, 0x00,
  0x31, 0x2e, 0x35, 0x2e, 0x30, 0x00, 0x00, 0x00, 0x00, 0x00, 0x00, 0x00,
  0x00, 0x00, 0x00, 0x00, 0x0f, 0x00, 0x00, 0x00, 0x4d, 0x4c, 0x49, 0x52,
  0x20, 0x43, 0x6f, 0x6e, 0x76, 0x65, 0x72, 0x74, 0x65, 0x64, 0x2e, 0x00,
  0x00, 0x00, 0x0e, 0x00, 0x18, 0x00, 0x04, 0x00, 0x08, 0x00, 0x0c, 0x00,
  0x10, 0x00, 0x14, 0x00, 0x0e, 0x00, 0x00, 0x00, 0x14, 0x00, 0x00, 0x00,
  0x5c, 0x00, 0x00, 0x00, 0x60, 0x00, 0x00, 0x00, 0x64, 0x00, 0x00, 0x00,
  0x84, 0x00, 0x00, 0x00, 0x12, 0x00, 0x00, 0x00, 0xcc, 0x4c, 0x00, 0x00,
  0x80, 0x4c, 0x00, 0x00, 0x14, 0x4c, 0x00, 0x00, 0x90, 0x4b, 0x00, 0x00,
  0x10, 0x4b, 0x00, 0x00, 0x9c, 0x4a, 0x00, 0x00, 0x34, 0x4a, 0x00, 0x00,
  0xe0, 0x11, 0x00, 0x00, 0x84, 0x10, 0x00, 0x00, 0xa8, 0x0e, 0x00, 0x00,
  0xf8, 0x05, 0x00, 0x00, 0x14, 0x05, 0x00, 0x00, 0xf8, 0x03, 0x00, 0x00,
  0x4c, 0x03, 0x00, 0x00, 0xa8, 0x02, 0x00, 0x00, 0xe4, 0x01, 0x00, 0x00,
  0x20, 0x01, 0x00, 0x00, 0x84, 0x00, 0x00, 0x00, 0x01, 0x00, 0x00, 0x00,
  0x00, 0x00, 0x00, 0x00, 0x01, 0x00, 0x00, 0x00, 0x11, 0x00, 0x00, 0x00,
  0x08, 0x00, 0x00, 0x00, 0x60, 0x05, 0x00, 0x00, 0x80, 0x04, 0x00, 0x00,
  0x88, 0x03, 0x00, 0x00, 0xcc, 0x02, 0x00, 0x00, 0x40, 0x02, 0x00, 0x00,
  0x60, 0x01, 0x00, 0x00, 0xb8, 0x00, 0x00, 0x00, 0x10, 0x00, 0x00, 0x00,
  0x04, 0x00, 0x00, 0x00, 0x6d, 0x61, 0x69, 0x6e, 0x00, 0x00, 0x00, 0x00,
  0x6a, 0xff, 0xff, 0xff, 0x00, 0x00, 0x00, 0x09, 0x04, 0x00, 0x00, 0x00,
  0x1c, 0x00, 0x00, 0x00, 0x10, 0x00, 0x00, 0x00, 0x04, 0x00, 0x00, 0x00,
  0x4e, 0xb4, 0xff, 0xff, 0x00, 0x00, 0x80, 0x3f, 0x01, 0x00, 0x00, 0x00,
  0x11, 0x00, 0x00, 0x00, 0x01, 0x00, 0x00, 0x00, 0x10, 0x00, 0x00, 0x00,
  0xb4, 0xfa, 0xff, 0xff, 0x19, 0x00, 0x00, 0x00, 0x00, 0x00, 0x00, 0x19,
  0x01, 0x00, 0x00, 0x00, 0x10, 0xb4, 0xff, 0xff, 0x14, 0x00, 0x00, 0x00,
  0x12, 0x00, 0x00, 0x00, 0x18, 0x00, 0x00, 0x00, 0x40, 0x00, 0x00, 0x00,
  0x30, 0x00, 0x00, 0x00, 0x02, 0x00, 0x00, 0x00, 0x01, 0x00, 0x00, 0x00,
  0x04, 0x00, 0x00, 0x00, 0x19, 0x00, 0x00, 0x00, 0x53, 0x74, 0x61, 0x74,
  0x65, 0x66, 0x75, 0x6c, 0x50, 0x61, 0x72, 0x74, 0x69, 0x74, 0x69, 0x6f,
  0x6e, 0x65, 0x64, 0x43, 0x61, 0x6c, 0x6c, 0x3a, 0x30, 0x00, 0x00, 0x00,
  0x02, 0x00, 0x00, 0x00, 0xff, 0xff, 0xff, 0xff, 0x04, 0x00, 0x00, 0x00,
  0xd0, 0xb4, 0xff, 0xff, 0x00, 0x00, 0x0e, 0x00, 0x18, 0x00, 0x08, 0x00,
  0x0c, 0x00, 0x10, 0x00, 0x07, 0x00, 0x14, 0x00, 0x0e, 0x00, 0x00, 0x00,
  0x00, 0x00, 0x00, 0x08, 0x03, 0x00, 0x00, 0x00, 0x18, 0x00, 0x00, 0x00,
  0x0c, 0x00, 0x00, 0x00, 0x04, 0x00, 0x00, 0x00, 0x10, 0xb4, 0xff, 0xff,
  0x01, 0x00, 0x00, 0x00, 0x10, 0x00, 0x00, 0x00, 0x03, 0x00, 0x00, 0x00,
  0x0f, 0x00, 0x00, 0x00, 0x07, 0x00, 0x00, 0x00, 0x01, 0x00, 0x00, 0x00,
  0xa8, 0xb4, 0xff, 0xff, 0x14, 0x00, 0x00, 0x00, 0x11, 0x00, 0x00, 0x00,
  0x18, 0x00, 0x00, 0x00, 0x5c, 0x00, 0x00, 0x00, 0x4c, 0x00, 0x00, 0x00,
  0x02, 0x00, 0x00, 0x00, 0x01, 0x00, 0x00, 0x00, 0x04, 0x00, 0x00, 0x00,
  0x34, 0x00, 0x00, 0x00, 0x73, 0x65, 0x71, 0x75, 0x65, 0x6e, 0x74, 0x69,
  0x61, 0x6c, 0x2f, 0x64, 0x65, 0x6e, 0x73, 0x65, 0x5f, 0x31, 0x2f, 0x4d,
  0x61, 0x74, 0x4d, 0x75, 0x6c, 0x3b, 0x73, 0x65, 0x71, 0x75, 0x65, 0x6e,
  0x74, 0x69, 0x61, 0x6c, 0x2f, 0x64, 0x65, 0x6e, 0x73, 0x65, 0x5f, 0x31,
  0x2f, 0x42, 0x69, 0x61, 0x73, 0x41, 0x64, 0x64, 0x00, 0x00, 0x00, 0x00,
  0x02, 0x00, 0x00, 0x00, 0xff, 0xff, 0xff, 0xff, 0x04, 0x00, 0x00, 0x00,
  0x98, 0xb4, 0xff, 0xff, 0xfe, 0xfc, 0xff, 0xff, 0x00, 0x00, 0x00, 0x08,
  0x03, 0x00, 0x00, 0x00, 0x24, 0x00, 0x00, 0x00, 0x18, 0x00, 0x00, 0x00,
  0x0c, 0x00, 0x00, 0x00, 0x00, 0x00, 0x06, 0x00, 0x08, 0x00, 0x07, 0x00,
  0x06, 0x00, 0x00, 0x00, 0x00, 0x00, 0x00, 0x01, 0x01, 0x00, 0x00, 0x00,
  0x0f, 0x00, 0x00, 0x00, 0x03, 0x00, 0x00, 0x00, 0x0e, 0x00, 0x00, 0x00,
  0x06, 0x00, 0x00, 0x00, 0x02, 0x00, 0x00, 0x00, 0x0c, 0xfc, 0xff, 0xff,
  0x09, 0x00, 0x00, 0x00, 0x00, 0x00, 0x00, 0x09, 0x01, 0x00, 0x00, 0x00,
  0x68, 0xb5, 0xff, 0xff, 0x14, 0x00, 0x00, 0x00, 0x10, 0x00, 0x00, 0x00,
  0x18, 0x00, 0x00, 0x00, 0x6c, 0x00, 0x00, 0x00, 0x5c, 0x00, 0x00, 0x00,
  0x02, 0x00, 0x00, 0x00, 0x01, 0x00, 0x00, 0x00, 0x10, 0x00, 0x00, 0x00,
  0x46, 0x00, 0x00, 0x00, 0x73, 0x65, 0x71, 0x75, 0x65, 0x6e, 0x74, 0x69,
  0x61, 0x6c, 0x2f, 0x64, 0x65, 0x6e, 0x73, 0x65, 0x2f, 0x4d, 0x61, 0x74,
  0x4d, 0x75, 0x6c, 0x3b, 0x73, 0x65, 0x71, 0x75, 0x65, 0x6e, 0x74, 0x69,
  0x61, 0x6c, 0x2f, 0x64, 0x65, 0x6e, 0x73, 0x65, 0x2f, 0x52, 0x65, 0x6c,
  0x75, 0x3b, 0x73, 0x65, 0x71, 0x75, 0x65, 0x6e, 0x74, 0x69, 0x61, 0x6c,
  0x2f, 0x64, 0x65, 0x6e, 0x73, 0x65, 0x2f, 0x42, 0x69, 0x61, 0x73, 0x41,
  0x64, 0x64, 0x00, 0x00, 0x02, 0x00, 0x00, 0x00, 0xff, 0xff, 0xff, 0xff,
  0x10, 0x00, 0x00, 0x00, 0x54, 0xb6, 0xff, 0xff, 0x00, 0x00, 0x0a, 0x00,
  0x10, 0x00, 0x04, 0x00, 0x08, 0x00, 0x0c, 0x00, 0x0a, 0x00, 0x00, 0x00,
  0x02, 0x00, 0x00, 0x00, 0x10, 0x00, 0x00, 0x00, 0x04, 0x00, 0x00, 0x00,
  0x01, 0x00, 0x00, 0x00, 0x0e, 0x00, 0x00, 0x00, 0x02, 0x00, 0x00, 0x00,
  0x0d, 0x00, 0x00, 0x00, 0x05, 0x00, 0x00, 0x00, 0xcc, 0xfc, 0xff, 0xff,
  0x16, 0x00, 0x00, 0x00, 0x00, 0x00, 0x00, 0x16, 0x01, 0x00, 0x00, 0x00,
  0x28, 0xb6, 0xff, 0xff, 0x14, 0x00, 0x00, 0x00, 0x0f, 0x00, 0x00, 0x00,
  0x18, 0x00, 0x00, 0x00, 0x40, 0x00, 0x00, 0x00, 0x30, 0x00, 0x00, 0x00,
  0x02, 0x00, 0x00, 0x00, 0x01, 0x00, 0x00, 0x00, 0xe0, 0x00, 0x00, 0x00,
  0x1a, 0x00, 0x00, 0x00, 0x73, 0x65, 0x71, 0x75, 0x65, 0x6e, 0x74, 0x69,
  0x61, 0x6c, 0x2f, 0x66, 0x6c, 0x61, 0x74, 0x74, 0x65, 0x6e, 0x2f, 0x52,
  0x65, 0x73, 0x68, 0x61, 0x70, 0x65, 0x00, 0x00, 0x02, 0x00, 0x00, 0x00,
  0xff, 0xff, 0xff, 0xff, 0xe0, 0x00, 0x00, 0x00, 0xfc, 0xb5, 0xff, 0xff,
  0x62, 0xfe, 0xff, 0xff, 0x00, 0x00, 0x00, 0x05, 0x01, 0x00, 0x00, 0x00,
  0x38, 0x00, 0x00, 0x00, 0x2c, 0x00, 0x00, 0x00, 0x14, 0x00, 0x00, 0x00,
  0x00, 0x00, 0x0e, 0x00, 0x14, 0x00, 0x00, 0x00, 0x10, 0x00, 0x0c, 0x00,
  0x08, 0x00, 0x04, 0x00, 0x0e, 0x00, 0x00, 0x00, 0x03, 0x00, 0x00, 0x00,
  0x01, 0x00, 0x00, 0x00, 0x03, 0x00, 0x00, 0x00, 0x01, 0x00, 0x00, 0x00,
  0x01, 0x00, 0x00, 0x00, 0x0d, 0x00, 0x00, 0x00, 0x01, 0x00, 0x00, 0x00,
  0x0c, 0x00, 0x00, 0x00, 0xc8, 0xb6, 0xff, 0xff, 0x14, 0x00, 0x00, 0x00,
  0x0e, 0x00, 0x00, 0x00, 0x20, 0x00, 0x00, 0x00, 0x58, 0x00, 0x00, 0x00,
  0x40, 0x00, 0x00, 0x00, 0x04, 0x00, 0x00, 0x00, 0x01, 0x00, 0x00, 0x00,
  0x0e, 0x00, 0x00, 0x00, 0x01, 0x00, 0x00, 0x00, 0x10, 0x00, 0x00, 0x00,
  0x22, 0x00, 0x00, 0x00, 0x73, 0x65, 0x71, 0x75, 0x65, 0x6e, 0x74, 0x69,
  0x61, 0x6c, 0x2f, 0x6d, 0x61, 0x78, 0x5f, 0x70, 0x6f, 0x6f, 0x6c, 0x69,
  0x6e, 0x67, 0x32, 0x64, 0x5f, 0x31, 0x2f, 0x4d, 0x61, 0x78, 0x50, 0x6f,
  0x6f, 0x6c, 0x00, 0x00, 0x04, 0x00, 0x00, 0x00, 0xff, 0xff, 0xff, 0xff,
  0x0e, 0x00, 0x00, 0x00, 0x01, 0x00, 0x00, 0x00, 0x10, 0x00, 0x00, 0x00,
  0xb4, 0xb6, 0xff, 0xff, 0x3e, 0xfe, 0xff, 0xff, 0x00, 0x00, 0x00, 0x01,
  0x24, 0x00, 0x00, 0x00, 0x18, 0x00, 0x00, 0x00, 0x04, 0x00, 0x00, 0x00,
  0x30, 0xfe, 0xff, 0xff, 0x01, 0x00, 0x00, 0x00, 0x01, 0x00, 0x00, 0x00,
  0x00, 0x00, 0x00, 0x01, 0x01, 0x00, 0x00, 0x00, 0x0c, 0x00, 0x00, 0x00,
  0x03, 0x00, 0x00, 0x00, 0x0b, 0x00, 0x00, 0x00, 0x09, 0x00, 0x00, 0x00,
  0x03, 0x00, 0x00, 0x00, 0x70, 0xb7, 0xff, 0xff, 0x14, 0x00, 0x00, 0x00,
  0x0d, 0x00, 0x00, 0x00, 0x20, 0x00, 0x00, 0x00, 0x94, 0x00, 0x00, 0x00,
  0x7c, 0x00, 0x00, 0x00, 0x04, 0x00, 0x00, 0x00, 0x01, 0x00, 0x00, 0x00,
  0x2a, 0x00, 0x00, 0x00, 0x01, 0x00, 0x00, 0x00, 0x10, 0x00, 0x00, 0x00,
  0x5d, 0x00, 0x00, 0x00, 0x73, 0x65, 0x71, 0x75, 0x65, 0x6e, 0x74, 0x69,
  0x61, 0x6c, 0x2f, 0x63, 0x6f, 0x6e, 0x76, 0x32, 0x64, 0x5f, 0x31, 0x2f,
  0x52, 0x65, 0x6c, 0x75, 0x3b, 0x73, 0x65, 0x71, 0x75, 0x65, 0x6e, 0x74,
  0x69, 0x61, 0x6c, 0x2f, 0x63, 0x6f, 0x6e, 0x76, 0x32, 0x64, 0x5f, 0x31,
  0x2f, 0x42, 0x69, 0x61, 0x73, 0x41, 0x64, 0x64, 0x3b, 0x73, 0x65, 0x71,
  0x75, 0x65, 0x6e, 0x74, 0x69, 0x61, 0x6c, 0x2f, 0x63, 0x6f, 0x6e, 0x76,
  0x32, 0x64, 0x5f, 0x31, 0x2f, 0x43, 0x6f, 0x6e, 0x76, 0x32, 0x44, 0x3b,
  0x63, 0x6f, 0x6e, 0x76, 0x32, 0x64, 0x5f, 0x31, 0x2f, 0x62, 0x69, 0x61,
  0x73, 0x00, 0x00, 0x00, 0x04, 0x00, 0x00, 0x00, 0xff, 0xff, 0xff, 0xff,
  0x2a, 0x00, 0x00, 0x00, 0x01, 0x00, 0x00, 0x00, 0x10, 0x00, 0x00, 0x00,
  0x84, 0xb8, 0xff, 0xff, 0x00, 0x00, 0x0e, 0x00, 0x1a, 0x00, 0x08, 0x00,
  0x0c, 0x00, 0x10, 0x00, 0x07, 0x00, 0x14, 0x00, 0x0e, 0x00, 0x00, 0x00,
  0x00, 0x00, 0x00, 0x05, 0x01, 0x00, 0x00, 0x00, 0x3c, 0x00, 0x00, 0x00,
  0x30, 0x00, 0x00, 0x00, 0x14, 0x00, 0x00, 0x00, 0x00, 0x00, 0x0e, 0x00,
  0x18, 0x00, 0x17, 0x00, 0x10, 0x00, 0x0c, 0x00, 0x08, 0x00, 0x04, 0x00,
  0x0e, 0x00, 0x00, 0x00, 0x03, 0x00, 0x00, 0x00, 0x03, 0x00, 0x00, 0x00,
  0x03, 0x00, 0x00, 0x00, 0x03, 0x00, 0x00, 0x00, 0x00, 0x00, 0x00, 0x01,
  0x01, 0x00, 0x00, 0x00, 0x0b, 0x00, 0x00, 0x00, 0x01, 0x00, 0x00, 0x00,
  0x0a, 0x00, 0x00, 0x00, 0x2c, 0xff, 0xff, 0xff, 0x11, 0x00, 0x00, 0x00,
  0x00, 0x00, 0x00, 0x11, 0x01, 0x00, 0x00, 0x00, 0x88, 0xb8, 0xff, 0xff,
  0x14, 0x00, 0x00, 0x00, 0x0c, 0x00, 0x00, 0x00, 0x20, 0x00, 0x00, 0x00,
  0x58, 0x00, 0x00, 0x00, 0x40, 0x00, 0x00, 0x00, 0x04, 0x00, 0x00, 0x00,
  0x01, 0x00, 0x00, 0x00, 0x2a, 0x00, 0x00, 0x00, 0x01, 0x00, 0x00, 0x00,
  0x08, 0x00, 0x00, 0x00, 0x20, 0x00, 0x00, 0x00, 0x73, 0x65, 0x71, 0x75,
  0x65, 0x6e, 0x74, 0x69, 0x61, 0x6c, 0x2f, 0x6d, 0x61, 0x78, 0x5f, 0x70,
  0x6f, 0x6f, 0x6c, 0x69, 0x6e, 0x67, 0x32, 0x64, 0x2f, 0x4d, 0x61, 0x78,
  0x50, 0x6f, 0x6f, 0x6c, 0x00, 0x00, 0x00, 0x00, 0x04, 0x00, 0x00, 0x00,
  0xff, 0xff, 0xff, 0xff, 0x2a, 0x00, 0x00, 0x00, 0x01, 0x00, 0x00, 0x00,
  0x08, 0x00, 0x00, 0x00, 0x60, 0xb9, 0xff, 0xff, 0x00, 0x00, 0x0e, 0x00,
  0x14, 0x00, 0x00, 0x00, 0x08, 0x00, 0x0c, 0x00, 0x07, 0x00, 0x10, 0x00,
  0x0e, 0x00, 0x00, 0x00, 0x00, 0x00, 0x00, 0x01, 0x30, 0x00, 0x00, 0x00,
  0x24, 0x00, 0x00, 0x00, 0x10, 0x00, 0x00, 0x00, 0x0c, 0x00, 0x10, 0x00,
  0x00, 0x00, 0x04, 0x00, 0x08, 0x00, 0x0f, 0x00, 0x0c, 0x00, 0x00, 0x00,
  0x01, 0x00, 0x00, 0x00, 0x01, 0x00, 0x00, 0x00, 0x00, 0x00, 0x00, 0x01,
  0x01, 0x00, 0x00, 0x00, 0x0a, 0x00, 0x00, 0x00, 0x03, 0x00, 0x00, 0x00,
  0x00, 0x00, 0x00, 0x00, 0x08, 0x00, 0x00, 0x00, 0x04, 0x00, 0x00, 0x00,
  0x0c, 0x00, 0x10, 0x00, 0x0b, 0x00, 0x00, 0x00, 0x0c, 0x00, 0x04, 0x00,
  0x0c, 0x00, 0x00, 0x00, 0x03, 0x00, 0x00, 0x00, 0x00, 0x00, 0x00, 0x03,
  0x01, 0x00, 0x00, 0x00, 0x68, 0xb9, 0xff, 0xff, 0x14, 0x00, 0x00, 0x00,
  0x0b, 0x00, 0x00, 0x00, 0x20, 0x00, 0x00, 0x00, 0x8c, 0x00, 0x00, 0x00,
  0x74, 0x00, 0x00, 0x00, 0x04, 0x00, 0x00, 0x00, 0x01, 0x00, 0x00, 0x00,
  0x80, 0x00, 0x00, 0x00, 0x03, 0x00, 0x00, 0x00, 0x08, 0x00, 0x00, 0x00,
  0x55, 0x00, 0x00, 0x00, 0x73, 0x65, 0x71, 0x75, 0x65, 0x6e, 0x74, 0x69,
  0x61, 0x6c, 0x2f, 0x63, 0x6f, 0x6e, 0x76, 0x32, 0x64, 0x2f, 0x52, 0x65,
  0x6c, 0x75, 0x3b, 0x73, 0x65, 0x71, 0x75, 0x65, 0x6e, 0x74, 0x69, 0x61,
  0x6c, 0x2f, 0x63, 0x6f, 0x6e, 0x76, 0x32, 0x64, 0x2f, 0x42, 0x69, 0x61,
  0x73, 0x41, 0x64, 0x64, 0x3b, 0x73, 0x65, 0x71, 0x75, 0x65, 0x6e, 0x74,
  0x69, 0x61, 0x6c, 0x2f, 0x63, 0x6f, 0x6e, 0x76, 0x32, 0x64, 0x2f, 0x43,
  0x6f, 0x6e, 0x76, 0x32, 0x44, 0x3b, 0x63, 0x6f, 0x6e, 0x76, 0x32, 0x64,
  0x2f, 0x62, 0x69, 0x61, 0x73, 0x00, 0x00, 0x00, 0x04, 0x00, 0x00, 0x00,
  0xff, 0xff, 0xff, 0xff, 0x80, 0x00, 0x00, 0x00, 0x03, 0x00, 0x00, 0x00,
  0x08, 0x00, 0x00, 0x00, 0x88, 0xb9, 0xff, 0xff, 0x6e, 0xba, 0xff, 0xff,
  0x04, 0x00, 0x00, 0x00, 0x00, 0x08, 0x00, 0x00, 0x56, 0x66, 0x86, 0xbe,
  0x5b, 0x32, 0xa0, 0x3d, 0xab, 0xbd, 0x99, 0xbe, 0xd4, 0xc9, 0x3e, 0xbe,
  0x10, 0x4e, 0x55, 0xbd, 0xe6, 0xaa, 0xd1, 0x3c, 0x21, 0x4e, 0x18, 0xbc,
  0x64, 0x6a, 0x1f, 0xbd, 0x5d, 0xd3, 0x13, 0xbe, 0x34, 0xa9, 0x84, 0xbf,
  0xcd, 0xed, 0x9d, 0xbd, 0x56, 0xe1, 0xeb, 0xbb, 0xf4, 0xcf, 0x4c, 0xbc,
  0x98, 0x86, 0x39, 0x3b, 0x92, 0x0f, 0x72, 0xbd, 0x34, 0x02, 0x54, 0x3e,
  0x08, 0x6e, 0x3b, 0xbf, 0xb6, 0xbf, 0x0f, 0xbd, 0x44, 0xca, 0xa3, 0xbe,
  0x12, 0x83, 0xb0, 0x3d, 0xdb, 0x79, 0x9c, 0xbe, 0x40, 0x6a, 0x21, 0x37,
  0x61, 0x48, 0x06, 0x3f, 0x84, 0xfd, 0x9b, 0xbe, 0xe9, 0xbe, 0x5e, 0xbd,
  0xff, 0x80, 0x5b, 0x3e, 0x29, 0x05, 0xe7, 0xbe, 0x7c, 0xd2, 0x0b, 0xbe,
  0xb4, 0x9d, 0x74, 0x3e, 0xb9, 0xef, 0x6c, 0x3e, 0x40, 0xad, 0xf5, 0xbd,
  0xa2, 0x81, 0x2b, 0x3e, 0x27, 0x59, 0xc4, 0x3d, 0x0c, 0x35, 0x00, 0xbe,
  0x34, 0x50, 0x45, 0x3d, 0x6b, 0xdf, 0x32, 0xbd, 0x08, 0x9b, 0x3c, 0x3c,
  0x3d, 0x7a, 0x03, 0xbd, 0xb3, 0x79, 0x14, 0xbe, 0x05, 0x82, 0xf8, 0x3d,
  0x5e, 0x9b, 0xdd, 0xbb, 0x29, 0x95, 0x10, 0xbe, 0xcb, 0x57, 0xcd, 0x3e,
  0x32, 0x24, 0x98, 0x3e, 0xd5, 0xe2, 0x8b, 0x3e, 0xf3, 0x05, 0x13, 0xbe,
  0xdf, 0xad, 0x31, 0x3e, 0x2e, 0x01, 0xa9, 0xba, 0x13, 0x42, 0xac, 0xbe,
  0xd9, 0xe0, 0x22, 0x3e, 0x06, 0xe4, 0x98, 0xbe, 0xc5, 0x7a, 0x98, 0x3d,
  0xf5, 0xae, 0x02, 0xbe, 0xb3, 0x73, 0x33, 0xbe, 0xcb, 0xea, 0xb9, 0x3e,
  0xc5, 0xd4, 0x19, 0xbf, 0x2a, 0x3e, 0x20, 0xbc, 0xf1, 0x2c, 0x73, 0xbd,
  0xc0, 0x83, 0xb6, 0xbe, 0x7c, 0xf5, 0x19, 0xbf, 0x7b, 0x3b, 0x00, 0xbe,
  0x3f, 0x95, 0x28, 0xbd, 0x4d, 0xbf, 0xbe, 0xbe, 0x4a, 0xa2, 0x8b, 0x3e,
  0xa6, 0xab, 0x0c, 0x3e, 0x4b, 0x51, 0x84, 0x3d, 0x97, 0x47, 0x3e, 0x3d,
  0xcb, 0x64, 0x99, 0x3c, 0xb6, 0x8b, 0x3e, 0x3e, 0x35, 0xa4, 0x68, 0xbd,
  0xc6, 0x75, 0x81, 0xbd, 0xde, 0x88, 0x67, 0x3d, 0x04, 0x38, 0x6a, 0x3d,
  0x82, 0x75, 0xec, 0x3d, 0x4e, 0x74, 0x79, 0x3d, 0x7a, 0x18, 0xb4, 0x3d,
  0xe1, 0x49, 0x60, 0x3d, 0x4a, 0x13, 0x78, 0xbd, 0xb3, 0x20, 0xbc, 0x3e,
  0x9c, 0x44, 0x63, 0x3e, 0x12, 0x8e, 0xfc, 0x3b, 0x9e, 0x23, 0x30, 0xbd,
  0xa2, 0xc5, 0x56, 0xbf, 0xe9, 0xb9, 0x1b, 0xbf, 0x7b, 0x9e, 0x68, 0xbe,
  0x5d, 0xff, 0x2f, 0xbe, 0x0b, 0x09, 0xfb, 0xbd, 0x34, 0xce, 0x95, 0x3d,
  0x9d, 0x18, 0xd5, 0x3d, 0x44, 0x55, 0xcc, 0xbd, 0x6f, 0xc4, 0x8c, 0xbd,
  0xe5, 0x00, 0xcd, 0xbd, 0xce, 0x79, 0x2e, 0x3e, 0x6f, 0x53, 0xf1, 0xbd,
  0xac, 0x0c, 0xa8, 0xbe, 0x46, 0xa3, 0x67, 0x3e, 0xbd, 0xfa, 0x28, 0xbd,
  0x5c, 0x8b, 0x1e, 0xbd, 0xb8, 0x3d, 0x22, 0xbd, 0x86, 0xb9, 0xf1, 0xbb,
  0xf8, 0x07, 0xe0, 0xbe, 0x5d, 0x0d, 0xd4, 0xbd, 0xfc, 0x5e, 0xc1, 0x3d,
  0x50, 0x7c, 0xd0, 0xb8, 0x40, 0xb3, 0x98, 0x3e, 0x77, 0x2b, 0x4e, 0xbd,
  0xf6, 0x29, 0x61, 0xbd, 0xb0, 0x9a, 0x80, 0xbe, 0x9a, 0x46, 0xbb, 0xbe,
  0x14, 0xbe, 0x45, 0xbd, 0xa6, 0xde, 0xda, 0xbe, 0x78, 0x50, 0x19, 0x3c,
  0xdd, 0xd2, 0xcd, 0x3d, 0xf4, 0x32, 0x9b, 0xbd, 0x42, 0x74, 0xa0, 0xbd,
  0xa2, 0x2f, 0xa0, 0xbd, 0x02, 0xeb, 0x4a, 0xbd, 0x68, 0x1b, 0x43, 0xbf,
  0xb1, 0x85, 0x0c, 0xbd, 0xfe, 0xde, 0xaa, 0xbe, 0x70, 0xa3, 0xdb, 0xbc,
  0x87, 0x7b, 0x2e, 0x3b, 0x6f, 0xaf, 0x19, 0x3e, 0x77, 0x9e, 0x70, 0x3e,
  0xe4, 0x06, 0x5e, 0x3d, 0xb6, 0x3e, 0x15, 0xbe, 0x4e, 0xb4, 0x14, 0x3d,
  0xbb, 0x3c, 0xa5, 0xbd, 0xa6, 0x16, 0x3e, 0xbd, 0x62, 0x93, 0xe4, 0x3c,
  0x5c, 0x94, 0xdf, 0x3d, 0x65, 0x82, 0x18, 0x3e, 0x25, 0x2c, 0x4d, 0xbd,
  0x89, 0x00, 0x3d, 0x3e, 0x5c, 0xf3, 0x01, 0x3d, 0xe8, 0xc7, 0x3a, 0x3d,
  0x4c, 0x38, 0x4e, 0xbd, 0x4a, 0x74, 0xb5, 0x3c, 0xcf, 0xcb, 0x19, 0xbc,
  0x00, 0x53, 0xb1, 0x3b, 0xa8, 0x5b, 0xd2, 0xbd, 0x7a, 0x56, 0x29, 0xbc,
  0x83, 0xbc, 0x31, 0x3e, 0x13, 0xfb, 0xcf, 0x3b, 0x07, 0x6c, 0x85, 0x3c,
  0x5c, 0x8e, 0x3f, 0x3c, 0x2e, 0x9e, 0xbc, 0x3d, 0x62, 0xdc, 0x3b, 0x3c,
  0x63, 0xc6, 0xa1, 0x3e, 0xb5, 0xcf, 0x77, 0xbd, 0x05, 0xd3, 0xc6, 0xbd,
  0x5a, 0xc2, 0xcc, 0x3d, 0x92, 0x5a, 0x4b, 0x3c, 0x2a, 0xa2, 0x81, 0x3c,
  0xb0, 0xef, 0x0c, 0xbd, 0xf4, 0xb8, 0x88, 0x3c, 0xb8, 0x23, 0x94, 0xbd,
  0x0a, 0xbb, 0xe7, 0xbd, 0xf0, 0x37, 0x38, 0x3e, 0xb2, 0xa1, 0x6a, 0xbe,
  0x7a, 0x2a, 0x20, 0x3e, 0x9b, 0xea, 0x7e, 0xbf, 0x82, 0x53, 0xec, 0xbe,
  0xf9, 0x45, 0x00, 0xbf, 0x16, 0x15, 0x01, 0xbe, 0xd0, 0x5e, 0x7a, 0xbe,
  0x85, 0x09, 0x3a, 0xbf, 0x0d, 0x67, 0x89, 0x3e, 0x4e, 0x4b, 0xc1, 0x3d,
  0xb8, 0x89, 0xa5, 0xbf, 0xdf, 0xae, 0x92, 0x3e, 0x26, 0x0f, 0x07, 0x3e,
  0xea, 0x46, 0x50, 0x3e, 0xdf, 0x18, 0x9b, 0xbe, 0xf2, 0x52, 0x8f, 0xbe,
  0xa5, 0x0d, 0x18, 0x3e, 0x74, 0x50, 0xbf, 0xbe, 0x4e, 0x73, 0x6b, 0xbe,
  0xf7, 0x60, 0xb4, 0x3e, 0x2a, 0x1d, 0xa4, 0x3e, 0x24, 0x2f, 0x8c, 0x3c,
  0x78, 0x73, 0xf7, 0xbd, 0xad, 0x3a, 0x36, 0x3e, 0xa6, 0xfa, 0xc9, 0xbd,
  0xcc, 0xcc, 0x21, 0xbf, 0xcd, 0x18, 0x10, 0xbe, 0x46, 0xce, 0x4e, 0x3e,
  0xb0, 0x1b, 0x8a, 0x3e, 0x6b, 0x0a, 0x60, 0xbe, 0x7d, 0x89, 0x02, 0x3e,
  0x03, 0x7a, 0x69, 0x3c, 0xcb, 0xa6, 0x49, 0xbe, 0xa4, 0x8b, 0x56, 0xbe,
  0xc2, 0x2f, 0x56, 0xbe, 0xe8, 0x70, 0x8b, 0x3e, 0x9d, 0x72, 0x2c, 0x3f,
  0x97, 0x0b, 0x90, 0xbb, 0x9c, 0xbd, 0x2f, 0xbe, 0x9b, 0x3c, 0xa6, 0x3e,
  0x8a, 0xd1, 0x05, 0xbe, 0xfb, 0x97, 0x8a, 0xbe, 0xc8, 0xb6, 0xb7, 0x3c,
  0xa5, 0xba, 0x4a, 0x3b, 0xf0, 0x9e, 0xa3, 0xbb, 0x6f, 0xa3, 0x3a, 0x3e,
  0xcf, 0x68, 0x10, 0xbf, 0x35, 0x60, 0x30, 0x3e, 0x3b, 0x0e, 0x99, 0xbf,
  0x9b, 0x70, 0x7b, 0xbd, 0x54, 0x98, 0x65, 0xba, 0x7e, 0x62, 0x73, 0xbe,
  0x8c, 0xf3, 0xbb, 0xbe, 0xba, 0x53, 0x28, 0xbf, 0x91, 0x33, 0xad, 0x3d,
  0xc9, 0xe0, 0xaf, 0x3e, 0x56, 0x00, 0x3c, 0xbb, 0xb6, 0x81, 0x8b, 0xbd,
  0x6f, 0xcd, 0xa7, 0xbd, 0xa7, 0xe7, 0xb2, 0xbe, 0x0b, 0xc2, 0x74, 0xbf,
  0xe9, 0x5d, 0x22, 0xbf, 0x91, 0x1b, 0xc4, 0x3e, 0x08, 0xa9, 0x77, 0xbf,
  0x7e, 0x4b, 0xb7, 0x3c, 0x8a, 0x43, 0xd1, 0xbd, 0x20, 0x51, 0x82, 0x3d,
  0x43, 0x1a, 0x8b, 0xbd, 0x96, 0xc4, 0xaf, 0x3e, 0xbf, 0xf5, 0x24, 0x3e,
  0xd5, 0x15, 0x0a, 0xbe, 0x52, 0xdb, 0xb1, 0x3e, 0x36, 0x53, 0x3b, 0xbe,
  0xbe, 0x52, 0x22, 0x3b, 0xde, 0x48, 0xe0, 0xbb, 0xa7, 0x61, 0xc8, 0xbd,
  0xd4, 0x10, 0x26, 0xbf, 0x9e, 0x0b, 0x49, 0xbf, 0x95, 0x78, 0x50, 0x3e,
  0x97, 0x35, 0x80, 0xbe, 0x45, 0xb0, 0x95, 0x3e, 0x10, 0x1e, 0x59, 0xbc,
  0x18, 0x5d, 0xac, 0xbe, 0x53, 0x79, 0x85, 0x3d, 0xad, 0x1e, 0x9a, 0xbe,
  0xc3, 0xa6, 0x3d, 0xbf, 0x1b, 0x5f, 0xdd, 0x3d, 0x3a, 0x96, 0x6c, 0xbf,
  0xe6, 0x1f, 0xf7, 0x3e, 0x8f, 0x94, 0xe1, 0xbe, 0x86, 0xd1, 0x7f, 0xbe,
  0x67, 0x49, 0x1b, 0x3d, 0xbd, 0xc2, 0xb8, 0x3c, 0x6a, 0xd4, 0x3d, 0xbf,
  0xe6, 0xfe, 0xa7, 0x3d, 0x30, 0x0b, 0xea, 0xbe, 0xe8, 0x6c, 0x5a, 0xbd,
  0xd9, 0xb1, 0x8a, 0x3d, 0x47, 0x81, 0xd4, 0x3d, 0xae, 0x2b, 0x89, 0xbe,
  0x13, 0x5e, 0x03, 0xbe, 0xfa, 0xe3, 0x94, 0x3e, 0xb3, 0xb0, 0xc1, 0x3d,
  0xa0, 0x3f, 0x0a, 0x3d, 0x4b, 0x81, 0xd0, 0xbd, 0xdd, 0xe7, 0x3f, 0x3d,
  0x68, 0xe8, 0x08, 0x3d, 0xb1, 0x6a, 0x8c, 0xbe, 0x7a, 0x92, 0x14, 0xbe,
  0x40, 0xe9, 0x7c, 0x38, 0xd8, 0x08, 0xdb, 0x3d, 0xef, 0xf5, 0x6e, 0xbd,
  0x1d, 0x70, 0x7c, 0xbc, 0x7f, 0xaa, 0x07, 0x3e, 0xf6, 0x52, 0x6e, 0x3e,
  0xb8, 0x03, 0x17, 0xbe, 0xe9, 0x9a, 0x89, 0xbe, 0xa4, 0x0c, 0xcf, 0xbd,
  0xbf, 0x03, 0x1c, 0x3e, 0xdb, 0x2a, 0xc9, 0xbd, 0xc8, 0x30, 0x3f, 0x3e,
  0x94, 0x84, 0x49, 0x3e, 0x06, 0xa3, 0x43, 0x3d, 0x0e, 0x39, 0x3b, 0xbd,
  0x56, 0xb0, 0xa1, 0xbe, 0x13, 0x39, 0x43, 0xbe, 0xe9, 0x65, 0x24, 0xbe,
  0x80, 0x18, 0x50, 0xbe, 0x3b, 0x61, 0xf8, 0xbd, 0x81, 0x12, 0xcf, 0xbe,
  0x4c, 0xeb, 0x38, 0xbe, 0xc2, 0x39, 0x88, 0x3d, 0x35, 0x86, 0x71, 0x3e,
  0xab, 0x43, 0xe1, 0xbd, 0x37, 0x64, 0x64, 0xbf, 0x25, 0x3e, 0xfe, 0x3b,
  0x70, 0xc8, 0xc6, 0xbe, 0xc4, 0x02, 0x08, 0xbf, 0x45, 0x42, 0xd3, 0x3c,
  0xea, 0xd7, 0x6b, 0xbd, 0x15, 0x63, 0x3f, 0x3e, 0xb7, 0xac, 0xc6, 0xbe,
  0xf5, 0xbe, 0x33, 0xbf, 0x86, 0x42, 0xc2, 0x3e, 0xf9, 0xa2, 0x03, 0xbf,
  0x16, 0xcd, 0x88, 0xbe, 0x44, 0x19, 0xcd, 0x3e, 0xcb, 0x5b, 0x03, 0xbf,
  0xca, 0x1f, 0x86, 0xbe, 0x32, 0x4f, 0x09, 0xbe, 0x21, 0xd5, 0x82, 0x3e,
  0xf9, 0xd5, 0x95, 0x3e, 0x5b, 0x2d, 0x11, 0xbe, 0x57, 0xa4, 0x8a, 0xbc,
  0x09, 0x7f, 0x9e, 0xbe, 0xd0, 0x12, 0x1f, 0xbe, 0x75, 0xd8, 0x60, 0xbe,
  0x99, 0x7c, 0x64, 0xbd, 0xe2, 0x29, 0x35, 0x3e, 0x48, 0xf1, 0x1f, 0xbd,
  0xde, 0x02, 0x5e, 0x3e, 0xe2, 0x8c, 0xde, 0xbe, 0x6c, 0x8c, 0x98, 0xbe,
  0x08, 0xe7, 0xfc, 0x3b, 0xf6, 0x57, 0x68, 0x3e, 0x5a, 0x3a, 0x36, 0x3e,
  0xe2, 0x2f, 0x60, 0xbd, 0xf9, 0x7a, 0x17, 0x3e, 0x25, 0x7c, 0x03, 0xbe,
  0x50, 0xbf, 0x8d, 0xbe, 0x29, 0x3c, 0x65, 0xbe, 0x89, 0x4b, 0x86, 0xbe,
  0x21, 0xd8, 0xde, 0x3d, 0x45, 0xb2, 0x33, 0x3d, 0xfe, 0x8e, 0x51, 0x3f,
  0x19, 0xfd, 0xad, 0x3e, 0x63, 0xf9, 0x07, 0xbe, 0xd1, 0x36, 0x07, 0x3d,
  0x78, 0x9a, 0x1f, 0xbf, 0x5d, 0x3b, 0xa9, 0xbe, 0xa9, 0x20, 0xf7, 0xbd,
  0xb8, 0xe1, 0x62, 0xbd, 0x5a, 0x3e, 0xc8, 0xbc, 0x3a, 0x47, 0x0b, 0xbd,
  0xad, 0x72, 0xa8, 0xbd, 0x5a, 0x09, 0x4e, 0x3e, 0xc4, 0x11, 0x80, 0xbe,
  0x2f, 0xed, 0x75, 0xbe, 0xeb, 0xf8, 0x1b, 0xbe, 0x5d, 0xdd, 0xa4, 0x3d,
  0x49, 0x69, 0xfc, 0xbd, 0x83, 0x4d, 0x94, 0xbd, 0xa2, 0x5b, 0x44, 0xbe,
  0xa9, 0x8c, 0x61, 0xbe, 0xa8, 0xf0, 0xda, 0xbe, 0x32, 0x00, 0x93, 0xbe,
  0xa8, 0x77, 0x55, 0xbf, 0x1e, 0xab, 0x31, 0xbf, 0xb4, 0x6b, 0xce, 0xbe,
  0xfe, 0x96, 0x63, 0xbf, 0x6e, 0xbe, 0x0a, 0xbb, 0xd0, 0xc1, 0x6a, 0x3e,
  0x2b, 0xcc, 0xa4, 0xbe, 0xe9, 0x5c, 0xa1, 0xbe, 0xd4, 0x2e, 0x12, 0xbf,
  0x9c, 0x87, 0x98, 0x3e, 0x4a, 0x6a, 0x37, 0xbf, 0x42, 0x26, 0x34, 0xbf,
  0x89, 0x0f, 0x6c, 0xbe, 0x9c, 0xfd, 0x0b, 0x3d, 0x4c, 0xfc, 0xef, 0xbe,
  0xcb, 0x31, 0x85, 0x3e, 0xa7, 0xb9, 0xeb, 0x3e, 0xb2, 0x38, 0x49, 0x3e,
  0x01, 0x63, 0xcb, 0xbd, 0xf7, 0x65, 0x7d, 0x3d, 0x34, 0x5b, 0x58, 0x3e,
  0x51, 0x8a, 0xd6, 0xbe, 0x5c, 0xab, 0x8b, 0xbe, 0x64, 0x0c, 0x45, 0x3e,
  0x83, 0x93, 0xa5, 0x3e, 0xfd, 0x59, 0x5b, 0xbd, 0x50, 0x04, 0x6b, 0x3e,
  0x59, 0x04, 0xa3, 0x3e, 0x1d, 0x4b, 0x3f, 0x3e, 0x92, 0x4a, 0x56, 0xbe,
  0x00, 0x5c, 0x19, 0xbe, 0x24, 0xab, 0x5b, 0xbe, 0x6e, 0xfd, 0x28, 0xbe,
  0x2d, 0x26, 0x5e, 0xbe, 0x8f, 0xc1, 0xa4, 0xbe, 0xc9, 0x3f, 0x3c, 0x3c,
  0xf6, 0xe5, 0x29, 0xbf, 0xff, 0x1c, 0xa8, 0xbe, 0x86, 0xb9, 0x95, 0xbe,
  0xef, 0x15, 0xf5, 0xbd, 0xc6, 0xf7, 0x11, 0xbe, 0xb6, 0x8c, 0x23, 0xbe,
  0x05, 0x10, 0xcf, 0xbf, 0x9f, 0x13, 0x53, 0xbe, 0xee, 0x4f, 0x7f, 0xbe,
  0x60, 0x00, 0x3f, 0xbe, 0x74, 0xa3, 0x97, 0xbe, 0x41, 0xb6, 0xce, 0x3d,
  0x17, 0xd1, 0x70, 0x3d, 0x41, 0x29, 0xef, 0x3d, 0x43, 0xc8, 0xc2, 0xbf,
  0xe3, 0xb6, 0x8e, 0x3e, 0x92, 0x2d, 0xc0, 0xbe, 0xc1, 0x62, 0xb3, 0xbe,
  0x5b, 0x0e, 0x5c, 0x3c, 0xd8, 0x10, 0x87, 0x3e, 0x9e, 0x8b, 0x07, 0x3f,
  0x13, 0xef, 0x87, 0x3e, 0x90, 0x03, 0xb3, 0xbd, 0x8f, 0xfe, 0xdc, 0x3e,
  0x90, 0xcb, 0x6a, 0xbe, 0xb0, 0x41, 0xb2, 0x3e, 0xff, 0x1a, 0xa6, 0xbe,
  0x91, 0xbf, 0x98, 0xbd, 0x55, 0xaa, 0x2d, 0xbe, 0xfa, 0x99, 0x0c, 0x3e,
  0xed, 0x0f, 0xc3, 0xbe, 0x8f, 0x96, 0xbd, 0xbe, 0xfd, 0xbe, 0x9f, 0xbd,
  0xdb, 0x12, 0x84, 0xbe, 0x83, 0xca, 0x04, 0xbe, 0xa5, 0xce, 0x98, 0x3e,
  0x98, 0xb9, 0x55, 0x3e, 0x40, 0x42, 0xed, 0x3d, 0xcd, 0xd8, 0x2a, 0x3e,
  0xae, 0x2b, 0x53, 0x3e, 0x2d, 0xcd, 0xcf, 0x3c, 0xc3, 0xd9, 0xbd, 0xbd,
  0x01, 0x89, 0x1e, 0xbe, 0x24, 0xfb, 0x4a, 0xbe, 0xa3, 0x8c, 0x40, 0x3e,
  0x8a, 0x79, 0xae, 0xbe, 0xeb, 0xaf, 0x97, 0x3e, 0xad, 0x9f, 0xfd, 0x3e,
  0xc8, 0x39, 0x2b, 0xbe, 0xed, 0x9d, 0x97, 0x3d, 0xb8, 0xd6, 0xa0, 0xbe,
  0xdc, 0x43, 0x2a, 0xbf, 0x57, 0x26, 0xbc, 0xbe, 0x97, 0xf0, 0x28, 0xbe,
  0xe4, 0x58, 0x07, 0xbf, 0x5e, 0x30, 0x1a, 0xbd, 0x58, 0xa6, 0xf7, 0xbe,
  0x0d, 0xae, 0x05, 0xbe, 0xb0, 0x61, 0x1f, 0xbe, 0x02, 0xb2, 0x2d, 0x3e,
  0xca, 0x3b, 0x9a, 0xbd, 0xaf, 0x88, 0x21, 0xbe, 0xed, 0x6f, 0x3a, 0x3f,
  0x9a, 0x0b, 0x27, 0xbe, 0x92, 0xb3, 0xb2, 0x3e, 0x96, 0xc4, 0xa1, 0xbe,
  0x41, 0xcb, 0x45, 0xbf, 0xfc, 0x35, 0xf3, 0xbc, 0x98, 0x71, 0x5c, 0xbc,
  0x3b, 0xdc, 0x00, 0xbe, 0x47, 0xe6, 0x84, 0xbd, 0x65, 0xc5, 0x15, 0xbe,
  0x55, 0x92, 0x45, 0xbd, 0x44, 0x48, 0xfe, 0xbe, 0xb6, 0xb7, 0x67, 0xbf,
  0xb3, 0xae, 0x99, 0x3d, 0xbf, 0xb6, 0xd9, 0x3d, 0x72, 0xf9, 0x10, 0x3c,
  0x74, 0x0b, 0xc0, 0xbd, 0x18, 0x03, 0xde, 0xbd, 0x4e, 0x2c, 0x41, 0xbe,
  0xe6, 0x47, 0xe5, 0xbe, 0x45, 0xcc, 0x25, 0xbf, 0xab, 0x25, 0x69, 0x3e,
  0x1b, 0x94, 0x93, 0x3e, 0x85, 0x94, 0x92, 0x3d, 0x3d, 0x51, 0x13, 0xbe,
  0x0c, 0xf6, 0xbf, 0x3d, 0x9b, 0x8e, 0x24, 0xbe, 0xe4, 0x64, 0x1f, 0xbe,
  0x1e, 0x53, 0x25, 0xbf, 0x52, 0x56, 0xa8, 0x3e, 0x62, 0x13, 0x8e, 0x3e,
  0x0b, 0xd3, 0x32, 0x3d, 0xa5, 0xd7, 0x9d, 0x3d, 0x9c, 0x00, 0x1c, 0x3d,
  0xfc, 0x28, 0x11, 0x3e, 0x3e, 0x2d, 0x9f, 0xbe, 0xcd, 0x28, 0xd8, 0xbe,
  0x7a, 0x5c, 0x1e, 0x3e, 0x43, 0x84, 0x6d, 0x3e, 0x2d, 0x1d, 0x86, 0x3e,
  0x79, 0x0d, 0x0a, 0x3c, 0x3a, 0x7f, 0x75, 0x3e, 0x00, 0xa1, 0x11, 0xbc,
  0x27, 0x82, 0x6c, 0xbf, 0x57, 0x1a, 0xa6, 0x3d, 0x0b, 0x74, 0x21, 0xbe,
  0x5c, 0x6b, 0x34, 0x3e, 0xeb, 0x53, 0x31, 0xbe, 0x50, 0x5e, 0x3d, 0xbd,
  0xc2, 0xdb, 0xa1, 0x3e, 0x49, 0x33, 0x94, 0xbf, 0x7e, 0x51, 0xd7, 0xbe,
  0xe4, 0x06, 0x77, 0x3e, 0x00, 0x9f, 0x48, 0xbf, 0x16, 0xae, 0x03, 0xbf,
  0xe8, 0xc3, 0xc8, 0x3c, 0xe7, 0x39, 0xf1, 0xbd, 0xa0, 0xbf, 0x1d, 0x3e,
  0xae, 0x53, 0x3a, 0xbf, 0x56, 0xc2, 0xff, 0xff, 0x10, 0x00, 0x00, 0x00,
  0x0a, 0x00, 0x00, 0x00, 0x1c, 0x00, 0x00, 0x00, 0x38, 0x00, 0x00, 0x00,
  0x04, 0x00, 0x00, 0x00, 0x10, 0x00, 0x00, 0x00, 0x04, 0x00, 0x00, 0x00,
  0x01, 0x00, 0x00, 0x00, 0x08, 0x00, 0x00, 0x00, 0x1a, 0x00, 0x00, 0x00,
  0x73, 0x65, 0x71, 0x75, 0x65, 0x6e, 0x74, 0x69, 0x61, 0x6c, 0x2f, 0x63,
  0x6f, 0x6e, 0x76, 0x32, 0x64, 0x5f, 0x31, 0x2f, 0x43, 0x6f, 0x6e, 0x76,
  0x32, 0x44, 0x00, 0x00, 0xe0, 0xc1, 0xff, 0xff, 0xc6, 0xc2, 0xff, 0xff,
  0x04, 0x00, 0x00, 0x00, 0x80, 0x01, 0x00, 0x00, 0x39, 0xc6, 0x55, 0xbe,
  0x7d, 0x71, 0x1e, 0xbe, 0x15, 0xe3, 0x93, 0x3c, 0x31, 0x99, 0xc3, 0xbd,
  0xb6, 0x03, 0xaf, 0xbe, 0x44, 0xee, 0x61, 0xbe, 0xa2, 0xfa, 0x42, 0x3e,
  0x2e, 0xa1, 0xd5, 0xbd, 0xa2, 0xd9, 0x20, 0x3d, 0xae, 0xfc, 0xd6, 0x3d,
  0xc7, 0x9a, 0x0d, 0x3f, 0x9f, 0xb8, 0x73, 0xbd, 0x1d, 0xf2, 0xd6, 0x3a,
  0x04, 0x40, 0x35, 0x3d, 0xc0, 0xdc, 0x26, 0x3e, 0x27, 0x43, 0xf1, 0x3d,
  0xc1, 0x2f, 0x18, 0x3e, 0x43, 0x3e, 0x72, 0x3e, 0x74, 0xdc, 0x1b, 0x3d,
  0x96, 0x5b, 0xac, 0x3e, 0x0d, 0xcd, 0xdd, 0xbd, 0x61, 0x14, 0x60, 0xbe,
  0x00, 0x89, 0x20, 0xbf, 0x88, 0xe5, 0xc4, 0xbe, 0x8c, 0x5c, 0x9b, 0xbd,
  0xf9, 0xbe, 0xc6, 0xbc, 0x18, 0x13, 0x00, 0x3d, 0xf0, 0x89, 0x22, 0x3e,
  0x80, 0x7e, 0xdd, 0x37, 0xac, 0xa5, 0xb2, 0x3d, 0xf9, 0x78, 0x93, 0x3d,
  0x43, 0x4d, 0xae, 0xbd, 0xb2, 0x8e, 0xe4, 0xbb, 0x56, 0x8c, 0x7d, 0x3d,
  0x77, 0x40, 0x48, 0xbc, 0xdd, 0x3d, 0xb7, 0xbd, 0xfd, 0xef, 0x9b, 0x3d,
  0xc9, 0x74, 0x3a, 0xbd, 0x8e, 0xa6, 0xcd, 0x3c, 0xb0, 0xb4, 0x83, 0x3d,
  0x19, 0x94, 0x22, 0xbd, 0xc5, 0x99, 0xc6, 0xb9, 0x27, 0xd5, 0x9b, 0x3d,
  0x41, 0x0d, 0x9f, 0xbd, 0x60, 0xa5, 0xc5, 0xbc, 0x69, 0xec, 0x2d, 0x3d,
  0x7a, 0x52, 0xcc, 0xbd, 0xc1, 0x5f, 0xb5, 0xbc, 0x17, 0x6c, 0xb5, 0xbd,
  0x83, 0xfb, 0x22, 0xbc, 0x52, 0x6b, 0x8f, 0x3d, 0xea, 0x4e, 0xe3, 0xbc,
  0x11, 0x46, 0x66, 0xbd, 0x4c, 0xe3, 0xb0, 0xbd, 0x54, 0xa2, 0xbd, 0x3d,
  0x2d, 0xd6, 0xd0, 0xbd, 0x7e, 0x3c, 0x63, 0xbe, 0x38, 0xc6, 0xf8, 0x3d,
  0xe7, 0xd9, 0xca, 0xbe, 0x66, 0xda, 0xa5, 0xbe, 0xcd, 0xdb, 0x80, 0xbe,
  0x44, 0xd2, 0x03, 0x3e, 0x89, 0x0c, 0x62, 0x3e, 0x2d, 0x6d, 0x06, 0xbe,
  0x59, 0xd2, 0xb5, 0xbe, 0xa3, 0x71, 0x04, 0x3d, 0x05, 0x73, 0x84, 0xbe,
  0x66, 0x90, 0xb7, 0xbe, 0x39, 0x00, 0xcc, 0xbc, 0x46, 0x9a, 0xa4, 0xbe,
  0xc9, 0xc7, 0x53, 0xbe, 0x0b, 0xc7, 0x34, 0x3d, 0x32, 0x8b, 0x42, 0x3e,
  0x94, 0x8a, 0xcb, 0xbd, 0x62, 0xe2, 0x40, 0xbd, 0x24, 0xb6, 0xe5, 0x3d,
  0x59, 0x57, 0x21, 0xbe, 0xdf, 0xf0, 0xa7, 0xbd, 0x6d, 0xe5, 0x25, 0x3d,
  0x3c, 0x16, 0x05, 0xbe, 0xfa, 0xef, 0xd3, 0xbd, 0xcb, 0xc8, 0x1b, 0xbe,
  0xf0, 0x7f, 0x32, 0xbd, 0xc6, 0x07, 0x62, 0x3d, 0xd8, 0x79, 0xcb, 0xbe,
  0xad, 0xe5, 0x96, 0xbd, 0xf8, 0x54, 0xb0, 0xbe, 0x89, 0x7a, 0x4b, 0xbe,
  0x90, 0x18, 0x68, 0xbe, 0xad, 0xcf, 0x92, 0x3d, 0xf3, 0xad, 0x17, 0xbd,
  0xe7, 0xae, 0x5c, 0xbd, 0xf8, 0x2a, 0x2d, 0x3e, 0xf1, 0x0b, 0xed, 0x3c,
  0x82, 0xab, 0xe3, 0xbd, 0x1a, 0xb4, 0x99, 0x3e, 0x2e, 0xc4, 0xff, 0xff,
  0x10, 0x00, 0x00, 0x00, 0x09, 0x00, 0x00, 0x00, 0x1c, 0x00, 0x00, 0x00,
  0x38, 0x00, 0x00, 0x00, 0x04, 0x00, 0x00, 0x00, 0x08, 0x00, 0x00, 0x00,
  0x04, 0x00, 0x00, 0x00, 0x03, 0x00, 0x00, 0x00, 0x01, 0x00, 0x00, 0x00,
  0x18, 0x00, 0x00, 0x00, 0x73, 0x65, 0x71, 0x75, 0x65, 0x6e, 0x74, 0x69,
  0x61, 0x6c, 0x2f, 0x63, 0x6f, 0x6e, 0x76, 0x32, 0x64, 0x2f, 0x43, 0x6f,
  0x6e, 0x76, 0x32, 0x44, 0x00, 0x00, 0x00, 0x00, 0xb8, 0xc3, 0xff, 0xff,
  0x9e, 0xc4, 0xff, 0xff, 0x04, 0x00, 0x00, 0x00, 0x00, 0x01, 0x00, 0x00,
  0x68, 0x40, 0x1d, 0xbf, 0xd4, 0x14, 0xba, 0x3e, 0x27, 0x15, 0xfb, 0x3e,
  0x20, 0xbf, 0xdd, 0x3e, 0x43, 0x7d, 0x0e, 0x3f, 0x4c, 0xfe, 0x6d, 0x3e,
  0x42, 0xe8, 0x46, 0xbe, 0xe7, 0x06, 0x26, 0xbf, 0x7c, 0x60, 0x27, 0x3e,
  0x2d, 0x93, 0x63, 0x3e, 0x16, 0x43, 0x32, 0xbf, 0x33, 0x83, 0xa2, 0xbe,
  0x3c, 0xaa, 0x7b, 0x3b, 0x98, 0xa7, 0x53, 0x3d, 0x9d, 0xd0, 0x9c, 0xbe,
  0xb4, 0x1e, 0x33, 0xbf, 0xcd, 0xac, 0x33, 0x3c, 0xd6, 0xa5, 0x01, 0xbf,
  0xd0, 0x38, 0x07, 0xbf, 0xe5, 0x65, 0x3c, 0x3f, 0x7b, 0x8c, 0xfa, 0x3e,
  0x6f, 0xb9, 0x82, 0xbe, 0x7a, 0xd3, 0x3d, 0xbf, 0x6d, 0x1a, 0xec, 0xbe,
  0xda, 0x85, 0xe8, 0xbd, 0x27, 0x07, 0x25, 0xbf, 0x8f, 0x08, 0x17, 0xbf,
  0x90, 0x0a, 0x5f, 0xbc, 0x89, 0xc8, 0x74, 0x3e, 0x8b, 0x1a, 0x63, 0xbf,
  0x7c, 0x9d, 0x96, 0xbf, 0xfa, 0xd5, 0xea, 0x3e, 0xcf, 0xbe, 0x2e, 0xbf,
  0xa8, 0x26, 0x20, 0xbf, 0xc2, 0x85, 0x8d, 0xbf, 0x4d, 0x7b, 0xf5, 0xbe,
  0x8b, 0x19, 0x6b, 0xbf, 0xc9, 0x1c, 0x42, 0xbf, 0x77, 0x49, 0x8f, 0xbd,
  0xa9, 0xfe, 0xe9, 0x3e, 0x4a, 0xd3, 0x4f, 0xbf, 0xeb, 0x90, 0x50, 0x3f,
  0x77, 0xe9, 0xc0, 0xbe, 0x92, 0xea, 0x20, 0x3d, 0x4a, 0xb4, 0x4e, 0xbf,
  0xf0, 0x13, 0x9b, 0xbf, 0xec, 0x27, 0x47, 0x3d, 0x3f, 0x17, 0x85, 0x3e,
  0xfe, 0x92, 0xed, 0xbd, 0x91, 0x30, 0x95, 0x3e, 0xcc, 0x78, 0x02, 0xbe,
  0x2c, 0xb7, 0xe3, 0xbe, 0x83, 0x99, 0x02, 0xbf, 0xce, 0x8c, 0x79, 0x3e,
  0x10, 0x33, 0x43, 0x3f, 0x6f, 0x00, 0x05, 0xbf, 0xf4, 0x3b, 0x5b, 0xbf,
  0xb0, 0xa5, 0x1e, 0xbf, 0xa9, 0xd9, 0x51, 0x3f, 0x46, 0xfd, 0x75, 0x3f,
  0xba, 0xd3, 0x3b, 0xbf, 0xaf, 0x1b, 0xb1, 0x3e, 0xd6, 0x5e, 0x7a, 0xbe,
  0x5d, 0x33, 0x09, 0x3f, 0x86, 0xc5, 0xff, 0xff, 0x10, 0x00, 0x00, 0x00,
  0x08, 0x00, 0x00, 0x00, 0x14, 0x00, 0x00, 0x00, 0x30, 0x00, 0x00, 0x00,
  0x02, 0x00, 0x00, 0x00, 0x04, 0x00, 0x00, 0x00, 0x10, 0x00, 0x00, 0x00,
  0x19, 0x00, 0x00, 0x00, 0x73, 0x65, 0x71, 0x75, 0x65, 0x6e, 0x74, 0x69,
  0x61, 0x6c, 0x2f, 0x64, 0x65, 0x6e, 0x73, 0x65, 0x5f, 0x31, 0x2f, 0x4d,
  0x61, 0x74, 0x4d, 0x75, 0x6c, 0x00, 0x00, 0x00, 0x08, 0xc5, 0xff, 0xff,
  0xee, 0xc5, 0xff, 0xff, 0x04, 0x00, 0x00, 0x00, 0x00, 0x38, 0x00, 0x00,
  0xd3, 0x09, 0x3d, 0x3d, 0xea, 0xe8, 0xf5, 0x3c, 0xdc, 0xdd, 0x83, 0xbe,
  0x61, 0xfd, 0x6a, 0xbd, 0xd6, 0xa7, 0xce, 0x3d, 0x78, 0xe0, 0x0a, 0x3e,
  0x6b, 0x71, 0xe1, 0x3e, 0x45, 0x91, 0xa1, 0xbe, 0xb2, 0xab, 0xde, 0x3d,
  0x63, 0xc4, 0x13, 0x3f, 0x9a, 0x85, 0x34, 0xbe, 0x6f, 0x6c, 0xcc, 0xbe,
  0xfc, 0xc9, 0x13, 0xbe, 0x1b, 0xa3, 0xd9, 0xbe, 0xa3, 0x0a, 0x32, 0x3e,
  0x48, 0x45, 0x0a, 0x3f, 0x42, 0x52, 0x35, 0xbe, 0xe5, 0x25, 0x1c, 0xbd,
  0x07, 0x25, 0x99, 0xbe, 0xb4, 0x73, 0x93, 0xbc, 0x22, 0x06, 0x13, 0xbe,
  0xc1, 0x60, 0x2c, 0xbe, 0x7f, 0xd5, 0xf1, 0x3e, 0x38, 0xfa, 0xbc, 0x3e,
  0x67, 0x6c, 0x4b, 0x3e, 0xe6, 0xea, 0xd3, 0x3e, 0xca, 0xf3, 0xaf, 0xbe,
  0x7e, 0x9b, 0x16, 0xbf, 0x8b, 0x5e, 0x02, 0x3c, 0x25, 0xf3, 0x3a, 0xbf,
  0x9e, 0xdc, 0x1d, 0x3e, 0x97, 0x99, 0x7e, 0x3e, 0xb0, 0xac, 0x41, 0x3e,
  0x89, 0x80, 0x7c, 0x3d, 0xdd, 0x97, 0x16, 0xbe, 0xa1, 0xcc, 0x5b, 0x3b,
  0xc3, 0x9d, 0x81, 0xbd, 0x7c, 0xca, 0x4a, 0xbe, 0x67, 0x85, 0xae, 0x3e,
  0x9f, 0x80, 0x80, 0x3e, 0x02, 0xd5, 0x08, 0x3e, 0x11, 0x2d, 0x45, 0x3f,
  0xb4, 0x92, 0x39, 0xbf, 0xed, 0x2a, 0x76, 0xbf, 0x14, 0xc5, 0x58, 0xbd,
  0x06, 0x85, 0xd7, 0xbe, 0xcc, 0xc9, 0x51, 0xba, 0xe0, 0x40, 0x2a, 0x3e,
  0x36, 0x72, 0x2a, 0xbe, 0x8b, 0x3f, 0x0c, 0xbe, 0x7c, 0x28, 0xff, 0xbd,
  0x94, 0x6a, 0xae, 0xbd, 0xa9, 0x28, 0xa8, 0x3b, 0x40, 0x6c, 0x9d, 0x3d,
  0x5a, 0x50, 0xd7, 0x3e, 0x00, 0xd8, 0x8e, 0x3d, 0xe0, 0x33, 0xce, 0xbd,
  0x24, 0x76, 0x0f, 0x3f, 0x87, 0x07, 0xb8, 0xbe, 0x6a, 0xeb, 0xe7, 0xbe,
  0x53, 0x0f, 0x64, 0x3d, 0xa7, 0x80, 0x0a, 0xbe, 0x1e, 0x11, 0xc9, 0x3e,
  0xb3, 0x51, 0x51, 0x3e, 0x03, 0x81, 0x20, 0x3e, 0x57, 0xdd, 0x32, 0xbc,
  0x83, 0x6a, 0x04, 0xbe, 0x9a, 0xe7, 0x06, 0xbd, 0x1f, 0x74, 0x00, 0x3d,
  0xfd, 0xf3, 0x38, 0xbd, 0x75, 0x15, 0xf9, 0xbd, 0xb1, 0xc3, 0xfc, 0xbd,
  0x2d, 0xb2, 0x6c, 0x3c, 0xab, 0x00, 0xce, 0x3e, 0xdb, 0x5f, 0xde, 0xbe,
  0xf6, 0xdf, 0xfe, 0xbe, 0xf5, 0x45, 0xd2, 0x3e, 0xc3, 0x76, 0x3e, 0xbe,
  0x2f, 0xe8, 0xfa, 0x3d, 0xae, 0xf3, 0x52, 0xbe, 0x58, 0x7c, 0xae, 0x3d,
  0xc2, 0x6b, 0x14, 0x3c, 0xd0, 0x82, 0xf0, 0x3d, 0x01, 0x38, 0x05, 0xbe,
  0xae, 0x71, 0x11, 0x3e, 0x56, 0x2b, 0x01, 0x3d, 0x08, 0xa8, 0x3a, 0xbe,
  0x4f, 0xc9, 0xa4, 0x3c, 0x21, 0xbc, 0x5d, 0xbd, 0xa0, 0xa8, 0x81, 0xbe,
  0x3c, 0x6d, 0x1c, 0xbe, 0xfa, 0x88, 0xf3, 0xbe, 0x80, 0x49, 0x46, 0x3e,
  0x6a, 0xd4, 0xad, 0xbe, 0x5a, 0x0d, 0x49, 0x3d, 0x4e, 0x03, 0xc1, 0xbb,
  0x0a, 0x44, 0x8b, 0xbe, 0xe2, 0x8c, 0x9f, 0x3d, 0x21, 0x76, 0xd6, 0x3e,
  0x8b, 0x90, 0xeb, 0x3d, 0x78, 0x2f, 0x79, 0x3e, 0xd5, 0x0a, 0xb3, 0x3d,
  0xfd, 0x88, 0xe0, 0x3d, 0x2f, 0x6c, 0x23, 0xbe, 0x94, 0xa8, 0x01, 0xbd,
  0xf1, 0x62, 0xa2, 0x3c, 0xe7, 0xa0, 0x9b, 0xbe, 0xe8, 0xd5, 0xb6, 0xbe,
  0xfe, 0x33, 0xee, 0x3e, 0x45, 0x6b, 0x0e, 0x3e, 0x95, 0x3b, 0x70, 0xbd,
  0x93, 0x1b, 0x56, 0xbc, 0xad, 0xac, 0x17, 0xbe, 0x5a, 0xc2, 0x87, 0x3e,
  0x94, 0xb7, 0x61, 0x3e, 0xdb, 0x55, 0x2a, 0x3b, 0xdf, 0xcf, 0x61, 0x3e,
  0x6b, 0x2f, 0x47, 0x3e, 0x0b, 0x49, 0x20, 0x3e, 0xb7, 0x81, 0x0e, 0xbe,
  0x07, 0x27, 0xca, 0x3d, 0x18, 0x53, 0x0c, 0xbc, 0xfc, 0xd9, 0x8b, 0x3d,
  0x1f, 0xda, 0x17, 0xbf, 0x19, 0x3e, 0xc2, 0x3e, 0xde, 0xb9, 0xf2, 0xbd,
  0x24, 0x57, 0xb3, 0x3d, 0x82, 0xee, 0x03, 0xbe, 0x37, 0x99, 0x0c, 0xbe,
  0xd2, 0x16, 0x3e, 0x3d, 0xee, 0x66, 0x3c, 0x3e, 0xc5, 0xc6, 0xa4, 0xbc,
  0xd4, 0x56, 0x65, 0x3d, 0xec, 0xce, 0xc6, 0xbd, 0x3a, 0x94, 0x97, 0xbd,
  0xd9, 0xc1, 0x18, 0x3d, 0x8c, 0x4a, 0x0e, 0x3d, 0x0f, 0x0c, 0x2f, 0x3e,
  0xde, 0x81, 0xe7, 0xbe, 0xbd, 0x13, 0x7b, 0xbf, 0x8b, 0x38, 0xa6, 0x3e,
  0x99, 0xd5, 0x21, 0xbe, 0xab, 0xbe, 0x80, 0x3c, 0x2f, 0x9e, 0xc7, 0xbe,
  0xff, 0xc4, 0xe5, 0xbd, 0x2b, 0xd3, 0xc0, 0xbe, 0x6d, 0x0a, 0x47, 0xbc,
  0xff, 0xa3, 0x75, 0xbe, 0xd1, 0x49, 0xcb, 0xbd, 0xfe, 0xe8, 0x0d, 0x3e,
  0xaf, 0x8d, 0x85, 0x3e, 0xae, 0x83, 0x68, 0xbe, 0xec, 0xd7, 0x77, 0x3e,
  0x5a, 0x3b, 0xb5, 0x3e, 0xf1, 0x37, 0x90, 0xbe, 0xa0, 0x64, 0xd8, 0xbe,
  0xb8, 0x01, 0x3b, 0xbe, 0x2d, 0xf7, 0xa6, 0xbe, 0xc3, 0xe2, 0xbc, 0x3e,
  0x8e, 0xbf, 0x0e, 0x3e, 0xc7, 0xb5, 0x25, 0xbe, 0x94, 0x6f, 0x94, 0x3d,
  0xe3, 0x3c, 0x72, 0xbe, 0x28, 0x73, 0x5a, 0x3e, 0x77, 0x85, 0xff, 0x3c,
  0x8c, 0x62, 0x44, 0xbe, 0x75, 0xd4, 0x9a, 0x3e, 0xc8, 0xc2, 0x77, 0x3e,
  0x19, 0x9e, 0x37, 0xba, 0xec, 0xa9, 0x8e, 0x3e, 0x40, 0xcc, 0x36, 0xbe,
  0x20, 0xe1, 0xbf, 0xbe, 0x1f, 0x86, 0xbd, 0xbd, 0xc2, 0xb4, 0x82, 0xbe,
  0x2a, 0x6a, 0x04, 0x3e, 0xf4, 0xa3, 0xe9, 0x3d, 0x78, 0x57, 0xd0, 0x3c,
  0xb2, 0x96, 0x02, 0x3e, 0x3a, 0x3a, 0x03, 0xbd, 0x54, 0x81, 0xe4, 0x3d,
  0xf6, 0x87, 0x96, 0x3d, 0x9c, 0x79, 0xa8, 0xbd, 0x7d, 0xe0, 0x17, 0x3f,
  0xae, 0x4e, 0xe5, 0x3e, 0x12, 0x1b, 0x9f, 0x3e, 0x0e, 0x14, 0x03, 0x3f,
  0xb9, 0x67, 0xab, 0xbe, 0x91, 0x89, 0x3b, 0xbf, 0xfe, 0x48, 0x08, 0xbe,
  0x8f, 0x9a, 0xc0, 0xbe, 0x16, 0x8f, 0xb8, 0xbd, 0x59, 0x6a, 0x1a, 0x3e,
  0x23, 0x98, 0xc7, 0x3d, 0x3b, 0xab, 0x7a, 0xbe, 0x6f, 0xf2, 0xf2, 0xbd,
  0x3f, 0xbd, 0x96, 0xbe, 0x24, 0x2c, 0x61, 0xbe, 0x29, 0x97, 0x03, 0xbe,
  0x38, 0xcc, 0xa8, 0x3e, 0x00, 0x16, 0x03, 0x3f, 0x87, 0x67, 0x8c, 0x3e,
  0xd2, 0x1f, 0xf2, 0x3e, 0xa8, 0xf9, 0xb5, 0xbd, 0x66, 0x8f, 0x68, 0xbf,
  0xf3, 0xce, 0x9a, 0xbd, 0x3c, 0x39, 0x01, 0xbf, 0xf8, 0x9f, 0x8e, 0x3e,
  0x39, 0x95, 0x2b, 0xbe, 0x5c, 0xde, 0xd8, 0x3e, 0x88, 0xf2, 0x8c, 0xbc,
  0xca, 0x76, 0x22, 0x3d, 0x0c, 0xd3, 0x6b, 0x3d, 0x42, 0x63, 0x10, 0xbe,
  0x69, 0x7c, 0x9d, 0x3e, 0xe4, 0xcd, 0x2c, 0x3d, 0x04, 0x6e, 0x97, 0x3e,
  0x68, 0x19, 0x5b, 0x3d, 0x76, 0xed, 0xed, 0x3e, 0x20, 0x03, 0x3b, 0xbe,
  0x57, 0xf7, 0xaa, 0xbf, 0x66, 0x63, 0x14, 0x3e, 0x0a, 0xc2, 0x82, 0xbe,
  0xea, 0x15, 0xe8, 0x3d, 0x88, 0x20, 0x77, 0x3d, 0x94, 0x05, 0xc2, 0x3c,
  0x53, 0xa7, 0x60, 0xba, 0x9e, 0xe3, 0x2d, 0x3d, 0x4d, 0x4a, 0x4a, 0xbe,
  0xbb, 0x68, 0xbd, 0x3d, 0x79, 0x6f, 0x51, 0x3e, 0x6c, 0x5a, 0x72, 0xbf,
  0x3b, 0x9f, 0x19, 0xbe, 0xd7, 0x56, 0x00, 0xbe, 0x86, 0x9b, 0x9d, 0xbe,
  0x39, 0x41, 0x1a, 0xbe, 0xd7, 0xb6, 0x08, 0xbd, 0x8f, 0xc3, 0x59, 0xbf,
  0xe1, 0x82, 0x60, 0xbd, 0xc8, 0x48, 0xaf, 0x3d, 0xfa, 0x10, 0xa6, 0xbe,
  0x48, 0x92, 0x23, 0xbe, 0xe0, 0xe7, 0xaa, 0x3d, 0x5c, 0x5c, 0x65, 0x3e,
  0x6e, 0x1f, 0x71, 0xbe, 0x2f, 0xb7, 0xcd, 0x3d, 0x40, 0x7a, 0x81, 0x3e,
  0xaa, 0xea, 0x0d, 0xbe, 0x49, 0xa6, 0xe8, 0xbe, 0x28, 0xf9, 0x47, 0xbb,
  0x5e, 0xff, 0x03, 0xbf, 0x72, 0x7e, 0x1c, 0xbe, 0x69, 0x4c, 0xd5, 0xbb,
  0x51, 0xde, 0x54, 0xbf, 0x27, 0x67, 0x3a, 0x3e, 0x50, 0x52, 0x2b, 0xbf,
  0x30, 0xa4, 0xde, 0x3d, 0xc6, 0xa3, 0xf9, 0xbe, 0x7d, 0xb9, 0x74, 0x3d,
  0x15, 0xf1, 0x82, 0x3e, 0x2a, 0x8d, 0x61, 0xbe, 0xe8, 0xbd, 0xd3, 0x3d,
  0x48, 0x5c, 0xba, 0x3e, 0xd1, 0x38, 0x0d, 0xbd, 0xbe, 0x49, 0x53, 0xbe,
  0x2d, 0xe0, 0x01, 0x3d, 0x7d, 0xbc, 0x10, 0xbf, 0xc7, 0xde, 0xe4, 0x3d,
  0xe8, 0x6e, 0x1f, 0xbe, 0xc9, 0x9a, 0xad, 0xbe, 0x8f, 0xdc, 0x73, 0x3e,
  0xa0, 0x31, 0x45, 0xbf, 0x1d, 0x89, 0xb0, 0x3d, 0xb7, 0x90, 0x1d, 0xbe,
  0x1b, 0x17, 0x16, 0xbe, 0xc8, 0x6e, 0x99, 0x3e, 0x8b, 0x46, 0x44, 0xbe,
  0x6c, 0x6a, 0x06, 0xbe, 0x2d, 0xaf, 0x8b, 0x3e, 0xc7, 0x80, 0xd4, 0x3d,
  0x07, 0x94, 0xe9, 0x3d, 0x20, 0x34, 0x70, 0x3e, 0xe0, 0x74, 0xcb, 0xbe,
  0xeb, 0xb7, 0x23, 0x3f, 0xaf, 0x03, 0x48, 0x3e, 0x73, 0xb5, 0x1e, 0x3e,
  0x0c, 0x70, 0xe0, 0x3e, 0x27, 0x11, 0x9e, 0xbe, 0x7f, 0xdd, 0xc5, 0x3e,
  0x59, 0xa1, 0x20, 0x3e, 0xf4, 0xc8, 0x9f, 0xbe, 0x92, 0x15, 0x90, 0x3e,
  0xa1, 0xa1, 0xdc, 0x3d, 0x43, 0xb3, 0xc5, 0xbc, 0xca, 0xc9, 0x28, 0x3f,
  0x05, 0x42, 0x1f, 0x3e, 0x26, 0xc4, 0x9a, 0x3a, 0x17, 0xe9, 0x68, 0x3e,
  0x2c, 0xe7, 0xa6, 0x3c, 0x7f, 0x87, 0xc8, 0x3e, 0xb8, 0x49, 0x62, 0x3f,
  0x16, 0xb7, 0x30, 0x3e, 0x35, 0x80, 0x0b, 0x3f, 0xaa, 0x81, 0x51, 0xbe,
  0x21, 0xe1, 0xb9, 0x3e, 0xd3, 0xcb, 0x2d, 0xbd, 0xda, 0x81, 0x1c, 0x3d,
  0x7e, 0x79, 0x28, 0x3e, 0xad, 0xfa, 0x63, 0xbc, 0x0b, 0xfb, 0x21, 0x3e,
  0xe6, 0x53, 0xce, 0x3e, 0xcd, 0x5c, 0x15, 0x3e, 0xf4, 0x6f, 0x3e, 0x3e,
  0x00, 0xaf, 0x6d, 0x3e, 0x8b, 0x20, 0x52, 0xbe, 0xd3, 0x62, 0x83, 0x3e,
  0x83, 0xa1, 0x56, 0x3f, 0x52, 0x45, 0xce, 0x3c, 0x9a, 0x76, 0xf5, 0xbe,
  0xef, 0x4d, 0x76, 0xbe, 0xc4, 0x57, 0x97, 0x3e, 0x3f, 0xbf, 0x8f, 0xbd,
  0x71, 0xeb, 0x9b, 0xbe, 0x8d, 0x8a, 0x24, 0x3e, 0xf5, 0x56, 0x9d, 0xbd,
  0x1d, 0x68, 0x16, 0xbe, 0xb4, 0x6b, 0x34, 0x3f, 0x18, 0xe8, 0x25, 0x3e,
  0xb0, 0xf5, 0x8d, 0xbb, 0x98, 0x2c, 0xde, 0x3e, 0x39, 0xe4, 0xcb, 0xbd,
  0x03, 0x66, 0x8c, 0xbc, 0x34, 0x48, 0xac, 0x3e, 0x5d, 0x99, 0xdf, 0xbe,
  0xd7, 0x36, 0x31, 0x3e, 0x92, 0xe3, 0x11, 0xbe, 0xc5, 0x20, 0x6d, 0x3e,
  0x72, 0x50, 0x2a, 0xbc, 0x31, 0x9c, 0x26, 0x3d, 0x0d, 0xd8, 0x6b, 0x3e,
  0xce, 0x99, 0xa5, 0xbd, 0x10, 0xba, 0x58, 0xbe, 0x48, 0x45, 0x56, 0x3e,
  0x23, 0xe1, 0x16, 0x3f, 0x37, 0xcc, 0x93, 0xbd, 0xd5, 0xe2, 0x84, 0x3e,
  0xe7, 0xaa, 0x27, 0x3d, 0xd1, 0xf8, 0xf2, 0x3d, 0xd7, 0x81, 0x35, 0x3e,
  0xe4, 0x33, 0x13, 0x3e, 0x22, 0x01, 0xa5, 0x3e, 0x88, 0x4a, 0x0d, 0xbe,
  0x04, 0x9e, 0x86, 0x3d, 0xec, 0x9f, 0x14, 0x3c, 0xff, 0x3e, 0x08, 0x3e,
  0x37, 0x3f, 0x46, 0x3d, 0x90, 0x2b, 0xfb, 0xbd, 0xd9, 0xeb, 0x82, 0xbb,
  0x46, 0x1f, 0xd7, 0x3e, 0x1f, 0x87, 0x7c, 0x3e, 0x6b, 0x72, 0x27, 0x3d,
  0xf9, 0xdc, 0x4c, 0x3c, 0x3d, 0x34, 0x7d, 0xbd, 0x14, 0x03, 0x2f, 0x3d,
  0x09, 0x42, 0xbe, 0x3d, 0x2d, 0xaf, 0x81, 0xbe, 0x82, 0x6f, 0x9a, 0x3e,
  0x7d, 0x1c, 0x59, 0xbd, 0xb5, 0xdb, 0xb6, 0x3d, 0x91, 0xa2, 0xa2, 0x3d,
  0x3a, 0x05, 0xf8, 0x3d, 0x37, 0xc0, 0x93, 0x3e, 0x98, 0x22, 0xb0, 0xbc,
  0xc7, 0x52, 0x09, 0xbe, 0xb0, 0x2c, 0x7e, 0x3e, 0x7b, 0x3e, 0xae, 0x3e,
  0x21, 0xe5, 0xa0, 0x3e, 0xe0, 0x0f, 0x0c, 0x3e, 0x9e, 0xf8, 0x76, 0x3d,
  0x23, 0x96, 0x80, 0x3e, 0x2b, 0x4e, 0x75, 0x3d, 0xb4, 0xcf, 0x11, 0xbe,
  0xc9, 0x6f, 0x51, 0x3e, 0x79, 0x9a, 0x0a, 0xbe, 0x8f, 0xd6, 0xc4, 0x3d,
  0x34, 0x90, 0x6f, 0xbe, 0x59, 0x29, 0x9b, 0x3e, 0x92, 0xc4, 0x75, 0x3e,
  0x3c, 0x4d, 0x91, 0x3e, 0x32, 0x6f, 0x9f, 0xbd, 0x22, 0xb7, 0x05, 0x3e,
  0xfb, 0x2c, 0x35, 0x3b, 0x9e, 0xb5, 0xe5, 0xbe, 0x8b, 0x35, 0x80, 0x3d,
  0xe7, 0xee, 0xf4, 0x3c, 0xc0, 0xb3, 0x01, 0x3e, 0x97, 0x24, 0x2e, 0x3c,
  0xc2, 0xb9, 0x77, 0xbe, 0x21, 0xeb, 0xd7, 0xbc, 0x38, 0x9b, 0x45, 0xbd,
  0x29, 0x11, 0x94, 0xbd, 0x9c, 0x07, 0x74, 0xbe, 0xab, 0xc2, 0x53, 0x3e,
  0xb2, 0x61, 0x9b, 0x3e, 0xc0, 0xb1, 0xbf, 0x3e, 0xc3, 0x3f, 0xa4, 0xbd,
  0x86, 0x3f, 0x8d, 0x3e, 0x4a, 0x84, 0x19, 0x3d, 0x13, 0xfe, 0x80, 0xbe,
  0x0a, 0xc3, 0x98, 0x3e, 0x38, 0x68, 0x4b, 0xbd, 0x85, 0xdc, 0x9c, 0xbc,
  0x29, 0x58, 0x4f, 0xbe, 0xac, 0x60, 0xe1, 0xbb, 0x1a, 0x0a, 0x46, 0x3e,
  0x7a, 0x05, 0x6b, 0xbf, 0xe6, 0xc9, 0x16, 0xbe, 0xb6, 0x9f, 0xa9, 0xbe,
  0xd7, 0xb3, 0xd8, 0x3d, 0x58, 0x7b, 0x80, 0xbd, 0x55, 0x39, 0xcf, 0x3e,
  0x61, 0x1f, 0x4a, 0xbd, 0x65, 0xa3, 0x03, 0x3e, 0xaa, 0x0c, 0x28, 0x3e,
  0x34, 0xb0, 0xd7, 0x3d, 0xd7, 0x00, 0xda, 0xbc, 0x37, 0xcd, 0x9f, 0x3e,
  0x9f, 0x1f, 0x6a, 0x3e, 0xdb, 0xf6, 0x1e, 0x3e, 0xa8, 0xdc, 0xe4, 0x3e,
  0x2a, 0xb8, 0x44, 0x3e, 0x92, 0xe3, 0x20, 0xbf, 0x35, 0xea, 0xc1, 0x3d,
  0x2d, 0x83, 0x8d, 0xbe, 0x56, 0xe4, 0xaf, 0xbd, 0x33, 0x97, 0xc5, 0xbd,
  0xab, 0xf8, 0x53, 0x3e, 0xde, 0xf8, 0xd5, 0xbe, 0x3c, 0x01, 0x5a, 0x3e,
  0x6e, 0x31, 0x0f, 0x3d, 0x99, 0x5e, 0x81, 0x3e, 0x2e, 0x29, 0xd1, 0xbc,
  0xcc, 0x29, 0x05, 0x3f, 0xab, 0x25, 0xda, 0xbd, 0x47, 0xde, 0xc7, 0xbc,
  0xe4, 0xfc, 0x03, 0x3f, 0x6a, 0xce, 0xa2, 0xbd, 0xb9, 0xdd, 0xad, 0xbe,
  0x50, 0x19, 0x0a, 0xbf, 0xe1, 0x07, 0x22, 0xbe, 0x64, 0x49, 0x76, 0xbe,
  0x40, 0x54, 0x1f, 0xbf, 0x12, 0x8d, 0x27, 0xbd, 0xa0, 0xe0, 0xa5, 0xbd,
  0xef, 0x05, 0x07, 0x3e, 0x74, 0x89, 0x67, 0x3f, 0xf6, 0xad, 0x3a, 0xbe,
  0x87, 0x98, 0x1a, 0xbd, 0xf2, 0x7e, 0xfb, 0xbe, 0x37, 0xd1, 0x33, 0x3d,
  0x19, 0x79, 0x99, 0xbe, 0x59, 0x3d, 0xef, 0xbe, 0x69, 0xde, 0xd8, 0xbe,
  0xe6, 0x43, 0x07, 0x3f, 0xd0, 0x5f, 0x04, 0xbf, 0x77, 0xd6, 0xd3, 0xbd,
  0xd7, 0x75, 0x9b, 0xbe, 0x92, 0x83, 0xdb, 0xbe, 0x40, 0xcd, 0x8e, 0x3d,
  0x63, 0xf4, 0xb9, 0xbe, 0xbe, 0xef, 0xd1, 0xbe, 0xed, 0x1c, 0x34, 0x3e,
  0x45, 0x54, 0x60, 0x3e, 0x5e, 0x41, 0xd7, 0x3d, 0xbc, 0xef, 0x46, 0xbc,
  0xed, 0x18, 0x78, 0xbe, 0x6c, 0xde, 0xf9, 0xbe, 0xa2, 0x2a, 0x83, 0x3f,
  0x6b, 0x40, 0x81, 0xbe, 0x9a, 0x5f, 0x91, 0x3e, 0x3f, 0x03, 0x0e, 0xbf,
  0x22, 0xc3, 0x07, 0x3f, 0x73, 0x71, 0x6c, 0xbe, 0x4a, 0x66, 0xba, 0xbe,
  0x87, 0xf6, 0xc6, 0x3c, 0x3d, 0xc2, 0xbe, 0xbe, 0xcf, 0x03, 0xe5, 0xbe,
  0x01, 0xb3, 0x31, 0xbe, 0xd2, 0x18, 0x78, 0x3d, 0xf8, 0xe2, 0x2b, 0x3e,
  0x5d, 0xf3, 0xb5, 0xbe, 0x80, 0xe4, 0xfe, 0xbe, 0x0b, 0x64, 0xeb, 0xbe,
  0x77, 0xa1, 0xb6, 0xbc, 0xa3, 0x67, 0x2f, 0xbe, 0x8c, 0x98, 0x0c, 0x3e,
  0x04, 0xf7, 0xac, 0xbf, 0x77, 0xe7, 0x0c, 0x3e, 0xee, 0x4b, 0x8e, 0xbe,
  0xfe, 0x06, 0xf2, 0xbe, 0x24, 0x7e, 0xc6, 0x3b, 0x88, 0xb2, 0x55, 0xbe,
  0x73, 0xc3, 0x93, 0xbd, 0x20, 0x45, 0x29, 0xbf, 0x90, 0xdd, 0x50, 0x3c,
  0x45, 0xe9, 0x09, 0xbe, 0xc2, 0x5a, 0xe9, 0xbd, 0x20, 0x0f, 0x29, 0xbf,
  0x94, 0x9f, 0x6f, 0xbe, 0xf6, 0x24, 0x1a, 0xbf, 0x5e, 0x24, 0x36, 0xbd,
  0xf8, 0x30, 0x3a, 0x3d, 0x87, 0x95, 0x5b, 0xbe, 0x41, 0x3b, 0xdd, 0x3e,
  0x55, 0xe6, 0x75, 0xbd, 0x22, 0xdf, 0x74, 0xbf, 0xa2, 0x9e, 0xa9, 0xbe,
  0xb0, 0xe7, 0x89, 0x3c, 0x49, 0x6f, 0xca, 0xbe, 0xb3, 0x10, 0x8d, 0xbe,
  0x58, 0xf4, 0xfc, 0x3d, 0x67, 0xe3, 0x47, 0x3e, 0x82, 0xf5, 0xde, 0x3e,
  0xf4, 0x15, 0xb6, 0xbd, 0x9c, 0xf7, 0x91, 0x3e, 0x02, 0x82, 0x96, 0xbf,
  0x55, 0x26, 0x79, 0xbc, 0xc3, 0xa0, 0xf1, 0x3d, 0x00, 0x66, 0x00, 0xbf,
  0x15, 0xc0, 0x36, 0x3e, 0x55, 0x57, 0xc0, 0x3d, 0x51, 0xcc, 0x91, 0x3e,
  0xaa, 0xa0, 0x83, 0xbe, 0xc1, 0xf6, 0x6f, 0x3d, 0xd5, 0x12, 0xc1, 0xbd,
  0x9f, 0x67, 0xc1, 0x3e, 0x18, 0x17, 0xbc, 0xbc, 0x8d, 0xc8, 0x17, 0xbc,
  0x25, 0x1c, 0x9b, 0xbe, 0xde, 0x29, 0xa6, 0xbe, 0x24, 0x87, 0xb1, 0xbc,
  0x4a, 0xd2, 0x1f, 0xbf, 0x1a, 0x69, 0x00, 0xbe, 0x7c, 0x82, 0x51, 0x3e,
  0xd7, 0x95, 0x46, 0xbe, 0xdf, 0xc1, 0x2b, 0x3c, 0x21, 0x32, 0x42, 0x3d,
  0x20, 0x2d, 0x95, 0x3e, 0x8f, 0x4b, 0xee, 0xbe, 0x49, 0xd6, 0xc8, 0x3d,
  0x58, 0x6e, 0xa3, 0x3e, 0xd8, 0x6b, 0x01, 0xbe, 0xae, 0x92, 0x3e, 0xbe,
  0x04, 0xc0, 0x3b, 0xbe, 0x2c, 0x45, 0x16, 0xbf, 0x54, 0x0e, 0x27, 0x3e,
  0x8e, 0x82, 0xd9, 0x3d, 0x08, 0x2c, 0x09, 0xbf, 0x18, 0xed, 0x20, 0x3e,
  0xcf, 0x9f, 0x53, 0x3e, 0x70, 0x8a, 0x34, 0x3e, 0x0d, 0x19, 0x36, 0xbe,
  0x69, 0x5a, 0x0f, 0x3e, 0x18, 0x0b, 0x9c, 0x3e, 0x79, 0x47, 0x3b, 0xbe,
  0xb8, 0x7d, 0x2d, 0x3e, 0xc8, 0xb4, 0xc6, 0x3e, 0x9e, 0x0b, 0xec, 0x3e,
  0xc6, 0x0e, 0xad, 0xbd, 0xf9, 0xe5, 0xc8, 0xbc, 0x4a, 0xa4, 0x90, 0xbe,
  0xab, 0x02, 0x8c, 0xbd, 0x81, 0xdb, 0x35, 0x3e, 0xe2, 0xb2, 0x35, 0xbf,
  0x5b, 0x26, 0xcb, 0x3e, 0x7c, 0xb8, 0xc8, 0xbd, 0x47, 0x99, 0x68, 0xbb,
  0xe5, 0xea, 0xa0, 0x3e, 0x40, 0x66, 0xf1, 0x3d, 0x8a, 0x77, 0xa3, 0x3e,
  0x88, 0x12, 0xda, 0xbe, 0x55, 0x0a, 0xf1, 0x3d, 0x9f, 0x56, 0x79, 0x3e,
  0x9c, 0x0b, 0xb2, 0x3d, 0x6d, 0x06, 0x40, 0xbe, 0x08, 0x73, 0x0b, 0xbd,
  0xa0, 0xd4, 0xfd, 0xbe, 0x3f, 0x7e, 0x91, 0x3d, 0x52, 0x8d, 0x80, 0x3e,
  0xe4, 0xd4, 0x4b, 0xbe, 0xba, 0x33, 0xbb, 0x3e, 0xe3, 0x15, 0x67, 0xbd,
  0x7c, 0x83, 0x09, 0x3f, 0x79, 0x0f, 0x94, 0x3e, 0x54, 0x30, 0x2e, 0x3e,
  0xf6, 0xd2, 0xe5, 0x3d, 0x05, 0x39, 0x9e, 0xbe, 0x79, 0x38, 0xa4, 0x3c,
  0x78, 0x9c, 0x57, 0x3e, 0xb0, 0x16, 0xa1, 0x3d, 0x70, 0xb8, 0x8a, 0xba,
  0x2c, 0xc6, 0x80, 0xbe, 0x9f, 0x5b, 0xc0, 0xbe, 0x55, 0x67, 0x9a, 0xbd,
  0x3b, 0x87, 0xce, 0x3d, 0x37, 0x7b, 0xa9, 0xbe, 0x33, 0x64, 0x43, 0x3e,
  0x64, 0xac, 0x2a, 0xbe, 0xf4, 0x4a, 0x30, 0x3e, 0x39, 0x22, 0x2c, 0x3e,
  0x0e, 0x63, 0xec, 0x3d, 0x49, 0xc0, 0x5c, 0x3d, 0xd2, 0x73, 0xae, 0xbd,
  0xa6, 0xd3, 0xe4, 0xbd, 0x0d, 0xd4, 0xd3, 0x3e, 0x0c, 0xd4, 0xe3, 0xbb,
  0xbe, 0x50, 0x3f, 0xbe, 0x8e, 0x87, 0xd8, 0xbe, 0x5a, 0x9f, 0x17, 0xbe,
  0x96, 0x4c, 0x22, 0xbe, 0x0e, 0xee, 0x9a, 0xbc, 0xa9, 0x93, 0xd6, 0xbd,
  0x01, 0xa0, 0x43, 0x3d, 0x19, 0x56, 0x6b, 0xbe, 0x36, 0x83, 0xf0, 0x3d,
  0xfd, 0x37, 0x13, 0xbe, 0xf5, 0x6e, 0x7d, 0x3e, 0x98, 0xf9, 0xae, 0x3e,
  0xf8, 0x55, 0x29, 0xbe, 0xbf, 0xfa, 0xf4, 0xbc, 0x9c, 0xe5, 0xae, 0x3e,
  0x67, 0x21, 0xe7, 0xbc, 0xac, 0x21, 0x8b, 0xbf, 0xa1, 0x64, 0xc2, 0xbd,
  0xc5, 0x57, 0x85, 0xbe, 0xc6, 0x99, 0x3c, 0xbd, 0xde, 0x61, 0xcc, 0x3c,
  0xba, 0xb5, 0x06, 0xba, 0x35, 0xb5, 0x9a, 0x3e, 0x61, 0xf0, 0xc9, 0xbe,
  0xa7, 0x5f, 0x13, 0x3e, 0x28, 0x0e, 0xdc, 0xbc, 0x25, 0x35, 0x0b, 0x3e,
  0xbe, 0x2c, 0x85, 0x3e, 0x86, 0x21, 0x53, 0x3e, 0xdb, 0xbb, 0x35, 0x3d,
  0xc4, 0xb5, 0x9f, 0x3e, 0xdc, 0x45, 0x75, 0x3a, 0xce, 0x38, 0x09, 0xbf,
  0xe0, 0x23, 0x96, 0xbe, 0xcd, 0xa5, 0xcd, 0xbe, 0x89, 0xe4, 0x52, 0xbe,
  0xbd, 0x75, 0xc1, 0x3d, 0xbe, 0x1f, 0xff, 0xbc, 0xf1, 0xae, 0x07, 0x3e,
  0xf8, 0x85, 0x5c, 0xbf, 0x17, 0xfc, 0x15, 0x3e, 0x95, 0x06, 0xb6, 0xbd,
  0xb5, 0xe6, 0xd8, 0x3d, 0xa0, 0x5f, 0x10, 0x3e, 0x5e, 0xa0, 0x5b, 0x3f,
  0x6b, 0x55, 0x71, 0x3e, 0xf1, 0xa9, 0x8c, 0x3e, 0x09, 0xd8, 0x48, 0xbd,
  0xe3, 0x72, 0x80, 0xbc, 0x53, 0xb0, 0x0a, 0xbd, 0x54, 0x46, 0xa4, 0xbc,
  0x70, 0xde, 0xd2, 0xbe, 0x36, 0xa5, 0x2c, 0xbe, 0x4c, 0x96, 0xba, 0x3e,
  0x58, 0x61, 0x0f, 0x3e, 0x39, 0xc5, 0x3d, 0xbf, 0x38, 0x6e, 0xac, 0xbd,
  0x3c, 0x4d, 0x90, 0x3e, 0xaf, 0x3e, 0xa3, 0x3d, 0x8f, 0xe4, 0x8a, 0xbe,
  0x78, 0xbc, 0x2c, 0x3c, 0x56, 0x93, 0xcc, 0xbe, 0x61, 0x59, 0xc1, 0x3d,
  0x9f, 0xdb, 0xc4, 0xbd, 0x4a, 0xa7, 0xd2, 0xbc, 0xd3, 0x73, 0x9f, 0xbe,
  0x15, 0x9e, 0x43, 0xbc, 0xf3, 0x8e, 0x71, 0x3c, 0x5f, 0x06, 0xb3, 0xbe,
  0x1d, 0xc6, 0x15, 0xbf, 0xac, 0x64, 0x9e, 0xbe, 0x0a, 0x01, 0x02, 0xbe,
  0xf6, 0x41, 0xbb, 0x3e, 0xb4, 0xf6, 0x11, 0x3d, 0xee, 0x41, 0x24, 0x3e,
  0x82, 0x5b, 0xde, 0x3c, 0x7a, 0x67, 0x86, 0xbe, 0x5d, 0x77, 0x16, 0x3e,
  0x9a, 0x17, 0xbb, 0x3e, 0xb6, 0x5c, 0x73, 0x3e, 0xe0, 0x89, 0xa8, 0xbc,
  0x06, 0xa3, 0xf3, 0xbd, 0x74, 0x20, 0x9b, 0xb9, 0xc9, 0xaf, 0xce, 0xbe,
  0x3f, 0x33, 0x2c, 0xbc, 0xc5, 0x00, 0xfa, 0xbe, 0xe8, 0xe5, 0x2c, 0xbe,
  0x28, 0x9e, 0xc7, 0x3d, 0x98, 0xc1, 0xb5, 0x3d, 0x2d, 0x6b, 0x48, 0x3e,
  0x04, 0x7e, 0x5c, 0x3e, 0x03, 0x70, 0x8a, 0x3d, 0x8f, 0xf7, 0x04, 0xbe,
  0x7c, 0x61, 0x94, 0x3c, 0xef, 0x8d, 0xac, 0x3e, 0x7b, 0xd6, 0xd7, 0x3e,
  0x4d, 0x72, 0xb4, 0x3e, 0x98, 0x08, 0xac, 0x3d, 0xcb, 0x32, 0x3a, 0x3e,
  0x4e, 0x6a, 0xc0, 0xbe, 0x53, 0x09, 0x43, 0xbe, 0xd9, 0x4d, 0x10, 0xbe,
  0x7d, 0xca, 0x69, 0xbe, 0x8e, 0x87, 0x88, 0x3e, 0x89, 0x85, 0xbd, 0x3e,
  0xa8, 0x77, 0x0c, 0x3e, 0x45, 0xf8, 0xb8, 0xbd, 0x73, 0xc3, 0x25, 0xbe,
  0x9a, 0x4f, 0x82, 0xbd, 0x20, 0xf2, 0xd7, 0xbd, 0xde, 0x8a, 0x45, 0xbd,
  0xba, 0x2d, 0xf4, 0x3e, 0x88, 0xdf, 0x0a, 0x3d, 0x65, 0xdd, 0xc5, 0xbd,
  0xbd, 0x45, 0x2a, 0x3f, 0xea, 0x01, 0x34, 0xbf, 0x03, 0x84, 0xb7, 0xbe,
  0x86, 0xa3, 0x56, 0x3e, 0x04, 0xd0, 0xf9, 0x3c, 0x20, 0x82, 0xb6, 0x3e,
  0x1d, 0x51, 0x72, 0x3e, 0xdc, 0x00, 0x6d, 0x3d, 0xee, 0xfc, 0x85, 0xbe,
  0x6e, 0x31, 0xc2, 0xbe, 0x1e, 0xd4, 0xa2, 0x3d, 0xe8, 0xa2, 0x8d, 0xbe,
  0xd7, 0x80, 0x9a, 0x3e, 0x58, 0x2a, 0xfa, 0x3e, 0xde, 0xf5, 0x0b, 0x3e,
  0x65, 0x24, 0x9a, 0xbd, 0x33, 0x1c, 0x5d, 0x3e, 0x69, 0x82, 0x06, 0xbf,
  0xf5, 0xa7, 0xe8, 0x3e, 0x83, 0x65, 0xfa, 0xbe, 0x7f, 0xc5, 0xfc, 0x3d,
  0xfa, 0xc3, 0x07, 0x3e, 0x41, 0xbf, 0xb0, 0x3e, 0xaf, 0xe7, 0xe3, 0xbd,
  0xa9, 0x50, 0x5b, 0xbe, 0xd8, 0xea, 0x5d, 0xbe, 0x5f, 0x69, 0x6e, 0x3e,
  0xbb, 0x61, 0x3e, 0xbe, 0x98, 0xfc, 0x7c, 0x3e, 0x17, 0x82, 0x14, 0x3f,
  0xc3, 0x57, 0x71, 0xbc, 0xf3, 0x43, 0x8f, 0xbd, 0x8b, 0xa6, 0x5a, 0x3e,
  0x9b, 0x36, 0xa0, 0xbe, 0x89, 0xec, 0x9c, 0x3e, 0x48, 0x42, 0x48, 0xbc,
  0xda, 0xc9, 0x4c, 0x3e, 0x24, 0xaa, 0xe7, 0xbd, 0x59, 0x5d, 0x40, 0x3e,
  0x71, 0x62, 0x00, 0xbf, 0xb3, 0x0d, 0xc7, 0xbd, 0xe7, 0xaa, 0xe1, 0x3c,
  0x2f, 0x2a, 0x90, 0xbd, 0xed, 0xc0, 0x8e, 0xbc, 0xc5, 0x3a, 0xd1, 0x3e,
  0x4f, 0xb1, 0x2a, 0x3e, 0xf2, 0x4d, 0x0a, 0xbe, 0xfc, 0xab, 0x23, 0x3e,
  0x55, 0x9d, 0xef, 0xbd, 0x94, 0x33, 0xc2, 0xbd, 0x8d, 0xad, 0x9c, 0x3e,
  0x2f, 0x1c, 0x18, 0xbf, 0xf9, 0xbf, 0x9f, 0x3e, 0x6e, 0x0f, 0x8d, 0x3c,
  0x8f, 0x52, 0x72, 0x3d, 0xad, 0x36, 0xdb, 0xbe, 0xa4, 0x23, 0x58, 0xbd,
  0xef, 0x64, 0xc4, 0xbe, 0xf1, 0x09, 0x1d, 0xbd, 0x7d, 0xef, 0x42, 0xbe,
  0xbc, 0x4e, 0xbe, 0x3e, 0x4f, 0xe9, 0x49, 0x3d, 0x0f, 0x77, 0xd7, 0x3c,
  0x20, 0x91, 0xfd, 0x3d, 0x1f, 0x17, 0x69, 0xbd, 0x2b, 0x41, 0x80, 0x3b,
  0x75, 0x83, 0x1a, 0xbe, 0x00, 0x44, 0xc6, 0xbd, 0x4c, 0xe1, 0x98, 0xbd,
  0xa6, 0x64, 0x5f, 0x3e, 0x10, 0xf3, 0x1c, 0x3d, 0x4f, 0x39, 0x4b, 0xbe,
  0x17, 0xcb, 0x54, 0x3d, 0x10, 0x8a, 0xd1, 0xbe, 0x57, 0xed, 0x5d, 0x3d,
  0x18, 0xbe, 0x22, 0xbe, 0xfa, 0x2f, 0xaa, 0x3e, 0x98, 0x36, 0x2e, 0xbe,
  0x8b, 0x24, 0xc8, 0xbc, 0xd5, 0x98, 0x34, 0x3d, 0x82, 0x5a, 0xfe, 0xbc,
  0xc8, 0x3e, 0x15, 0xbe, 0x84, 0x79, 0xfd, 0xbd, 0x73, 0x21, 0x23, 0x3e,
  0x8f, 0x9d, 0x04, 0x3e, 0xd5, 0x26, 0xd2, 0x3c, 0x70, 0xf0, 0xc9, 0x3e,
  0xae, 0x05, 0x40, 0x3e, 0xb9, 0x7b, 0x6b, 0x3e, 0xb4, 0x2b, 0x13, 0xbf,
  0xf5, 0x08, 0x25, 0xbe, 0xe0, 0x1c, 0x13, 0xbe, 0x31, 0xf1, 0x70, 0xbe,
  0x9a, 0x67, 0x5c, 0xbd, 0xe9, 0xa9, 0x8c, 0x3d, 0xb4, 0x16, 0x7e, 0xbd,
  0x61, 0xb7, 0x99, 0x3e, 0xf3, 0xac, 0x0b, 0xbf, 0xdb, 0xa4, 0xdc, 0xbe,
  0x13, 0xbc, 0xc8, 0xbe, 0xcc, 0xbd, 0x13, 0xbf, 0x9d, 0x24, 0x0e, 0xbc,
  0xd0, 0xab, 0x12, 0xbd, 0x33, 0xda, 0x93, 0x3e, 0xbf, 0x6f, 0xc8, 0xbe,
  0xfe, 0x42, 0x10, 0xbf, 0x30, 0x65, 0xc5, 0xbe, 0x1f, 0xa1, 0x13, 0xbe,
  0xa3, 0x76, 0xb2, 0x3d, 0x87, 0xd7, 0x20, 0xbf, 0x62, 0x30, 0x1c, 0x3e,
  0x5f, 0x16, 0x57, 0xbe, 0x27, 0x4b, 0x0e, 0x3e, 0xc0, 0x9b, 0x5f, 0xbe,
  0x24, 0xda, 0x9b, 0xbe, 0x2b, 0xd3, 0xe0, 0xbe, 0x84, 0x6a, 0xd1, 0xbe,
  0x52, 0xdf, 0xa3, 0x3e, 0xc0, 0x07, 0x3b, 0x3d, 0xc8, 0xf6, 0xcd, 0x3e,
  0xe5, 0xf4, 0xfa, 0x3d, 0x12, 0xef, 0x9d, 0x3d, 0x8b, 0x77, 0x9b, 0xbe,
  0x18, 0xb5, 0xc3, 0x3e, 0x08, 0x72, 0xe4, 0x3e, 0x38, 0xe9, 0x0c, 0x3f,
  0x37, 0x75, 0x8f, 0x3d, 0xc5, 0x07, 0xd1, 0x3d, 0xfb, 0xb7, 0x86, 0x3e,
  0x09, 0x24, 0xd2, 0xbe, 0xed, 0x87, 0x57, 0xba, 0x42, 0x0a, 0x15, 0x3e,
  0xb6, 0xd3, 0x9d, 0xbe, 0x7e, 0x12, 0x04, 0x3e, 0x90, 0xa4, 0xb2, 0x3e,
  0xd2, 0x36, 0x33, 0xbe, 0xdf, 0x98, 0xeb, 0x3e, 0x13, 0xa3, 0xc0, 0x3e,
  0x78, 0xf3, 0x80, 0x3e, 0xe9, 0x7a, 0xbc, 0xbd, 0x29, 0x2c, 0x88, 0x3b,
  0x07, 0xe9, 0x0a, 0x3f, 0x83, 0x6a, 0x89, 0x3e, 0x1a, 0xec, 0x16, 0x3e,
  0x48, 0xb0, 0x37, 0x3e, 0x4e, 0x67, 0xc6, 0xbe, 0xa3, 0xc4, 0x07, 0xbf,
  0xac, 0xac, 0x99, 0x3e, 0x10, 0x3b, 0xd1, 0xbe, 0x85, 0xa5, 0x7a, 0xbe,
  0x64, 0xd2, 0x18, 0x3e, 0x7b, 0x23, 0x84, 0xbe, 0x24, 0x08, 0xe8, 0xbe,
  0x40, 0xd8, 0x1f, 0xbf, 0xb2, 0x56, 0xf6, 0x3d, 0xbe, 0x67, 0x01, 0xbf,
  0xb6, 0xb9, 0x70, 0xbe, 0x6a, 0x68, 0x3e, 0xbd, 0x1d, 0x05, 0xc8, 0x3c,
  0x01, 0x63, 0x8e, 0xbe, 0xe6, 0x09, 0xd1, 0x3e, 0xd9, 0xea, 0x67, 0xbe,
  0x84, 0x75, 0x50, 0x3e, 0xb4, 0x77, 0xf0, 0xbe, 0x24, 0xd2, 0x4e, 0xbe,
  0xa3, 0xf4, 0x5f, 0x3e, 0xf0, 0x28, 0x90, 0xbe, 0x39, 0xfe, 0xab, 0x3e,
  0xbf, 0x7d, 0xb3, 0x3d, 0xc9, 0x88, 0x96, 0xbe, 0xde, 0x5b, 0x1d, 0xbf,
  0xae, 0xbf, 0x43, 0x3e, 0x0e, 0xdc, 0x06, 0x3c, 0x4c, 0xd4, 0xb6, 0xbe,
  0xd9, 0xca, 0x65, 0xbe, 0xde, 0xf4, 0x33, 0xbe, 0x45, 0xb9, 0x59, 0x3d,
  0x8b, 0x17, 0x06, 0xbd, 0x13, 0xfa, 0x32, 0xbe, 0x5a, 0x1f, 0x22, 0xbf,
  0xd4, 0x0c, 0x9d, 0xbd, 0x11, 0x6f, 0xa2, 0x3d, 0x4e, 0xa0, 0xc9, 0x3e,
  0xee, 0xa3, 0x7b, 0x3e, 0x07, 0x51, 0x98, 0x3e, 0x56, 0x98, 0xfc, 0x3d,
  0x53, 0xb6, 0x3a, 0xbf, 0x01, 0xd5, 0x5a, 0x3d, 0x39, 0x8c, 0xc6, 0x3e,
  0xfb, 0x3a, 0x8e, 0x3e, 0x98, 0x64, 0x63, 0x3e, 0x6c, 0x6e, 0x39, 0xbe,
  0xcf, 0xc6, 0x30, 0x3e, 0x68, 0x26, 0xb9, 0xbe, 0xc3, 0x48, 0xcb, 0xbd,
  0xd9, 0x1a, 0x1e, 0xbf, 0xff, 0xc4, 0x72, 0x3a, 0x68, 0xaf, 0xbe, 0x3d,
  0xf4, 0xc3, 0xaa, 0x3e, 0x44, 0xf0, 0xf8, 0x3d, 0x10, 0xdd, 0x97, 0x3e,
  0xc3, 0x24, 0x10, 0x3d, 0xef, 0xdb, 0xdf, 0xbe, 0xd7, 0xb6, 0x21, 0xbe,
  0xdc, 0xf2, 0xbe, 0x3e, 0xd0, 0x83, 0xb9, 0x3e, 0xa6, 0x0d, 0xb0, 0x3e,
  0x7d, 0x37, 0x68, 0xbe, 0x8d, 0xa5, 0x29, 0x3f, 0x92, 0x0e, 0x4b, 0xbe,
  0x66, 0x84, 0xad, 0xbc, 0x8b, 0x0d, 0x22, 0xbf, 0x37, 0x6b, 0x86, 0x3d,
  0x24, 0x14, 0xc2, 0x3d, 0x54, 0x34, 0xc2, 0x3e, 0x9c, 0xd4, 0x36, 0xbe,
  0xf3, 0xef, 0x59, 0x3e, 0x93, 0x61, 0x36, 0xbd, 0x17, 0x1f, 0x1e, 0x3e,
  0x84, 0x3c, 0x28, 0xbd, 0x7f, 0x82, 0x26, 0x3e, 0x8f, 0x3f, 0xf6, 0x3e,
  0x23, 0x37, 0x13, 0x3e, 0x33, 0x90, 0xda, 0x3b, 0x8f, 0x70, 0xfa, 0x3e,
  0xaf, 0x83, 0xc0, 0xbe, 0x72, 0x80, 0x9e, 0x3e, 0x0f, 0x5c, 0xc0, 0xbe,
  0x23, 0xf0, 0x0d, 0x3e, 0x9e, 0x24, 0xec, 0x3d, 0xaf, 0x29, 0xaf, 0x3e,
  0x53, 0x50, 0x80, 0xbe, 0x70, 0x8d, 0x14, 0x3d, 0x74, 0xc3, 0xf5, 0xbd,
  0x04, 0x92, 0x91, 0x3d, 0x1e, 0x9b, 0x3a, 0xbe, 0x61, 0x7b, 0x01, 0x3f,
  0xa8, 0xa1, 0x9e, 0x3e, 0x9a, 0xf0, 0x7d, 0x3d, 0x61, 0x89, 0xb7, 0xbd,
  0x71, 0x30, 0x28, 0x3e, 0xb3, 0x08, 0xba, 0xbe, 0x20, 0x91, 0xef, 0x3e,
  0x31, 0x2e, 0x31, 0xbf, 0xc8, 0x4a, 0x03, 0x3f, 0xbf, 0xb0, 0x5e, 0x3d,
  0xa5, 0x6c, 0x71, 0x3e, 0x43, 0x88, 0xc3, 0x3e, 0xba, 0x9c, 0x03, 0xbe,
  0xd3, 0xb7, 0x46, 0x3d, 0xe6, 0xc8, 0x30, 0x3e, 0x60, 0x9c, 0xbf, 0x3d,
  0xe2, 0x50, 0x2a, 0x3e, 0x5e, 0x3c, 0x11, 0x3f, 0xdc, 0x6d, 0x26, 0x3e,
  0x9d, 0x99, 0x03, 0xbe, 0x46, 0x5c, 0xaf, 0x3d, 0xd0, 0xc7, 0x74, 0xbe,
  0x5f, 0x91, 0x06, 0x3f, 0x36, 0xb4, 0x58, 0xbe, 0xce, 0xa1, 0x52, 0x3e,
  0xae, 0xce, 0x45, 0x3d, 0x96, 0xfa, 0xb3, 0x3e, 0x20, 0x6f, 0x20, 0x3e,
  0x07, 0xb7, 0x1d, 0x3e, 0x88, 0xea, 0x48, 0xbe, 0xae, 0x6a, 0x49, 0x3e,
  0xc7, 0x89, 0xac, 0xbd, 0x5c, 0x48, 0xe9, 0x3e, 0x45, 0x8c, 0x1b, 0x3e,
  0x48, 0x27, 0x71, 0xbb, 0x20, 0x78, 0x98, 0x3d, 0xd2, 0x37, 0x05, 0xbd,
  0x80, 0x6b, 0xce, 0xbb, 0xc1, 0xe6, 0xef, 0x3d, 0x3c, 0xa0, 0x3b, 0xbf,
  0x3d, 0x42, 0xa8, 0x3e, 0x1b, 0x42, 0xf5, 0xbd, 0x57, 0xe1, 0xf1, 0x3e,
  0x70, 0xd9, 0x45, 0x3e, 0xf1, 0x19, 0x43, 0xbd, 0xe7, 0x43, 0xf1, 0xbc,
  0x99, 0x94, 0x02, 0x3c, 0x32, 0x3a, 0x82, 0xbe, 0xa8, 0x42, 0x07, 0x3f,
  0x83, 0x42, 0x28, 0x3d, 0xd2, 0x15, 0xc3, 0xbc, 0x99, 0x64, 0xe8, 0x3d,
  0x5b, 0xec, 0x02, 0x3e, 0xc0, 0x68, 0xde, 0xbd, 0x06, 0x6d, 0xbf, 0x3d,
  0xa1, 0xb4, 0x5d, 0x3d, 0x17, 0x4a, 0xb1, 0x3e, 0xd9, 0xc7, 0x58, 0x3e,
  0xe0, 0x5a, 0x2e, 0x3f, 0xd4, 0xb3, 0xa2, 0x3e, 0x9f, 0x08, 0x98, 0x3e,
  0x03, 0xef, 0x87, 0x3e, 0xe7, 0xa4, 0x52, 0xbd, 0x70, 0xba, 0x66, 0x3d,
  0xe8, 0xb6, 0xd3, 0x3e, 0x95, 0x0c, 0x20, 0x3e, 0xc3, 0x1b, 0x27, 0xbe,
  0x87, 0xb1, 0xb6, 0xbd, 0x48, 0x5a, 0x04, 0x3e, 0xf1, 0x8b, 0x7c, 0xbe,
  0x5e, 0x22, 0x86, 0xbd, 0x31, 0x46, 0x4c, 0xbf, 0xde, 0x3d, 0x59, 0x3e,
  0x29, 0xb7, 0x44, 0xbd, 0xab, 0xd0, 0x0b, 0x3f, 0x3a, 0x1b, 0xe4, 0x3d,
  0x6e, 0x40, 0x88, 0xbd, 0x04, 0xbc, 0xad, 0x3e, 0x2f, 0x6e, 0x7b, 0xbc,
  0xbc, 0xe4, 0xb0, 0x3d, 0x15, 0xfb, 0xf2, 0x3e, 0xe8, 0x43, 0x24, 0x3f,
  0xad, 0xaa, 0x23, 0x3e, 0xcd, 0xa1, 0x3a, 0x3e, 0x4c, 0x33, 0x3f, 0xbe,
  0x3a, 0xb5, 0x44, 0xbe, 0x3f, 0xd2, 0xa4, 0xbd, 0x2a, 0xef, 0x54, 0xbe,
  0x9f, 0xe7, 0x21, 0x3e, 0x8a, 0xc8, 0x9b, 0xbe, 0x86, 0x06, 0xd7, 0x3e,
  0xae, 0x6f, 0xf5, 0xbe, 0x00, 0xf2, 0x4f, 0x3b, 0x2e, 0xab, 0x6b, 0x3e,
  0xe9, 0xc9, 0xbc, 0x3e, 0x7e, 0xf8, 0xaa, 0xbd, 0xac, 0xc8, 0xb8, 0x3e,
  0x38, 0x3a, 0x47, 0x3f, 0xf9, 0xac, 0xd6, 0x3d, 0xa2, 0x5e, 0x3f, 0x3e,
  0x3d, 0x37, 0x77, 0xbe, 0x26, 0xfe, 0x9c, 0xbe, 0xbb, 0xc3, 0x01, 0xbe,
  0x5c, 0x23, 0xda, 0xbd, 0x31, 0x8f, 0x82, 0x3e, 0x78, 0xe7, 0x14, 0xbf,
  0xd0, 0xc4, 0x00, 0x3f, 0xa6, 0x02, 0x92, 0xbe, 0x6f, 0xe6, 0xc3, 0xbe,
  0x11, 0xb4, 0x65, 0xbe, 0x6a, 0x89, 0x46, 0x3e, 0xc8, 0xd9, 0x67, 0xbe,
  0xef, 0x65, 0x85, 0x3e, 0xe7, 0x26, 0x21, 0x3f, 0x37, 0xdf, 0x09, 0x3e,
  0x6b, 0x79, 0x03, 0xbe, 0x69, 0x0b, 0x13, 0xbe, 0x44, 0x13, 0x8e, 0xbe,
  0x37, 0xa3, 0x64, 0xbd, 0xc4, 0xa9, 0xa4, 0xbe, 0x6f, 0x52, 0x9e, 0xbd,
  0x9d, 0x94, 0x95, 0xbe, 0xd0, 0x6b, 0x80, 0x3e, 0xdd, 0xc2, 0x24, 0xbe,
  0x07, 0xb0, 0x25, 0xbe, 0xee, 0xf8, 0x09, 0xbe, 0xc4, 0x2b, 0x61, 0x3d,
  0x82, 0x14, 0x9a, 0xbe, 0xe6, 0x4e, 0x1c, 0x3e, 0xde, 0x8c, 0xda, 0x3e,
  0x21, 0xc0, 0x7f, 0xbe, 0x53, 0x4d, 0x44, 0xbc, 0xe5, 0xd4, 0x29, 0xbe,
  0xb2, 0x7c, 0xd4, 0xbd, 0xc2, 0xfb, 0xf9, 0xbd, 0x4e, 0xea, 0x0f, 0xbf,
  0x3f, 0x6e, 0x52, 0x3d, 0x73, 0x4f, 0x91, 0xbe, 0xbd, 0xa1, 0x94, 0x3e,
  0x1d, 0x91, 0x61, 0xbf, 0xff, 0x68, 0xe8, 0xbd, 0xc1, 0x75, 0x16, 0xbf,
  0x8e, 0xc6, 0xaa, 0x3c, 0x1c, 0x6c, 0x36, 0xbe, 0x5a, 0x49, 0xcb, 0x3d,
  0xc6, 0x14, 0xb6, 0xbe, 0xa0, 0x43, 0xa7, 0xbe, 0x20, 0x2d, 0x92, 0x3d,
  0x8b, 0x9c, 0x0d, 0xbf, 0xfb, 0x93, 0x73, 0xbd, 0x1a, 0x02, 0xc2, 0xbd,
  0xf3, 0x37, 0xa1, 0x3d, 0x4a, 0x3e, 0xc1, 0x3c, 0x4b, 0xf3, 0xb9, 0xbd,
  0x30, 0x0a, 0x37, 0xbe, 0x61, 0xab, 0xc8, 0xbd, 0xa9, 0x10, 0xda, 0x3e,
  0x66, 0xfc, 0xcc, 0x3e, 0xf2, 0x41, 0x6e, 0x3d, 0x7a, 0xa8, 0xb9, 0xbd,
  0x4c, 0xb4, 0xdf, 0x3c, 0xd0, 0xc2, 0x90, 0x3f, 0x39, 0x7a, 0x55, 0xbf,
  0x86, 0x84, 0xc0, 0x3e, 0x47, 0x1b, 0x11, 0x3d, 0x58, 0x63, 0x8a, 0xbd,
  0x77, 0x1a, 0x25, 0xbe, 0x0b, 0xa8, 0x4f, 0x3f, 0xec, 0xc0, 0x37, 0xbd,
  0xf2, 0x8a, 0x81, 0xbf, 0xd7, 0x3e, 0x1c, 0x3c, 0xe8, 0x07, 0xb4, 0xbd,
  0xeb, 0x09, 0x52, 0x3d, 0x9d, 0x20, 0xb4, 0x3e, 0x2e, 0xb1, 0x21, 0x3e,
  0x0c, 0x8b, 0xa8, 0xbd, 0x20, 0xca, 0x34, 0x3d, 0xa7, 0x7f, 0x42, 0x3d,
  0x27, 0xde, 0x3b, 0x3e, 0x85, 0x0f, 0xba, 0x3e, 0x63, 0x81, 0x05, 0x3f,
  0x06, 0x70, 0x92, 0xbc, 0xd5, 0x98, 0x96, 0xbc, 0xcc, 0x77, 0x97, 0x3e,
  0x8e, 0xa2, 0x7f, 0x3d, 0x38, 0xef, 0x46, 0xbd, 0xba, 0x44, 0x36, 0x3d,
  0x94, 0x91, 0x57, 0x3c, 0x10, 0xd4, 0xfe, 0x3d, 0x1e, 0x12, 0xfa, 0x3e,
  0xeb, 0x4f, 0x50, 0x3d, 0x8b, 0x74, 0xc4, 0xbd, 0x59, 0x52, 0x2e, 0x3f,
  0xe4, 0x9a, 0xc6, 0x3d, 0xc4, 0x78, 0xbd, 0xbe, 0x85, 0xf5, 0x82, 0x3e,
  0x0a, 0xde, 0x16, 0xbe, 0xbf, 0x6a, 0x33, 0x3b, 0x2b, 0xe6, 0x76, 0x3e,
  0x8b, 0xbc, 0xc4, 0xbd, 0xbd, 0x53, 0x9f, 0x3e, 0x2e, 0x26, 0x09, 0xbf,
  0x76, 0x2b, 0x02, 0xbe, 0x41, 0x0d, 0xd9, 0xbd, 0xc7, 0xb4, 0x72, 0x3e,
  0xdf, 0x5e, 0xc6, 0x3e, 0xe5, 0xcc, 0xb6, 0x3d, 0x50, 0x8a, 0xf1, 0x3d,
  0xcf, 0xc3, 0x74, 0x3e, 0xb7, 0x81, 0x50, 0x3e, 0x14, 0x90, 0x9c, 0xbe,
  0x1a, 0x46, 0x95, 0xbc, 0x83, 0x02, 0xd8, 0x3d, 0x50, 0x48, 0x17, 0xbe,
  0x83, 0x2e, 0x84, 0x3e, 0x64, 0x22, 0xf0, 0xbd, 0x0c, 0xbf, 0x50, 0x3e,
  0x5b, 0x98, 0xaf, 0xbe, 0xdf, 0xc9, 0x57, 0xbe, 0x5e, 0x01, 0x2a, 0xbe,
  0x87, 0x3c, 0x64, 0x3d, 0x94, 0x64, 0x3e, 0x3f, 0x22, 0x2f, 0xbf, 0x3c,
  0xa4, 0x40, 0x3a, 0x3d, 0x7d, 0x55, 0x8c, 0xbe, 0x55, 0x3d, 0x9a, 0x3d,
  0xaa, 0xeb, 0xf6, 0xbd, 0xc9, 0xe7, 0xfc, 0xbc, 0x88, 0x87, 0x5d, 0xbd,
  0xcb, 0xe5, 0x3b, 0x3e, 0x8c, 0x7e, 0x2c, 0x3e, 0xf1, 0x7d, 0x72, 0x3d,
  0xa5, 0x9f, 0x8a, 0x3b, 0x35, 0xe3, 0x2f, 0xbe, 0xc3, 0x13, 0x20, 0x3e,
  0x5e, 0xdd, 0xcf, 0xbe, 0x63, 0xc8, 0x34, 0x3e, 0x2d, 0xcd, 0xbf, 0x3e,
  0x63, 0x7d, 0xa1, 0xbe, 0x96, 0x06, 0xff, 0x3c, 0xc9, 0xbe, 0x01, 0x3f,
  0x1d, 0xf2, 0xf7, 0xbe, 0x10, 0x54, 0x33, 0xbe, 0x26, 0x5e, 0x4c, 0x3c,
  0x85, 0x54, 0x7a, 0x3e, 0xe8, 0xeb, 0xa8, 0x3c, 0x19, 0x79, 0x3e, 0xbe,
  0xd8, 0xb3, 0x55, 0xbd, 0x05, 0x8b, 0x06, 0xbf, 0x1d, 0x95, 0x3d, 0xbd,
  0x25, 0xbb, 0x66, 0x3d, 0x8e, 0x73, 0xfb, 0xbe, 0xf9, 0x34, 0xf2, 0x3d,
  0x35, 0x27, 0xd2, 0x3e, 0x56, 0x7a, 0xde, 0xbc, 0x65, 0x8c, 0x2d, 0xbd,
  0x70, 0x91, 0x8e, 0x3e, 0x9f, 0xe0, 0x35, 0xbf, 0x17, 0x69, 0xaf, 0xbe,
  0x02, 0x2b, 0x9c, 0xbe, 0xd6, 0xdf, 0x76, 0xbe, 0xf5, 0xcc, 0x4a, 0xbe,
  0x63, 0x07, 0x31, 0xbf, 0x45, 0xe2, 0xbc, 0x3d, 0x94, 0x00, 0x69, 0x3e,
  0x33, 0x35, 0xbc, 0x3e, 0x62, 0x86, 0x7d, 0x3e, 0x94, 0x7c, 0x6e, 0xbc,
  0xe4, 0x6d, 0x00, 0x3d, 0x07, 0xdd, 0x85, 0x3e, 0x6a, 0x56, 0x64, 0xbe,
  0x28, 0x59, 0x94, 0x3b, 0x8c, 0xcd, 0x0b, 0x3f, 0xcf, 0xfc, 0xea, 0x3d,
  0x97, 0x61, 0x3c, 0xbe, 0x58, 0x57, 0xcc, 0x3d, 0x1f, 0x59, 0x0d, 0xbe,
  0x4d, 0xd7, 0x06, 0xbc, 0x05, 0x51, 0x97, 0xbe, 0x3a, 0xce, 0xac, 0xbc,
  0x8a, 0x5d, 0xd2, 0xbd, 0x10, 0x48, 0x9c, 0xbd, 0xde, 0x8a, 0x4f, 0xbd,
  0xcc, 0xeb, 0x2f, 0xbd, 0x44, 0xe1, 0x28, 0xbe, 0x47, 0x49, 0x87, 0x3e,
  0x62, 0xbf, 0xf0, 0xbd, 0xd2, 0x76, 0x70, 0x3d, 0x3e, 0x25, 0xaa, 0x3e,
  0xc8, 0xaa, 0x65, 0x3e, 0x00, 0x4b, 0x93, 0xbe, 0x21, 0x45, 0x4a, 0xbe,
  0xb7, 0xde, 0x46, 0xbe, 0x88, 0xed, 0xe1, 0xbc, 0x8b, 0x41, 0x60, 0x3d,
  0xc3, 0xac, 0x89, 0x3d, 0xa7, 0xf7, 0x23, 0xbd, 0xc4, 0x84, 0xf4, 0xbd,
  0xce, 0x89, 0x27, 0x3e, 0xea, 0x01, 0xf1, 0x3d, 0x1d, 0xdb, 0x6f, 0xbe,
  0x6a, 0x07, 0xec, 0x3e, 0x69, 0xf1, 0xe4, 0xbd, 0x67, 0x01, 0x0c, 0x3e,
  0x63, 0x0c, 0xbd, 0x3e, 0x5c, 0xd9, 0xe2, 0x3e, 0x55, 0x72, 0x93, 0xbe,
  0x8c, 0x5e, 0xc4, 0x3d, 0x1b, 0xb6, 0x77, 0x3e, 0x58, 0x1b, 0x5f, 0x3e,
  0x45, 0x30, 0x6d, 0xbd, 0x5e, 0x44, 0xd9, 0x3d, 0x05, 0x0f, 0xb0, 0x3e,
  0x54, 0x87, 0x97, 0xbe, 0xbf, 0xa4, 0x42, 0xbd, 0xda, 0x34, 0xfa, 0xbc,
  0x4f, 0x21, 0x3c, 0x3b, 0x5e, 0x71, 0x2d, 0x3f, 0xc2, 0xb0, 0x6a, 0xbd,
  0x1d, 0x9c, 0xea, 0xbb, 0x66, 0xa2, 0x82, 0x3e, 0x73, 0xaf, 0xb6, 0x3d,
  0x62, 0x8e, 0xb7, 0x3e, 0x62, 0xd9, 0x01, 0x3e, 0xf8, 0x51, 0x85, 0x3e,
  0x4c, 0x2b, 0xb8, 0x3b, 0x3c, 0x41, 0xda, 0x3c, 0x3f, 0x40, 0xe8, 0x3c,
  0x2c, 0x4e, 0x2e, 0xbd, 0x33, 0x07, 0x1b, 0xbe, 0x82, 0x6b, 0xa6, 0xbe,
  0x6f, 0xc9, 0x1e, 0x3c, 0xd5, 0x8a, 0x85, 0x3d, 0x30, 0x06, 0x0e, 0x3f,
  0xd0, 0x26, 0x29, 0xbd, 0x72, 0x61, 0x4b, 0xbd, 0x83, 0x3c, 0x18, 0x3e,
  0x7f, 0xc1, 0x9e, 0x3d, 0x5e, 0x89, 0x06, 0x3e, 0x29, 0xc7, 0x35, 0x3f,
  0x24, 0xc3, 0x0f, 0x3e, 0x6a, 0xd1, 0x41, 0x3e, 0x55, 0x02, 0xed, 0x3b,
  0x75, 0xa1, 0xac, 0x3e, 0x2b, 0x19, 0xc2, 0xbd, 0x18, 0x13, 0x97, 0x3d,
  0x5f, 0x95, 0x3d, 0xbd, 0xff, 0x84, 0xcc, 0xbd, 0x61, 0xe5, 0xb3, 0xbd,
  0x06, 0x27, 0xa9, 0x3e, 0x28, 0x55, 0x46, 0x3e, 0x6a, 0xc0, 0x97, 0xbb,
  0xb8, 0xc8, 0x93, 0x3e, 0xc7, 0x44, 0x42, 0x3d, 0x2c, 0x6f, 0x0b, 0xbf,
  0xba, 0x2f, 0x5c, 0x3c, 0xa9, 0x1f, 0x2c, 0xbe, 0xb9, 0x52, 0x31, 0xbd,
  0x67, 0xd0, 0x40, 0xbe, 0xdf, 0xed, 0xff, 0xbe, 0xfa, 0x9e, 0xd0, 0x3c,
  0x6f, 0xac, 0x8f, 0xbe, 0x63, 0x0e, 0xfe, 0xbb, 0x80, 0xa1, 0xa9, 0xbd,
  0x71, 0x5a, 0xec, 0xbd, 0x46, 0xf6, 0xa6, 0x3e, 0x57, 0x63, 0xc0, 0x3e,
  0xc8, 0x45, 0xe4, 0x3d, 0x9a, 0x8a, 0xdb, 0x3e, 0x7c, 0xf5, 0xab, 0xbc,
  0xdc, 0xb8, 0x1e, 0x3d, 0x63, 0x16, 0xef, 0x3c, 0xab, 0x36, 0x02, 0xbf,
  0x04, 0xc3, 0xff, 0xbc, 0xef, 0xc0, 0xac, 0xbe, 0xf8, 0xce, 0xe7, 0xbd,
  0xbb, 0x40, 0x5b, 0x3d, 0x98, 0x36, 0xb9, 0xbd, 0x17, 0xcb, 0xb6, 0x3d,
  0x4e, 0x9c, 0x5a, 0xbe, 0x6f, 0xdc, 0x69, 0x3d, 0xa9, 0xc4, 0x33, 0xbd,
  0xea, 0x9d, 0x5a, 0x3d, 0xd0, 0x0b, 0x7e, 0x3d, 0x18, 0xd9, 0xa3, 0x3e,
  0xd2, 0x0e, 0x12, 0x3f, 0x6a, 0x0b, 0xf5, 0xbe, 0xc2, 0x05, 0x61, 0xbd,
  0x96, 0xb9, 0x27, 0xbe, 0x06, 0x0d, 0xc3, 0xbc, 0x1b, 0x70, 0x4c, 0xbe,
  0x57, 0xc0, 0xbd, 0xbe, 0x8b, 0xa0, 0x3e, 0x3d, 0x8c, 0x79, 0xfc, 0xbe,
  0x65, 0xc5, 0x0b, 0xbe, 0xc7, 0x3b, 0x66, 0x3e, 0xab, 0xe5, 0x22, 0xbe,
  0x16, 0x4c, 0x8d, 0xbe, 0xd2, 0x08, 0x0c, 0xbe, 0x60, 0xeb, 0xf9, 0xbd,
  0xe2, 0x9d, 0x65, 0x3d, 0xa6, 0x54, 0x54, 0xbe, 0x38, 0xc4, 0x76, 0xbe,
  0x3a, 0x76, 0x4a, 0x3e, 0x3b, 0x44, 0x13, 0xbe, 0x10, 0xcf, 0x35, 0xbe,
  0xa9, 0xb0, 0xaa, 0xbe, 0xca, 0xa3, 0xa9, 0x3e, 0xe7, 0xf5, 0x36, 0x3e,
  0x60, 0x18, 0x6a, 0xbe, 0x51, 0x90, 0x1c, 0xbf, 0xe5, 0xc5, 0x5a, 0x3e,
  0x6b, 0xb3, 0x8c, 0xbd, 0xa3, 0xde, 0x43, 0x3d, 0x49, 0x6e, 0x0d, 0x3c,
  0x44, 0xee, 0xc8, 0xbc, 0xae, 0x8d, 0x9b, 0xbe, 0xc5, 0x07, 0x4b, 0xbe,
  0x5f, 0xaa, 0xb4, 0xbc, 0x2f, 0x36, 0x1b, 0x3e, 0x39, 0x2d, 0xe7, 0x3d,
  0xa0, 0x22, 0x9b, 0x3e, 0x2c, 0x62, 0x8c, 0xbe, 0x45, 0x12, 0x57, 0x3e,
  0x0d, 0x0e, 0x08, 0xbe, 0xe7, 0x35, 0x1e, 0xbd, 0xda, 0x12, 0x28, 0xbe,
  0x70, 0x2e, 0x5d, 0x3d, 0x4d, 0x99, 0xc3, 0xbd, 0xc8, 0xc4, 0x72, 0x3e,
  0xd1, 0x04, 0xd6, 0x3d, 0xf1, 0x56, 0x96, 0x3d, 0x0c, 0x9f, 0x36, 0x3e,
  0xeb, 0x41, 0xd1, 0xbc, 0xec, 0xfd, 0x48, 0x3d, 0xf4, 0x91, 0xba, 0xbd,
  0x16, 0x62, 0x96, 0xbe, 0x7f, 0xb1, 0x8a, 0x3e, 0x53, 0xaf, 0x2c, 0x3e,
  0x2e, 0x0d, 0x3d, 0xbe, 0x0f, 0x75, 0xcb, 0xbd, 0x88, 0x2b, 0x93, 0x3d,
  0xdf, 0x9e, 0x21, 0x3e, 0x76, 0x7e, 0xba, 0x3e, 0x8f, 0x3b, 0xe6, 0x3d,
  0x81, 0x0d, 0x9d, 0x3d, 0xa1, 0x13, 0x09, 0x3d, 0xa2, 0x5f, 0x95, 0x3e,
  0xc8, 0x43, 0xfa, 0x3d, 0x0b, 0xb3, 0x04, 0xbf, 0xde, 0x15, 0x70, 0xbe,
  0xa7, 0x64, 0x2c, 0xbe, 0x9f, 0xe7, 0xb5, 0x3e, 0xfa, 0xb5, 0x08, 0xbf,
  0xa0, 0xf8, 0x8f, 0x3e, 0xe2, 0x24, 0x0e, 0xbe, 0x2b, 0xf3, 0xd6, 0xbc,
  0x9a, 0x70, 0x92, 0xbd, 0x6d, 0x41, 0xf6, 0xbc, 0x55, 0x52, 0xa7, 0x3c,
  0xe1, 0x04, 0x9f, 0x3e, 0xbc, 0xb6, 0xf6, 0x3b, 0x8f, 0x02, 0xed, 0xbd,
  0x3d, 0xb6, 0x90, 0x3e, 0x78, 0xd1, 0xe6, 0xbd, 0x0b, 0xb4, 0x06, 0xbe,
  0x21, 0x7c, 0x5b, 0xbe, 0xea, 0x69, 0xe1, 0xbe, 0x99, 0xf6, 0x21, 0xbe,
  0xe7, 0x4a, 0xaf, 0xbd, 0xec, 0xcc, 0x1a, 0xbe, 0x37, 0xbd, 0x70, 0xbd,
  0x11, 0x64, 0x86, 0xbe, 0xab, 0x50, 0x49, 0xbe, 0x69, 0xff, 0x27, 0x3e,
  0x72, 0x84, 0x93, 0xbc, 0xe9, 0x34, 0x72, 0x3e, 0x5c, 0xac, 0x8d, 0xbd,
  0x6d, 0x26, 0xa7, 0xbd, 0x58, 0xdc, 0xfd, 0x3d, 0xdd, 0x9b, 0x7f, 0x3e,
  0x6b, 0x55, 0x98, 0x3c, 0x15, 0xb6, 0x37, 0xbe, 0x39, 0x3c, 0xe2, 0xbe,
  0x73, 0xd0, 0x28, 0x3d, 0x3b, 0xbd, 0x1c, 0xbf, 0xa8, 0xfc, 0x89, 0xbd,
  0xb0, 0x1b, 0x9e, 0xbd, 0x89, 0x18, 0x0d, 0x3e, 0x22, 0x1c, 0x8f, 0x3d,
  0x2a, 0x18, 0x16, 0xbc, 0x24, 0x67, 0x38, 0x3c, 0x77, 0x8e, 0xac, 0xbc,
  0xeb, 0x4e, 0x94, 0xbd, 0xb8, 0xdf, 0x85, 0x3c, 0xbc, 0xf6, 0x20, 0x3e,
  0xc2, 0xb2, 0xa7, 0xbe, 0x53, 0x7d, 0xbd, 0xbe, 0xb9, 0xe2, 0x5c, 0xbe,
  0x1b, 0xe6, 0x65, 0xbf, 0xd0, 0x12, 0xda, 0xbe, 0xb5, 0xc4, 0x0c, 0xbe,
  0xf0, 0x66, 0x3b, 0xbf, 0x5f, 0xe7, 0x0e, 0x3f, 0x04, 0xec, 0xbd, 0x3e,
  0x35, 0x9c, 0x93, 0x3e, 0x22, 0xb2, 0xa9, 0xbe, 0x78, 0xdf, 0x48, 0x3d,
  0xc8, 0x84, 0x2a, 0x3e, 0x41, 0xf1, 0x04, 0xbf, 0xa3, 0xbd, 0x7b, 0xbe,
  0x39, 0x50, 0x98, 0x3d, 0xd5, 0x9f, 0xe9, 0x3d, 0x33, 0xab, 0x2b, 0xbe,
  0x44, 0x71, 0x88, 0xbe, 0xa7, 0xe8, 0xce, 0xbe, 0xad, 0x54, 0xaf, 0xbe,
  0xb0, 0xda, 0xaa, 0xbe, 0x52, 0x0b, 0x5f, 0xbf, 0xe6, 0x77, 0x40, 0xbc,
  0x3a, 0x22, 0x5e, 0xbd, 0x98, 0x5c, 0x40, 0x3e, 0x32, 0x81, 0xb2, 0xbe,
  0x54, 0xfc, 0x80, 0x3e, 0xfe, 0x8b, 0xab, 0xbe, 0x33, 0x44, 0xef, 0xbb,
  0xc1, 0x64, 0x1e, 0xbe, 0xcf, 0x3d, 0x8b, 0xbe, 0x29, 0xd6, 0xec, 0x3e,
  0x6b, 0x3c, 0xde, 0xbb, 0x7b, 0x7c, 0xd3, 0xbe, 0xe0, 0xed, 0x45, 0xbf,
  0x42, 0x00, 0x31, 0xbe, 0x01, 0xf1, 0xc7, 0xbd, 0xf8, 0xce, 0x0d, 0xbe,
  0x0c, 0x99, 0x15, 0x3e, 0xe5, 0xb4, 0x85, 0x3d, 0xac, 0x3e, 0xe2, 0x3e,
  0x3e, 0xef, 0x9f, 0xbe, 0x02, 0x22, 0xee, 0xbd, 0x53, 0x58, 0x1c, 0x3e,
  0x70, 0xb4, 0x46, 0xbe, 0xad, 0x21, 0xd5, 0x3e, 0x15, 0x59, 0xd9, 0xbd,
  0xb8, 0xdf, 0x44, 0xbe, 0xaa, 0x01, 0xef, 0xbd, 0xb9, 0x4d, 0x0c, 0x3f,
  0xe2, 0xa0, 0x0a, 0xbf, 0x6f, 0xaa, 0x4f, 0x3e, 0xe3, 0x5e, 0xbb, 0x3c,
  0x66, 0x1e, 0x45, 0xbd, 0xcb, 0x1a, 0xd5, 0x3d, 0xb3, 0xd8, 0x08, 0xbb,
  0x69, 0xb4, 0x92, 0xbd, 0x73, 0xc8, 0x00, 0xbf, 0x8f, 0x3c, 0xa6, 0x3d,
  0x9c, 0xea, 0xc9, 0xbd, 0x22, 0x4d, 0x0a, 0xbe, 0x24, 0x0c, 0x85, 0x3e,
  0x84, 0x03, 0x25, 0xbe, 0x31, 0x45, 0x3b, 0xbe, 0x88, 0xd7, 0xe1, 0xbe,
  0xa8, 0x9b, 0x04, 0xbe, 0x2b, 0xf0, 0xe2, 0x3e, 0x9d, 0xbc, 0x28, 0x3e,
  0xbc, 0xce, 0x82, 0x3d, 0x83, 0x90, 0x27, 0xbf, 0xa0, 0xc6, 0xbc, 0x3e,
  0x52, 0x8e, 0xfe, 0x3c, 0x23, 0x13, 0x6d, 0x3d, 0xae, 0xb0, 0x9f, 0xbe,
  0xbe, 0xf4, 0xab, 0x3d, 0x6a, 0x4c, 0xcf, 0xbe, 0xec, 0xd2, 0x5d, 0xbf,
  0x92, 0x97, 0xf5, 0x3d, 0xac, 0xc2, 0xe7, 0xbe, 0xa5, 0xe1, 0x8f, 0x3e,
  0x26, 0x4f, 0xf4, 0xbd, 0x80, 0x00, 0xc2, 0x3d, 0x76, 0x5d, 0x8d, 0x3d,
  0x6e, 0xbb, 0x43, 0x3e, 0x49, 0xf2, 0x9d, 0x3e, 0x38, 0xcc, 0x8c, 0xbe,
  0x18, 0x70, 0x15, 0xbe, 0xbd, 0x10, 0x12, 0xbe, 0xbe, 0xe4, 0x0e, 0xbe,
  0x9c, 0x8e, 0x4a, 0xbe, 0xe6, 0x93, 0xc2, 0xbd, 0x9f, 0xd3, 0xfb, 0xbd,
  0x8d, 0x8b, 0xc3, 0xbe, 0x3b, 0xa9, 0x8d, 0x3e, 0xd4, 0x39, 0x72, 0xbc,
  0x04, 0x5d, 0xef, 0x3e, 0x27, 0xbd, 0x83, 0xbe, 0x91, 0x17, 0xee, 0x3b,
  0xfe, 0x80, 0xb9, 0xbc, 0xa7, 0x81, 0x8d, 0x3e, 0x0e, 0x36, 0xcd, 0x3c,
  0xb1, 0x13, 0x28, 0xbf, 0x88, 0x18, 0x1d, 0x3e, 0x2e, 0x30, 0x8f, 0xbc,
  0x6c, 0x76, 0x9b, 0x3d, 0xdc, 0xf2, 0x7c, 0xbd, 0x16, 0xf6, 0x0d, 0xbe,
  0xa6, 0x13, 0x8b, 0xbe, 0x1f, 0x53, 0xba, 0xbe, 0x00, 0x61, 0x92, 0x3e,
  0x33, 0x23, 0x92, 0xbe, 0x2b, 0xcf, 0x2d, 0xbd, 0x87, 0x27, 0xd7, 0xbe,
  0x10, 0xcb, 0xfe, 0xbd, 0x45, 0x0d, 0x95, 0x3e, 0x09, 0x7d, 0xce, 0xbd,
  0xcf, 0xd2, 0x3f, 0x3e, 0x0c, 0x55, 0xb2, 0x3e, 0xa3, 0x2f, 0x18, 0x3e,
  0x25, 0xed, 0x8c, 0x3e, 0x56, 0x94, 0x49, 0x3d, 0x34, 0x1b, 0x08, 0xbf,
  0x27, 0x5c, 0x52, 0x3e, 0x5f, 0x05, 0x9d, 0xbc, 0x99, 0x87, 0x5b, 0xbf,
  0xc7, 0xbb, 0xfc, 0x3c, 0x77, 0x1c, 0x47, 0xbc, 0x51, 0x29, 0x01, 0xbd,
  0x74, 0x36, 0xca, 0xbe, 0x3a, 0x92, 0x0b, 0xbc, 0x61, 0x8d, 0x80, 0xbe,
  0x37, 0x79, 0xb4, 0x3b, 0x56, 0xe1, 0x5f, 0x3e, 0xca, 0x7d, 0xbb, 0x3e,
  0xdd, 0x1e, 0x43, 0xbd, 0x75, 0xd2, 0xb3, 0x3e, 0xef, 0x4b, 0xd9, 0x3e,
  0xd0, 0xd2, 0xb1, 0x3d, 0xd1, 0xf9, 0xea, 0xbd, 0x1d, 0x34, 0x53, 0x3e,
  0xd7, 0x8d, 0x3f, 0xbf, 0xeb, 0xee, 0xcd, 0x3d, 0x9e, 0xb8, 0x6a, 0xbc,
  0x13, 0xe8, 0x25, 0xbf, 0x33, 0x8b, 0x96, 0xbe, 0xa3, 0xa6, 0x92, 0xbd,
  0x2e, 0xc9, 0x19, 0xbe, 0x80, 0x92, 0x02, 0xbf, 0xea, 0x0d, 0xa1, 0x3e,
  0x2e, 0x6e, 0xd4, 0xbf, 0x96, 0xcb, 0x35, 0x3e, 0x06, 0xfb, 0x40, 0x3c,
  0xab, 0x11, 0x99, 0x3e, 0x93, 0xd4, 0xd9, 0x3c, 0x6b, 0x73, 0xe3, 0x3d,
  0xcf, 0xda, 0x00, 0x3c, 0x9c, 0x7e, 0x8e, 0xbe, 0x98, 0x74, 0x55, 0xbd,
  0xaa, 0xd2, 0x91, 0xbe, 0x13, 0x8d, 0x03, 0xbd, 0x74, 0x9b, 0x0d, 0xbf,
  0xa1, 0xd6, 0xac, 0x3e, 0xc4, 0xf9, 0xf5, 0x3d, 0x84, 0xf6, 0x38, 0x3d,
  0x64, 0x67, 0x3d, 0xbf, 0xd5, 0xe3, 0xae, 0xbf, 0x2c, 0x8b, 0xfa, 0x3e,
  0x5b, 0x5d, 0x2e, 0xbd, 0x28, 0xfa, 0x09, 0xbf, 0x96, 0x44, 0x14, 0x3e,
  0xc4, 0x4a, 0xac, 0xbd, 0xf8, 0x48, 0x9a, 0x3b, 0xd3, 0x52, 0x26, 0xbd,
  0xc7, 0x8e, 0xdf, 0x3c, 0xc0, 0x3d, 0xc3, 0xbd, 0x5f, 0x7e, 0x0b, 0xbf,
  0x09, 0x3e, 0xf2, 0xbd, 0xd9, 0xb0, 0xdf, 0x3d, 0x0e, 0xd3, 0xf4, 0x3c,
  0xdd, 0x51, 0x40, 0x3d, 0x44, 0x44, 0x4b, 0xbf, 0xf0, 0xb3, 0xb0, 0xbe,
  0x15, 0xc9, 0xd0, 0x3d, 0x7c, 0xbf, 0x85, 0xbd, 0x54, 0x9e, 0xc9, 0xbe,
  0x52, 0x90, 0xe9, 0xbe, 0x5a, 0x1a, 0x62, 0xbd, 0x65, 0xc2, 0x0b, 0x3e,
  0x5c, 0x1d, 0x0c, 0xbe, 0xc1, 0x20, 0xdc, 0x3d, 0x3c, 0x66, 0x1f, 0xbe,
  0x86, 0xfe, 0x9f, 0xbe, 0x07, 0xd2, 0x0d, 0x3e, 0x8e, 0x4f, 0x76, 0x3e,
  0xeb, 0xf8, 0xf3, 0x3c, 0xca, 0xc2, 0x60, 0xbe, 0x1c, 0xec, 0xcb, 0xbe,
  0x18, 0xf6, 0x70, 0x3e, 0x1c, 0xf5, 0x1d, 0xbe, 0x44, 0xcf, 0xea, 0x3c,
  0x80, 0xef, 0xd1, 0x3c, 0xb2, 0x50, 0x9f, 0x3d, 0xd5, 0xd6, 0xf1, 0xbd,
  0x1b, 0xd6, 0x1f, 0x3d, 0x71, 0x28, 0x33, 0x3d, 0x10, 0xdd, 0x71, 0x3d,
  0xf4, 0xff, 0x17, 0xbe, 0x80, 0x34, 0x55, 0xbf, 0x6c, 0x6f, 0x26, 0xbe,
  0x97, 0xe6, 0x20, 0x3e, 0x50, 0x41, 0x9c, 0x3e, 0x6d, 0x03, 0xf6, 0xbc,
  0x36, 0x7e, 0xd0, 0xbe, 0xd3, 0xe4, 0x99, 0xbe, 0xe3, 0x8d, 0xf3, 0xbe,
  0xa8, 0x12, 0xdb, 0x3d, 0x27, 0xa7, 0xb7, 0xbe, 0x04, 0xca, 0x19, 0xbd,
  0x34, 0x46, 0x9e, 0xbd, 0x7f, 0xd9, 0x17, 0x3e, 0xe3, 0x6d, 0x53, 0xbe,
  0x12, 0x6f, 0x2c, 0xbd, 0xe8, 0x36, 0x86, 0xbd, 0x31, 0x68, 0x21, 0xbf,
  0xbf, 0x5e, 0xfa, 0xbe, 0xd8, 0xee, 0x1e, 0x3e, 0x54, 0xe4, 0x13, 0x3e,
  0x1a, 0x93, 0x2d, 0x3e, 0x20, 0x43, 0x04, 0xbf, 0x49, 0x58, 0x52, 0xbe,
  0x95, 0x5d, 0x02, 0xbf, 0x69, 0xe9, 0xa2, 0xbe, 0x38, 0x70, 0x75, 0xbd,
  0xb7, 0x84, 0x69, 0x3c, 0xa3, 0x59, 0x40, 0xbd, 0xe1, 0xd4, 0x10, 0xbe,
  0xe0, 0xe8, 0x8d, 0xbd, 0xd4, 0xa9, 0x51, 0x3e, 0xa1, 0x64, 0xff, 0xbd,
  0xef, 0xc6, 0xf8, 0xbd, 0xd3, 0x78, 0x5d, 0x3c, 0xfc, 0xde, 0x85, 0x3e,
  0xd7, 0x49, 0x17, 0xbe, 0x10, 0x4f, 0x71, 0xbc, 0x2f, 0xd4, 0x34, 0xbf,
  0xfc, 0xea, 0x37, 0x3e, 0x8d, 0x81, 0xc4, 0x3e, 0xc7, 0x8c, 0xb5, 0x3d,
  0xb8, 0xc8, 0x18, 0x3d, 0x41, 0x6c, 0x8f, 0xbe, 0x1d, 0x39, 0xcf, 0x3c,
  0x24, 0x5e, 0x28, 0x3d, 0x66, 0xac, 0xca, 0x3d, 0x06, 0x4a, 0x2e, 0x3e,
  0xdd, 0xc4, 0x95, 0x3d, 0xbb, 0xf3, 0x68, 0xbe, 0xdc, 0xd1, 0x93, 0xbf,
  0xfe, 0x6f, 0xba, 0x3e, 0xfd, 0x39, 0xa0, 0x3d, 0xad, 0x9a, 0x58, 0x3d,
  0xca, 0x20, 0xaf, 0x3d, 0xcd, 0x7a, 0x07, 0x3f, 0x9f, 0x53, 0x89, 0x3c,
  0x15, 0xb7, 0x7e, 0x3c, 0x9a, 0x28, 0x8c, 0xbd, 0x7c, 0x26, 0x81, 0xbd,
  0x65, 0x29, 0xc4, 0x3d, 0x28, 0x43, 0x8f, 0xbd, 0x51, 0x7c, 0xed, 0xbd,
  0x2f, 0x7a, 0xc2, 0x3c, 0x57, 0xe7, 0x8e, 0x3d, 0xf5, 0xf8, 0x35, 0x3d,
  0xda, 0xcc, 0x21, 0xbf, 0x1b, 0xbf, 0xa7, 0xbe, 0xbf, 0xbd, 0x7e, 0xbd,
  0xf4, 0xcc, 0x76, 0xbe, 0xbf, 0x34, 0x08, 0xbd, 0x23, 0x06, 0xd7, 0x3e,
  0x25, 0x9d, 0xa9, 0x3e, 0xfa, 0x1d, 0xa6, 0x3c, 0x7d, 0x63, 0x2c, 0x3c,
  0x3c, 0x63, 0x1a, 0x3d, 0xc5, 0x3b, 0x7f, 0x3d, 0x4a, 0x8b, 0x99, 0xbe,
  0xad, 0xe7, 0x5e, 0xbf, 0x09, 0x01, 0xe9, 0xbd, 0x20, 0x1f, 0x46, 0x3e,
  0xcb, 0x3f, 0x4c, 0x3d, 0x52, 0x5f, 0x66, 0xbf, 0x28, 0x80, 0xc0, 0x3d,
  0xe7, 0x8b, 0x77, 0xbf, 0x8e, 0x2d, 0xe4, 0x3c, 0x67, 0x97, 0x85, 0x3e,
  0xfc, 0x11, 0xd5, 0x3e, 0x46, 0xcc, 0x48, 0x3e, 0x10, 0x7f, 0x07, 0xbd,
  0x5f, 0x9d, 0x58, 0x3e, 0x7b, 0xd6, 0x9f, 0xbe, 0x05, 0xc1, 0x80, 0xbd,
  0x05, 0x7a, 0x44, 0xbe, 0x0c, 0x7f, 0xe3, 0xbe, 0xa2, 0x4e, 0x91, 0xbe,
  0xfa, 0x41, 0x58, 0x3d, 0x73, 0xcb, 0x9c, 0xbc, 0x99, 0xec, 0x44, 0xbf,
  0xa3, 0x1d, 0x16, 0xbf, 0xef, 0x85, 0x3d, 0xbf, 0xfc, 0x8b, 0xb7, 0x3d,
  0xce, 0xef, 0x7f, 0x3e, 0xc3, 0x9f, 0x94, 0x3e, 0xee, 0x51, 0x22, 0x3e,
  0x10, 0xe5, 0x83, 0x3e, 0x29, 0xa7, 0x2a, 0x3e, 0x14, 0x46, 0x97, 0xbc,
  0x06, 0xb4, 0x77, 0xbe, 0xa4, 0x34, 0xf5, 0xbd, 0xba, 0x50, 0x36, 0xbe,
  0x84, 0x93, 0x3e, 0xbf, 0xa1, 0x42, 0x30, 0x3d, 0x5a, 0xb8, 0xe1, 0xbe,
  0x74, 0x31, 0x33, 0x3d, 0x99, 0xba, 0x18, 0xbf, 0x7f, 0x1f, 0x0a, 0xbf,
  0x76, 0xea, 0xae, 0xbe, 0xb5, 0x5a, 0x27, 0x3e, 0x85, 0x56, 0x01, 0x3f,
  0xd2, 0x74, 0xb4, 0x3e, 0xbb, 0x0a, 0x41, 0x3e, 0xa9, 0x64, 0x29, 0x3e,
  0x9a, 0x76, 0x03, 0xbd, 0xc2, 0x71, 0x80, 0x3d, 0x80, 0x12, 0xf2, 0x3e,
  0x91, 0xa9, 0x0a, 0x3f, 0xdf, 0xf8, 0x6e, 0xbf, 0x32, 0xbe, 0xb2, 0x3e,
  0x3a, 0x90, 0x6a, 0xbd, 0x91, 0xca, 0x40, 0xbf, 0xeb, 0xd4, 0x2a, 0xbd,
  0xe7, 0xbc, 0x99, 0xbe, 0x26, 0xcc, 0x07, 0xbd, 0x8a, 0xb8, 0x99, 0xbe,
  0x30, 0xc4, 0x71, 0x3b, 0xa2, 0x61, 0xc3, 0xbe, 0xf1, 0x9b, 0xc6, 0xbd,
  0xab, 0xc0, 0xab, 0xbe, 0xd7, 0x8f, 0x0e, 0x3e, 0xee, 0x06, 0x0f, 0x3d,
  0xa9, 0xfa, 0xe6, 0x3e, 0xf0, 0xef, 0x5c, 0x3d, 0xc6, 0x78, 0x6a, 0xbf,
  0x33, 0x68, 0x03, 0xbd, 0xcc, 0xdd, 0x0d, 0x3f, 0x71, 0xa9, 0x15, 0x3e,
  0x7c, 0x9a, 0x1e, 0xbe, 0x44, 0x4a, 0x9f, 0xbe, 0xbe, 0xaf, 0xdf, 0xbe,
  0x35, 0xe8, 0xa7, 0xbe, 0x52, 0xd2, 0xc0, 0x3d, 0x38, 0xda, 0x6e, 0x3d,
  0xe7, 0x7d, 0xcc, 0x3c, 0xd2, 0x57, 0x8b, 0xbd, 0x5a, 0x13, 0xbf, 0x3e,
  0x37, 0x0d, 0x31, 0xbc, 0xf2, 0x5d, 0x1b, 0x3e, 0x17, 0xe6, 0xea, 0xbc,
  0x59, 0xe2, 0xbf, 0xbe, 0x8c, 0x5c, 0xee, 0xbd, 0x8c, 0xf4, 0x10, 0x3f,
  0xd2, 0xa0, 0xc8, 0x3e, 0xac, 0x79, 0xb3, 0xbe, 0xd0, 0x0d, 0x79, 0xbe,
  0x3c, 0x35, 0x7c, 0xbc, 0xce, 0x43, 0xce, 0xbc, 0x94, 0x8b, 0x85, 0x3e,
  0xbd, 0x36, 0x1b, 0xbf, 0x43, 0xfb, 0xd5, 0x3e, 0xa7, 0x78, 0xce, 0xbe,
  0xb8, 0xe1, 0x75, 0x3e, 0xce, 0xc7, 0x83, 0xbe, 0xb3, 0x4f, 0x1a, 0x3d,
  0xc9, 0x19, 0x85, 0xbd, 0xe7, 0x78, 0x2f, 0x3d, 0xb9, 0x30, 0xe1, 0x3d,
  0x2d, 0xc9, 0x71, 0x3e, 0x44, 0xe6, 0xbc, 0x3e, 0x7b, 0x74, 0x70, 0x3d,
  0x38, 0xae, 0x0b, 0xbe, 0xe7, 0x54, 0xff, 0xbe, 0x39, 0x09, 0x66, 0xbc,
  0x4d, 0x0e, 0x09, 0x3f, 0xd9, 0xa5, 0xd9, 0xbe, 0x0a, 0x21, 0xd9, 0x3e,
  0x44, 0x10, 0x93, 0xbf, 0xdd, 0xb8, 0x27, 0x3e, 0x3a, 0x9f, 0x13, 0xbd,
  0x2a, 0x52, 0xf4, 0x3d, 0x45, 0xc8, 0x68, 0xbe, 0xa4, 0x14, 0xcb, 0x3c,
  0x98, 0xf9, 0xa3, 0x3d, 0x36, 0xad, 0x2f, 0x3f, 0xa3, 0x7e, 0xdd, 0x3e,
  0xe6, 0x65, 0x93, 0xbd, 0xae, 0xe3, 0xe5, 0xbd, 0xb6, 0xdf, 0x01, 0x3b,
  0x51, 0x9d, 0x18, 0x3d, 0xac, 0xc6, 0x50, 0x3f, 0x78, 0xc2, 0xcb, 0xbe,
  0x85, 0x2d, 0xa4, 0x3e, 0xff, 0xce, 0x88, 0xbf, 0x59, 0x88, 0xcb, 0x3d,
  0x5d, 0x0d, 0xa9, 0xbd, 0x31, 0xf6, 0x9e, 0xbd, 0x65, 0x54, 0x1d, 0xbe,
  0x3e, 0x56, 0x4a, 0xbe, 0x8c, 0xee, 0xce, 0xb8, 0xa9, 0x06, 0xcf, 0x3e,
  0xd2, 0xd3, 0x1b, 0x3f, 0x1e, 0xf0, 0x7c, 0xbe, 0xec, 0xe0, 0x0f, 0x3e,
  0x11, 0x76, 0x71, 0xbe, 0xbc, 0xd6, 0x99, 0x3c, 0xa9, 0x24, 0x04, 0x3f,
  0xbb, 0x5e, 0x71, 0xbe, 0xd5, 0xda, 0xb3, 0xbd, 0xae, 0xb1, 0xb0, 0xbe,
  0x57, 0xcb, 0x0f, 0x3e, 0xe1, 0xde, 0x76, 0xbe, 0xe7, 0xcf, 0xaa, 0xbe,
  0xbd, 0x25, 0x1d, 0xbe, 0x0f, 0xd1, 0xc1, 0x3e, 0x96, 0x8d, 0xe9, 0xbd,
  0x93, 0xaa, 0xbc, 0x3e, 0xd2, 0x54, 0x22, 0x3f, 0xa3, 0x5d, 0x91, 0xbe,
  0xf5, 0xb2, 0xb4, 0x3d, 0x5d, 0x48, 0xa8, 0x3e, 0x2a, 0x9b, 0x6c, 0xbd,
  0xda, 0xa4, 0xf8, 0xbe, 0x17, 0xc1, 0xb6, 0x3c, 0x03, 0x5c, 0x0a, 0x3d,
  0x6b, 0x76, 0xf3, 0xbd, 0x6a, 0x36, 0x19, 0x3d, 0x12, 0xb0, 0x17, 0xbe,
  0x49, 0x72, 0xfb, 0xbe, 0xc2, 0x1f, 0xb5, 0xbe, 0x4a, 0x03, 0x31, 0xbc,
  0x97, 0xb2, 0xbe, 0x3c, 0xd3, 0xf6, 0x84, 0xbe, 0xa6, 0x43, 0xa4, 0x3e,
  0x3c, 0x02, 0x7e, 0x3d, 0x4a, 0xb6, 0x97, 0x3e, 0x9c, 0xdc, 0x83, 0x3d,
  0x6e, 0x88, 0x69, 0xbd, 0xd2, 0x73, 0x62, 0x3e, 0x88, 0x14, 0x8d, 0x3e,
  0x37, 0xae, 0x87, 0xbe, 0xbb, 0xa5, 0x9f, 0x3e, 0x79, 0x5b, 0x1f, 0xbe,
  0x7e, 0x03, 0x85, 0x3d, 0x9d, 0xc6, 0x4a, 0xbe, 0x95, 0x1b, 0x18, 0xbf,
  0xd2, 0xfd, 0x84, 0x3e, 0x9c, 0xa8, 0x0a, 0x3a, 0x39, 0x38, 0xd8, 0xbd,
  0xcb, 0xa2, 0x7c, 0xbf, 0xf3, 0xd8, 0x8d, 0xbc, 0x25, 0xb9, 0x01, 0x3d,
  0x3b, 0xbf, 0x42, 0x3d, 0x8c, 0xf2, 0xa1, 0xbd, 0x2d, 0xa6, 0x81, 0x3e,
  0x05, 0x11, 0x0d, 0xbf, 0x8e, 0xcc, 0x20, 0x3e, 0xae, 0x46, 0x5f, 0xbe,
  0xc8, 0x0a, 0x01, 0x3e, 0x5f, 0xa2, 0x35, 0x3e, 0x27, 0x56, 0x1b, 0x3e,
  0x39, 0xf3, 0xaa, 0xbe, 0xf3, 0xf8, 0xbc, 0x3d, 0x70, 0x84, 0xce, 0xbc,
  0xc6, 0xcc, 0x8a, 0x3e, 0x39, 0xa3, 0x1e, 0xbf, 0x09, 0x18, 0xb3, 0xbe,
  0x68, 0x02, 0x07, 0x3d, 0x1e, 0x6b, 0x16, 0x3d, 0xe4, 0x5a, 0xb0, 0x3d,
  0xb2, 0x11, 0x92, 0x3d, 0x1a, 0xbd, 0x69, 0xbe, 0xf3, 0x06, 0x08, 0x3e,
  0x75, 0x91, 0x3a, 0xbe, 0xc7, 0x4b, 0xab, 0x3d, 0x18, 0x81, 0x46, 0x3e,
  0x3b, 0x16, 0x9f, 0x3e, 0x2b, 0x09, 0x84, 0x3d, 0x30, 0x11, 0x6d, 0xbe,
  0x55, 0x4d, 0x62, 0xbd, 0x68, 0x54, 0x1e, 0x3e, 0xeb, 0x0f, 0xc4, 0x3c,
  0x3e, 0xa2, 0x6c, 0xbe, 0x8f, 0xd8, 0x0d, 0xbe, 0xc6, 0x14, 0x50, 0xbd,
  0x79, 0xef, 0x5d, 0xbd, 0xa4, 0xf3, 0x70, 0x3d, 0x88, 0x24, 0xef, 0xbe,
  0xfd, 0x27, 0x86, 0x3e, 0xbe, 0x7d, 0x76, 0xbe, 0x48, 0x56, 0x2b, 0x3e,
  0xc3, 0xfd, 0xdb, 0x3d, 0xa0, 0x05, 0x98, 0x3e, 0xa5, 0x86, 0x6a, 0x3b,
  0xa2, 0xbf, 0xa5, 0xbe, 0x69, 0xb0, 0x0e, 0xbe, 0x0c, 0xa3, 0x31, 0x3e,
  0x1a, 0x49, 0x3e, 0x3e, 0xd0, 0x73, 0x2a, 0xbe, 0xe1, 0x79, 0x41, 0xbe,
  0xdc, 0xeb, 0xbf, 0xbe, 0x0f, 0x4d, 0xaa, 0xbd, 0xbf, 0x62, 0x2b, 0x3d,
  0xa1, 0x5f, 0x13, 0xbf, 0xb4, 0x21, 0xd0, 0x3e, 0x50, 0x74, 0xdc, 0xbd,
  0x10, 0xb1, 0x37, 0x3e, 0xc4, 0xbd, 0xa5, 0x3e, 0x52, 0xf8, 0xa0, 0x3e,
  0x70, 0xa6, 0x11, 0x3e, 0x57, 0x9e, 0xc6, 0xbe, 0xae, 0xfb, 0xf0, 0x3b,
  0x3e, 0x68, 0xab, 0x3e, 0xeb, 0x5d, 0xed, 0x3d, 0x14, 0x66, 0xab, 0x3d,
  0xc9, 0x39, 0x79, 0xbe, 0xa9, 0xa6, 0x8e, 0xbd, 0xf7, 0x19, 0x5e, 0xbe,
  0x4f, 0x90, 0xc5, 0x3d, 0xf9, 0x80, 0x20, 0xbf, 0xb0, 0x5d, 0x1f, 0x3e,
  0xd3, 0x68, 0x2f, 0xbf, 0x37, 0xce, 0x34, 0x3e, 0x0a, 0x86, 0xbb, 0x3e,
  0x34, 0x68, 0x86, 0x3e, 0x71, 0x88, 0xd5, 0x3c, 0x9d, 0x02, 0x0f, 0x3e,
  0x04, 0xe3, 0xa3, 0x3d, 0x86, 0xd0, 0xe0, 0x3e, 0x1c, 0x31, 0x4e, 0x3c,
  0xcb, 0x07, 0x18, 0x3e, 0xa1, 0xda, 0xf9, 0xbd, 0x7d, 0x4d, 0x62, 0x3e,
  0x4c, 0xe0, 0xd3, 0xbd, 0xb8, 0x18, 0xf0, 0xbb, 0x40, 0xad, 0xe5, 0xbe,
  0x34, 0x44, 0x47, 0x3d, 0x23, 0x01, 0x7c, 0xbe, 0x37, 0xcc, 0x13, 0x3d,
  0x8e, 0x5b, 0xb8, 0xbd, 0x00, 0xa6, 0x67, 0xbf, 0x18, 0x34, 0x85, 0xbe,
  0xb2, 0xbb, 0x31, 0x3f, 0x2c, 0x94, 0xcb, 0xbe, 0x17, 0x05, 0x5b, 0xbe,
  0x4a, 0xc5, 0x8a, 0xbf, 0xf3, 0x10, 0x1b, 0x3f, 0xbb, 0x1c, 0x21, 0x3e,
  0x3d, 0x5f, 0x83, 0xbe, 0x7c, 0x6d, 0xc6, 0x3e, 0x55, 0x3f, 0x83, 0x3e,
  0xbc, 0x38, 0xe7, 0x3d, 0xfa, 0xb8, 0x08, 0x3f, 0xd7, 0x07, 0x2a, 0x3e,
  0x63, 0xb4, 0x52, 0xbd, 0x32, 0xce, 0xae, 0x3e, 0x15, 0xce, 0xf3, 0xbd,
  0xbc, 0x17, 0x15, 0xbe, 0x68, 0x96, 0xcc, 0xbe, 0x22, 0x6f, 0x57, 0x3e,
  0x4d, 0xa9, 0xb3, 0x3e, 0xc6, 0x4d, 0x2a, 0xbf, 0xf0, 0x12, 0x2b, 0xbf,
  0xf9, 0x67, 0x4d, 0xbf, 0xf5, 0x0e, 0xa5, 0xbe, 0x17, 0x8a, 0x42, 0x3e,
  0x9d, 0xe6, 0x75, 0x3e, 0x2e, 0xdf, 0xaa, 0x3c, 0x01, 0x0a, 0xe7, 0x3e,
  0x74, 0x86, 0x12, 0x3b, 0x2a, 0x5f, 0x05, 0xbe, 0xd5, 0x69, 0x97, 0x3b,
  0xa6, 0x4a, 0x41, 0xbe, 0xcd, 0xe3, 0xd2, 0xbe, 0x96, 0xea, 0xb5, 0xbe,
  0xb3, 0xc5, 0x39, 0x3e, 0x43, 0x10, 0xc9, 0x3d, 0xd3, 0xc7, 0x23, 0xbe,
  0xc0, 0xa7, 0x60, 0xbf, 0xad, 0x95, 0x8f, 0xbf, 0x6d, 0xd5, 0xbf, 0xbe,
  0xb3, 0x5c, 0x65, 0x3e, 0x79, 0xdd, 0xb7, 0x3e, 0x32, 0xed, 0x3b, 0x3e,
  0xd0, 0xcc, 0xb7, 0x3e, 0x28, 0x2b, 0x44, 0x3e, 0xd1, 0xa2, 0xaf, 0xbd,
  0xc6, 0x07, 0xd2, 0x3e, 0x1d, 0x66, 0x8c, 0x3e, 0x9d, 0x8f, 0x0c, 0xbf,
  0x29, 0x63, 0xfd, 0xbe, 0xc7, 0xb7, 0xa1, 0xbd, 0x37, 0x59, 0x8d, 0x3e,
  0xc9, 0x6d, 0xb9, 0xbe, 0x2f, 0xb7, 0x99, 0xbf, 0x14, 0xfc, 0x33, 0xbf,
  0x11, 0x8c, 0x0c, 0x3d, 0xd0, 0x26, 0x40, 0x3e, 0x6c, 0x40, 0xd2, 0x3e,
  0xf0, 0xde, 0x7f, 0x3e, 0x0a, 0xed, 0xbc, 0x3d, 0x5f, 0xba, 0xf6, 0x3d,
  0xd7, 0xdf, 0x6d, 0xbe, 0xa4, 0x55, 0xa7, 0x3e, 0xc0, 0x9a, 0xe1, 0x3e,
  0x1e, 0xc0, 0x62, 0xbe, 0x40, 0x9f, 0x0b, 0xbe, 0x07, 0xe6, 0x84, 0xbc,
  0xe3, 0x93, 0xaf, 0x3e, 0x73, 0x5a, 0x0f, 0xbe, 0x41, 0x1f, 0x55, 0xbf,
  0x2f, 0xab, 0xca, 0xbe, 0xf3, 0x05, 0x41, 0xbe, 0xe3, 0x26, 0xc7, 0xbc,
  0x3f, 0xbb, 0xd2, 0x3e, 0xab, 0x0b, 0x8c, 0x3d, 0xbb, 0xd9, 0xb2, 0xbd,
  0x1e, 0xf7, 0xbf, 0x3d, 0xc4, 0x3a, 0xcb, 0x3c, 0x46, 0xae, 0x76, 0x3e,
  0x28, 0xd1, 0xaa, 0xbd, 0x9d, 0xf6, 0xe8, 0xbe, 0x6f, 0x90, 0x71, 0xbd,
  0x35, 0x0c, 0x73, 0x3e, 0xd1, 0x70, 0x97, 0x3e, 0x23, 0x36, 0x35, 0xbe,
  0x93, 0x10, 0x4f, 0xbf, 0x22, 0xdc, 0x80, 0xbe, 0x4d, 0xf6, 0x62, 0x3e,
  0xda, 0xc8, 0xd7, 0xbc, 0x00, 0xda, 0x8d, 0x3e, 0xfa, 0x35, 0x1b, 0x3c,
  0x56, 0xa9, 0xf7, 0x3d, 0x31, 0x8a, 0x33, 0xbc, 0x42, 0x95, 0x25, 0x3e,
  0x40, 0x34, 0xb3, 0xbd, 0x98, 0x6c, 0xbc, 0x3b, 0x62, 0x6e, 0x9c, 0x3e,
  0x71, 0x57, 0x97, 0xbe, 0xff, 0xf4, 0xd7, 0x3c, 0x51, 0xa9, 0xa2, 0x3d,
  0x02, 0x4f, 0xb3, 0xbd, 0x94, 0x45, 0x02, 0xbe, 0xeb, 0x47, 0xb3, 0x3d,
  0xb7, 0xdc, 0xf3, 0xbd, 0x53, 0x8f, 0x48, 0xbc, 0x25, 0x2c, 0x8d, 0xbe,
  0xca, 0x49, 0xfa, 0x3d, 0xec, 0x9f, 0xc4, 0x3e, 0x19, 0xf3, 0xec, 0xbd,
  0xe3, 0xea, 0x16, 0xbc, 0xca, 0xfe, 0xaa, 0x3e, 0x4c, 0x82, 0x8a, 0x3c,
  0xb7, 0x5e, 0x61, 0x3e, 0xdb, 0x13, 0xd6, 0x3a, 0xb6, 0x46, 0x05, 0x3e,
  0x5c, 0xb0, 0x13, 0x3e, 0x99, 0x5a, 0x0d, 0x3e, 0x67, 0xac, 0x85, 0x3d,
  0x73, 0x76, 0xd4, 0xbe, 0x25, 0x3a, 0xaf, 0x3e, 0x3e, 0x7f, 0x8a, 0xbe,
  0x1e, 0x52, 0xa3, 0xbe, 0x2e, 0xdb, 0xef, 0x3d, 0x1d, 0xf3, 0x45, 0xbe,
  0x2a, 0xba, 0xcf, 0xbd, 0xab, 0x47, 0xc2, 0xbc, 0xc7, 0x22, 0x63, 0x3b,
  0x59, 0xc4, 0x0d, 0xbe, 0xc1, 0x12, 0xbc, 0xbd, 0xf3, 0x23, 0x01, 0x3d,
  0xd7, 0x44, 0x58, 0x3e, 0x29, 0xa2, 0xe8, 0x3d, 0x9d, 0x9a, 0x67, 0xbe,
  0x59, 0x2a, 0xa4, 0xbe, 0xc0, 0xe8, 0x2c, 0x3e, 0x9d, 0x72, 0x06, 0x3d,
  0x89, 0x57, 0x10, 0xbe, 0x0c, 0x0e, 0xe8, 0xbe, 0x10, 0x99, 0x1b, 0xbe,
  0x08, 0x24, 0xc2, 0x3c, 0xb7, 0x19, 0x96, 0xbe, 0x4f, 0x95, 0x86, 0xbe,
  0x81, 0x1b, 0x23, 0x3e, 0x3a, 0x8a, 0x18, 0xbe, 0x2a, 0x19, 0x87, 0xbe,
  0xf0, 0x4a, 0x28, 0xbe, 0x42, 0x0f, 0x7e, 0xbc, 0x97, 0x01, 0x6f, 0x3e,
  0x9c, 0x2f, 0x59, 0x3e, 0x2e, 0x8a, 0xba, 0xbd, 0x49, 0x52, 0x24, 0xbe,
  0xcb, 0xd1, 0x15, 0xbe, 0x83, 0xf5, 0x47, 0xbe, 0x08, 0xfc, 0x2e, 0xbe,
  0x71, 0x76, 0x92, 0x3e, 0x30, 0x9b, 0x65, 0xbe, 0xd1, 0xd9, 0xb8, 0xbe,
  0x90, 0xe1, 0xae, 0xbe, 0xb9, 0x6a, 0x02, 0xbe, 0xa6, 0xf5, 0x8e, 0x3e,
  0x5e, 0x1a, 0x7b, 0x3e, 0x76, 0xf2, 0x42, 0xbd, 0x8a, 0x70, 0x2c, 0x3e,
  0xbb, 0xb7, 0x5a, 0xbe, 0xe5, 0x22, 0x91, 0xbb, 0x0e, 0x41, 0x13, 0x3d,
  0xc2, 0xc8, 0xd4, 0x3d, 0xdb, 0x35, 0x5b, 0xbe, 0xb8, 0xa4, 0xa6, 0x3d,
  0xee, 0xb5, 0x25, 0x3e, 0x05, 0x4e, 0xd9, 0xbe, 0xee, 0xe6, 0x42, 0x3e,
  0xd2, 0xe1, 0xb5, 0xbe, 0xb6, 0x16, 0x18, 0x3d, 0x1d, 0x8f, 0x7a, 0x3d,
  0x5e, 0x3a, 0x7e, 0x3d, 0x19, 0xe2, 0x07, 0xbe, 0xea, 0xa5, 0x19, 0x3e,
  0xc2, 0x73, 0xed, 0xbd, 0x51, 0x71, 0x22, 0xbf, 0x8f, 0xc5, 0x48, 0x3c,
  0x22, 0x2f, 0x9f, 0xbe, 0x0f, 0xf7, 0x9d, 0x3d, 0x5b, 0xb3, 0x82, 0xbe,
  0x6c, 0xc8, 0x56, 0xbe, 0xbe, 0xa2, 0xba, 0xbe, 0x2a, 0xfa, 0x11, 0x3c,
  0x43, 0x64, 0x17, 0xbe, 0x0f, 0x3b, 0x00, 0xbf, 0xa1, 0x05, 0x30, 0xbe,
  0xaf, 0x37, 0x1f, 0xbe, 0x70, 0x96, 0x89, 0xbd, 0xb5, 0x5d, 0x9e, 0xbe,
  0x8a, 0x47, 0x1e, 0x3e, 0x02, 0x02, 0xdb, 0xbd, 0x41, 0x8a, 0xdc, 0xbc,
  0x92, 0x1a, 0xd3, 0x3c, 0x3e, 0x25, 0xc2, 0x3e, 0x0b, 0x63, 0x39, 0x3d,
  0x6f, 0xc5, 0xbd, 0xbe, 0x99, 0x6b, 0xcb, 0xbe, 0x6c, 0xb4, 0x70, 0xbf,
  0x0c, 0xee, 0xef, 0x3d, 0x63, 0x11, 0xcc, 0xbe, 0x49, 0x0a, 0x37, 0xbf,
  0xa4, 0x07, 0x5a, 0xbe, 0x53, 0xf8, 0xe2, 0x3d, 0xc6, 0x60, 0x22, 0xbd,
  0x1b, 0x21, 0x4e, 0xbe, 0xe2, 0x9e, 0x7c, 0x3e, 0xd2, 0xbd, 0x81, 0xba,
  0xb4, 0xfa, 0x6f, 0xbc, 0xfc, 0x94, 0x22, 0xbd, 0x4f, 0x9d, 0x27, 0x3e,
  0x0b, 0x35, 0x01, 0x3e, 0x58, 0x14, 0x9f, 0x3e, 0x1a, 0x61, 0x35, 0xbe,
  0xc9, 0x24, 0xba, 0x3e, 0x67, 0x8a, 0x66, 0xbe, 0x64, 0xdb, 0x2e, 0xbe,
  0x0e, 0x6f, 0xc7, 0xbc, 0x57, 0xe6, 0x1f, 0xbe, 0xc4, 0x31, 0xa6, 0xbc,
  0xc6, 0x2c, 0x49, 0x3e, 0xcc, 0xfe, 0xdc, 0xbd, 0x10, 0x9f, 0x82, 0x3e,
  0xb4, 0xb0, 0x52, 0xbe, 0xe9, 0x55, 0xac, 0xbe, 0x73, 0x61, 0x3d, 0x3e,
  0x26, 0xee, 0x54, 0x3e, 0xff, 0x7f, 0x6c, 0x3e, 0x57, 0x87, 0x85, 0x3d,
  0xe8, 0xed, 0xca, 0x3e, 0x84, 0x11, 0xb8, 0xbd, 0xf2, 0x82, 0xad, 0x3e,
  0x9a, 0x2b, 0x1d, 0xbe, 0x07, 0x07, 0xa9, 0xbe, 0x84, 0xcd, 0x98, 0xbf,
  0x4e, 0x1b, 0x6d, 0xbe, 0xf2, 0xbe, 0x3b, 0xbe, 0x4f, 0x90, 0x1a, 0xbe,
  0x78, 0x0f, 0x73, 0x3d, 0x39, 0x92, 0x25, 0xbe, 0x54, 0xf6, 0x47, 0xbf,
  0xb8, 0x5c, 0x91, 0x3d, 0x34, 0x36, 0x16, 0xbe, 0x82, 0xea, 0x95, 0x3d,
  0x3e, 0x25, 0x8d, 0xbe, 0x58, 0xf4, 0x86, 0xbd, 0x0e, 0x6c, 0x40, 0xbf,
  0x6e, 0x3e, 0x0f, 0x3e, 0xe0, 0xe1, 0x27, 0x3e, 0x96, 0x56, 0xbd, 0xbb,
  0x0a, 0x0b, 0x94, 0xbf, 0x82, 0xd0, 0x42, 0x3e, 0x93, 0x1c, 0xca, 0xbd,
  0xaf, 0x53, 0x8e, 0xbe, 0x24, 0xfe, 0x8c, 0x3d, 0xae, 0xbd, 0x71, 0xbd,
  0x7b, 0x0c, 0x24, 0xbf, 0xcc, 0xb3, 0xa2, 0xbe, 0xe5, 0x12, 0xef, 0xbc,
  0x6f, 0xbd, 0x86, 0x3c, 0xa5, 0xc7, 0xc4, 0x3e, 0xbb, 0x21, 0xc8, 0x3d,
  0x01, 0x51, 0x04, 0xbf, 0x30, 0x3c, 0x3c, 0x3e, 0x48, 0xf4, 0xab, 0x3d,
  0x33, 0x00, 0xe1, 0xbe, 0x2e, 0xa1, 0x95, 0xbf, 0x9c, 0xd8, 0x4c, 0x3e,
  0xc5, 0xa7, 0x23, 0xbd, 0x9f, 0xa5, 0x0e, 0x3d, 0xcc, 0xba, 0x19, 0xbe,
  0xa4, 0x95, 0xc2, 0x3e, 0x6d, 0x90, 0x9a, 0xbe, 0x2b, 0x43, 0x38, 0xbf,
  0x27, 0xfd, 0x84, 0x3e, 0x68, 0xde, 0x83, 0x3e, 0x61, 0xc4, 0x59, 0x3c,
  0x2b, 0xfb, 0x1c, 0x3e, 0x6f, 0x73, 0xf9, 0xbd, 0x3c, 0x7b, 0x02, 0xbe,
  0x2e, 0x42, 0x76, 0x3e, 0x49, 0x80, 0xa5, 0x3e, 0x3e, 0xc6, 0x24, 0xbe,
  0xcc, 0xa5, 0x9d, 0x3e, 0xea, 0x2a, 0x77, 0x3d, 0x76, 0x9d, 0x1b, 0x3e,
  0x9f, 0x7f, 0x6a, 0x3d, 0x18, 0x32, 0x11, 0x3e, 0x54, 0xc7, 0x8a, 0xbe,
  0xe0, 0x5f, 0x2c, 0xbe, 0x0d, 0x70, 0x10, 0x3d, 0xbf, 0xfb, 0x44, 0xbd,
  0x41, 0x67, 0x22, 0x3e, 0x18, 0x11, 0xaf, 0x3d, 0x56, 0xcb, 0x35, 0xbd,
  0x38, 0x7c, 0xb6, 0xbd, 0x2b, 0x62, 0x13, 0x3e, 0x30, 0xfa, 0x8c, 0x3e,
  0x44, 0x0c, 0xec, 0xbd, 0xbe, 0xf0, 0x24, 0x3e, 0x61, 0x1f, 0x36, 0xbe,
  0xa1, 0xd7, 0x22, 0xbc, 0x28, 0xcb, 0x12, 0x3e, 0xad, 0x65, 0x7e, 0x3b,
  0xee, 0x07, 0xdc, 0xbd, 0x5b, 0xc3, 0x06, 0xbc, 0x8c, 0x41, 0x88, 0x3e,
  0x5b, 0xc9, 0xcc, 0xbe, 0x4a, 0x9d, 0x35, 0xbe, 0x7b, 0xa0, 0xf5, 0xbd,
  0x9d, 0xb6, 0x74, 0x3d, 0x6c, 0x4f, 0x10, 0x3f, 0x80, 0xd0, 0x33, 0x3d,
  0x02, 0xac, 0xfd, 0xbc, 0xe9, 0x98, 0x24, 0xbf, 0xa7, 0x3b, 0xd2, 0x3d,
  0xfe, 0x51, 0x51, 0xbe, 0x6d, 0xcb, 0xd2, 0x3e, 0x39, 0x5a, 0xad, 0xbd,
  0xb8, 0xfb, 0x67, 0x3d, 0xd6, 0x06, 0x49, 0x3e, 0x29, 0x2f, 0x79, 0x3e,
  0x71, 0x4e, 0x04, 0xbe, 0x52, 0xe5, 0xd1, 0x3c, 0xdf, 0x53, 0xc4, 0x3e,
  0x7a, 0x58, 0xbd, 0x3d, 0x4d, 0x8f, 0x9c, 0xbe, 0x20, 0xe3, 0x0b, 0x3f,
  0x81, 0x40, 0xa3, 0xbe, 0xfa, 0x13, 0x91, 0x3d, 0xfa, 0xc1, 0x1b, 0xbf,
  0xcc, 0x61, 0xa5, 0x3d, 0xac, 0x35, 0x1e, 0x3e, 0x42, 0x2b, 0xc1, 0x3d,
  0x69, 0xf1, 0x1e, 0x3e, 0x39, 0x3f, 0x5b, 0xbd, 0xd8, 0x8d, 0x92, 0xbe,
  0xa8, 0x38, 0xa6, 0x3d, 0xd4, 0x4b, 0x1a, 0x3e, 0x35, 0xad, 0x79, 0xbe,
  0xf5, 0x54, 0x74, 0xbd, 0x0a, 0xd9, 0x18, 0xbe, 0x4f, 0x91, 0xce, 0xbe,
  0x07, 0x6c, 0x48, 0x3f, 0xad, 0x07, 0x52, 0x3e, 0x7c, 0xb9, 0x1e, 0x3f,
  0x81, 0x25, 0xe5, 0xbe, 0xba, 0xe7, 0x56, 0x3e, 0x79, 0xe0, 0x83, 0xbe,
  0x55, 0x87, 0xa0, 0xbe, 0xaf, 0xdd, 0x8f, 0x3b, 0xfe, 0xe0, 0xd7, 0xbd,
  0x95, 0x70, 0x04, 0x3e, 0xa4, 0x7c, 0x10, 0xbf, 0x85, 0x31, 0x76, 0x3e,
  0xb0, 0x35, 0xf6, 0x3c, 0x48, 0xea, 0xf5, 0x3d, 0x8d, 0xec, 0xee, 0x3e,
  0x82, 0x97, 0x2d, 0xbf, 0xef, 0xf5, 0xb8, 0x3e, 0x69, 0xcd, 0x98, 0xbe,
  0x5c, 0x73, 0xb9, 0xbb, 0x4e, 0x78, 0x7f, 0xbf, 0xe1, 0x93, 0x8a, 0x3d,
  0xbc, 0x13, 0x07, 0xbe, 0x88, 0x8b, 0xd8, 0x3d, 0xe0, 0x02, 0x92, 0xbd,
  0x34, 0x7f, 0x6e, 0xbe, 0xf8, 0xf7, 0xca, 0xbd, 0xe3, 0x1c, 0x64, 0xbe,
  0x23, 0x57, 0x95, 0x3d, 0xf1, 0x9e, 0x12, 0xbb, 0x43, 0xba, 0x95, 0xbe,
  0x73, 0x0d, 0x99, 0xbe, 0xd0, 0x44, 0x8a, 0xbf, 0x85, 0xc0, 0xd6, 0x3d,
  0xae, 0xbd, 0x1b, 0xbe, 0x86, 0x50, 0x10, 0x3e, 0xc4, 0x72, 0xad, 0xbe,
  0xe3, 0x82, 0x0b, 0xbe, 0xa0, 0x12, 0x6f, 0x3e, 0xd9, 0xd0, 0xce, 0xbe,
  0x0f, 0xff, 0x8e, 0x3e, 0x1d, 0xa5, 0xc9, 0x3d, 0xcd, 0x15, 0x70, 0xbc,
  0x0f, 0xec, 0x35, 0xbf, 0x09, 0x80, 0xa1, 0xbe, 0xff, 0x76, 0x06, 0xbf,
  0x01, 0x18, 0x1b, 0xbe, 0xd9, 0x83, 0x19, 0xbd, 0x16, 0x60, 0x5b, 0xbf,
  0x56, 0x32, 0x94, 0xbe, 0x98, 0xad, 0x49, 0x3d, 0x8c, 0x0c, 0x61, 0x3d,
  0x2e, 0x1b, 0x7a, 0xbe, 0xa0, 0x67, 0x01, 0xbe, 0xdc, 0xb4, 0x50, 0x3e,
  0x35, 0x76, 0xef, 0xbe, 0xed, 0x7f, 0x62, 0x3e, 0xea, 0x44, 0x03, 0xbf,
  0xf5, 0x09, 0x92, 0xbe, 0x65, 0xe2, 0x2e, 0xbe, 0x96, 0x16, 0x81, 0xbe,
  0xa8, 0x41, 0x4e, 0xbf, 0xd1, 0x6e, 0x0d, 0x3e, 0xa1, 0xbe, 0xaf, 0xbf,
  0x24, 0x6a, 0x8f, 0xbf, 0x57, 0x26, 0x0d, 0xbc, 0xb2, 0xb0, 0x8e, 0x3e,
  0x34, 0x54, 0xa1, 0x3c, 0x30, 0x4b, 0x91, 0xbf, 0xc2, 0x52, 0x0c, 0xbf,
  0x66, 0x33, 0x0f, 0xbe, 0xad, 0x69, 0x01, 0xbf, 0xdd, 0x44, 0x03, 0xbc,
  0x40, 0x64, 0xa7, 0xbe, 0x4b, 0xc9, 0xc2, 0x3d, 0x2d, 0x2e, 0xb9, 0xbe,
  0x7b, 0xef, 0x3e, 0x3d, 0xf1, 0x38, 0x1c, 0x3d, 0xae, 0x19, 0x27, 0xbe,
  0xed, 0x51, 0x0b, 0xbe, 0xfb, 0xfb, 0xd7, 0xbe, 0x26, 0x97, 0xd5, 0xbd,
  0x01, 0x84, 0xbb, 0xbd, 0x9b, 0x52, 0x7c, 0xbd, 0x12, 0x44, 0x7f, 0xbf,
  0x08, 0x81, 0x58, 0xbe, 0x0f, 0x12, 0x1c, 0xbe, 0x76, 0xf2, 0x1f, 0xbf,
  0x1a, 0x92, 0x34, 0x3c, 0xc8, 0x29, 0xb4, 0xbe, 0x9e, 0x1b, 0xeb, 0x3e,
  0xa5, 0xbb, 0xfe, 0xbd, 0x30, 0xe9, 0x02, 0xbe, 0x28, 0x8b, 0xd1, 0xbd,
  0x46, 0xd6, 0xe9, 0x3e, 0x5d, 0xb2, 0x47, 0xbe, 0xe7, 0x97, 0x4b, 0xbf,
  0xda, 0x7f, 0x13, 0x3f, 0xff, 0x83, 0xb9, 0x3c, 0xf0, 0x24, 0x93, 0x3e,
  0x99, 0x19, 0xaa, 0xbe, 0x99, 0x05, 0x05, 0xbd, 0x82, 0x74, 0x87, 0x3e,
  0xd1, 0xb6, 0x89, 0xbf, 0x17, 0x46, 0x0e, 0x3e, 0xde, 0xdb, 0x0e, 0xbf,
  0xe7, 0x35, 0xdb, 0x3e, 0x0a, 0x4c, 0xd3, 0x3d, 0x70, 0x8e, 0xd9, 0xbe,
  0xfd, 0xac, 0xb4, 0x3d, 0x8a, 0xac, 0x4b, 0x3e, 0xf3, 0xac, 0xb3, 0x3e,
  0x6f, 0xcf, 0xfe, 0xbe, 0xf0, 0xda, 0x00, 0x3f, 0xfc, 0xa1, 0xf8, 0xbe,
  0xbc, 0x06, 0xed, 0x3e, 0xe0, 0xaa, 0x31, 0xbd, 0x98, 0x45, 0x08, 0xbe,
  0x91, 0x18, 0x23, 0xbe, 0x4f, 0xcf, 0x92, 0xbe, 0xc8, 0xfc, 0xd5, 0x3e,
  0xf2, 0xbe, 0x15, 0xbf, 0x29, 0x92, 0x45, 0xbe, 0xab, 0x06, 0x72, 0x3e,
  0xc7, 0xad, 0xd2, 0x3e, 0x58, 0xd5, 0x23, 0x3d, 0xd9, 0xcb, 0x10, 0x3f,
  0x13, 0xa2, 0xf8, 0x3e, 0x21, 0x5a, 0x87, 0xbe, 0xe0, 0x7b, 0x31, 0xbf,
  0x8d, 0x2b, 0x9a, 0xbe, 0x6e, 0x90, 0xfb, 0x3d, 0x3f, 0x94, 0xe5, 0xbe,
  0xa5, 0x90, 0x9d, 0x3e, 0xb6, 0x5b, 0xa4, 0x3d, 0x3b, 0x19, 0x19, 0x3e,
  0x2b, 0xef, 0x80, 0x3e, 0x9d, 0x7b, 0xe9, 0xbe, 0xe1, 0x05, 0xe2, 0x3e,
  0x66, 0x43, 0x5b, 0xbe, 0x43, 0x03, 0xa6, 0x3d, 0x30, 0x2a, 0xe3, 0x3c,
  0x5f, 0x4b, 0x67, 0x3b, 0xb6, 0xe3, 0x86, 0xbe, 0xbf, 0x5c, 0x43, 0x3e,
  0x25, 0x4c, 0xbb, 0x3e, 0x6a, 0x22, 0x3e, 0x3e, 0x21, 0xc7, 0x72, 0x3d,
  0x9d, 0x1b, 0x4c, 0xbf, 0x24, 0xb3, 0x5d, 0x3e, 0xab, 0x8f, 0x09, 0x3e,
  0xc8, 0x0b, 0x03, 0xbf, 0x1e, 0xe4, 0xe1, 0xbd, 0x2f, 0x3b, 0x66, 0xbe,
  0xb1, 0xf1, 0xcb, 0x3e, 0xc2, 0xa6, 0x93, 0xbf, 0x97, 0xc3, 0x44, 0xbd,
  0x2f, 0x9c, 0xd6, 0xbe, 0x51, 0x6a, 0x52, 0xbe, 0xe9, 0x7a, 0xbc, 0xbe,
  0x91, 0xbd, 0x1c, 0xbe, 0x17, 0x0c, 0x81, 0x3e, 0xd3, 0x36, 0x8c, 0xbd,
  0x30, 0xe5, 0xd0, 0xbe, 0x07, 0xdb, 0x23, 0xbf, 0x15, 0x89, 0xb4, 0x3e,
  0xd0, 0x93, 0xa9, 0xbe, 0x1c, 0x17, 0x91, 0xbe, 0xa9, 0xdb, 0x9a, 0x3d,
  0x37, 0x7d, 0x45, 0xbe, 0x51, 0xee, 0xdc, 0xbd, 0x36, 0xb0, 0x82, 0xbf,
  0xc9, 0x86, 0xd2, 0xbc, 0xa3, 0x1d, 0xa4, 0xbe, 0x3a, 0x97, 0x51, 0xbc,
  0xcd, 0x39, 0x8b, 0x3d, 0xb3, 0x8d, 0x6c, 0xbe, 0x7c, 0xa5, 0x18, 0x3d,
  0x8a, 0x91, 0xae, 0x3c, 0x15, 0x74, 0x96, 0xbd, 0x65, 0x94, 0xf7, 0x3b,
  0xd1, 0xd1, 0x50, 0x3e, 0x32, 0x42, 0x6d, 0x3e, 0x13, 0xf8, 0x2a, 0x3e,
  0xf3, 0xae, 0xc8, 0x3d, 0x4c, 0x98, 0x66, 0x3b, 0xf0, 0x44, 0xf5, 0x3d,
  0x93, 0x6d, 0x08, 0xbd, 0x07, 0xd0, 0x47, 0x3e, 0x2c, 0x44, 0x19, 0xbf,
  0xf3, 0x92, 0xdd, 0xbd, 0x0f, 0x76, 0x28, 0xbd, 0xa7, 0x7a, 0xc2, 0xbe,
  0x7e, 0xdb, 0xf0, 0x3e, 0x0a, 0x72, 0x44, 0xbe, 0x76, 0x51, 0x9b, 0x3e,
  0x1e, 0x0f, 0x52, 0xbf, 0xa6, 0xd6, 0x42, 0x3e, 0x97, 0xea, 0xc2, 0x3d,
  0x61, 0x9a, 0x2a, 0xbf, 0x0c, 0x56, 0x36, 0xbe, 0x26, 0x77, 0xb1, 0xbc,
  0x97, 0xb1, 0xb7, 0xbd, 0xcf, 0xaa, 0x79, 0xbe, 0xd6, 0xe0, 0x9f, 0x3c,
  0xad, 0x2c, 0x23, 0xbf, 0x07, 0x5a, 0x9e, 0x3e, 0xe3, 0xa6, 0x9a, 0x3d,
  0x01, 0x6b, 0x28, 0x3e, 0x5c, 0xd1, 0x35, 0x3e, 0x68, 0xd8, 0x95, 0x3e,
  0x8b, 0x04, 0xbf, 0x3a, 0xa9, 0xa9, 0x88, 0xbf, 0xa1, 0xf3, 0x4c, 0x3e,
  0x6f, 0x99, 0xa9, 0x3d, 0xe6, 0xeb, 0x97, 0xba, 0x68, 0xce, 0x00, 0x3e,
  0x3c, 0x25, 0x85, 0x3d, 0x35, 0xa6, 0x87, 0x3d, 0x98, 0xd0, 0xb9, 0x3e,
  0xc1, 0x62, 0x07, 0xbd, 0xa9, 0x9c, 0x01, 0xbe, 0xf1, 0xa3, 0x41, 0x3e,
  0x1c, 0xd8, 0xfc, 0x3d, 0xa4, 0x39, 0xe6, 0xbd, 0x74, 0xd5, 0x18, 0x3e,
  0x8f, 0x02, 0xc5, 0xbc, 0x52, 0x79, 0x9c, 0x3d, 0x3e, 0xe0, 0x93, 0xbe,
  0x7a, 0x7a, 0x45, 0x3e, 0xc9, 0x3d, 0xc3, 0xbe, 0x59, 0x78, 0x1b, 0x3e,
  0x84, 0x7d, 0x2f, 0x3e, 0xf1, 0xee, 0x99, 0x3d, 0x40, 0x81, 0x79, 0xbe,
  0xe2, 0x58, 0x8a, 0xbe, 0xf6, 0xaf, 0x56, 0xbe, 0xec, 0xa5, 0x83, 0xbe,
  0x68, 0xd8, 0x82, 0x3e, 0x18, 0xde, 0x4a, 0x3e, 0x80, 0x62, 0x66, 0x3e,
  0x2e, 0xeb, 0x7c, 0x3e, 0xaf, 0x4c, 0x49, 0xbe, 0xe9, 0x0f, 0x41, 0xbe,
  0x81, 0x39, 0x60, 0xbf, 0x25, 0x1d, 0x03, 0x3e, 0x1f, 0x50, 0x56, 0xbe,
  0xf2, 0xa1, 0x95, 0x3e, 0x98, 0x6c, 0x44, 0x3e, 0x1b, 0xc4, 0xc5, 0x3d,
  0xa4, 0x8d, 0xd7, 0xbe, 0xec, 0x6e, 0x0f, 0x3e, 0xf4, 0xd0, 0x66, 0xbe,
  0xf0, 0x67, 0xcb, 0xbe, 0xe9, 0x54, 0x92, 0xbc, 0x7a, 0x3a, 0x30, 0x3c,
  0x98, 0xdd, 0x0e, 0xbf, 0x46, 0xa7, 0xd2, 0x3c, 0xb5, 0xbd, 0x9e, 0xbe,
  0xae, 0x19, 0xb3, 0xbe, 0x81, 0x67, 0xed, 0xbd, 0x74, 0x40, 0xd3, 0xbc,
  0x01, 0xd7, 0x19, 0x3e, 0x32, 0x9d, 0x62, 0x3c, 0xf9, 0x08, 0x2a, 0x3e,
  0x67, 0x99, 0xf2, 0x3d, 0x84, 0xb0, 0x49, 0xbf, 0x68, 0xb2, 0xb8, 0x3e,
  0x34, 0x73, 0xfd, 0xbd, 0x1c, 0xa5, 0xfb, 0x3d, 0x1c, 0xfd, 0x14, 0x3e,
  0x7c, 0x01, 0x97, 0x3e, 0xb7, 0xf0, 0xb0, 0xbe, 0x7a, 0xa1, 0xa7, 0x3c,
  0x2a, 0xe6, 0x09, 0xbe, 0x94, 0x41, 0x54, 0xbe, 0xff, 0x8c, 0x28, 0xbe,
  0xc6, 0x25, 0xb1, 0xbd, 0xd6, 0x57, 0x74, 0xbe, 0xc1, 0xc4, 0xb0, 0x3d,
  0x67, 0xf9, 0x8f, 0x3e, 0x70, 0x65, 0x07, 0x3e, 0x53, 0x2f, 0x33, 0xbf,
  0x6b, 0x42, 0x70, 0xbe, 0x59, 0x76, 0x43, 0x3e, 0x6c, 0x6a, 0xb8, 0x3e,
  0x00, 0xc2, 0xd8, 0xbe, 0x97, 0xf6, 0x9e, 0x3e, 0xb6, 0x76, 0xc0, 0xbe,
  0xf0, 0x8b, 0x06, 0x3e, 0xe0, 0x57, 0x9c, 0xbd, 0x7d, 0x30, 0x31, 0x3c,
  0xe9, 0x80, 0x77, 0xbf, 0xba, 0x05, 0x0e, 0xbd, 0xbe, 0x7b, 0x15, 0xbe,
  0x84, 0x68, 0xce, 0xbb, 0x33, 0x9c, 0xb1, 0xbc, 0xbd, 0x02, 0x4a, 0x3d,
  0x1e, 0x54, 0xd5, 0xbd, 0x08, 0x1c, 0xaa, 0xbe, 0x8f, 0x13, 0xe8, 0xbd,
  0x0d, 0x3c, 0x49, 0x3e, 0xf3, 0xe8, 0x34, 0x3e, 0x85, 0xfd, 0xa3, 0x3c,
  0xb7, 0x09, 0x71, 0xbe, 0x73, 0x78, 0xa2, 0x3d, 0x14, 0x14, 0x13, 0xbe,
  0xf1, 0x8d, 0x38, 0xbe, 0x0f, 0xb7, 0x15, 0xbf, 0xdf, 0x07, 0xe8, 0xbd,
  0x17, 0x07, 0x09, 0x3c, 0x4e, 0x58, 0x19, 0xbd, 0x1a, 0xcd, 0xe0, 0xbd,
  0x0d, 0x04, 0x28, 0x3d, 0x5b, 0xbb, 0x1d, 0xbf, 0x88, 0xf4, 0xa5, 0xbe,
  0x3a, 0x03, 0x27, 0xbd, 0xce, 0x96, 0x2b, 0x3d, 0x6d, 0xd5, 0x64, 0x3d,
  0x2c, 0x73, 0x92, 0x3d, 0xc2, 0xb3, 0x2b, 0xbe, 0x8b, 0x9f, 0x73, 0x3e,
  0x84, 0x76, 0xa8, 0xbc, 0x61, 0x23, 0xe6, 0xbc, 0xa5, 0x0c, 0x59, 0xbc,
  0x29, 0x8f, 0xdc, 0x3d, 0x3d, 0xe6, 0x2a, 0x3e, 0x85, 0x97, 0x92, 0x3e,
  0x46, 0x47, 0xd8, 0x3d, 0xc6, 0x00, 0x63, 0x3e, 0x16, 0x0a, 0x8d, 0x3d,
  0x9e, 0x4e, 0x47, 0xbf, 0x83, 0x35, 0xf5, 0x3c, 0x90, 0xc0, 0x60, 0x3e,
  0xf0, 0x93, 0xdb, 0x3c, 0xd1, 0x59, 0x78, 0xbd, 0x9d, 0xd0, 0x20, 0xbe,
  0x02, 0x26, 0xbf, 0xbe, 0x66, 0x0f, 0x14, 0x3d, 0x4f, 0x83, 0xd6, 0xbe,
  0xf2, 0x55, 0xae, 0x3c, 0x3c, 0xd0, 0xaf, 0x3e, 0x3f, 0xef, 0x8f, 0x3e,
  0xb5, 0xa2, 0xf0, 0x3e, 0x54, 0x4c, 0xe6, 0x3d, 0xb5, 0xec, 0x30, 0xbe,
  0xf2, 0x9c, 0x15, 0xbf, 0xbe, 0xda, 0xa3, 0xbd, 0xe9, 0xfa, 0x5c, 0x3e,
  0xed, 0xb8, 0x98, 0x3c, 0xcf, 0xe4, 0x55, 0xbf, 0x09, 0x3b, 0x23, 0xbe,
